[PAD]	0
[EOS]	0
[UNK]	0
[SOS]	0
[MASK]	0
▁t	-0
he	-1
▁a	-2
▁the	-3
in	-4
▁o	-5
re	-6
on	-7
er	-8
▁s	-9
at	-10
nd	-11
▁of	-12
▁w	-13
▁p	-14
en	-15
or	-16
is	-17
▁c	-18
▁f	-19
▁b	-20
▁to	-21
it	-22
es	-23
ed	-24
ou	-25
al	-26
▁m	-27
ion	-28
ing	-29
an	-30
▁and	-31
▁in	-32
▁d	-33
il	-34
▁h	-35
ar	-36
ro	-37
ct	-38
le	-39
ent	-40
ic	-41
▁T	-42
▁be	-43
▁th	-44
as	-45
▁n	-46
ve	-47
▁re	-48
▁l	-49
▁e	-50
om	-51
ation	-52
▁S	-53
▁y	-54
▁I	-55
ut	-56
se	-57
ot	-58
▁for	-59
st	-60
id	-61
▁you	-62
▁g	-63
▁A	-64
▁The	-65
im	-66
ill	-67
ment	-68
ad	-69
ur	-70
▁or	-71
am	-72
▁C	-73
▁is	-74
ay	-75
ce	-76
..	-77
▁pro	-78
▁sh	-79
ri	-80
ow	-81
all	-82
ll	-83
▁an	-84
et	-85
▁u	-86
ers	-87
ch	-88
ith	-89
ir	-90
▁on	-91
▁will	-92
od	-93
her	-94
ver	-95
▁wh	-96
▁(	-97
▁con	-98
▁that	-99
▁with	-100
▁M	-101
ol	-102
▁as	-103
ist	-104
▁P	-105
op	-106
ect	-107
▁su	-108
▁he	-109
▁shall	-110
▁not	-111
and	-112
▁de	-113
▁by	-114
ain	-115
ate	-116
▁G	-117
gh	-118
▁N	-119
if	-120
nt	-121
ul	-122
▁B	-123
▁com	-124
rom	-125
ess	-126
ave	-127
ak	-128
ant	-129
▁st	-130
▁D	-131
▁from	-132
el	-133
▁it	-134
▁R	-135
iv	-136
red	-137
em	-138
ab	-139
▁"	-140
▁E	-141
▁J	-142
pp	-143
▁H	-144
▁L	-145
▁k	-146
ge	-147
ah	-148
th	-149
ity	-150
est	-151
ord	-152
ec	-153
ra	-154
▁are	-155
ep	-156
res	-157
ction	-158
▁this	-159
▁ex	-160
▁Y	-161
ly	-162
ru	-163
ac	-164
▁me	-165
ive	-166
....	-167
▁per	-168
us	-169
▁F	-170
ther	-171
ies	-172
ter	-173
▁all	-174
qu	-175
▁W	-176
ub	-177
ame	-178
▁his	-179
ld	-180
su	-181
▁1	-182
▁any	-183
▁we	-184
▁who	-185
▁v	-186
rou	-187
te	-188
ice	-189
▁have	-190
▁your	-191
oc	-192
▁le	-193
▁has	-194
ore	-195
ort	-196
▁sa	-197
os	-198
▁was	-199
ig	-200
ry	-201
▁ch	-202
▁se	-203
▁them	-204
▁O	-205
▁pe	-206
pt	-207
▁him	-208
ght	-209
▁off	-210
ust	-211
ount	-212
ud	-213
un	-214
ard	-215
erv	-216
▁pl	-217
▁at	-218
ople	-219
ail	-220
▁sp	-221
we	-222
ade	-223
mit	-224
our	-225
▁al	-226
ew	-227
▁2	-228
▁people	-229
vel	-230
▁out	-231
ase	-232
ial	-233
▁such	-234
pl	-235
▁K	-236
vid	-237
▁man	-238
ans	-239
▁app	-240
▁pur	-241
erson	-242
iz	-243
art	-244
▁In	-245
▁im	-246
ake	-247
lic	-248
▁their	-249
ary	-250
▁do	-251
▁they	-252
▁r	-253
▁said	-254
um	-255
▁go	-256
epal	-257
▁Th	-258
ould	-259
ear	-260
▁Nepal	-261
ings	-262
rib	-263
ure	-264
▁(1	-265
ile	-266
▁fo	-267
able	-268
ject	-269
▁wor	-270
au	-271
ance	-272
▁may	-273
age	-274
▁us	-275
▁He	-276
▁am	-277
du	-278
nder	-279
cc	-280
▁God	-281
▁made	-282
▁other	-283
ag	-284
ose	-285
▁te	-286
▁one	-287
▁been	-288
▁You	-289
ok	-290
▁whe	-291
▁cont	-292
ff	-293
▁tr	-294
ated	-295
▁U	-296
▁ad	-297
."	-298
00	-299
one	-300
ition	-301
▁person	-302
ous	-303
ven	-304
▁Ch	-305
over	-306
▁(1)	-307
▁Sub	-308
▁pursu	-309
gr	-310
▁li	-311
▁my	-312
▁Act	-313
▁serv	-314
▁pursuant	-315
port	-316
ich	-317
per	-318
pe	-319
ong	-320
▁Is	-321
▁up	-322
ern	-323
▁under	-324
ind	-325
▁inc	-326
▁res	-327
velop	-328
▁Lord	-329
ild	-330
weh	-331
▁Yah	-332
▁sub	-333
▁there	-334
▁Yahweh	-335
ace	-336
ime	-337
ine	-338
old	-339
▁acc	-340
▁had	-341
▁were	-342
▁which	-343
orm	-344
▁lo	-345
lect	-346
out	-347
▁They	-348
▁comp	-349
▁land	-350
▁work	-351
ue	-352
▁If	-353
llow	-354
very	-355
▁dis	-356
▁comm	-357
ays	-358
▁can	-359
nment	-360
ap	-361
ause	-362
........	-363
▁ag	-364
ast	-365
ire	-366
ren	-367
▁To	-368
▁ab	-369
▁Com	-370
▁en	-371
ities	-372
▁ob	-373
ions	-374
▁follow	-375
ber	-376
ome	-377
ense	-378
▁int	-379
ons	-380
▁pri	-381
ection	-382
ish	-383
ost	-384
▁but	-385
▁reg	-386
▁pres	-387
ise	-388
ted	-389
▁ar	-390
form	-391
▁make	-392
li	-393
ack	-394
▁pr	-395
▁This	-396
▁provid	-397
ied	-398
ign	-399
ult	-400
rael	-401
sion	-402
▁pre	-403
ating	-404
▁Israel	-405
velopment	-406
▁time	-407
▁what	-408
ations	-409
nc	-410
▁em	-411
tain	-412
aw	-413
ke	-414
ence	-415
ib	-416
so	-417
der	-418
hed	-419
ple	-420
▁It	-421
▁so	-422
ution	-423
ank	-424
ath	-425
ide	-426
uth	-427
▁rel	-428
▁inst	-429
▁Gover	-430
ach	-431
▁cl	-432
▁if	-433
ange	-434
▁into	-435
▁year	-436
▁Government	-437
▁-	-438
▁Re	-439
▁bec	-440
▁ent	-441
mitte	-442
lication	-443
iod	-444
ight	-445
▁But	-446
inist	-447
▁king	-448
icense	-449
▁these	-450
ip	-451
oy	-452
▁Whe	-453
▁inv	-454
▁also	-455
▁j	-456
are	-457
mis	-458
urn	-459
▁20	-460
ater	-461
▁conc	-462
▁must	-463
▁spec	-464
mittee	-465
▁(2	-466
▁ev	-467
▁ha	-468
▁ne	-469
ctor	-470
ices	-471
rough	-472
▁rece	-473
▁requ	-474
▁period	-475
gy	-476
wn	-477
oin	-478
ree	-479
ved	-480
▁fe	-481
ific	-482
▁ind	-483
ational	-484
end	-485
crib	-486
▁add	-487
ority	-488
▁file	-489
▁through	-490
▁De	-491
fore	-492
gram	-493
ments	-494
ey	-495
air	-496
ass	-497
now	-498
pen	-499
pect	-500
▁rec	-501
▁Then	-502
▁like	-503
▁child	-504
▁concern	-505
ph	-506
▁'	-507
ark	-508
rict	-509
▁cur	-510
▁nec	-511
▁come	-512
▁order	-513
▁program	-514
ty	-515
▁19	-516
ploy	-517
rule	-518
▁For	-519
▁did	-520
▁its	-521
▁case	-522
▁over	-523
▁again	-524
▁should	-525
▁things	-526
▁license	-527
anc	-528
vis	-529
▁Pl	-530
▁af	-531
ical	-532
▁Pro	-533
▁giv	-534
▁rem	-535
▁dist	-536
▁good	-537
▁hand	-538
▁const	-539
▁every	-540
▁application	-541
ob	-542
vi	-543
xt	-544
▁tw	-545
▁set	-546
cribed	-547
▁employ	-548
fer	-549
ove	-550
▁gr	-551
▁qu	-552
▁un	-553
oard	-554
▁form	-555
essary	-556
▁count	-557
▁Section	-558
▁concerned	-559
▁development	-560
abl	-561
▁So	-562
▁Un	-563
▁bl	-564
ites	-565
read	-566
rent	-567
▁(2)	-568
▁Jes	-569
▁fir	-570
▁men	-571
▁son	-572
round	-573
▁know	-574
ctions	-575
▁where	-576
▁amount	-577
▁following	-578
ix	-579
ink	-580
cent	-581
ived	-582
ouse	-583
reat	-584
ules	-585
▁des	-586
ished	-587
▁fore	-588
▁issu	-589
▁name	-590
▁when	-591
▁incre	-592
▁means	-593
▁place	-594
mission	-595
▁prescribed	-596
ax	-597
ie	-598
che	-599
get	-600
iah	-601
ite	-602
ock	-603
▁Am	-604
▁no	-605
ness	-606
ower	-607
vail	-608
▁bro	-609
▁fin	-610
ather	-611
▁cent	-612
▁those	-613
▁within	-614
uthority	-615
▁necessary	-616
ft	-617
alu	-618
sel	-619
ounc	-620
▁bas	-621
▁col	-622
▁dec	-623
▁est	-624
▁own	-625
▁pub	-626
▁say	-627
▁used	-628
▁Jesus	-629
▁about	-630
▁produ	-631
▁command	-632
▁service	-633
▁children	-634
▁3	-635
not	-636
ret	-637
und	-638
▁Sh	-639
ired	-640
ound	-641
ress	-642
▁new	-643
▁wom	-644
ering	-645
ified	-646
▁came	-647
▁after	-648
▁trans	-649
section	-650
▁project	-651
ee	-652
ne	-653
▁5	-654
ale	-655
iel	-656
por	-657
▁Ex	-658
▁ri	-659
▁act	-660
▁car	-661
uring	-662
▁cons	-663
▁dire	-664
▁mess	-665
▁more	-666
▁open	-667
ouncil	-668
ization	-669
▁percent	-670
ces	-671
ens	-672
erm	-673
▁bu	-674
ally	-675
ting	-676
▁ass	-677
ility	-678
▁days	-679
▁proc	-680
▁prop	-681
▁There	-682
▁because	-683
ts	-684
▁4	-685
act	-686
chn	-687
ody	-688
orn	-689
▁As	-690
▁Le	-691
▁ca	-692
▁ve	-693
ural	-694
ving	-695
▁def	-696
▁fun	-697
▁mak	-698
▁now	-699
▁she	-700
▁sin	-701
ember	-702
eting	-703
other	-704
▁Plan	-705
▁part	-706
▁than	-707
▁being	-708
▁first	-709
▁house	-710
▁offic	-711
▁Minist	-712
▁V	-713
als	-714
edu	-715
▁br	-716
alth	-717
ered	-718
▁Jud	-719
▁ear	-720
▁pos	-721
▁see	-722
▁lead	-723
▁take	-724
ention	-725
ferred	-726
▁accord	-727
▁country	-728
▁Committee	-729
ia	-730
gan	-731
ily	-732
ors	-733
own	-734
yst	-735
▁Ph	-736
▁day	-737
▁det	-738
▁fil	-739
▁area	-740
▁list	-741
▁prom	-742
▁sect	-743
▁went	-744
▁given	-745
itution	-746
▁father	-747
▁priest	-748
▁regist	-749
▁Council	-750
▁against	-751
formation	-752
ert	-753
ife	-754
▁Ab	-755
▁Ru	-756
▁St	-757
▁Wh	-758
▁aw	-759
▁sc	-760
ield	-761
▁Man	-762
▁law	-763
▁loc	-764
▁use	-765
thing	-766
▁date	-767
▁does	-768
▁gave	-769
▁only	-770
ration	-771
▁imple	-772
▁implement	-773
▁:	-774
ked	-775
ook	-776
ory	-777
oth	-778
rop	-779
ten	-780
▁Ad	-781
▁fa	-782
ages	-783
oses	-784
ruct	-785
tern	-786
▁And	-787
▁att	-788
▁fam	-789
ident	-790
▁even	-791
▁give	-792
▁happ	-793
▁many	-794
▁says	-795
▁show	-796
▁provide	-797
▁subject	-798
ang	-799
ual	-800
uch	-801
ull	-802
▁Se	-803
▁Sp	-804
▁ro	-805
ines	-806
▁Con	-807
▁Off	-808
▁Sec	-809
▁exp	-810
ative	-811
lease	-812
ystem	-813
▁oper	-814
ancial	-815
▁before	-816
▁establ	-817
▁provis	-818
▁addition	-819
▁authority	-820
fe	-821
ants	-822
arge	-823
bers	-824
gypt	-825
ible	-826
self	-827
▁Can	-828
▁Jer	-829
▁dep	-830
▁fac	-831
▁get	-832
▁her	-833
▁let	-834
▁tak	-835
▁tax	-836
▁two	-837
ustri	-838
▁back	-839
▁left	-840
aining	-841
ources	-842
▁Board	-843
▁Egypt	-844
▁Rules	-845
▁evalu	-846
▁techn	-847
▁water	-848
▁programm	-849
▁received	-850
ck	-851
ize	-852
oly	-853
ror	-854
▁fr	-855
▁ru	-856
▁wr	-857
ious	-858
pend	-859
ract	-860
roup	-861
▁cap	-862
▁imp	-863
▁num	-864
▁str	-865
orpor	-866
ption	-867
▁city	-868
▁here	-869
▁main	-870
▁same	-871
▁sons	-872
▁then	-873
▁field	-874
▁health	-875
▁invest	-876
▁office	-877
▁select	-878
▁submit	-879
▁current	-880
▁meeting	-881
▁without	-882
▁Ministry	-883
▁relating	-884
▁services	-885
▁information	-886
oh	-887
▁&	-888
ful	-889
row	-890
ute	-891
▁Da	-892
▁gu	-893
dule	-894
ener	-895
oint	-896
ourt	-897
▁Dep	-898
▁eff	-899
▁key	-900
▁mat	-901
▁ser	-902
▁val	-903
▁post	-904
▁word	-905
▁David	-906
▁avail	-907
▁level	-908
▁right	-909
▁would	-910
chedule	-911
ilities	-912
▁during	-913
▁obtain	-914
▁sector	-915
▁referred	-916
▁Commission	-917
▁6	-918
000	-919
The	-920
aul	-921
gin	-922
ify	-923
igh	-924
les	-925
lud	-926
ote	-927
arch	-928
ient	-929
ized	-930
ures	-931
▁don	-932
illed	-933
▁bank	-934
▁poss	-935
▁rate	-936
▁supp	-937
▁found	-938
▁Depart	-939
▁happen	-940
▁import	-941
▁object	-942
▁report	-943
▁Schedule	-944
▁required	-945
▁available	-946
▁financial	-947
................	-948
az	-949
▁Z	-950
ble	-951
ocu	-952
ves	-953
▁Ar	-954
▁Tr	-955
▁dr	-956
airp	-957
icle	-958
mand	-959
ning	-960
ried	-961
▁cas	-962
▁mod	-963
▁mon	-964
▁sur	-965
ailed	-966
ivers	-967
otion	-968
▁away	-969
▁disc	-970
▁done	-971
▁plan	-972
▁very	-973
embers	-974
▁Judah	-975
▁Moses	-976
▁cause	-977
▁family	-978
▁making	-979
▁public	-980
▁system	-981
▁another	-982
▁brother	-983
airperson	-984
▁district	-985
▁functions	-986
▁specified	-987
▁institution	-988
),	-989
▁7	-990
▁“	-991
ars	-992
its	-993
▁Ne	-994
alem	-995
view	-996
▁Reg	-997
▁arm	-998
▁dif	-999
▁pol	-1000
▁put	-1001
alled	-1002
ature	-1003
indow	-1004
owers	-1005
▁Dist	-1006
▁When	-1007
▁down	-1008
▁each	-1009
▁inte	-1010
▁meas	-1011
▁purp	-1012
▁some	-1013
▁want	-1014
usalem	-1015
▁among	-1016
▁organ	-1017
ountain	-1018
▁contin	-1019
▁proper	-1020
▁increas	-1021
ification	-1022
▁District	-1023
▁employee	-1024
▁provided	-1025
▁Jerusalem	-1026
▁Development	-1027
?"	-1028
gg	-1029
arm	-1030
ced	-1031
con	-1032
dom	-1033
hes	-1034
ick	-1035
ood	-1036
ric	-1037
▁We	-1038
▁co	-1039
▁sm	-1040
▁ty	-1041
ives	-1042
ward	-1043
▁She	-1044
▁bet	-1045
▁our	-1046
▁rep	-1047
arket	-1048
ision	-1049
▁King	-1050
▁Rule	-1051
▁food	-1052
▁long	-1053
▁reas	-1054
▁rest	-1055
rought	-1056
▁drink	-1057
▁great	-1058
▁group	-1059
▁might	-1060
ruction	-1061
▁around	-1062
▁includ	-1063
▁Whether	-1064
▁perform	-1065
▁according	-1066
▁Department	-1067
▁facilities	-1068
).	-1069
.'	-1070
cy	-1071
io	-1072
...	-1073
ell	-1074
olo	-1075
▁10	-1076
▁En	-1077
▁el	-1078
ails	-1079
educ	-1080
ited	-1081
rist	-1082
used	-1083
▁Now	-1084
▁ret	-1085
▁way	-1086
ained	-1087
apter	-1088
uties	-1089
▁Bank	-1090
▁dest	-1091
▁docu	-1092
▁educ	-1093
▁five	-1094
▁hear	-1095
▁appro	-1096
▁build	-1097
▁earth	-1098
▁enter	-1099
▁exist	-1100
▁files	-1101
▁month	-1102
▁women	-1103
▁years	-1104
agement	-1105
ination	-1106
ulation	-1107
▁format	-1108
▁Chapter	-1109
▁distrib	-1110
▁foreign	-1111
▁mention	-1112
▁message	-1113
▁officer	-1114
▁special	-1115
▁industri	-1116
▁evaluation	-1117
-1	-1118
ai	-1119
amp	-1120
oke	-1121
ork	-1122
ros	-1123
tle	-1124
▁Al	-1125
▁An	-1126
▁vi	-1127
ceed	-1128
pees	-1129
▁Ind	-1130
▁Int	-1131
▁One	-1132
▁Sam	-1133
▁cre	-1134
▁saw	-1135
▁sec	-1136
▁sit	-1137
▁body	-1138
▁conf	-1139
▁deem	-1140
▁kind	-1141
▁look	-1142
▁need	-1143
▁prof	-1144
▁stud	-1145
▁upon	-1146
retary	-1147
▁These	-1148
▁bring	-1149
▁carry	-1150
▁power	-1151
ibility	-1152
lection	-1153
urement	-1154
▁Christ	-1155
▁Corpor	-1156
▁number	-1157
▁powers	-1158
▁window	-1159
iversity	-1160
▁brought	-1161
▁increase	-1162
▁national	-1163
▁selected	-1164
▁committee	-1165
▁additional	-1166
3)	-1167
eh	-1168
lp	-1169
up	-1170
erc	-1171
ird	-1172
led	-1173
ond	-1174
val	-1175
vey	-1176
▁Cl	-1177
▁No	-1178
,000	-1179
ared	-1180
oney	-1181
vate	-1182
▁Not	-1183
▁equ	-1184
▁nam	-1185
▁tru	-1186
▁veh	-1187
ctory	-1188
icult	-1189
stand	-1190
unish	-1191
venue	-1192
▁cert	-1193
▁much	-1194
▁prep	-1195
▁stop	-1196
▁tell	-1197
▁turn	-1198
change	-1199
illion	-1200
itions	-1201
▁Could	-1202
▁activ	-1203
▁allow	-1204
▁could	-1205
▁faith	-1206
▁offer	-1207
▁polic	-1208
▁while	-1209
▁woman	-1210
ificate	-1211
▁Cannot	-1212
▁Office	-1213
▁comple	-1214
▁duties	-1215
▁develop	-1216
▁purpose	-1217
▁mountain	-1218
▁established	-1219
.1	-1220
sh	-1221
alk	-1222
any	-1223
edi	-1224
ger	-1225
ian	-1226
iry	-1227
▁ac	-1228
▁ra	-1229
ates	-1230
ntil	-1231
ough	-1232
ters	-1233
ween	-1234
▁dau	-1235
▁eat	-1236
▁enc	-1237
▁god	-1238
▁ins	-1239
▁spe	-1240
ional	-1241
mandu	-1242
ource	-1243
range	-1244
ustom	-1245
▁Phar	-1246
▁full	-1247
▁head	-1248
▁help	-1249
▁term	-1250
▁took	-1251
▁agree	-1252
▁bread	-1253
▁diffe	-1254
▁issue	-1255
▁local	-1256
▁taken	-1257
▁Provid	-1258
▁effect	-1259
▁issued	-1260
▁market	-1261
▁account	-1262
▁collect	-1263
▁nations	-1264
▁anything	-1265
▁projects	-1266
▁resources	-1267
▁production	-1268
▁construction	-1269
4)	-1270
tc	-1271
aid	-1272
ely	-1273
eth	-1274
ief	-1275
irc	-1276
ned	-1277
new	-1278
roy	-1279
▁By	-1280
▁fl	-1281
▁hy	-1282
▁ph	-1283
▁po	-1284
▁sw	-1285
▁wa	-1286
anch	-1287
ever	-1288
here	-1289
ised	-1290
ison	-1291
itut	-1292
less	-1293
otor	-1294
outh	-1295
play	-1296
vent	-1297
▁Jew	-1298
▁Set	-1299
▁Sim	-1300
▁bus	-1301
▁etc	-1302
▁how	-1303
▁jud	-1304
▁liv	-1305
▁pay	-1306
▁ref	-1307
▁too	-1308
▁unc	-1309
▁var	-1310
arget	-1311
conom	-1312
ology	-1313
▁Kath	-1314
▁char	-1315
▁dele	-1316
▁fall	-1317
▁gold	-1318
▁line	-1319
▁trib	-1320
minist	-1321
mitted	-1322
ousand	-1323
▁areas	-1324
▁capac	-1325
▁class	-1326
▁exper	-1327
▁gover	-1328
▁mouth	-1329
▁small	-1330
▁speak	-1331
▁stand	-1332
▁state	-1333
▁until	-1334
▁value	-1335
▁works	-1336
▁Please	-1337
▁Select	-1338
▁became	-1339
▁cannot	-1340
▁contro	-1341
▁determ	-1342
▁econom	-1343
▁ground	-1344
▁intern	-1345
▁policy	-1346
▁prophe	-1347
▁search	-1348
▁server	-1349
▁destroy	-1350
▁priests	-1351
▁private	-1352
▁product	-1353
▁related	-1354
▁request	-1355
▁document	-1356
▁offering	-1357
▁training	-1358
▁Kathmandu	-1359
▁mentioned	-1360
▁promotion	-1361
▁Israelites	-1362
▁University	-1363
▁government	-1364
▁registration	-1365
:-	-1366
aj	-1367
og	-1368
▁/	-1369
▁—	-1370
ees	-1371
ged	-1372
idd	-1373
lie	-1374
ner	-1375
oci	-1376
ode	-1377
ont	-1378
put	-1379
rem	-1380
▁12	-1381
▁On	-1382
▁Pr	-1383
▁ey	-1384
▁sk	-1385
adem	-1386
cept	-1387
cted	-1388
ined	-1389
itor	-1390
ivil	-1391
ross	-1392
▁Pub	-1393
▁ann	-1394
▁ans	-1395
▁art	-1396
▁aut	-1397
▁che	-1398
▁div	-1399
▁ext	-1400
▁fix	-1401
▁min	-1402
▁old	-1403
▁pop	-1404
▁tem	-1405
iness	-1406
older	-1407
ropri	-1408
▁Serv	-1409
▁cond	-1410
▁four	-1411
▁grow	-1412
▁life	-1413
▁prot	-1414
▁qual	-1415
▁resp	-1416
▁text	-1417
▁user	-1418
▁view	-1419
▁wife	-1420
▁condu	-1421
▁depos	-1422
▁frame	-1423
▁gener	-1424
▁goods	-1425
▁image	-1426
▁motor	-1427
▁price	-1428
▁prior	-1429
▁rural	-1430
▁three	-1431
ication	-1432
▁action	-1433
▁assist	-1434
▁called	-1435
▁caused	-1436
▁cities	-1437
▁compet	-1438
▁custom	-1439
▁punish	-1440
▁return	-1441
▁review	-1442
▁survey	-1443
▁target	-1444
encement	-1445
standing	-1446
▁between	-1447
▁million	-1448
▁respect	-1449
▁vehicle	-1450
ilization	-1451
▁capacity	-1452
▁obtained	-1453
▁programme	-1454
▁everything	-1455
▁provisions	-1456
▁Chairperson	-1457
▁Corporation	-1458
DE	-1459
kt	-1460
ys	-1461
▁.	-1462
day	-1463
eep	-1464
gal	-1465
omm	-1466
osp	-1467
ped	-1468
sum	-1469
▁El	-1470
▁Er	-1471
ains	-1472
ator	-1473
ault	-1474
blem	-1475
hold	-1476
icip	-1477
ides	-1478
irit	-1479
osed	-1480
rest	-1481
ular	-1482
ured	-1483
wise	-1484
▁All	-1485
▁App	-1486
▁How	-1487
▁Sol	-1488
▁Use	-1489
▁aff	-1490
▁dru	-1491
▁due	-1492
▁hig	-1493
▁lay	-1494
▁lit	-1495
▁pat	-1496
ghter	-1497
ience	-1498
quiry	-1499
ready	-1500
▁Body	-1501
▁anim	-1502
▁book	-1503
▁cost	-1504
▁fill	-1505
▁high	-1506
▁holy	-1507
▁load	-1508
▁love	-1509
▁pray	-1510
▁rule	-1511
▁type	-1512
isions	-1513
pected	-1514
▁Court	-1515
▁Error	-1516
▁Other	-1517
▁accom	-1518
▁asked	-1519
▁belie	-1520
▁cases	-1521
▁event	-1522
▁impro	-1523
▁invol	-1524
▁large	-1525
▁money	-1526
▁since	-1527
▁spoke	-1528
▁study	-1529
▁think	-1530
▁world	-1531
elating	-1532
gricult	-1533
lectric	-1534
vailing	-1535
▁Spirit	-1536
▁change	-1537
▁notice	-1538
▁reason	-1539
▁record	-1540
▁saying	-1541
▁already	-1542
▁arrange	-1543
▁control	-1544
▁display	-1545
▁Provided	-1546
▁maintain	-1547
▁property	-1548
▁Secretary	-1549
▁districts	-1550
▁employees	-1551
▁operation	-1552
▁activities	-1553
▁increasing	-1554
▁investment	-1555
▁programmes	-1556
▁implementation	-1557
.5	-1558
If	-1559
▁8	-1560
alf	-1561
app	-1562
elf	-1563
ept	-1564
for	-1565
law	-1566
man	-1567
ool	-1568
rig	-1569
vir	-1570
zar	-1571
▁15	-1572
▁Ac	-1573
▁At	-1574
▁Of	-1575
▁Or	-1576
▁er	-1577
▁ut	-1578
aces	-1579
imes	-1580
imum	-1581
ital	-1582
ktop	-1583
lean	-1584
ocal	-1585
oice	-1586
vers	-1587
vert	-1588
with	-1589
▁202	-1590
▁Abr	-1591
▁Res	-1592
▁ang	-1593
▁bre	-1594
▁bur	-1595
▁cub	-1596
▁lim	-1597
▁nor	-1598
▁rou	-1599
astra	-1600
ately	-1601
iting	-1602
itten	-1603
unity	-1604
▁Holy	-1605
▁Name	-1606
▁Spec	-1607
▁With	-1608
▁camp	-1609
▁capt	-1610
▁care	-1611
▁else	-1612
▁enem	-1613
▁exam	-1614
▁find	-1615
▁fine	-1616
▁hold	-1617
▁hous	-1618
▁just	-1619
▁keep	-1620
▁kill	-1621
▁live	-1622
▁move	-1623
▁near	-1624
▁next	-1625
▁save	-1626
▁sent	-1627
▁stat	-1628
▁stay	-1629
ointed	-1630
pendit	-1631
undred	-1632
▁based	-1633
▁court	-1634
▁doing	-1635
▁entry	-1636
▁ident	-1637
▁never	-1638
▁plant	-1639
▁renew	-1640
▁start	-1641
▁still	-1642
▁teach	-1643
▁tribe	-1644
▁Member	-1645
▁Public	-1646
▁Rastra	-1647
▁forest	-1648
▁higher	-1649
▁income	-1650
▁killed	-1651
▁permit	-1652
▁rupees	-1653
ervation	-1654
▁Members	-1655
▁address	-1656
▁himself	-1657
▁problem	-1658
▁process	-1659
▁various	-1660
▁contract	-1661
▁existing	-1662
▁official	-1663
▁thousand	-1664
▁agreement	-1665
▁construct	-1666
▁different	-1667
▁directory	-1668
▁education	-1669
▁including	-1670
▁provision	-1671
▁therefore	-1672
▁Management	-1673
▁registered	-1674
▁certificate	-1675
▁performance	-1676
▁commencement	-1677
,"	-1678
▁9	-1679
eal	-1680
ges	-1681
hen	-1682
ipt	-1683
ism	-1684
opy	-1685
rew	-1686
ron	-1687
tal	-1688
uel	-1689
ulf	-1690
urb	-1691
▁1.	-1692
▁Mo	-1693
▁ce	-1694
▁gl	-1695
▁ir	-1696
▁sl	-1697
alse	-1698
ares	-1699
ased	-1700
azet	-1701
ency	-1702
hent	-1703
inal	-1704
▁196	-1705
▁198	-1706
▁200	-1707
▁Add	-1708
▁Ass	-1709
▁Col	-1710
▁Def	-1711
▁aud	-1712
▁bud	-1713
▁hyd	-1714
▁mis	-1715
▁mob	-1716
▁mus	-1717
▁oil	-1718
▁try	-1719
ading	-1720
viron	-1721
wered	-1722
▁Date	-1723
▁Land	-1724
▁Paul	-1725
▁Phil	-1726
▁both	-1727
▁burn	-1728
▁code	-1729
▁deli	-1730
▁eyes	-1731
▁grad	-1732
▁last	-1733
▁obey	-1734
▁play	-1735
▁prin	-1736
▁sale	-1737
▁team	-1738
▁test	-1739
▁tour	-1740
▁well	-1741
▁whom	-1742
▁youn	-1743
arding	-1744
eering	-1745
ommend	-1746
▁Amend	-1747
▁Trans	-1748
▁Where	-1749
▁basis	-1750
▁bless	-1751
▁error	-1752
▁false	-1753
▁forth	-1754
▁heart	-1755
▁inter	-1756
▁known	-1757
▁named	-1758
▁peace	-1759
▁sword	-1760
▁total	-1761
▁words	-1762
igation	-1763
▁Failed	-1764
▁Intern	-1765
▁Unable	-1766
▁deemed	-1767
▁export	-1768
▁growth	-1769
▁having	-1770
▁letter	-1771
▁little	-1772
▁months	-1773
▁mother	-1774
▁company	-1775
▁details	-1776
▁inquiry	-1777
▁matters	-1778
▁persons	-1779
▁possess	-1780
▁protect	-1781
▁receipt	-1782
▁respons	-1783
▁servant	-1784
▁whether	-1785
penditure	-1786
vironment	-1787
▁answered	-1788
▁business	-1789
▁daughter	-1790
▁decision	-1791
▁economic	-1792
▁function	-1793
▁measures	-1794
▁Authority	-1795
▁contained	-1796
▁establish	-1797
▁offerings	-1798
▁technical	-1799
▁transport	-1800
▁accordance	-1801
▁industries	-1802
▁population	-1803
▁prevailing	-1804
▁technology	-1805
▁procurement	-1806
Wh	-1807
ex	-1808
▁%	-1809
.'"	-1810
You	-1811
aac	-1812
aoh	-1813
ash	-1814
cri	-1815
ins	-1816
uly	-1817
umn	-1818
▁--	-1819
▁11	-1820
▁Do	-1821
▁Go	-1822
▁Te	-1823
▁pi	-1824
ames	-1825
aven	-1826
irty	-1827
ists	-1828
itiz	-1829
ries	-1830
side	-1831
uman	-1832
uses	-1833
ways	-1834
well	-1835
work	-1836
▁(19	-1837
▁(3)	-1838
▁(4)	-1839
▁100	-1840
▁206	-1841
▁Acc	-1842
▁Aut	-1843
▁Dis	-1844
▁Ham	-1845
▁His	-1846
▁Neb	-1847
▁bow	-1848
▁cor	-1849
▁del	-1850
▁hur	-1851
▁lab	-1852
▁run	-1853
▁san	-1854
▁sus	-1855
▁tra	-1856
▁war	-1857
ither	-1858
redit	-1859
urity	-1860
where	-1861
▁(1),	-1862
▁Fund	-1863
▁Jews	-1864
▁Pass	-1865
▁Saul	-1866
▁able	-1867
▁army	-1868
▁cash	-1869
▁circ	-1870
▁dark	-1871
▁decl	-1872
▁evil	-1873
▁feet	-1874
▁fulf	-1875
▁gods	-1876
▁male	-1877
▁pass	-1878
▁prim	-1879
▁publ	-1880
▁send	-1881
▁situ	-1882
▁sold	-1883
▁suff	-1884
▁sure	-1885
▁told	-1886
▁tool	-1887
▁true	-1888
action	-1889
ertain	-1890
gether	-1891
porary	-1892
▁Gener	-1893
▁Local	-1894
▁Their	-1895
▁While	-1896
▁along	-1897
▁civil	-1898
▁estim	-1899
▁exped	-1900
▁grant	-1901
▁leave	-1902
▁light	-1903
▁lived	-1904
▁makes	-1905
▁route	-1906
▁rules	-1907
▁seven	-1908
▁sound	-1909
ceeding	-1910
eration	-1911
irector	-1912
vidence	-1913
▁Academ	-1914
▁access	-1915
▁anyone	-1916
▁applic	-1917
▁attack	-1918
▁consum	-1919
▁direct	-1920
▁failed	-1921
▁giving	-1922
▁houses	-1923
▁living	-1924
▁member	-1925
▁option	-1926
▁strong	-1927
▁toward	-1928
rigation	-1929
▁License	-1930
▁Pharaoh	-1931
▁carried	-1932
▁continu	-1933
▁default	-1934
▁follows	-1935
▁members	-1936
▁stopped	-1937
▁support	-1938
▁Exchange	-1939
▁agricult	-1940
▁appropri	-1941
▁approval	-1942
▁brothers	-1943
▁continue	-1944
▁drinking	-1945
▁expected	-1946
▁prophets	-1947
▁together	-1948
▁recommend	-1949
▁determined	-1950
withstanding	-1951
▁distribution	-1952
▁organization	-1953
!"	-1954
ek	-1955
gn	-1956
gt	-1957
of	-1958
ox	-1959
pr	-1960
ps	-1961
ug	-1962
▁z	-1963
ane	-1964
aut	-1965
els	-1966
hip	-1967
ipl	-1968
ots	-1969
pes	-1970
ser	-1971
▁2.	-1972
▁50	-1973
▁GD	-1974
▁Me	-1975
▁Mr	-1976
▁Rs	-1977
▁ap	-1978
▁mo	-1979
acob	-1980
aded	-1981
angu	-1982
athe	-1983
ayat	-1984
cell	-1985
ents	-1986
epar	-1987
ials	-1988
ided	-1989
igur	-1990
lick	-1991
omon	-1992
ones	-1993
rate	-1994
reet	-1995
tend	-1996
▁201	-1997
▁Are	-1998
▁Des	-1999
▁Ent	-2000
▁Jeh	-2001
▁KDE	-2002
▁New	-2003
▁Tem	-2004
▁Val	-2005
▁adv	-2006
▁air	-2007
▁cut	-2008
▁die	-2009
▁dra	-2010
▁end	-2011
▁fif	-2012
▁imm	-2013
▁met	-2014
▁ord	-2015
▁sat	-2016
▁sil	-2017
▁wid	-2018
iding	-2019
ively	-2020
oseph	-2021
ought	-2022
oured	-2023
pport	-2024
tings	-2025
uthor	-2026
▁Five	-2027
▁Save	-2028
▁Show	-2029
▁bord	-2030
▁clot	-2031
▁conn	-2032
▁didn	-2033
▁exec	-2034
▁fear	-2035
▁fees	-2036
▁half	-2037
▁home	-2038
▁lack	-2039
▁laws	-2040
▁mach	-2041
▁paid	-2042
▁read	-2043
▁real	-2044
▁remo	-2045
▁rese	-2046
▁sell	-2047
edures	-2048
idered	-2049
overed	-2050
resent	-2051
selves	-2052
ussion	-2053
ysical	-2054
▁Gazet	-2055
▁Jacob	-2056
▁Offic	-2057
▁Power	-2058
▁Simon	-2059
▁begin	-2060
▁board	-2061
▁break	-2062
▁chief	-2063
▁death	-2064
▁dwell	-2065
▁exerc	-2066
▁gathe	-2067
▁grain	-2068
▁kings	-2069
▁loved	-2070
▁plans	-2071
▁separ	-2072
▁short	-2073
▁thing	-2074
▁today	-2075
▁trave	-2076
▁treat	-2077
▁young	-2078
itizens	-2079
ministr	-2080
olution	-2081
▁Clause	-2082
▁Joseph	-2083
▁Samuel	-2084
▁animal	-2085
▁budget	-2086
▁charge	-2087
▁commit	-2088
▁create	-2089
▁credit	-2090
▁cubits	-2091
▁design	-2092
▁listen	-2093
▁nature	-2094
▁source	-2095
▁string	-2096
▁taking	-2097
anchayat	-2098
ignature	-2099
ociation	-2100
▁Service	-2101
▁Solomon	-2102
▁appoint	-2103
▁centres	-2104
▁certain	-2105
▁complet	-2106
▁consult	-2107
▁hundred	-2108
▁install	-2109
▁kingdom	-2110
▁organiz	-2111
▁outside	-2112
▁primary	-2113
▁section	-2114
▁written	-2115
iguration	-2116
stitution	-2117
▁gathered	-2118
▁messages	-2119
▁standard	-2120
▁decisions	-2121
▁providing	-2122
▁assistance	-2123
▁industrial	-2124
▁permission	-2125
▁appropriate	-2126
▁constructed	-2127
▁environment	-2128
▁mountaineering	-2129
▁Notwithstanding	-2130
0.	-2131
2.	-2132
3.	-2133
na	-2134
oi	-2135
yl	-2136
▁,	-2137
ads	-2138
agn	-2139
apt	-2140
duc	-2141
ems	-2142
ene	-2143
ese	-2144
hel	-2145
ili	-2146
iqu	-2147
isf	-2148
ley	-2149
nel	-2150
osh	-2151
ott	-2152
oud	-2153
pon	-2154
ral	-2155
rif	-2156
she	-2157
tar	-2158
ton	-2159
ule	-2160
▁Be	-2161
▁Ev	-2162
▁KM	-2163
▁di	-2164
abyl	-2165
aged	-2166
aiah	-2167
aint	-2168
anan	-2169
atic	-2170
born	-2171
ched	-2172
empt	-2173
enty	-2174
erai	-2175
hers	-2176
hing	-2177
iful	-2178
ires	-2179
itle	-2180
ivid	-2181
ling	-2182
ored	-2183
orts	-2184
reen	-2185
rees	-2186
rene	-2187
sure	-2188
text	-2189
uted	-2190
▁205	-2191
▁Law	-2192
▁Lev	-2193
▁Rem	-2194
▁Rep	-2195
▁Who	-2196
▁bad	-2197
▁exc	-2198
▁fee	-2199
▁gar	-2200
▁gra	-2201
▁hon	-2202
▁med	-2203
▁mer	-2204
▁non	-2205
▁ple	-2206
▁sac	-2207
▁sal	-2208
▁soc	-2209
▁sol	-2210
▁sug	-2211
▁top	-2212
▁vis	-2213
▁voc	-2214
alked	-2215
aster	-2216
ctors	-2217
ilize	-2218
inate	-2219
ister	-2220
itute	-2221
light	-2222
rance	-2223
ustry	-2224
▁Comm	-2225
▁Fore	-2226
▁Mess	-2227
▁Moab	-2228
▁Some	-2229
▁Tent	-2230
▁That	-2231
▁What	-2232
▁copy	-2233
▁dead	-2234
▁dise	-2235
▁disp	-2236
▁drug	-2237
▁ever	-2238
▁firm	-2239
▁forg	-2240
▁hect	-2241
▁hurt	-2242
▁morn	-2243
▁most	-2244
▁mult	-2245
▁orig	-2246
▁port	-2247
▁stru	-2248
▁talk	-2249
▁tent	-2250
▁valu	-2251
▁wall	-2252
abylon	-2253
atural	-2254
ession	-2255
ifying	-2256
inated	-2257
ipment	-2258
ptions	-2259
ribute	-2260
▁KMail	-2261
▁altar	-2262
▁check	-2263
▁close	-2264
▁color	-2265
▁cover	-2266
▁deems	-2267
▁fixed	-2268
▁force	-2269
▁going	-2270
▁hands	-2271
▁langu	-2272
▁legal	-2273
▁limit	-2274
▁mater	-2275
▁night	-2276
▁point	-2277
▁share	-2278
▁stren	-2279
▁truth	-2280
▁using	-2281
ability	-2282
urities	-2283
▁Amount	-2284
▁Enable	-2285
▁Provis	-2286
▁Temple	-2287
▁always	-2288
▁appear	-2289
▁aspect	-2290
▁border	-2291
▁column	-2292
▁fields	-2293
▁folder	-2294
▁itself	-2295
▁leader	-2296
▁manner	-2297
▁mighty	-2298
▁modern	-2299
▁places	-2300
▁region	-2301
▁result	-2302
▁sacrif	-2303
▁secret	-2304
cription	-2305
▁Address	-2306
▁Babylon	-2307
▁Gazette	-2308
▁Levites	-2309
▁Revenue	-2310
▁accompl	-2311
▁capital	-2312
▁contact	-2313
▁deposit	-2314
▁leaders	-2315
▁morning	-2316
▁nothing	-2317
▁opening	-2318
▁payment	-2319
▁promise	-2320
▁reasons	-2321
▁receive	-2322
▁revenue	-2323
▁setting	-2324
▁unclean	-2325
▁workers	-2326
uneration	-2327
▁Director	-2328
▁Industri	-2329
▁National	-2330
▁Relating	-2331
▁approved	-2332
▁commands	-2333
▁evidence	-2334
▁exchange	-2335
▁happened	-2336
▁industry	-2337
▁internal	-2338
▁prepared	-2339
▁applicant	-2340
▁appointed	-2341
▁commanded	-2342
▁competent	-2343
▁condition	-2344
▁elsewhere	-2345
▁equipment	-2346
▁exceeding	-2347
▁increased	-2348
▁installed	-2349
▁materials	-2350
▁otherwise	-2351
▁situation	-2352
▁temporary	-2353
▁treatment	-2354
hentication	-2355
▁discussion	-2356
▁employment	-2357
▁irrigation	-2358
▁management	-2359
▁procedures	-2360
▁chairperson	-2361
▁educational	-2362
▁expenditure	-2363
▁utilization	-2364
▁notification	-2365
▁configuration	-2366
▁environmental	-2367
▁international	-2368
2,	-2369
4.	-2370
5)	-2371
6.	-2372
7.	-2373
8)	-2374
9.	-2375
AR	-2376
OD	-2377
RB	-2378
St	-2379
Th	-2380
av	-2381
bs	-2382
nk	-2383
oe	-2384
wo	-2385
ams	-2386
ari	-2387
arn	-2388
ata	-2389
box	-2390
cal	-2391
ead	-2392
eng	-2393
ery	-2394
hab	-2395
hon	-2396
ier	-2397
ilt	-2398
irt	-2399
ium	-2400
lah	-2401
nez	-2402
oam	-2403
ope	-2404
oss	-2405
pan	-2406
pto	-2407
rep	-2408
ues	-2409
umb	-2410
urs	-2411
use	-2412
▁3.	-2413
▁5.	-2414
▁Af	-2415
▁Ge	-2416
▁Je	-2417
▁My	-2418
▁Ob	-2419
▁Sc	-2420
▁Ty	-2421
▁cr	-2422
▁ed	-2423
▁es	-2424
▁ic	-2425
aled	-2426
aria	-2427
arks	-2428
arly	-2429
aron	-2430
aves	-2431
elve	-2432
eter	-2433
ilot	-2434
inds	-2435
irth	-2436
iven	-2437
laws	-2438
lear	-2439
lier	-2440
long	-2441
oose	-2442
osal	-2443
perv	-2444
pped	-2445
rodu	-2446
rust	-2447
ship	-2448
▁195	-2449
▁197	-2450
▁199	-2451
▁Bir	-2452
▁Bye	-2453
▁Che	-2454
▁Det	-2455
▁Fin	-2456
▁Ins	-2457
▁Koh	-2458
▁Let	-2459
▁Maj	-2460
▁May	-2461
▁Mis	-2462
▁Six	-2463
▁abs	-2464
▁bar	-2465
▁big	-2466
▁eng	-2467
▁fat	-2468
▁fri	-2469
▁fut	-2470
▁mem	-2471
▁mid	-2472
▁mor	-2473
▁net	-2474
▁nom	-2475
▁par	-2476
▁rul	-2477
▁sea	-2478
▁sum	-2479
▁ten	-2480
▁urb	-2481
▁wis	-2482
▁yet	-2483
acter	-2484
adnez	-2485
ances	-2486
arant	-2487
ching	-2488
chool	-2489
earch	-2490
ently	-2491
erals	-2492
ially	-2493
icles	-2494
idden	-2495
isten	-2496
ivity	-2497
ledge	-2498
opted	-2499
ordan	-2500
ually	-2501
ulate	-2502
▁Cent	-2503
▁Cons	-2504
▁Cont	-2505
▁Educ	-2506
▁July	-2507
▁Just	-2508
▁Make	-2509
▁born	-2510
▁cast	-2511
▁died	-2512
▁expl	-2513
▁face	-2514
▁fool	-2515
▁grew	-2516
▁held	-2517
▁horn	-2518
▁hosp	-2519
▁init	-2520
▁medi	-2521
▁once	-2522
▁past	-2523
▁pure	-2524
▁rise	-2525
▁soon	-2526
▁town	-2527
▁vers	-2528
▁vide	-2529
▁wait	-2530
▁walk	-2531
▁wild	-2532
aneous	-2533
armers	-2534
aximum	-2535
elfare	-2536
ercial	-2537
estern	-2538
estion	-2539
icipal	-2540
icular	-2541
ituted	-2542
ivered	-2543
omatic	-2544
quired	-2545
struct	-2546
ternal	-2547
▁Aaron	-2548
▁Abram	-2549
▁Chief	-2550
▁Click	-2551
▁Color	-2552
▁Isaac	-2553
▁Third	-2554
▁Water	-2555
▁above	-2556
▁apost	-2557
▁basic	-2558
▁beaut	-2559
▁birth	-2560
▁blind	-2561
▁blood	-2562
▁burnt	-2563
▁chang	-2564
▁cried	-2565
▁cross	-2566
▁defic	-2567
▁encry	-2568
▁fifty	-2569
▁front	-2570
▁glory	-2571
▁human	-2572
▁hydro	-2573
▁mouse	-2574
▁names	-2575
▁parts	-2576
▁saved	-2577
▁sugar	-2578
▁table	-2579
▁third	-2580
▁times	-2581
▁types	-2582
▁urban	-2583
▁valid	-2584
▁whole	-2585
▁write	-2586
▁wrong	-2587
reprene	-2588
tenance	-2589
▁During	-2590
▁Jordan	-2591
▁Kohath	-2592
▁Nebuch	-2593
▁Regist	-2594
▁Rupees	-2595
▁accept	-2596
▁coming	-2597
▁corpor	-2598
▁delete	-2599
▁depart	-2600
▁depend	-2601
▁expert	-2602
▁extent	-2603
▁groups	-2604
▁height	-2605
▁immedi	-2606
▁instru	-2607
▁integr	-2608
▁minist	-2609
▁nation	-2610
▁opport	-2611
▁output	-2612
▁plants	-2613
▁poured	-2614
▁silver	-2615
▁sister	-2616
▁social	-2617
▁status	-2618
▁superv	-2619
▁supply	-2620
▁though	-2621
▁turned	-2622
▁twelve	-2623
▁vector	-2624
adnezzar	-2625
electric	-2626
unicipal	-2627
vertible	-2628
▁General	-2629
▁However	-2630
▁Meeting	-2631
▁Officer	-2632
▁Pharise	-2633
▁Philist	-2634
▁Special	-2635
▁adopted	-2636
▁allowed	-2637
▁article	-2638
▁aspects	-2639
▁believe	-2640
▁conduct	-2641
▁desktop	-2642
▁discipl	-2643
▁enemies	-2644
▁fathers	-2645
▁forever	-2646
▁leading	-2647
▁markets	-2648
▁offense	-2649
▁present	-2650
▁preview	-2651
▁release	-2652
▁renewal	-2653
asibility	-2654
▁citizens	-2655
▁darkness	-2656
▁everyone	-2657
▁faithful	-2658
▁hectares	-2659
▁involved	-2660
▁location	-2661
▁operated	-2662
▁particip	-2663
▁physical	-2664
▁possible	-2665
▁regional	-2666
▁research	-2667
▁resource	-2668
▁security	-2669
▁separate	-2670
▁servants	-2671
cellaneous	-2672
▁Amendment	-2673
▁Education	-2674
▁Resources	-2675
▁Signature	-2676
▁beginning	-2677
▁committed	-2678
▁continued	-2679
▁destroyed	-2680
▁followers	-2681
▁mountains	-2682
▁obtaining	-2683
▁panchayat	-2684
▁regarding	-2685
▁represent	-2686
▁selection	-2687
▁submitted	-2688
▁Securities	-2689
▁commercial	-2690
▁completion	-2691
▁conditions	-2692
▁considered	-2693
▁expedition	-2694
▁maintained	-2695
▁punishment	-2696
▁statements	-2697
ministration	-2698
▁implemented	-2699
▁maintenance	-2700
▁measurement	-2701
▁agricultural	-2702
▁conservation	-2703
▁remuneration	-2704
▁respectively	-2705
▁organizations	-2706
▁Nebuchadnezzar	-2707
!'	-2708
(1	-2709
-4	-2710
-8	-2711
.)	-2712
.,	-2713
/8	-2714
01	-2715
1,	-2716
40	-2717
6)	-2718
7)	-2719
Be	-2720
We	-2721
af	-2722
be	-2723
bu	-2724
ca	-2725
cl	-2726
co	-2727
do	-2728
ea	-2729
ls	-2730
mb	-2731
to	-2732
wr	-2733
ze	-2734
ags	-2735
ali	-2736
atr	-2737
bal	-2738
cut	-2739
ety	-2740
han	-2741
hap	-2742
ics	-2743
ict	-2744
ift	-2745
ior	-2746
ken	-2747
nce	-2748
oah	-2749
ohn	-2750
phr	-2751
ray	-2752
sal	-2753
sec	-2754
ung	-2755
usb	-2756
▁"'	-2757
▁(3	-2758
▁14	-2759
▁16	-2760
▁7.	-2761
▁Ag	-2762
▁Jo	-2763
▁KP	-2764
▁Sa	-2765
▁au	-2766
▁id	-2767
▁km	-2768
▁sy	-2769
ager	-2770
aham	-2771
airs	-2772
aken	-2773
amed	-2774
apan	-2775
ateg	-2776
bell	-2777
ches	-2778
cing	-2779
eces	-2780
ends	-2781
ergy	-2782
esty	-2783
ggle	-2784
ghte	-2785
held	-2786
iers	-2787
inen	-2788
ival	-2789
just	-2790
land	-2791
omet	-2792
otal	-2793
oura	-2794
pace	-2795
peak	-2796
phra	-2797
raid	-2798
resp	-2799
ript	-2800
roll	-2801
sers	-2802
ugin	-2803
unal	-2804
▁Any	-2805
▁Arm	-2806
▁Ben	-2807
▁Bet	-2808
▁Cre	-2809
▁Dan	-2810
▁Fun	-2811
▁GDP	-2812
▁GOD	-2813
▁Ish	-2814
▁Mob	-2815
▁Out	-2816
▁Pri	-2817
▁Rec	-2818
▁Son	-2819
▁Two	-2820
▁Yes	-2821
▁alm	-2822
▁ask	-2823
▁bed	-2824
▁buy	-2825
▁cou	-2826
▁cup	-2827
▁eld	-2828
▁ele	-2829
▁inn	-2830
▁kid	-2831
▁lie	-2832
▁low	-2833
▁mar	-2834
▁occ	-2835
▁rad	-2836
▁six	-2837
▁won	-2838
abled	-2839
ables	-2840
adequ	-2841
andom	-2842
annel	-2843
arded	-2844
arent	-2845
aring	-2846
board	-2847
grade	-2848
icked	-2849
ighth	-2850
ingly	-2851
itals	-2852
itive	-2853
iving	-2854
oboam	-2855
oints	-2856
otten	-2857
ously	-2858
rence	-2859
salom	-2860
surer	-2861
umber	-2862
under	-2863
urred	-2864
▁Alth	-2865
▁Book	-2866
▁Cert	-2867
▁Dele	-2868
▁Edom	-2869
▁Four	-2870
▁Here	-2871
▁Josh	-2872
▁Open	-2873
▁Proc	-2874
▁Type	-2875
▁Work	-2876
▁bill	-2877
▁card	-2878
▁coll	-2879
▁crop	-2880
▁deal	-2881
▁defe	-2882
▁diff	-2883
▁elim	-2884
▁fail	-2885
▁feel	-2886
▁fire	-2887
▁foot	-2888
▁free	-2889
▁hill	-2890
▁hist	-2891
▁husb	-2892
▁icon	-2893
▁kept	-2894
▁less	-2895
▁meet	-2896
▁mour	-2897
▁pack	-2898
▁page	-2899
▁pain	-2900
▁pers	-2901
▁redu	-2902
▁repl	-2903
▁resc	-2904
▁ship	-2905
▁sing	-2906
Member	-2907
antity	-2908
ential	-2909
esides	-2910
estock	-2911
ghters	-2912
icient	-2913
idence	-2914
illage	-2915
phraim	-2916
urance	-2917
urther	-2918
▁After	-2919
▁Check	-2920
▁Defin	-2921
▁Enter	-2922
▁Hanan	-2923
▁Jehoi	-2924
▁Judea	-2925
▁Legal	-2926
▁Level	-2927
▁Order	-2928
▁Peter	-2929
▁Simil	-2930
▁Start	-2931
▁Stock	-2932
▁affli	-2933
▁began	-2934
▁broke	-2935
▁categ	-2936
▁clear	-2937
▁compl	-2938
▁drunk	-2939
▁enemy	-2940
▁equal	-2941
▁filed	-2942
▁final	-2943
▁heard	-2944
▁indic	-2945
▁linen	-2946
▁lives	-2947
▁merch	-2948
▁owner	-2949
▁pract	-2950
▁prost	-2951
▁sanct	-2952
▁serve	-2953
▁stock	-2954
▁stood	-2955
▁thank	-2956
▁trade	-2957
▁users	-2958
▁yours	-2959
Section	-2960
iveness	-2961
ividual	-2962
llution	-2963
ocation	-2964
ructure	-2965
vention	-2966
▁Accord	-2967
▁Change	-2968
▁Create	-2969
▁Forest	-2970
▁Jewish	-2971
▁Manoah	-2972
▁Thirty	-2973
▁Unless	-2974
▁Valley	-2975
▁across	-2976
▁affili	-2977
▁afraid	-2978
▁agency	-2979
▁assign	-2980
▁become	-2981
▁behold	-2982
▁belong	-2983
▁better	-2984
▁centre	-2985
▁circum	-2986
▁commen	-2987
▁common	-2988
▁curren	-2989
▁demand	-2990
▁energy	-2991
▁filled	-2992
▁foodgr	-2993
▁future	-2994
▁heaven	-2995
▁hidden	-2996
▁intend	-2997
▁invite	-2998
▁labour	-2999
▁looked	-3000
▁matter	-3001
▁opened	-3002
▁orders	-3003
▁pieces	-3004
▁prices	-3005
▁prison	-3006
▁promis	-3007
▁satisf	-3008
▁script	-3009
▁spread	-3010
▁traded	-3011
▁trying	-3012
▁twenty	-3013
Relating	-3014
itutions	-3015
▁Abraham	-3016
▁Absalom	-3017
▁Desktop	-3018
▁Ephraim	-3019
▁Insurer	-3020
▁Majesty	-3021
▁Samaria	-3022
▁airport	-3023
▁clothes	-3024
▁compens	-3025
▁context	-3026
▁created	-3027
▁curtain	-3028
▁deficit	-3029
▁deliver	-3030
▁farmers	-3031
▁forward	-3032
▁getting	-3033
▁husband	-3034
▁improve	-3035
▁inadequ	-3036
▁introdu	-3037
▁natural	-3038
▁offence	-3039
▁prepare	-3040
▁prevent	-3041
▁prophet	-3042
▁quality	-3043
▁require	-3044
▁started	-3045
▁suspend	-3046
▁version	-3047
▁windows	-3048
▁working	-3049
▁worship	-3050
repreneur	-3051
▁Academic	-3052
▁Although	-3053
▁Services	-3054
▁Training	-3055
▁apostles	-3056
▁building	-3057
▁carrying	-3058
▁delivery	-3059
▁electric	-3060
▁entrance	-3061
▁exercise	-3062
▁facility	-3063
▁followed	-3064
▁generate	-3065
▁interest	-3066
▁kindness	-3067
▁licensee	-3068
▁minerals	-3069
▁mobilize	-3070
▁priority	-3071
▁products	-3072
▁quantity	-3073
▁question	-3074
▁requires	-3075
▁settings	-3076
▁soldiers	-3077
▁transfer	-3078
▁Municipal	-3079
▁Therefore	-3080
▁administr	-3081
▁beautiful	-3082
▁confident	-3083
▁countries	-3084
▁daughters	-3085
▁delivered	-3086
▁direction	-3087
▁estimated	-3088
▁hospitals	-3089
▁important	-3090
▁knowledge	-3091
▁livestock	-3092
▁objective	-3093
▁published	-3094
▁receiving	-3095
▁recovered	-3096
▁relations	-3097
▁sacrifice	-3098
▁Provisions	-3099
▁collecting	-3100
▁developing	-3101
▁objectives	-3102
▁themselves	-3103
▁throughout	-3104
............	-3105
▁Information	-3106
▁constituted	-3107
▁convertible	-3108
▁examination	-3109
▁feasibility	-3110
▁immediately	-3111
▁publication	-3112
▁transaction	-3113
▁Conservation	-3114
▁arrangements	-3115
▁installation	-3116
▁International	-3117
▁Miscellaneous	-3118
▁investigation	-3119
▁participation	-3120
▁responsibility	-3121
".	-3122
-5	-3123
-7	-3124
.2	-3125
/9	-3126
0)	-3127
12	-3128
6,	-3129
8,	-3130
AP	-3131
RL	-3132
US	-3133
ba	-3134
bt	-3135
by	-3136
de	-3137
dy	-3138
fr	-3139
gu	-3140
pa	-3141
ua	-3142
100	-3143
2.1	-3144
Let	-3145
Sec	-3146
Why	-3147
aim	-3148
cks	-3149
com	-3150
eps	-3151
eys	-3152
fig	-3153
gun	-3154
iss	-3155
joy	-3156
ket	-3157
leb	-3158
min	-3159
nag	-3160
oad	-3161
ole	-3162
oom	-3163
pin	-3164
pty	-3165
rie	-3166
sau	-3167
see	-3168
set	-3169
ude	-3170
vat	-3171
way	-3172
wer	-3173
wit	-3174
▁13	-3175
▁17	-3176
▁21	-3177
▁22	-3178
▁25	-3179
▁3,	-3180
▁4.	-3181
▁Bi	-3182
▁Bo	-3183
▁Co	-3184
▁Ed	-3185
▁Gr	-3186
▁Im	-3187
▁KW	-3188
▁MW	-3189
▁bo	-3190
ably	-3191
aily	-3192
aked	-3193
akes	-3194
aned	-3195
anel	-3196
ases	-3197
ason	-3198
atab	-3199
cape	-3200
cast	-3201
cest	-3202
chan	-3203
chem	-3204
chie	-3205
date	-3206
emon	-3207
eric	-3208
face	-3209
gged	-3210
gunj	-3211
hort	-3212
ians	-3213
ifts	-3214
iled	-3215
iple	-3216
irst	-3217
ises	-3218
line	-3219
mber	-3220
mons	-3221
ocus	-3222
olog	-3223
osen	-3224
quid	-3225
raft	-3226
raph	-3227
rely	-3228
rote	-3229
sing	-3230
ties	-3231
utes	-3232
utor	-3233
yard	-3234
▁Amm	-3235
▁Att	-3236
▁Bar	-3237
▁Enc	-3238
▁Eng	-3239
▁Eve	-3240
▁Far	-3241
▁Ign	-3242
▁Kat	-3243
▁Key	-3244
▁Kig	-3245
▁Lab	-3246
▁Mid	-3247
▁Net	-3248
▁Per	-3249
▁Pre	-3250
▁Reh	-3251
▁Rel	-3252
▁Web	-3253
▁Woe	-3254
▁Zim	-3255
▁aim	-3256
▁ate	-3257
▁bio	-3258
▁cal	-3259
▁cat	-3260
▁dev	-3261
▁dom	-3262
▁dou	-3263
▁enh	-3264
▁fig	-3265
▁fis	-3266
▁fre	-3267
▁job	-3268
▁led	-3269
▁lia	-3270
▁log	-3271
▁maj	-3272
▁obl	-3273
▁rev	-3274
▁sam	-3275
▁sav	-3276
▁sky	-3277
▁som	-3278
▁sun	-3279
▁tab	-3280
▁tas	-3281
▁tre	-3282
▁und	-3283
▁vac	-3284
▁wat	-3285
▁why	-3286
anies	-3287
antly	-3288
ariat	-3289
aries	-3290
arily	-3291
atory	-3292
based	-3293
bered	-3294
ehold	-3295
eople	-3296
epend	-3297
erved	-3298
gment	-3299
gress	-3300
herit	-3301
icial	-3302
iddle	-3303
ients	-3304
iling	-3305
inary	-3306
itude	-3307
ories	-3308
orted	-3309
ottom	-3310
right	-3311
tered	-3312
utive	-3313
vable	-3314
venth	-3315
verse	-3316
vious	-3317
▁(2),	-3318
▁(201	-3319
▁2055	-3320
▁Azar	-3321
▁Elah	-3322
▁Esau	-3323
▁Full	-3324
▁John	-3325
▁Levi	-3326
▁Mail	-3327
▁Many	-3328
▁Move	-3329
▁Next	-3330
▁Note	-3331
▁Nove	-3332
▁Part	-3333
▁Prom	-3334
▁Rest	-3335
▁Such	-3336
▁Thus	-3337
▁Trib	-3338
▁Upon	-3339
▁airc	-3340
▁base	-3341
▁blue	-3342
▁bold	-3343
▁bull	-3344
▁cour	-3345
▁cult	-3346
▁data	-3347
▁dedu	-3348
▁dove	-3349
▁drop	-3350
▁dust	-3351
▁fair	-3352
▁feed	-3353
▁fest	-3354
▁font	-3355
▁fort	-3356
▁fund	-3357
▁furn	-3358
▁goat	-3359
▁gone	-3360
▁guid	-3361
▁heal	-3362
▁keys	-3363
▁kidn	-3364
▁latr	-3365
▁loan	-3366
▁mail	-3367
▁menu	-3368
▁neck	-3369
▁news	-3370
▁none	-3371
▁plot	-3372
▁prob	-3373
▁rams	-3374
▁room	-3375
▁seek	-3376
▁self	-3377
▁sign	-3378
▁size	-3379
▁spok	-3380
▁suit	-3381
▁teac	-3382
▁trem	-3383
▁trou	-3384
▁unit	-3385
▁upto	-3386
▁ving	-3387
▁weak	-3388
▁week	-3389
▁wide	-3390
▁wine	-3391
▁wise	-3392
ateral	-3393
ecause	-3394
ending	-3395
engers	-3396
erican	-3397
ishing	-3398
otechn	-3399
panied	-3400
pector	-3401
pinion	-3402
reater	-3403
remiah	-3404
venant	-3405
▁Allow	-3406
▁Civil	-3407
▁Class	-3408
▁Every	-3409
▁Group	-3410
▁Leave	-3411
▁Organ	-3412
▁Prime	-3413
▁Terai	-3414
▁Those	-3415
▁Three	-3416
▁Under	-3417
▁achie	-3418
▁added	-3419
▁angel	-3420
▁anger	-3421
▁block	-3422
▁broad	-3423
▁built	-3424
▁celeb	-3425
▁claim	-3426
▁clean	-3427
▁convi	-3428
▁corre	-3429
▁daily	-3430
▁deleg	-3431
▁doesn	-3432
▁email	-3433
▁empty	-3434
▁enjoy	-3435
▁exten	-3436
▁falls	-3437
▁focus	-3438
▁fully	-3439
▁gifts	-3440
▁grass	-3441
▁heads	-3442
▁index	-3443
▁input	-3444
▁items	-3445
▁judge	-3446
▁kinds	-3447
▁least	-3448
▁lower	-3449
▁midst	-3450
▁minds	-3451
▁needs	-3452
▁north	-3453
▁owned	-3454
▁panel	-3455
▁posts	-3456
▁pregn	-3457
▁radio	-3458
▁regul	-3459
▁reign	-3460
▁roads	-3461
▁ruler	-3462
▁scale	-3463
▁shows	-3464
▁skill	-3465
▁slave	-3466
▁space	-3467
▁thick	-3468
▁title	-3469
▁trust	-3470
▁video	-3471
▁voice	-3472
▁waste	-3473
▁widow	-3474
▁worth	-3475
▁wrote	-3476
arantee	-3477
atabase	-3478
atively	-3479
cestors	-3480
ghteous	-3481
itation	-3482
ouraged	-3483
respond	-3484
retched	-3485
▁Bethel	-3486
▁Centre	-3487
▁Couldn	-3488
▁Delete	-3489
▁Fourth	-3490
▁Hamath	-3491
▁Joshua	-3492
▁KPilot	-3493
▁Listen	-3494
▁Number	-3495
▁Object	-3496
▁Reason	-3497
▁Search	-3498
▁almost	-3499
▁annual	-3500
▁basket	-3501
▁bottom	-3502
▁broken	-3503
▁buried	-3504
▁center	-3505
▁chosen	-3506
▁closed	-3507
▁compar	-3508
▁contra	-3509
▁defeat	-3510
▁desert	-3511
▁extend	-3512
▁fiscal	-3513
▁formed	-3514
▁framed	-3515
▁guides	-3516
▁hearts	-3517
▁helped	-3518
▁images	-3519
▁liquid	-3520
▁master	-3521
▁module	-3522
▁needed	-3523
▁others	-3524
▁please	-3525
▁postal	-3526
▁purple	-3527
▁raised	-3528
▁random	-3529
▁really	-3530
▁rebell	-3531
▁refund	-3532
▁regard	-3533
▁remove	-3534
▁repair	-3535
▁saving	-3536
▁school	-3537
▁screen	-3538
▁street	-3539
▁struck	-3540
▁thirty	-3541
▁unable	-3542
▁undert	-3543
▁walked	-3544
▁wicked	-3545
▁wisdom	-3546
▁worker	-3547
appropri	-3548
ceedings	-3549
essional	-3550
icularly	-3551
ormation	-3552
▁Academy	-3553
▁Amounts	-3554
▁Azariah	-3555
▁Details	-3556
▁Disable	-3557
▁Everest	-3558
▁Project	-3559
▁Seventh	-3560
▁amongst	-3561
▁attempt	-3562
▁banking	-3563
▁centers	-3564
▁central	-3565
▁changes	-3566
▁connect	-3567
▁consist	-3568
▁council	-3569
▁disease	-3570
▁earlier	-3571
▁economy	-3572
▁effects	-3573
▁efforts	-3574
▁entered	-3575
▁failure	-3576
▁filling	-3577
▁friends	-3578
▁fulfill	-3579
▁further	-3580
▁grounds	-3581
▁however	-3582
▁inherit	-3583
▁instead	-3584
▁limited	-3585
▁looking	-3586
▁machine	-3587
▁maximum	-3588
▁minimum	-3589
▁neither	-3590
▁network	-3591
▁numbers	-3592
▁offered	-3593
▁offices	-3594
▁omitted	-3595
▁options	-3596
▁playing	-3597
▁portion	-3598
▁promote	-3599
▁records	-3600
▁recover	-3601
▁removed	-3602
▁savings	-3603
▁sectors	-3604
▁sitting	-3605
▁sources	-3606
▁strengt	-3607
▁studies	-3608
▁thereof	-3609
▁tourism	-3610
▁waiting	-3611
unication	-3612
uthorized	-3613
▁American	-3614
▁Jeremiah	-3615
▁Minister	-3616
▁Nepalese	-3617
▁Passover	-3618
▁aircraft	-3619
▁consumer	-3620
▁covenant	-3621
▁currency	-3622
▁directly	-3623
▁division	-3624
▁estimate	-3625
▁garments	-3626
▁original	-3627
▁patience	-3628
▁position	-3629
▁programs	-3630
▁promised	-3631
▁proposal	-3632
▁purposes	-3633
▁specific	-3634
▁teaching	-3635
ordination	-3636
▁Corporate	-3637
▁Evolution	-3638
▁Financial	-3639
▁Functions	-3640
▁Similarly	-3641
▁ancestors	-3642
▁attention	-3643
▁attribute	-3644
▁captivity	-3645
▁collector	-3646
▁commenced	-3647
▁complaint	-3648
▁completed	-3649
▁determine	-3650
▁developed	-3651
▁difficult	-3652
▁documents	-3653
▁effective	-3654
▁execution	-3655
▁extension	-3656
▁firstborn	-3657
▁forgotten	-3658
▁fulfilled	-3659
▁furnished	-3660
▁guarantee	-3661
▁interface	-3662
▁involving	-3663
▁pollution	-3664
▁president	-3665
▁remaining	-3666
otechnology	-3667
▁Industrial	-3668
▁Regulation	-3669
▁accomplish	-3670
▁connection	-3671
▁consultant	-3672
▁correspond	-3673
▁encouraged	-3674
▁experience	-3675
▁identified	-3676
▁individual	-3677
▁messengers	-3678
▁operations	-3679
▁priorities	-3680
▁submission	-3681
▁Association	-3682
▁Certificate	-3683
▁Definitions	-3684
▁Philistines	-3685
▁accompanied	-3686
▁association	-3687
▁description	-3688
▁inheritance	-3689
▁opportunity	-3690
▁proceedings	-3691
▁responsible	-3692
▁Municipality	-3693
▁compensation	-3694
▁entrepreneur	-3695
▁professional	-3696
▁effectiveness	-3697
▁establishment	-3698
▁Administration	-3699
▁Authentication	-3700
▁administrative	-3701
▁recommendation	-3702
▁representative	-3703
',	-3704
):	-3705
-2	-3706
./	-3707
0,	-3708
1)	-3709
10	-3710
34	-3711
73	-3712
9,	-3713
CT	-3714
Ch	-3715
Go	-3716
He	-3717
IM	-3718
IN	-3719
IP	-3720
ML	-3721
OR	-3722
YY	-3723
di	-3724
eb	-3725
gs	-3726
ma	-3727
rs	-3728
sc	-3729
tr	-3730
tt	-3731
uf	-3732
ya	-3733
zz	-3734
▁;	-3735
▁x	-3736
(19	-3737
-19	-3738
DAP	-3739
LRB	-3740
RRB	-3741
TML	-3742
Yes	-3743
aan	-3744
acy	-3745
ada	-3746
ago	-3747
alm	-3748
aom	-3749
aud	-3750
aun	-3751
awa	-3752
aws	-3753
bro	-3754
cel	-3755
dal	-3756
ech	-3757
eds	-3758
esh	-3759
fit	-3760
gia	-3761
him	-3762
iff	-3763
ilk	-3764
irl	-3765
jud	-3766
lia	-3767
lim	-3768
lus	-3769
men	-3770
ola	-3771
ony	-3772
oor	-3773
oul	-3774
pec	-3775
pet	-3776
pip	-3777
rag	-3778
rar	-3779
reg	-3780
sid	-3781
sor	-3782
tes	-3783
tha	-3784
ula	-3785
uli	-3786
ush	-3787
wan	-3788
yur	-3789
▁00	-3790
▁24	-3791
▁40	-3792
▁6.	-3793
▁75	-3794
▁8.	-3795
▁9.	-3796
▁Bh	-3797
▁Br	-3798
▁Em	-3799
/2	-3800
1.	-3801
Do	-3802
ha	-3803
But	-3804
gth	-3805
ses	-3806
▁(4	-3807
▁Fl	-3808
▁Fr	-3809
▁Gu	-3810
▁Ha	-3811
▁IM	-3812
▁PC	-3813
▁PD	-3814
▁Sm	-3815
▁Su	-3816
▁Up	-3817
▁Wr	-3818
▁bi	-3819
▁da	-3820
▁ly	-3821
▁ox	-3822
▁vo	-3823
Come	-3824
July	-3825
This	-3826
What	-3827
When	-3828
abul	-3829
aced	-3830
ades	-3831
alid	-3832
amah	-3833
amar	-3834
ambs	-3835
amin	-3836
ancy	-3837
aomi	-3838
apol	-3839
aran	-3840
ards	-3841
asur	-3842
atra	-3843
ctly	-3844
cuts	-3845
edar	-3846
elah	-3847
enal	-3848
erod	-3849
fect	-3850
ffic	-3851
full	-3852
ghat	-3853
grad	-3854
heri	-3855
iath	-3856
ibly	-3857
ilty	-3858
iram	-3859
isdi	-3860
isor	-3861
iver	-3862
ixed	-3863
kely	-3864
king	-3865
know	-3866
lech	-3867
lets	-3868
lies	-3869
list	-3870
lled	-3871
miss	-3872
more	-3873
mosp	-3874
ners	-3875
nome	-3876
odes	-3877
ongh	-3878
orah	-3879
ords	-3880
ores	-3881
orum	-3882
pand	-3883
phod	-3884
ples	-3885
pril	-3886
pted	-3887
rary	-3888
reme	-3889
rose	-3890
roud	-3891
rown	-3892
rows	-3893
ruit	-3894
time	-3895
uary	-3896
urbs	-3897
vest	-3898
vior	-3899
word	-3900
year	-3901
▁(5)	-3902
▁(7)	-3903
▁...	-3904
▁12.	-3905
▁13.	-3906
▁22.	-3907
▁Aff	-3908
▁Alt	-3909
▁Ant	-3910
▁Art	-3911
▁Bad	-3912
▁Bal	-3913
▁Cal	-3914
▁Dam	-3915
▁Don	-3916
▁Due	-3917
▁Eli	-3918
▁Est	-3919
▁Fac	-3920
▁GDM	-3921
▁Jan	-3922
▁Ken	-3923
▁Mah	-3924
▁Mal	-3925
▁Mer	-3926
▁Mic	-3927
▁Min	-3928
▁Nab	-3929
▁Nec	-3930
▁Ret	-3931
▁Rib	-3932
▁Str	-3933
▁Sus	-3934
▁Try	-3935
▁URL	-3936
▁Uzz	-3937
▁Why	-3938
▁aid	-3939
▁ali	-3940
▁bal	-3941
▁bat	-3942
▁beh	-3943
▁bul	-3944
▁cry	-3945
▁den	-3946
▁dig	-3947
▁ess	-3948
▁eye	-3949
▁far	-3950
▁fem	-3951
▁few	-3952
▁got	-3953
▁hot	-3954
▁iod	-3955
▁lod	-3956
▁mud	-3957
▁nar	-3958
▁neg	-3959
▁pet	-3960
▁pit	-3961
▁rej	-3962
▁sha	-3963
▁sor	-3964
▁suc	-3965
▁ter	-3966
▁tim	-3967
▁tow	-3968
▁van	-3969
▁via	-3970
▁wag	-3971
▁wit	-3972
,000.	-3973
Short	-3974
There	-3975
aacah	-3976
ached	-3977
achel	-3978
ahawa	-3979
anced	-3980
anged	-3981
cised	-3982
edure	-3983
esman	-3984
ethod	-3985
fully	-3986
hened	-3987
ialog	-3988
icago	-3989
ickly	-3990
idend	-3991
iesel	-3992
ifted	-3993
ighty	-3994
ilead	-3995
ilies	-3996
imron	-3997
ising	-3998
known	-3999
lling	-4000
mises	-4001
nders	-4002
ocent	-4003
odies	-4004
oined	-4005
oming	-4006
onent	-4007
oples	-4008
orgia	-4009
orner	-4010
orses	-4011
osing	-4012
ounce	-4013
owing	-4014
plate	-4015
point	-4016
power	-4017
ribut	-4018
rison	-4019
rived	-4020
ufact	-4021
ugins	-4022
ungry	-4023
urvey	-4024
uters	-4025
uting	-4026
valid	-4027
venty	-4028
witch	-4029
▁(197	-4030
▁2006	-4031
▁Amor	-4032
▁Ayur	-4033
▁Boaz	-4034
▁Brit	-4035
▁Cain	-4036
▁Conn	-4037
▁Copy	-4038
▁Docu	-4039
▁Each	-4040
▁Even	-4041
▁Exec	-4042
▁From	-4043
▁Gers	-4044
▁Hear	-4045
▁Home	-4046
▁Hosp	-4047
▁Issu	-4048
▁Karn	-4049
▁LDAP	-4050
▁Last	-4051
▁Mary	-4052
▁More	-4053
▁News	-4054
▁None	-4055
▁Play	-4056
▁Poss	-4057
▁Prad	-4058
▁Prin	-4059
▁Rock	-4060
▁Shem	-4061
▁Sher	-4062
▁Text	-4063
▁Tour	-4064
▁User	-4065
▁Your	-4066
▁Zion	-4067
▁arms	-4068
▁bene	-4069
▁bird	-4070
▁bond	-4071
▁cave	-4072
▁cens	-4073
▁crim	-4074
▁dear	-4075
▁dece	-4076
▁diss	-4077
▁door	-4078
▁hard	-4079
▁harm	-4080
▁hind	-4081
▁hire	-4082
▁hope	-4083
▁host	-4084
▁hour	-4085
▁idol	-4086
▁infr	-4087
▁insp	-4088
▁item	-4089
▁kins	-4090
▁knew	-4091
▁lock	-4092
▁lost	-4093
▁loud	-4094
▁meal	-4095
▁mine	-4096
▁mist	-4097
▁offe	-4098
▁path	-4099
▁poor	-4100
▁pour	-4101
▁prec	-4102
▁pred	-4103
▁pron	-4104
▁pros	-4105
▁pull	-4106
▁reli	-4107
▁road	-4108
▁sand	-4109
▁scat	-4110
▁seem	-4111
▁side	-4112
▁soul	-4113
▁spun	-4114
▁stri	-4115
▁sugg	-4116
▁surn	-4117
▁tags	-4118
▁tele	-4119
▁thus	-4120
▁tons	-4121
▁tree	-4122
▁vain	-4123
▁vari	-4124
▁vine	-4125
▁vote	-4126
▁wars	-4127
▁zoom	-4128
Behold	-4129
acters	-4130
ancell	-4131
ansion	-4132
artial	-4133
atever	-4134
charge	-4135
cribes	-4136
elines	-4137
ellate	-4138
erness	-4139
ething	-4140
formed	-4141
ground	-4142
hentic	-4143
nesses	-4144
ottage	-4145
overty	-4146
phrase	-4147
prises	-4148
quency	-4149
ressed	-4150
server	-4151
ulated	-4152
urisdi	-4153
vighat	-4154
▁Advis	-4155
▁April	-4156
▁Bheri	-4157
▁Birat	-4158
▁Elish	-4159
▁Encry	-4160
▁Force	-4161
▁Great	-4162
▁Hamor	-4163
▁Haran	-4164
▁Hiram	-4165
▁India	-4166
▁James	-4167
▁Naomi	-4168
▁Press	-4169
▁Ramah	-4170
▁Right	-4171
▁Selah	-4172
▁Shall	-4173
▁Short	-4174
▁Speak	-4175
▁Total	-4176
▁Trade	-4177
▁Trust	-4178
▁Users	-4179
▁Zimri	-4180
▁abund	-4181
▁alarm	-4182
▁alive	-4183
▁alone	-4184
▁amend	-4185
▁annum	-4186
▁arose	-4187
▁assig	-4188
▁audio	-4189
▁black	-4190
▁blank	-4191
▁bones	-4192
▁bowls	-4193
▁brick	-4194
▁cedar	-4195
▁chast	-4196
▁chose	-4197
▁cloud	-4198
▁costs	-4199
▁defin	-4200
▁delay	-4201
▁desol	-4202
▁early	-4203
▁elect	-4204
▁enfor	-4205
▁ephod	-4206
▁espec	-4207
▁floor	-4208
▁forms	-4209
▁goats	-4210
▁grace	-4211
▁happy	-4212
▁hilly	-4213
▁honey	-4214
▁honor	-4215
▁inhab	-4216
▁inner	-4217
▁lambs	-4218
▁layer	-4219
▁lines	-4220
▁media	-4221
▁metal	-4222
▁mixed	-4223
▁moved	-4224
▁music	-4225
▁naked	-4226
▁noise	-4227
▁older	-4228
▁persu	-4229
▁print	-4230
▁raise	-4231
▁reach	-4232
▁ready	-4233
▁revel	-4234
▁river	-4235
▁sight	-4236
▁solid	-4237
▁stage	-4238
▁stars	-4239
▁steps	-4240
▁stone	-4241
▁store	-4242
▁storm	-4243
▁super	-4244
▁terms	-4245
▁thigh	-4246
▁towns	-4247
▁trees	-4248
▁tried	-4249
▁walks	-4250
▁wants	-4251
▁whose	-4252
▁wings	-4253
▁wives	-4254
abulary	-4255
actions	-4256
anation	-4257
casting	-4258
imelech	-4259
itative	-4260
mittees	-4261
ociated	-4262
onghold	-4263
osition	-4264
pension	-4265
ropower	-4266
unities	-4267
western	-4268
▁12,000	-4269
▁Andrew	-4270
▁Armies	-4271
▁Canaan	-4272
▁Choose	-4273
▁Eighth	-4274
▁Except	-4275
▁Export	-4276
▁Folder	-4277
▁Gilead	-4278
▁Health	-4279
▁Ignore	-4280
▁Maacah	-4281
▁Market	-4282
▁Powers	-4283
▁Punish	-4284
▁Reform	-4285
▁Riblah	-4286
▁Savior	-4287
▁Secret	-4288
▁Should	-4289
▁Switch	-4290
▁System	-4291
▁acting	-4292
▁angels	-4293
▁appeal	-4294
▁arrest	-4295
▁atmosp	-4296
▁battle	-4297
▁branch	-4298
▁breast	-4299
▁burned	-4300
▁button	-4301
▁campus	-4302
▁causes	-4303
▁choose	-4304
▁clause	-4305
▁comply	-4306
▁consid	-4307
▁corner	-4308
▁course	-4309
▁crimes	-4310
▁daemon	-4311
▁degrad	-4312
▁demons	-4313
▁dialog	-4314
▁double	-4315
▁either	-4316
▁elders	-4317
▁engine	-4318
▁expiry	-4319
▁factor	-4320
▁female	-4321
▁forced	-4322
▁guilty	-4323
▁handle	-4324
▁hereby	-4325
▁hiding	-4326
▁honest	-4327
▁horses	-4328
▁hungry	-4329
▁impact	-4330
▁impose	-4331
▁inform	-4332
▁inside	-4333
▁invent	-4334
▁joined	-4335
▁judged	-4336
▁levels	-4337
▁liable	-4338
▁listed	-4339
▁matern	-4340
▁mechan	-4341
▁medium	-4342
▁memory	-4343
▁method	-4344
▁middle	-4345
▁mining	-4346
▁motion	-4347
▁mouths	-4348
▁musium	-4349
▁necess	-4350
▁parent	-4351
▁passed	-4352
▁paying	-4353
▁perman	-4354
▁points	-4355
▁profit	-4356
▁quorum	-4357
▁refuse	-4358
▁remain	-4359
▁remote	-4360
▁rescue	-4361
▁sample	-4362
▁served	-4363
▁shares	-4364
▁shield	-4365
▁showed	-4366
▁single	-4367
▁slaves	-4368
▁slight	-4369
▁stones	-4370
▁subsid	-4371
▁surely	-4372
▁talked	-4373
▁thanks	-4374
▁thirst	-4375
▁unread	-4376
▁update	-4377
▁vacant	-4378
▁viewer	-4379
▁wanted	-4380
▁washed	-4381
▁worked	-4382
airahawa	-4383
aluation	-4384
ependent	-4385
ignation	-4386
missions	-4387
teration	-4388
▁Ayurved	-4389
▁Default	-4390
▁Georgia	-4391
▁Gershon	-4392
▁Hundred	-4393
▁Invalid	-4394
▁Justice	-4395
▁Karnali	-4396
▁Mailbox	-4397
▁Process	-4398
▁Shechem	-4399
▁Shimron	-4400
▁Tourism	-4401
▁Welfare	-4402
▁Whereas	-4403
▁Whoever	-4404
▁Written	-4405
▁absence	-4406
▁accused	-4407
▁achieve	-4408
▁actions	-4409
▁adverse	-4410
▁animals	-4411
▁auditor	-4412
▁awarded	-4413
▁besides	-4414
▁billion	-4415
▁blessed	-4416
▁ceiling	-4417
▁channel	-4418
▁closely	-4419
▁columns	-4420
▁decline	-4421
▁divided	-4422
▁enhance	-4423
▁example	-4424
▁experts	-4425
▁factors	-4426
▁falling	-4427
▁foolish	-4428
▁greater	-4429
▁history	-4430
▁initial	-4431
▁integer	-4432
▁intends	-4433
▁invalid	-4434
▁issuing	-4435
▁kidneys	-4436
▁liaison	-4437
▁located	-4438
▁monitor	-4439
▁operate	-4440
▁opinion	-4441
▁package	-4442
▁peoples	-4443
▁perfect	-4444
▁planned	-4445
▁poverty	-4446
▁produce	-4447
▁profile	-4448
▁prophes	-4449
▁quickly	-4450
▁regular	-4451
▁replies	-4452
▁restart	-4453
▁returns	-4454
▁running	-4455
▁scribes	-4456
▁selling	-4457
▁serious	-4458
▁session	-4459
▁seventy	-4460
▁someone	-4461
▁specify	-4462
▁suburbs	-4463
▁surname	-4464
▁taxable	-4465
▁tenders	-4466
▁thereto	-4467
▁trading	-4468
▁trained	-4469
▁upgrade	-4470
▁village	-4471
▁visited	-4472
▁welfare	-4473
▁writing	-4474
Secretary	-4475
Shortcuts	-4476
amination	-4477
ributions	-4478
risonment	-4479
ructuring	-4480
▁........	-4481
▁Agricult	-4482
▁Amorites	-4483
▁Egyptian	-4484
▁Election	-4485
▁Hananiah	-4486
▁Hospital	-4487
▁Internal	-4488
▁Messages	-4489
▁Mountain	-4490
▁November	-4491
▁Pharisee	-4492
▁Regional	-4493
▁Rehoboam	-4494
▁Remember	-4495
▁Settings	-4496
▁Thousand	-4497
▁Transfer	-4498
▁Tribunal	-4499
▁accident	-4500
▁accounts	-4501
▁articles	-4502
▁blessing	-4503
▁captured	-4504
▁category	-4505
▁circumst	-4506
▁compared	-4507
▁constant	-4508
▁contains	-4509
▁contents	-4510
▁criminal	-4511
▁declared	-4512
▁directed	-4513
▁diseases	-4514
▁evaluate	-4515
▁external	-4516
▁families	-4517
▁festival	-4518
▁finished	-4519
▁included	-4520
▁includes	-4521
▁innocent	-4522
▁judgment	-4523
▁language	-4524
▁latrines	-4525
▁machines	-4526
▁majority	-4527
▁manpower	-4528
▁measured	-4529
▁observer	-4530
▁occurred	-4531
▁planning	-4532
▁positive	-4533
▁possibly	-4534
▁powerful	-4535
▁pregnant	-4536
▁premises	-4537
▁presence	-4538
▁previous	-4539
▁printing	-4540
▁probably	-4541
▁problems	-4542
▁progress	-4543
▁proposed	-4544
▁provider	-4545
▁recovery	-4546
▁register	-4547
▁relation	-4548
▁relative	-4549
▁returned	-4550
▁sectoral	-4551
▁strength	-4552
▁subjects	-4553
▁teachers	-4554
▁template	-4555
▁tourists	-4556
▁vehicles	-4557
▁vineyard	-4558
▁watching	-4559
▁withheld	-4560
henticated	-4561
ifications	-4562
▁According	-4563
▁Administr	-4564
▁Appellate	-4565
▁Automatic	-4566
▁Community	-4567
▁Construct	-4568
▁Documents	-4569
▁Inspector	-4570
▁Insurance	-4571
▁Ministers	-4572
▁Pharisees	-4573
▁Promotion	-4574
▁Registrar	-4575
▁Selection	-4576
▁accounted	-4577
▁allowance	-4578
▁believers	-4579
▁buildings	-4580
▁character	-4581
▁community	-4582
▁companies	-4583
▁conducted	-4584
▁conductor	-4585
▁convicted	-4586
▁corporate	-4587
▁depending	-4588
▁deposited	-4589
▁disciples	-4590
▁entertain	-4591
▁essential	-4592
▁expansion	-4593
▁foodgrain	-4594
▁forwarded	-4595
▁gradually	-4596
▁improving	-4597
▁intention	-4598
▁liability	-4599
▁locations	-4600
▁merchants	-4601
▁preparing	-4602
▁procedure	-4603
▁protected	-4604
▁requested	-4605
▁righteous	-4606
▁satisfied	-4607
▁something	-4608
▁standards	-4609
▁statement	-4610
▁stretched	-4611
▁structure	-4612
▁suffering	-4613
▁supported	-4614
▁traveling	-4615
urisdiction	-4616
▁Committees	-4617
▁Industries	-4618
▁Punishment	-4619
▁affliction	-4620
▁assignment	-4621
▁associated	-4622
▁atmosphere	-4623
▁attempting	-4624
▁characters	-4625
▁collection	-4626
▁concerning	-4627
▁constitute	-4628
▁designated	-4629
▁difference	-4630
▁encryption	-4631
▁especially	-4632
▁guidelines	-4633
▁hydropower	-4634
▁inspection	-4635
▁introduced	-4636
▁prostitute	-4637
▁publishing	-4638
▁reasonable	-4639
▁resolution	-4640
▁sanitation	-4641
▁stronghold	-4642
▁submitting	-4643
▁sufficient	-4644
▁supervisor	-4645
▁suspension	-4646
▁undertaken	-4647
▁vocabulary	-4648
▁vocational	-4649
▁wilderness	-4650
▁yourselves	-4651
▁Departments	-4652
▁Expenditure	-4653
▁Secretariat	-4654
▁Transaction	-4655
▁affiliation	-4656
▁agriculture	-4657
▁appointment	-4658
▁arrangement	-4659
▁commandment	-4660
▁competition	-4661
▁degradation	-4662
▁distributed	-4663
▁electricity	-4664
▁instruments	-4665
▁investments	-4666
▁liquidation	-4667
▁permissions	-4668
▁possibility	-4669
▁qualitative	-4670
▁regulations	-4671
▁transferred	-4672
▁Constitution	-4673
▁accomplished	-4674
▁corporations	-4675
▁governmental	-4676
▁imprisonment	-4677
▁institutions	-4678
▁particularly	-4679
▁strengthened	-4680
▁transactions	-4681
▁Biotechnology	-4682
▁authenticated	-4683
▁certification	-4684
▁documentation	-4685
▁institutional	-4686
▁qualification	-4687
▁restructuring	-4688
▁understanding	-4689
▁authentication	-4690
:.	-4691
MT	-4692
-1.	-4693
-11	-4694
-12	-4695
.16	-4696
0.5	-4697
1/9	-4698
34;	-4699
11	-4700
Ar	-4701
PN	-4702
6),	-4703
64)	-4704
ING	-4705
KDE	-4706
Mrs	-4707
One	-4708
Raw	-4709
Who	-4710
ady	-4711
arb	-4712
ati	-4713
bsp	-4714
ipe	-4715
lip	-4716
net	-4717
non	-4718
ocB	-4719
pha	-4720
pur	-4721
xes	-4722
▁3/	-4723
▁69	-4724
▁Ah	-4725
▁pa	-4726
▁wo	-4727
▁“”	-4728
-4-1	-4729
1(19	-4730
Back	-4731
Drag	-4732
MRaw	-4733
Then	-4734
afay	-4735
alys	-4736
amph	-4737
asic	-4738
atri	-4739
auda	-4740
book	-4741
deem	-4742
dess	-4743
ekly	-4744
elay	-4745
file	-4746
gest	-4747
hapa	-4748
hood	-4749
idea	-4750
iece	-4751
ieth	-4752
ihon	-4753
inem	-4754
keys	-4755
kron	-4756
mael	-4757
mark	-4758
mpet	-4759
onze	-4760
ooka	-4761
osts	-4762
oths	-4763
phas	-4764
phir	-4765
piph	-4766
rase	-4767
rink	-4768
rosy	-4769
rugs	-4770
rush	-4771
semb	-4772
tent	-4773
uals	-4774
uddy	-4775
umbn	-4776
zill	-4777
▁(28	-4778
▁(6)	-4779
▁(8)	-4780
▁1.6	-4781
▁10.	-4782
▁11.	-4783
▁115	-4784
▁2.0	-4785
▁2.2	-4786
▁2.5	-4787
▁203	-4788
▁26.	-4789
▁3/4	-4790
▁3/8	-4791
▁4.3	-4792
▁6.5	-4793
▁7.7	-4794
▁Adv	-4795
▁Anc	-4796
▁Arz	-4797
▁Aug	-4798
▁BAR	-4799
My	-4800
▁?	-4801
.")	-4802
98)	-4803
aza	-4804
cle	-4805
egr	-4806
map	-4807
ram	-4808
▁79	-4809
▁Ut	-4810
▁sn	-4811
..."	-4812
ague	-4813
anna	-4814
lish	-4815
rone	-4816
tons	-4817
uven	-4818
vray	-4819
▁1/2	-4820
▁Ber	-4821
▁Bug	-4822
▁Cla	-4823
▁Cur	-4824
▁Dev	-4825
▁Ext	-4826
▁Fif	-4827
▁Had	-4828
▁Ing	-4829
▁Its	-4830
▁Jez	-4831
▁Job	-4832
▁Lam	-4833
▁Leg	-4834
▁Lib	-4835
▁Mod	-4836
▁PDF	-4837
▁Raj	-4838
▁Sup	-4839
▁VPN	-4840
▁Ver	-4841
▁Zeb	-4842
▁awa	-4843
▁box	-4844
▁cac	-4845
▁fav	-4846
▁joy	-4847
▁lot	-4848
▁map	-4849
▁nav	-4850
▁pil	-4851
▁row	-4852
▁swe	-4853
▁tie	-4854
▁tom	-4855
▁tou	-4856
▁una	-4857
▁vot	-4858
▁zer	-4859
Japan	-4860
PMRaw	-4861
Stret	-4862
Total	-4863
achin	-4864
acted	-4865
agand	-4866
agdal	-4867
agnos	-4868
aints	-4869
alted	-4870
arger	-4871
ashub	-4872
asury	-4873
athan	-4874
atisf	-4875
azaar	-4876
chers	-4877
chish	-4878
condu	-4879
edium	-4880
ekiah	-4881
elaws	-4882
ences	-4883
ength	-4884
enior	-4885
ephen	-4886
ertil	-4887
essee	-4888
gally	-4889
gging	-4890
ginie	-4891
guard	-4892
idder	-4893
ideon	-4894
iency	-4895
ifier	-4896
iloth	-4897
imize	-4898
inces	-4899
abb	-4900
dis	-4901
nec	-4902
sed	-4903
uff	-4904
▁23	-4905
▁Bu	-4906
▁Kh	-4907
agan	-4908
race	-4909
▁(17	-4910
▁500	-4911
▁ric	-4912
▁spo	-4913
▁sty	-4914
▁upl	-4915
Nepal	-4916
ailer	-4917
ators	-4918
cated	-4919
ccess	-4920
enger	-4921
ffice	-4922
iated	-4923
inder	-4924
inema	-4925
inese	-4926
iques	-4927
iquid	-4928
irits	-4929
jamin	-4930
kking	-4931
lands	-4932
luded	-4933
marks	-4934
nagog	-4935
night	-4936
omous	-4937
ondon	-4938
orage	-4939
ormal	-4940
osiah	-4941
ouder	-4942
peech	-4943
ppled	-4944
quart	-4945
racks	-4946
rible	-4947
rieve	-4948
ronic	-4949
scape	-4950
sheba	-4951
space	-4952
tract	-4953
unday	-4954
value	-4955
write	-4956
▁(2).	-4957
▁(3),	-4958
▁(3).	-4959
▁....	-4960
▁1983	-4961
▁2018	-4962
▁2020	-4963
▁2022	-4964
▁2040	-4965
▁2066	-4966
▁2073	-4967
▁42.1	-4968
▁Abel	-4969
▁Ahab	-4970
▁Also	-4971
▁Arab	-4972
▁Area	-4973
▁Arza	-4974
▁Assy	-4975
▁Bala	-4976
▁Bara	-4977
▁Bath	-4978
▁Calc	-4979
▁Camp	-4980
▁Char	-4981
▁Disc	-4982
▁DocB	-4983
▁Down	-4984
▁Edit	-4985
▁File	-4986
▁Flor	-4987
▁HTML	-4988
▁Haat	-4989
▁Inst	-4990
▁Jehu	-4991
▁Made	-4992
▁Mort	-4993
▁Nege	-4994
▁Only	-4995
▁Pars	-4996
▁Pray	-4997
▁Rise	-4998
▁Sect	-4999
15	-5000
ID	-5001
Os	-5002
bit	-5003
cus	-5004
dig	-5005
equ	-5006
jun	-5007
pre	-5008
urp	-5009
▁:-	-5010
▁Oh	-5011
Give	-5012
acle	-5013
ainf	-5014
akim	-5015
ette	-5016
icho	-5017
kill	-5018
lehe	-5019
lter	-5020
name	-5021
pply	-5022
▁10,	-5023
▁Aud	-5024
▁Pat	-5025
▁Run	-5026
▁ban	-5027
▁ben	-5028
▁das	-5029
▁fly	-5030
▁lea	-5031
▁pun	-5032
▁squ	-5033
▁usu	-5034
▁ven	-5035
▁vir	-5036
▁vol	-5037
ascus	-5038
cribe	-5039
erxes	-5040
ggers	-5041
ician	-5042
ildew	-5043
lehem	-5044
ocket	-5045
ongue	-5046
▁2000	-5047
▁Beer	-5048
▁Must	-5049
▁Over	-5050
▁Tele	-5051
▁Tues	-5052
▁Vice	-5053
▁Virt	-5054
▁Will	-5055
▁York	-5056
▁amaz	-5057
▁argu	-5058
▁aunt	-5059
▁bapt	-5060
▁bind	-5061
▁blow	-5062
▁boat	-5063
▁bore	-5064
▁bowl	-5065
▁brid	-5066
▁bulk	-5067
▁cell	-5068
▁chat	-5069
▁clim	-5070
▁coin	-5071
▁cook	-5072
▁coun	-5073
▁disk	-5074
▁draw	-5075
▁dung	-5076
▁ears	-5077
▁elig	-5078
▁fell	-5079
▁flat	-5080
▁hail	-5081
▁hote	-5082
▁immo	-5083
▁lame	-5084
▁lawy	-5085
▁leak	-5086
▁link	-5087
▁lips	-5088
▁lose	-5089
▁loss	-5090
▁mark	-5091
▁mbox	-5092
▁mode	-5093
▁nbsp	-5094
▁oath	-5095
▁oven	-5096
▁peak	-5097
▁phot	-5098
▁pict	-5099
':	-5100
,-	-5101
Is	-5102
It	-5103
bon	-5104
ids	-5105
itt	-5106
uct	-5107
zah	-5108
▁Ba	-5109
▁Lo	-5110
▁ll	-5111
▁rt	-5112
Lord	-5113
akle	-5114
anta	-5115
gend	-5116
herd	-5117
isms	-5118
ithm	-5119
like	-5120
ooth	-5121
reel	-5122
ston	-5123
vant	-5124
ying	-5125
▁12,	-5126
▁Div	-5127
▁Het	-5128
▁Him	-5129
▁Jet	-5130
▁Lot	-5131
▁Yet	-5132
▁eas	-5133
▁tit	-5134
arlia	-5135
irzah	-5136
losed	-5137
nagar	-5138
pherd	-5139
stock	-5140
ursed	-5141
▁Beth	-5142
▁comf	-5143
▁exit	-5144
▁lear	-5145
▁lord	-5146
▁mind	-5147
▁noon	-5148
▁quot	-5149
▁rang	-5150
▁rank	-5151
▁ring	-5152
▁rock	-5153
▁sear	-5154
▁seve	-5155
▁sins	-5156
▁site	-5157
▁soft	-5158
▁song	-5159
▁spat	-5160
▁spee	-5161
▁stre	-5162
▁tagn	-5163
▁task	-5164
▁turp	-5165
▁unsu	-5166
▁vast	-5167
▁viol	-5168
▁void	-5169
▁weep	-5170
▁wept	-5171
▁wood	-5172
▁wool	-5173
▁yoke	-5174
▁zero	-5175
Listen	-5176
Parlia	-5177
People	-5178
abling	-5179
ackals	-5180
actory	-5181
ainant	-5182
alysis	-5183
anagan	-5184
apolis	-5185
asters	-5186
atelic	-5187
chment	-5188
cience	-5189
elling	-5190
ension	-5191
ensive	-5192
equate	-5193
erived	-5194
erving	-5195
figure	-5196
iathar	-5197
idding	-5198
igious	-5199
-0	-5200
65	-5201
;:	-5202
Com	-5203
How	-5204
Now	-5205
agh	-5206
ana	-5207
ilm	-5208
irm	-5209
lly	-5210
neh	-5211
oll	-5212
raz	-5213
ria	-5214
seh	-5215
sem	-5216
unt	-5217
▁"%	-5218
▁47	-5219
▁MO	-5220
▁MS	-5221
▁py	-5222
Card	-5223
agar	-5224
gage	-5225
ilis	-5226
vile	-5227
your	-5228
▁%.2	-5229
▁Air	-5230
▁Get	-5231
▁Men	-5232
▁Par	-5233
▁Pol	-5234
▁Ref	-5235
▁Wom	-5236
▁deb	-5237
▁fro	-5238
▁mag	-5239
▁pal	-5240
▁tri	-5241
▁wed	-5242
agers	-5243
asseh	-5244
feren	-5245
oment	-5246
opies	-5247
seven	-5248
ulars	-5249
▁Anot	-5250
▁Debt	-5251
▁Gate	-5252
▁Gill	-5253
▁acts	-5254
▁eats	-5255
▁goes	-5256
▁ones	-5257
▁orna	-5258
▁shop	-5259
▁surv	-5260
▁unex	-5261
ership	-5262
ersoll	-5263
icines	-5264
inance	-5265
ishuli	-5266
ithole	-5267
itical	-5268
jected	-5269
lature	-5270
levant	-5271
manuel	-5272
ocated	-5273
oosing	-5274
orithm	-5275
orting	-5276
ortion	-5277
pandeh	-5278
penses	-5279
points	-5280
rained	-5281
reates	-5282
reesha	-5283
reness	-5284
roller	-5285
screen	-5286
uarant	-5287
ubborn	-5288
ustoms	-5289
vators	-5290
verage	-5291
verted	-5292
vinces	-5293
vision	-5294
weekly	-5295
▁1955)	-5296
▁1962.	-5297
▁1983)	-5298
▁2001.	-5299
90	-5300
99	-5301
AF	-5302
Not	-5303
ama	-5304
cas	-5305
eed	-5306
imp	-5307
let	-5308
oka	-5309
oto	-5310
utr	-5311
▁4,	-5312
▁5,	-5313
▁AN	-5314
▁CP	-5315
▁IS	-5316
▁iv	-5317
atal	-5318
erah	-5319
izer	-5320
obey	-5321
olid	-5322
road	-5323
ster	-5324
urse	-5325
▁17.	-5326
▁GAF	-5327
▁ISO	-5328
▁Inc	-5329
▁Sar	-5330
▁Ser	-5331
▁Tim	-5332
▁Tot	-5333
▁alg	-5334
▁amm	-5335
▁cam	-5336
▁gam	-5337
▁mut	-5338
▁sim	-5339
▁yen	-5340
arlet	-5341
ental	-5342
erted	-5343
estic	-5344
ivate	-5345
quire	-5346
veill	-5347
▁Pres	-5348
▁Shah	-5349
▁Time	-5350
▁Zone	-5351
▁coop	-5352
▁desp	-5353
▁fact	-5354
▁idea	-5355
▁lies	-5356
ellect	-5357
nowned	-5358
olders	-5359
uation	-5360
▁Agree	-5361
▁Amnon	-5362
▁Arame	-5363
▁Basic	-5364
▁Being	-5365
▁Buddy	-5366
▁Colle	-5367
▁Delay	-5368
▁Drugs	-5369
▁Eakle	-5370
▁Early	-5371
▁Ekron	-5372
▁Epiph	-5373
▁Grant	-5374
▁Heber	-5375
▁Human	-5376
▁Inter	-5377
▁Japan	-5378
▁Jhapa	-5379
▁Judas	-5380
▁Kooka	-5381
▁Korah	-5382
▁Laban	-5383
▁Lafay	-5384
▁Lands	-5385
▁Legis	-5386
▁Login	-5387
▁Malch	-5388
▁Maybe	-5389
▁Mayor	-5390
▁Moody	-5391
▁Nabal	-5392
▁Negev	-5393
▁Ophir	-5394
▁Parsa	-5395
▁Penal	-5396
▁River	-5397
▁Share	-5398
▁Sihon	-5399
?'	-5400
Pl	-5401
fa	-5402
ga	-5403
go	-5404
?'"	-5405
All	-5406
Don	-5407
add	-5408
edy	-5409
elt	-5410
ila	-5411
ita	-5412
jah	-5413
mar	-5414
mon	-5415
ogn	-5416
son	-5417
zer	-5418
▁18	-5419
▁32	-5420
▁Ir	-5421
▁Sy	-5422
▁ht	-5423
edom	-5424
erve	-5425
onal	-5426
▁Med	-5427
▁San	-5428
▁Tar	-5429
▁deg	-5430
▁fed	-5431
▁har	-5432
▁obs	-5433
ilion	-5434
owner	-5435
ranch	-5436
▁High	-5437
▁agro	-5438
▁fors	-5439
▁orph	-5440
▁safe	-5441
▁thin	-5442
appear	-5443
oading	-5444
tracks	-5445
▁Frame	-5446
▁Sixth	-5447
▁Skill	-5448
▁Small	-5449
▁Table	-5450
▁Techn	-5451
▁Title	-5452
▁Valid	-5453
▁Women	-5454
▁Works	-5455
▁Zerah	-5456
▁adapt	-5457
▁ammun	-5458
▁angry	-5459
▁apart	-5460
▁audit	-5461
▁aunty	-5462
▁bases	-5463
▁bench	-5464
▁bonds	-5465
▁buddy	-5466
▁bulls	-5467
▁cares	-5468
▁cargo	-5469
▁chari	-5470
▁chase	-5471
▁click	-5472
▁cloth	-5473
▁coins	-5474
▁comes	-5475
▁conce	-5476
▁creat	-5477
▁crops	-5478
▁cubic	-5479
▁curse	-5480
▁dealt	-5481
▁deput	-5482
▁draft	-5483
▁drawn	-5484
▁eight	-5485
▁elder	-5486
▁embro	-5487
▁extra	-5488
▁fades	-5489
▁fails	-5490
▁fault	-5491
▁favor	-5492
▁fifte	-5493
▁fills	-5494
▁finds	-5495
▁flock	-5496
▁flour	-5497
▁focal	-5498
▁forfe	-5499
",	-5500
(2	-5501
.:	-5502
BM	-5503
CI	-5504
NE	-5505
PG	-5506
RS	-5507
SA	-5508
SL	-5509
hu	-5510
’.	-5511
▁!	-5512
And	-5513
Are	-5514
eer	-5515
gon	-5516
iet	-5517
orp	-5518
▁29	-5519
▁86	-5520
▁Ez	-5521
bles	-5522
ilee	-5523
omas	-5524
oper	-5525
▁Eth	-5526
▁Heb	-5527
▁Mar	-5528
▁Tre	-5529
▁bor	-5530
▁hom	-5531
▁rat	-5532
▁red	-5533
acher	-5534
ining	-5535
▁1990	-5536
▁Caul	-5537
▁Corp	-5538
▁Data	-5539
▁Good	-5540
▁Palm	-5541
▁Soil	-5542
▁pair	-5543
▁pill	-5544
▁wish	-5545
ademic	-5546
atures	-5547
iented	-5548
▁Tamar	-5549
▁cache	-5550
▁fight	-5551
▁games	-5552
▁gazet	-5553
▁gives	-5554
▁godly	-5555
▁grand	-5556
▁graph	-5557
▁guest	-5558
▁guide	-5559
▁hated	-5560
▁homet	-5561
▁horns	-5562
▁imbal	-5563
▁insur	-5564
▁joint	-5565
▁juven	-5566
▁later	-5567
▁leads	-5568
▁lease	-5569
▁liver	-5570
▁loans	-5571
▁login	-5572
▁magic	-5573
▁marks	-5574
▁marry	-5575
▁match	-5576
▁mercy	-5577
▁mines	-5578
▁moral	-5579
▁morph	-5580
▁mourn	-5581
▁multi	-5582
▁nodes	-5583
▁nurse	-5584
▁pages	-5585
▁paper	-5586
▁party	-5587
▁peaks	-5588
▁pharm	-5589
▁piece	-5590
▁plast	-5591
▁pleas	-5592
▁popup	-5593
▁princ	-5594
▁query	-5595
▁reapp	-5596
▁recon	-5597
▁remem	-5598
▁resum	-5599
-9	-5600
-;	-5601
20	-5602
24	-5603
36	-5604
5,	-5605
50	-5606
74	-5607
De	-5608
ES	-5609
OB	-5610
Oh	-5611
TR	-5612
fo	-5613
no	-5614
va	-5615
▁)	-5616
HAR	-5617
bar	-5618
eli	-5619
inx	-5620
iya	-5621
▁"/	-5622
▁60	-5623
epre	-5624
erts	-5625
igor	-5626
ique	-5627
isen	-5628
▁Dec	-5629
▁End	-5630
▁Exp	-5631
▁spl	-5632
▁ver	-5633
▁ves	-5634
.....	-5635
▁2012	-5636
▁Acts	-5637
▁City	-5638
▁Expl	-5639
▁Joab	-5640
▁Sept	-5641
▁Tags	-5642
▁Wild	-5643
▁arch	-5644
▁bear	-5645
▁dirt	-5646
▁lamp	-5647
▁role	-5648
▁sake	-5649
▁stum	-5650
▁till	-5651
▁wind	-5652
▁zone	-5653
ission	-5654
itutes	-5655
▁Jesse	-5656
▁Pract	-5657
▁Solar	-5658
▁Stand	-5659
▁State	-5660
▁dated	-5661
▁devil	-5662
▁notes	-5663
▁proud	-5664
▁rooms	-5665
▁roots	-5666
▁ruled	-5667
▁sales	-5668
▁seeds	-5669
▁seems	-5670
▁sense	-5671
▁shake	-5672
▁shear	-5673
▁sheep	-5674
▁shell	-5675
▁ships	-5676
▁shook	-5677
▁shown	-5678
▁skies	-5679
▁solve	-5680
▁story	-5681
▁subst	-5682
▁sweet	-5683
▁takes	-5684
▁talks	-5685
▁taxre	-5686
▁terai	-5687
▁theme	-5688
▁thres	-5689
▁tools	-5690
▁tremb	-5691
▁tries	-5692
▁tutor	-5693
▁uncle	-5694
▁units	-5695
▁unnec	-5696
▁upset	-5697
▁valor	-5698
▁visit	-5699
▁votes	-5700
▁walls	-5701
▁wheat	-5702
▁worst	-5703
▁youth	-5704
00,000.	-5705
Because	-5706
Stretch	-5707
achment	-5708
agnosis	-5709
ainfall	-5710
aintiff	-5711
antages	-5712
aration	-5713
atriate	-5714
aughter	-5715
cellent	-5716
egrated	-5717
eliloth	-5718
enabled	-5719
ersonal	-5720
estions	-5721
ference	-5722
hapatra	-5723
herself	-5724
igating	-5725
irectly	-5726
isition	-5727
itement	-5728
itional	-5729
itioner	-5730
mention	-5731
ometric	-5732
onomous	-5733
oration	-5734
pandehi	-5735
pecting	-5736
rection	-5737
revenue	-5738
secrate	-5739
version	-5740
▁(1998)	-5741
▁(2010)	-5742
▁10,000	-5743
▁1991/9	-5744
▁Access	-5745
▁Achish	-5746
▁Action	-5747
▁Adjust	-5748
▁Appeal	-5749
▁Assign	-5750
▁Author	-5751
▁Balaam	-5752
▁Duties	-5753
▁Eggers	-5754
▁Engine	-5755
▁Esther	-5756
▁Gideon	-5757
▁Gilles	-5758
▁Hanani	-5759
▁Herein	-5760
▁Import	-5761
▁Indian	-5762
▁Isaiah	-5763
▁Jashub	-5764
▁Jether	-5765
▁Josiah	-5766
▁Kattha	-5767
▁Liquid	-5768
▁London	-5769
▁Magdal	-5770
▁Medium	-5771
▁Mighty	-5772
▁Mobile	-5773
▁Nepali	-5774
▁Notary	-5775
▁Obtain	-5776
▁Output	-5777
▁People	-5778
▁Player	-5779
▁Rachel	-5780
▁Region	-5781
▁Reload	-5782
▁Repeal	-5783
▁Report	-5784
▁Rights	-5785
▁School	-5786
▁Scient	-5787
▁Second	-5788
▁Sherpa	-5789
▁Speech	-5790
▁Street	-5791
▁String	-5792
▁Sunday	-5793
▁Survey	-5794
▁Though	-5795
▁Tirzah	-5796
▁Toggle	-5797
▁Uzziah	-5798
▁Window	-5799
▁abroad	-5800
▁absent	-5801
▁active	-5802
▁adjust	-5803
▁advers	-5804
▁advice	-5805
▁affect	-5806
▁aliens	-5807
▁altern	-5808
▁answer	-5809
▁artist	-5810
▁assemb	-5811
▁assess	-5812
▁attend	-5813
▁barley	-5814
▁begged	-5815
▁behalf	-5816
▁bidder	-5817
▁bodies	-5818
▁booths	-5819
▁bought	-5820
▁bridge	-5821
▁brings	-5822
▁bronze	-5823
▁calves	-5824
▁carbon	-5825
▁choice	-5826
▁clothe	-5827
▁clouds	-5828
▁compul	-5829
▁conven	-5830
▁cursor	-5831
▁dashed	-5832
▁deceit	-5833
▁deduct	-5834
▁defend	-5835
▁denied	-5836
▁desire	-5837
▁detail	-5838
▁device	-5839
▁diesel	-5840
▁dissem	-5841
▁divers	-5842
▁doings	-5843
▁domain	-5844
▁drunks	-5845
▁eating	-5846
▁editor	-5847
▁effort	-5848
▁eighth	-5849
▁emphas	-5850
▁escape	-5851
▁events	-5852
▁exceed	-5853
▁except	-5854
▁exists	-5855
▁expand	-5856
▁expect	-5857
▁fallen	-5858
▁feared	-5859
▁figure	-5860
▁flight	-5861
▁footst	-5862
▁fought	-5863
▁fourth	-5864
▁gained	-5865
▁golden	-5866
▁handed	-5867
▁holder	-5868
▁indict	-5869
▁inputs	-5870
▁iodine	-5871
▁issues	-5872
▁judges	-5873
▁labels	-5874
▁larger	-5875
▁length	-5876
▁lessee	-5877
▁lesser	-5878
▁lifted	-5879
▁likely	-5880
▁loaded	-5881
▁loaves	-5882
▁locked	-5883
▁lodges	-5884
▁longer	-5885
▁louder	-5886
▁loudly	-5887
▁manage	-5888
▁marvel	-5889
▁metric	-5890
▁mildew	-5891
▁moment	-5892
▁moving	-5893
▁muscle	-5894
▁mutual	-5895
▁myself	-5896
▁narrow	-5897
▁native	-5898
▁offers	-5899
▁origin	-5900
▁patent	-5901
▁phrase	-5902
▁plague	-5903
▁poison	-5904
▁povray	-5905
▁prayed	-5906
▁prayer	-5907
▁prelim	-5908
▁promot	-5909
▁prompt	-5910
▁rather	-5911
▁recogn	-5912
▁redeem	-5913
▁reduce	-5914
▁reform	-5915
▁remedy	-5916
▁repent	-5917
▁resale	-5918
▁resize	-5919
▁retain	-5920
▁riches	-5921
▁rivers	-5922
▁roster	-5923
▁routes	-5924
▁sailed	-5925
▁scroll	-5926
▁secure	-5927
▁seized	-5928
▁serves	-5929
▁sought	-5930
▁spaces	-5931
▁speech	-5932
▁spoken	-5933
▁sports	-5934
▁stayed	-5935
▁stream	-5936
▁subord	-5937
▁suffer	-5938
▁temple	-5939
▁tender	-5940
▁testim	-5941
▁throne	-5942
▁thumbn	-5943
▁timely	-5944
▁tongue	-5945
▁topped	-5946
▁tracks	-5947
▁transl	-5948
▁travel	-5949
▁truths	-5950
▁valued	-5951
▁wagons	-5952
▁wealth	-5953
▁widget	-5954
▁widows	-5955
▁wishes	-5956
Devighat	-5957
Director	-5958
aminated	-5959
ancellor	-5960
aunching	-5961
ctionary	-5962
etitions	-5963
inations	-5964
ividuals	-5965
ointment	-5966
ological	-5967
quarters	-5968
ruitment	-5969
sections	-5970
utrition	-5971
▁Account	-5972
▁Ancient	-5973
▁Another	-5974
▁Arrange	-5975
▁Article	-5976
▁Assyria	-5977
▁Attempt	-5978
▁Because	-5979
▁Besides	-5980
▁Birgunj	-5981
▁Britain	-5982
▁Byelaws	-5983
▁Caulier	-5984
▁Channel	-5985
▁Chicago	-5986
▁Chinese	-5987
▁Clauses	-5988
▁College	-5989
▁Contact	-5990
▁Creates	-5991
▁Current	-5992
▁Display	-5993
▁DocBook	-5994
▁Enables	-5995
▁English	-5996
▁Foreign	-5997
▁Hetauda	-5998
▁Ishmael	-5999
▁January	-6000
▁Jericho	-6001
▁Jezreel	-6002
▁Kenites	-6003
▁Kingdom	-6004
▁Library	-6005
▁Maximum	-6006
▁Message	-6007
▁Messiah	-6008
▁Neither	-6009
▁Offices	-6010
▁Options	-6011
▁Private	-6012
▁Profile	-6013
▁Program	-6014
▁Records	-6015
▁Restore	-6016
▁Specify	-6017
▁Stephen	-6018
▁Supreme	-6019
▁Through	-6020
▁Tuesday	-6021
▁Unknown	-6022
▁Village	-6023
▁Virtual	-6024
▁Western	-6025
▁advance	-6026
▁amazing	-6027
▁appears	-6028
▁approve	-6029
▁attract	-6030
▁auction	-6031
▁balance	-6032
▁begging	-6033
▁benefit	-6034
▁bidding	-6035
▁biggest	-6036
▁breadth	-6037
▁buttons	-6038
▁careful	-6039
▁casting	-6040
▁changed	-6041
▁charged	-6042
▁charges	-6043
▁complex	-6044
▁confirm	-6045
▁consent	-6046
▁contain	-6047
▁correct	-6048
▁cottage	-6049
▁customs	-6050
▁decided	-6051
▁defense	-6052
▁deleted	-6053
▁derived	-6054
▁desires	-6055
▁disobey	-6056
▁dispute	-6057
▁donkeys	-6058
▁drought	-6059
▁element	-6060
▁enacted	-6061
▁engaged	-6062
▁eternal	-6063
▁evening	-6064
▁expense	-6065
▁expired	-6066
▁exports	-6067
▁express	-6068
▁fifteen	-6069
▁figures	-6070
▁filters	-6071
▁finance	-6072
▁forgive	-6073
▁freedom	-6074
▁garment	-6075
▁general	-6076
▁happens	-6077
▁heavens	-6078
▁holding	-6079
▁housing	-6080
▁impacts	-6081
▁include	-6082
▁infrast	-6083
▁inhabit	-6084
▁invoice	-6085
▁jackals	-6086
▁killing	-6087
▁leakage	-6088
▁legally	-6089
▁letters	-6090
▁linking	-6091
▁managed	-6092
▁manager	-6093
▁medical	-6094
▁modules	-6095
▁monthly	-6096
▁mourned	-6097
▁movable	-6098
▁musical	-6099
▁objects	-6100
▁obligor	-6101
▁ordered	-6102
▁overall	-6103
▁parents	-6104
▁patient	-6105
▁pattern	-6106
▁payable	-6107
▁pillars	-6108
▁plastic	-6109
▁pleased	-6110
▁plugins	-6111
▁pouring	-6112
▁profits	-6113
▁prosper	-6114
▁raising	-6115
▁reigned	-6116
▁rejoice	-6117
▁remains	-6118
▁removal	-6119
▁replace	-6120
▁reports	-6121
▁respond	-6122
▁sandals	-6123
▁scarlet	-6124
▁shelter	-6125
▁showers	-6126
▁showing	-6127
▁spirits	-6128
▁startup	-6129
▁station	-6130
▁statues	-6131
▁staying	-6132
▁strange	-6133
▁streets	-6134
▁subsidy	-6135
▁succeed	-6136
▁synagog	-6137
▁tagname	-6138
▁talking	-6139
▁therein	-6140
▁thirsty	-6141
▁thought	-6142
▁thunder	-6143
▁touches	-6144
▁traffic	-6145
▁tremble	-6146
▁trumpet	-6147
▁usually	-6148
▁utilize	-6149
▁visible	-6150
▁younger	-6151
Formation	-6152
Therefore	-6153
appointed	-6154
ellectual	-6155
eprecated	-6156
ilisation	-6157
istration	-6158
ordinated	-6159
uarantine	-6160
ufactured	-6161
veillance	-6162
▁2040-4-1	-6163
▁Abiathar	-6164
▁Advisory	-6165
▁Amending	-6166
▁Benjamin	-6167
▁Citizens	-6168
▁Classify	-6169
▁Damascus	-6170
▁Database	-6171
▁Epiphany	-6172
▁Evidence	-6173
▁Generate	-6174
▁Internet	-6175
▁Japanese	-6176
▁Jeroboam	-6177
▁Justices	-6178
▁Keyboard	-6179
▁Malchiel	-6180
▁Manasseh	-6181
▁Moreover	-6182
▁Mortgage	-6183
▁Official	-6184
▁Organize	-6185
▁Personal	-6186
▁Physical	-6187
▁Planning	-6188
▁Provides	-6189
▁Research	-6190
▁Security	-6191
▁Shemaiah	-6192
▁Shreesha	-6193
▁Treasury	-6194
▁Zerahiah	-6195
▁acquired	-6196
▁activity	-6197
▁adequate	-6198
▁advanced	-6199
▁airports	-6200
▁annually	-6201
▁anointed	-6202
▁argument	-6203
▁assigned	-6204
▁attached	-6205
▁auditing	-6206
▁baptized	-6207
▁boldness	-6208
▁bringing	-6209
▁builders	-6210
▁campuses	-6211
▁chariots	-6212
▁choosing	-6213
▁comments	-6214
▁consider	-6215
▁covering	-6216
▁creating	-6217
▁customer	-6218
▁database	-6219
▁deducted	-6220
▁definite	-6221
▁delegate	-6222
▁deleting	-6223
▁demanded	-6224
▁deprived	-6225
▁designed	-6226
▁detailed	-6227
▁director	-6228
▁disciple	-6229
▁disposal	-6230
▁dividend	-6231
▁domestic	-6232
▁eligible	-6233
▁enclosed	-6234
▁enforced	-6235
▁engineer	-6236
▁enjoying	-6237
▁examples	-6238
▁expenses	-6239
▁exported	-6240
▁gazetted	-6241
▁goodness	-6242
▁gradient	-6243
▁hometown	-6244
▁improper	-6245
▁improved	-6246
▁incoming	-6247
▁incurred	-6248
▁inserted	-6249
▁invented	-6250
▁investor	-6251
▁issuance	-6252
▁juvenile	-6253
▁keyboard	-6254
▁managers	-6255
▁maternal	-6256
▁ministry	-6257
▁moreover	-6258
▁multiple	-6259
▁negative	-6260
▁numbered	-6261
▁offences	-6262
▁offender	-6263
▁painting	-6264
▁partners	-6265
▁perished	-6266
▁personal	-6267
▁persuade	-6268
▁pitchers	-6269
▁pleading	-6270
▁policies	-6271
▁practice	-6272
▁precious	-6273
▁produced	-6274
▁profaned	-6275
▁provides	-6276
▁punished	-6277
▁recorded	-6278
▁regulate	-6279
▁rejected	-6280
▁reliable	-6281
▁remember	-6282
▁reminder	-6283
▁renowned	-6284
▁resident	-6285
▁restored	-6286
▁reviewer	-6287
▁severely	-6288
▁shepherd	-6289
▁shortcut	-6290
▁situated	-6291
▁slightly	-6292
▁spending	-6293
▁standing	-6294
▁stations	-6295
▁stringed	-6296
▁struggle	-6297
▁stubborn	-6298
▁superior	-6299
▁supplier	-6300
▁surround	-6301
▁terminal	-6302
▁terrible	-6303
▁thinking	-6304
▁traveled	-6305
▁trekking	-6306
▁tribunal	-6307
▁troubles	-6308
▁valuable	-6309
▁variable	-6310
▁whatever	-6311
▁withhold	-6312
▁youngest	-6313
▁yourself	-6314
Parliament	-6315
▁Agreement	-6316
▁Ayurvedic	-6317
▁Bathsheba	-6318
▁Bethlehem	-6319
▁Character	-6320
▁Districts	-6321
▁Egyptians	-6322
▁Executive	-6323
▁Extension	-6324
▁Formation	-6325
▁Ingersoll	-6326
▁Jehoiakim	-6327
▁Lafayette	-6328
▁Magdalene	-6329
▁Necessary	-6330
▁Nepalgunj	-6331
▁Otherwise	-6332
▁Panchayat	-6333
▁Penalties	-6334
▁Provision	-6335
▁Regarding	-6336
▁Rupandehi	-6337
▁Technical	-6338
▁Transport	-6339
▁algorithm	-6340
▁appearing	-6341
▁automatic	-6342
▁awareness	-6343
▁carefully	-6344
▁catchment	-6345
▁celebrate	-6346
▁certainly	-6347
▁certified	-6348
▁chastised	-6349
▁collected	-6350
▁comforted	-6351
▁commander	-6352
▁computers	-6353
▁concluded	-6354
▁conferred	-6355
▁consumers	-6356
▁continual	-6357
▁creditors	-6358
▁currently	-6359
▁delegated	-6360
▁departure	-6361
▁depositor	-6362
▁described	-6363
▁diagnosis	-6364
▁directive	-6365
▁directors	-6366
▁dissatisf	-6367
▁diversity	-6368
▁divisions	-6369
▁elevators	-6370
▁eliminate	-6371
▁encrypted	-6372
▁evaluated	-6373
▁exercised	-6374
▁expedient	-6375
▁frequency	-6376
▁gradients	-6377
▁household	-6378
▁imbalance	-6379
▁immovable	-6380
▁interests	-6381
▁landowner	-6382
▁languages	-6383
▁mediation	-6384
▁medicines	-6385
▁messenger	-6386
▁ministers	-6387
▁multitude	-6388
▁nakedness	-6389
▁necessity	-6390
▁nominated	-6391
▁officials	-6392
▁ornaments	-6393
▁ownership	-6394
▁personnel	-6395
▁political	-6396
▁possessed	-6397
▁practical	-6398
▁preferred	-6399
▁prescribe	-6400
▁preserved	-6401
▁presiding	-6402
▁pronounce	-6403
▁propagand	-6404
▁proponent	-6405
▁rebellion	-6406
▁religious	-6407
▁residence	-6408
▁scattered	-6409
▁selecting	-6410
▁signature	-6411
▁spokesman	-6412
▁threshold	-6413
▁turpitude	-6414
▁valuation	-6415
▁waterways	-6416
▁witnesses	-6417
▁workspace	-6418
▁worthless	-6419
tentatively	-6420
utilization	-6421
▁Alteration	-6422
▁Bhairahawa	-6423
▁Biratnagar	-6424
▁Chancellor	-6425
▁Connection	-6426
▁Controller	-6427
▁Encryption	-6428
▁Evaluation	-6429
▁Facilities	-6430
▁Integrated	-6431
▁Irrigation	-6432
▁Jehoiachin	-6433
▁Objectives	-6434
▁Passphrase	-6435
▁Philistine	-6436
▁abundantly	-6437
▁accessible	-6438
▁advantages	-6439
▁affiliated	-6440
▁ammunition	-6441
▁background	-6442
▁breakpoint	-6443
▁collateral	-6444
▁commission	-6445
▁committing	-6446
▁completely	-6447
▁conducting	-6448
▁conscience	-6449
▁consecrate	-6450
▁consistent	-6451
▁containing	-6452
▁contribute	-6453
▁conversion	-6454
▁councilors	-6455
▁department	-6456
▁desolation	-6457
▁dictionary	-6458
▁difficulty	-6459
▁displaying	-6460
▁distribute	-6461
▁electronic	-6462
▁evaluating	-6463
▁everywhere	-6464
▁excitement	-6465
▁filesystem	-6466
▁foodgrains	-6467
▁fulfilling	-6468
▁generating	-6469
▁inadequacy	-6470
▁inadequate	-6471
▁inappropri	-6472
▁indicating	-6473
▁indirectly	-6474
▁instrument	-6475
▁mechanical	-6476
▁mentioning	-6477
▁nomination	-6478
▁obligation	-6479
▁panchayats	-6480
▁possession	-6481
▁preventing	-6482
▁proceeding	-6483
▁productive	-6484
▁properties	-6485
▁protection	-6486
▁rebellious	-6487
▁recommends	-6488
▁reflection	-6489
▁remembered	-6490
▁repatriate	-6491
▁requesting	-6492
▁sacrifices	-6493
▁sanctified	-6494
▁specifying	-6495
▁techniques	-6496
▁thereunder	-6497
▁understand	-6498
▁unexpected	-6499
▁worshiping	-6500
appropriates	-6501
▁Accordingly	-6502
▁Application	-6503
▁Designation	-6504
▁Environment	-6505
▁Examination	-6506
▁Explanation	-6507
▁Legislature	-6508
▁Possibility	-6509
▁Publication	-6510
▁Utilization	-6511
▁adversaries	-6512
▁circumcised	-6513
▁citizenship	-6514
▁comparative	-6515
▁competitive	-6516
▁composition	-6517
▁consultancy	-6518
▁cooperation	-6519
▁destruction	-6520
▁distributor	-6521
▁embroidered	-6522
▁enterprises	-6523
▁generations	-6524
▁identifying	-6525
▁improvement	-6526
▁independent	-6527
▁integrating	-6528
▁integration	-6529
▁ministering	-6530
▁permanently	-6531
▁possessions	-6532
▁preliminary	-6533
▁prostitutes	-6534
▁recruitment	-6535
▁requirement	-6536
▁strongholds	-6537
▁subordinate	-6538
▁supervision	-6539
▁taxrequired	-6540
▁Agricultural	-6541
▁Commencement	-6542
▁Commissioner	-6543
▁Coordination	-6544
▁Institutions	-6545
▁Organization	-6546
▁Practitioner	-6547
▁Registration	-6548
▁broadcasting	-6549
▁confidential	-6550
▁continuously	-6551
▁coordination	-6552
▁distributing	-6553
▁establishing	-6554
▁insurrection	-6555
▁jurisdiction	-6556
▁manufactured	-6557
▁modification	-6558
▁productivity	-6559
▁publications	-6560
▁requirements	-6561
▁satisfactory	-6562
▁specifically	-6563
▁substitution	-6564
..............	-6565
▁Administrator	-6566
▁Authorization	-6567
▁Automatically	-6568
▁Commissioners	-6569
▁Communication	-6570
▁circumstances	-6571
▁contravention	-6572
▁contributions	-6573
▁developmental	-6574
▁entertainment	-6575
▁hydroelectric	-6576
▁intentionally	-6577
▁investigating	-6578
▁opportunities	-6579
▁righteousness	-6580
...............	-6581
▁Mountaineering	-6582
▁accomplishment	-6583
▁administration	-6584
▁classification	-6585
▁correspondence	-6586
▁infrastructure	-6587
▁qualifications	-6588
▁inappropriately	-6589
▁misappropriates	-6590
(23	-6591
-08	-6592
-24	-6593
-29	-6594
/27	-6595
106	-6596
204	-6597
366	-6598
36:	-6599
73,	-6600
ASA	-6601
Art	-6602
CII	-6603
GOs	-6604
ICT	-6605
IME	-6606
IPS	-6607
MTE	-6608
NEY	-6609
SAI	-6610
TES	-6611
huv	-6612
mPl	-6613
oIP	-6614
trl	-6615
uPG	-6616
-196	-6617
-200	-6618
.164	-6619
.524	-6620
/85,	-6621
0(23	-6622
73,4	-6623
74).	-6624
8(19	-6625
9/27	-6626
Amen	-6627
CHAR	-6628
ESTR	-6629
KDED	-6630
MTEF	-6631
NERS	-6632
SCII	-6633
Viet	-6634
agga	-6635
auna	-6636
bitr	-6637
bola	-6638
ceva	-6639
eshi	-6640
foot	-6641
hitt	-6642
hoka	-6643
ilae	-6644
info	-6645
irlw	-6646
issi	-6647
lett	-6648
load	-6649
nuPG	-6650
pady	-6651
tthe	-6652
ttps	-6653
unts	-6654
xiet	-6655
ylia	-6656
▁225	-6657
▁235	-6658
▁23;	-6659
▁245	-6660
▁246	-6661
▁25%	-6662
▁29,	-6663
▁365	-6664
▁475	-6665
▁674	-6666
▁8.3	-6667
▁8.4	-6668
▁915	-6669
▁AIM	-6670
▁ANM	-6671
▁Bik	-6672
▁DCT	-6673
▁Ezr	-6674
▁FOB	-6675
▁Feb	-6676
▁IBM	-6677
▁IOB	-6678
▁Imm	-6679
▁PCs	-6680
▁PDA	-6681
▁SMT	-6682
▁Syn	-6683
-1366	-6684
-9-11	-6685
.1644	-6686
0.6),	-6687
09/27	-6688
2049.	-6689
4/85,	-6690
6-196	-6691
73,41	-6692
8(198	-6693
CITES	-6694
Gnome	-6695
Hagar	-6696
KDEDI	-6697
NERSH	-6698
Place	-6699
.20	-6700
712	-6701
9-7	-6702
9/9	-6703
TRL	-6704
-54.	-6705
.112	-6706
100)	-6707
712/	-6708
9-70	-6709
▁26,	-6710
▁38,	-6711
▁70)	-6712
▁JUS	-6713
1100)	-6714
2-54.	-6715
9/90.	-6716
RESTR	-6717
TRIPS	-6718
addle	-6719
agpip	-6720
aiwan	-6721
akarb	-6722
akpur	-6723
almia	-6724
anmar	-6725
arers	-6726
aucas	-6727
audio	-6728
books	-6729
bucas	-6730
celer	-6731
dalah	-6732
echar	-6733
eculi	-6734
ensga	-6735
etraz	-6736
faced	-6737
flies	-6738
genda	-6739
hitta	-6740
huvan	-6741
iezer	-6742
issed	-6743
itmap	-6744
judic	-6745
jungh	-6746
lanta	-6747
mPlot	-6748
month	-6749
nemon	-6750
offic	-6751
scale	-6752
suoka	-6753
uffer	-6754
upati	-6755
utiya	-6756
vests	-6757
zilla	-6758
▁(4),	-6759
▁0000	-6760
▁1310	-6761
▁133.	-6762
▁15.2	-6763
▁171,	-6764
▁178,	-6765
▁2.22	-6766
▁229,	-6767
▁2911	-6768
▁3/4%	-6769
▁4.30	-6770
▁500-	-6771
▁6.20	-6772
▁Ahim	-6773
▁Ahin	-6774
▁Airl	-6775
▁Ammi	-6776
▁Away	-6777
▁Beds	-6778
▁Berl	-6779
▁Boar	-6780
▁Brie	-6781
▁CTRL	-6782
▁Coll	-6783
▁Ctrl	-6784
▁Cush	-6785
▁Eden	-6786
▁Ethi	-6787
▁Hilk	-6788
▁Hitt	-6789
▁IMAP	-6790
▁JUST	-6791
▁Jada	-6792
▁Jhim	-6793
▁KWin	-6794
▁Kilm	-6795
▁Lamb	-6796
▁Load	-6797
▁MIME	-6798
▁Menu	-6799
Users	-6800
▁Army	-6801
▁Ishb	-6802
▁Ishh	-6803
▁Modi	-6804
▁NASA	-6805
▁Ohio	-6806
▁Padd	-6807
▁Rajb	-6808
▁Rajg	-6809
▁Rita	-6810
▁Susa	-6811
▁Sync	-6812
▁Tota	-6813
▁URLs	-6814
▁Uzzi	-6815
▁Verb	-6816
▁VoIP	-6817
▁Zimr	-6818
▁aims	-6819
▁avat	-6820
▁beds	-6821
▁biop	-6822
▁clip	-6823
▁cups	-6824
▁felt	-6825
▁girl	-6826
▁grie	-6827
▁ivin	-6828
▁narc	-6829
▁navy	-6830
▁oxen	-6831
▁rows	-6832
▁sofa	-6833
▁sung	-6834
▁trip	-6835
▁woof	-6836
-12-19	-6837
-2008,	-6838
2.12.1	-6839
3-1366	-6840
56-196	-6841
ARCHAR	-6842
Backed	-6843
Christ	-6844
Cursed	-6845
Heaven	-6846
Letter	-6847
Office	-6848
Second	-6849
Thomas	-6850
WNERSH	-6851
abbath	-6852
adcast	-6853
allett	-6854
amarca	-6855
apolit	-6856
arbide	-6857
atalan	-6858
branch	-6859
bursed	-6860
cember	-6861
eacher	-6862
enalty	-6863
ficial	-6864
footer	-6865
gendre	-6866
icians	-6867
impure	-6868
ioneer	-6869
judged	-6870
kscape	-6871
liezer	-6872
listed	-6873
lusion	-6874
lusive	-6875
milion	-6876
moreau	-6877
office	-6878
ogonal	-6879
oliath	-6880
olygon	-6881
orneli	-6882
orolog	-6883
owards	-6884
pander	-6885
petent	-6886
raints	-6887
ramids	-6888
remony	-6889
survey	-6890
uctant	-6891
untary	-6892
vilege	-6893
werage	-6894
witter	-6895
zekiah	-6896
zillai	-6897
▁1.524	-6898
▁1970,	-6899
John	-6900
Once	-6901
fety	-6902
hana	-6903
hani	-6904
haps	-6905
uphr	-6906
writ	-6907
▁(35	-6908
▁14,	-6909
▁7.3	-6910
▁aux	-6911
▁ior	-6912
▁kms	-6913
hamed	-6914
iftem	-6915
iftly	-6916
khani	-6917
reeze	-6918
sthan	-6919
stray	-6920
▁142,	-6921
▁16.5	-6922
▁162,	-6923
▁gift	-6924
▁idle	-6925
▁syll	-6926
ailali	-6927
akhana	-6928
ickety	-6929
ictive	-6930
ncefor	-6931
ourage	-6932
secute	-6933
vsthan	-6934
ystray	-6935
▁16.5%	-6936
▁162,2	-6937
▁1979,	-6938
▁1983,	-6939
▁2055/	-6940
▁475.1	-6941
▁Ammiz	-6942
▁Ammon	-6943
▁Antit	-6944
▁Armed	-6945
▁Artax	-6946
▁Ashan	-6947
▁Books	-6948
▁Brief	-6949
▁Buick	-6950
▁Build	-6951
▁Chiss	-6952
▁Corpd	-6953
▁Decry	-6954
▁Deleg	-6955
▁Dhoka	-6956
▁Drink	-6957
▁Elihu	-6958
▁Estim	-6959
▁Euphr	-6960
▁Ezrah	-6961
▁Fatal	-6962
▁Fauna	-6963
▁Fifty	-6964
▁Flora	-6965
▁Frank	-6966
▁Gebal	-6967
▁Gnome	-6968
▁Guide	-6969
▁Guill	-6970
▁Hades	-6971
▁Hagar	-6972
▁Herod	-6973
▁IMSAI	-6974
▁Josha	-6975
▁KWord	-6976
▁Labor	-6977
▁Mahav	-6978
▁Medan	-6979
▁Menst	-6980
▁Merar	-6981
▁Merid	-6982
▁Micah	-6983
▁Micro	-6984
▁Pamph	-6985
▁Parse	-6986
▁Patan	-6987
▁Photo	-6988
▁Playl	-6989
▁Polic	-6990
▁Posts	-6991
▁Print	-6992
▁Prior	-6993
▁Proud	-6994
▁Rehob	-6995
▁Sheba	-6996
▁Shift	-6997
▁Telec	-6998
▁Totem	-6999
.40	-7000
06)	-7001
1-8	-7002
409	-7003
66)	-7004
:1,	-7005
SSL	-7006
Web	-7007
eBe	-7008
7)."	-7009
GeBe	-7010
bunt	-7011
clop	-7012
eWeb	-7013
isco	-7014
1-8-5	-7015
Begin	-7016
ackcl	-7017
after	-7018
buntu	-7019
cloud	-7020
cores	-7021
doing	-7022
jGeBe	-7023
▁1:1,	-7024
▁216,	-7025
▁debu	-7026
▁onto	-7027
▁slip	-7028
▁tomb	-7029
-9-11(	-7030
LjGeBe	-7031
cloped	-7032
▁1951,	-7033
▁1961,	-7034
▁20.40	-7035
▁Cisco	-7036
▁Concl	-7037
▁Wildl	-7038
▁Zebed	-7039
▁Zebul	-7040
▁aerod	-7041
▁aimed	-7042
▁almug	-7043
▁alpha	-7044
▁biops	-7045
▁borne	-7046
▁brush	-7047
▁camer	-7048
▁cards	-7049
▁catal	-7050
▁couch	-7051
▁crown	-7052
▁cryst	-7053
▁doubt	-7054
▁dying	-7055
▁feder	-7056
▁fewer	-7057
▁folly	-7058
▁fruit	-7059
▁gamma	-7060
▁gamut	-7061
▁gnome	-7062
▁grown	-7063
▁harps	-7064
▁holid	-7065
▁homep	-7066
▁homer	-7067
▁hours	-7068
▁https	-7069
▁hunts	-7070
▁idols	-7071
▁ivory	-7072
▁kinsw	-7073
▁lying	-7074
▁major	-7075
▁misty	-7076
▁necks	-7077
▁pamph	-7078
▁paths	-7079
▁pilgr	-7080
▁prede	-7081
▁raids	-7082
▁ratio	-7083
▁rescu	-7084
▁revol	-7085
▁risen	-7086
▁shaft	-7087
▁shift	-7088
▁sissi	-7089
▁sixth	-7090
▁snare	-7091
▁softw	-7092
▁somet	-7093
▁somew	-7094
▁songs	-7095
▁sorry	-7096
▁spoil	-7097
▁strip	-7098
▁stuff	-7099
124	-7100
-7-1	-7101
-7-18	-7102
imbal	-7103
warks	-7104
▁1950	-7105
▁1954	-7106
▁1974	-7107
▁1977	-7108
▁5.90	-7109
▁barg	-7110
▁loaf	-7111
▁summ	-7112
-7-18(	-7113
ameter	-7114
longed	-7115
rapped	-7116
▁1979.	-7117
▁1997.	-7118
▁Baish	-7119
▁Eliel	-7120
▁Given	-7121
▁Parks	-7122
▁absol	-7123
▁binds	-7124
▁engag	-7125
▁initi	-7126
▁parab	-7127
▁parag	-7128
▁taste	-7129
▁tombs	-7130
▁tomor	-7131
▁tresp	-7132
▁tripl	-7133
▁undou	-7134
▁undue	-7135
▁unlim	-7136
▁unsec	-7137
▁volum	-7138
▁wagon	-7139
▁weeks	-7140
▁woven	-7141
-12-19(	-7142
.1.1644	-7143
1(1964)	-7144
8(1981)	-7145
KDEDIRS	-7146
Western	-7147
aLjGeBe	-7148
achelor	-7149
agpipes	-7150
aineWeb	-7151
anatory	-7152
anjungh	-7153
appears	-7154
asuries	-7155
atsuoka	-7156
avilion	-7157
aximize	-7158
bearers	-7159
command	-7160
conduct	-7161
customs	-7162
dinance	-7163
eculiar	-7164
ecutive	-7165
edekiah	-7166
elihood	-7167
ernacle	-7168
fidence	-7169
imarily	-7170
ipients	-7171
ipulate	-7172
irginie	-7173
irtieth	-7174
issions	-7175
itaries	-7176
itators	-7177
ividend	-7178
justice	-7179
learned	-7180
married	-7181
melling	-7182
minants	-7183
mmanuel	-7184
nightly	-7185
officio	-7186
onathan	-7187
operate	-7188
ostscri	-7189
othrace	-7190
otously	-7191
perbola	-7192
quently	-7193
ributes	-7194
rippled	-7195
rishuli	-7196
rolling	-7197
structs	-7198
trading	-7199
Woe	-7200
calx	-7201
eadf	-7202
uery	-7203
▁3.3	-7204
▁5.7	-7205
▁Emb	-7206
▁MyS	-7207
▁Sav	-7208
▁woe	-7209
Third	-7210
adium	-7211
aphan	-7212
arnab	-7213
avily	-7214
habil	-7215
honor	-7216
impan	-7217
nkers	-7218
omery	-7219
panes	-7220
rinks	-7221
rypto	-7222
stery	-7223
ursor	-7224
▁Lumb	-7225
▁Pope	-7226
▁Scan	-7227
▁Sumb	-7228
▁edit	-7229
▁nurs	-7230
▁wilt	-7231
▁yarn	-7232
Though	-7233
gomery	-7234
impanz	-7235
▁1992.	-7236
▁Afric	-7237
▁Ammih	-7238
▁Embed	-7239
▁Scope	-7240
▁Sumba	-7241
▁Types	-7242
▁beams	-7243
▁esche	-7244
▁icons	-7245
arnabas	-7246
eadfast	-7247
izaphan	-7248
uerying	-7249
ulatory	-7250
umbness	-7251
umcised	-7252
usician	-7253
vileges	-7254
writing	-7255
yakhana	-7256
▁(1966)	-7257
▁(1977)	-7258
▁,2049.	-7259
▁......	-7260
▁133.40	-7261
▁14,100	-7262
▁162,27	-7263
▁1983):	-7264
▁1983/8	-7265
▁1990/9	-7266
▁2020.1	-7267
▁2055.1	-7268
▁60,000	-7269
▁8.4124	-7270
▁Affect	-7271
▁Agents	-7272
▁Altair	-7273
▁Ammiel	-7274
▁Anyway	-7275
▁Arabah	-7276
▁Arabia	-7277
▁Asking	-7278
▁August	-7279
▁Barabb	-7280
▁Bazaar	-7281
▁Behold	-7282
▁Beriah	-7283
▁Bikram	-7284
▁Bodies	-7285
▁Calcul	-7286
▁Calneh	-7287
▁Campan	-7288
▁Canneh	-7289
▁Caucas	-7290
▁Cinema	-7291
▁Copies	-7292
▁Crypto	-7293
▁Cursor	-7294
▁Damian	-7295
▁Daniel	-7296
▁Detail	-7297
▁Device	-7298
▁Diesel	-7299
-7.	-7300
74.	-7301
79.	-7302
82,	-7303
9.7	-7304
ARE	-7305
Chh	-7306
(1).	-7307
,82,	-7308
79.8	-7309
974.	-7310
Keys	-7311
Stri	-7312
WARE	-7313
▁29.	-7314
▁59.	-7315
▁76.	-7316
▁DOD	-7317
1974.	-7318
2,...	-7319
Chhut	-7320
EWARE	-7321
▁126.	-7322
▁59.4	-7323
▁salt	-7324
,1974.	-7325
,82,99	-7326
Strate	-7327
Strive	-7328
master	-7329
otKeys	-7330
▁159.7	-7331
▁1986.	-7332
▁2005,	-7333
▁2018)	-7334
▁779.8	-7335
▁camel	-7336
▁drugs	-7337
▁solar	-7338
▁solit	-7339
▁sugge	-7340
,82,992	-7341
2,...).	-7342
HotKeys	-7343
natural	-7344
tribute	-7345
▁2018):	-7346
▁BEWARE	-7347
▁Divide	-7348
▁Editor	-7349
▁Elijah	-7350
▁Elisha	-7351
▁Embedd	-7352
▁Employ	-7353
▁Ethiop	-7354
▁Facult	-7355
▁Fertil	-7356
▁Florio	-7357
▁Frankf	-7358
▁GnomeP	-7359
▁GroupW	-7360
▁Having	-7361
▁Hearst	-7362
▁Immedi	-7363
▁Indeed	-7364
▁Invest	-7365
▁Ishhod	-7366
▁Island	-7367
▁Issues	-7368
▁Jestha	-7369
▁Jhimru	-7370
▁Joanna	-7371
▁Kakarb	-7372
▁Lamber	-7373
▁Mahade	-7374
▁Mahlah	-7375
▁Marine	-7376
▁Master	-7377
▁Midian	-7378
▁Module	-7379
▁Naboth	-7380
▁Nebula	-7381
▁Novell	-7382
▁OpenPG	-7383
▁Permit	-7384
▁Plugin	-7385
▁Policy	-7386
▁Prince	-7387
▁Refuse	-7388
▁Sarlah	-7389
▁Saving	-7390
▁Socket	-7391
▁Speaks	-7392
▁Supply	-7393
▁Taiwan	-7394
▁Tariff	-7395
▁Teleph	-7396
▁Thomas	-7397
▁Ubuntu	-7398
▁Unique	-7399
-6.	-7400
apti	-7401
iene	-7402
mosh	-7403
naam	-7404
oads	-7405
▁Roi	-7406
anana	-7407
eorts	-7408
giene	-7409
henna	-7410
oupon	-7411
utral	-7412
wenty	-7413
▁2058	-7414
▁Humb	-7415
▁Kule	-7416
▁diag	-7417
▁dict	-7418
▁exca	-7419
▁garb	-7420
▁mule	-7421
▁pyth	-7422
achers	-7423
agnost	-7424
amaged	-7425
apters	-7426
ducing	-7427
empted	-7428
iphers	-7429
ohanan	-7430
placed	-7431
tonous	-7432
▁2058.	-7433
▁Arjun	-7434
▁Beaut	-7435
▁Rapti	-7436
▁Roads	-7437
▁Trees	-7438
▁diagr	-7439
▁scene	-7440
▁stagn	-7441
▁tower	-7442
▁uniqu	-7443
ackling	-7444
central	-7445
erciful	-7446
iagnost	-7447
iculars	-7448
imental	-7449
ributed	-7450
uthored	-7451
veraged	-7452
▁Button	-7453
▁Coupon	-7454
▁Elnaam	-7455
▁Twenty	-7456
▁Update	-7457
▁Zechar	-7458
▁afores	-7459
▁agenda	-7460
▁anxiet	-7461
▁archit	-7462
▁arrows	-7463
▁asking	-7464
▁auxili	-7465
▁bacter	-7466
▁banana	-7467
▁banner	-7468
▁beauty	-7469
▁behind	-7470
▁betray	-7471
▁binary	-7472
▁biopsy	-7473
▁bitmap	-7474
▁bricks	-7475
▁bright	-7476
▁calend	-7477
▁camera	-7478
▁capita	-7479
▁census	-7480
▁chairs	-7481
▁cheese	-7482
▁cinema	-7483
▁collar	-7484
▁copies	-7485
▁counse	-7486
▁coupon	-7487
▁cultiv	-7488
▁debate	-7489
▁debugg	-7490
▁degree	-7491
▁divert	-7492
▁edited	-7493
▁ensure	-7494
▁excess	-7495
▁exclud	-7496
▁explos	-7497
▁fairly	-7498
▁feeder	-7499
-0.	-7500
0.0	-7501
enna	-7502
▁30.	-7503
▁73.	-7504
-0.4)	-7505
0.04)	-7506
aerts	-7507
oided	-7508
▁2016	-7509
▁73.8	-7510
▁airf	-7511
▁drag	-7512
▁memo	-7513
igrate	-7514
ntrust	-7515
number	-7516
reeter	-7517
tendee	-7518
voided	-7519
▁Valle	-7520
▁dusty	-7521
▁ended	-7522
▁vided	-7523
▁width	-7524
entrate	-7525
eorolog	-7526
uthoriz	-7527
▁Strate	-7528
▁Waerts	-7529
▁begins	-7530
▁boards	-7531
▁breaks	-7532
▁dwells	-7533
▁fertil	-7534
▁festiv	-7535
▁friend	-7536
▁fright	-7537
▁gotten	-7538
▁grandd	-7539
▁grapes	-7540
▁graves	-7541
▁hanged	-7542
▁harden	-7543
▁hosted	-7544
▁indeed	-7545
▁island	-7546
▁joyful	-7547
▁kidney	-7548
▁kissed	-7549
▁lawyer	-7550
▁liaise	-7551
▁lodged	-7552
▁logins	-7553
▁merely	-7554
▁mnemon	-7555
▁mourns	-7556
▁normal	-7557
▁occurs	-7558
▁online	-7559
▁overwr	-7560
▁parcel	-7561
▁petits	-7562
▁photos	-7563
▁picked	-7564
▁placed	-7565
▁plenty	-7566
▁plugin	-7567
▁pocket	-7568
▁predef	-7569
▁privat	-7570
▁python	-7571
▁quaked	-7572
▁quakes	-7573
▁radian	-7574
▁reader	-7575
▁righte	-7576
▁saddle	-7577
▁saints	-7578
▁salary	-7579
▁scaled	-7580
▁scores	-7581
▁sealed	-7582
▁shakes	-7583
▁signal	-7584
▁silent	-7585
▁silken	-7586
▁smooth	-7587
▁sorrow	-7588
▁splash	-7589
▁spoons	-7590
▁stairs	-7591
▁stocks	-7592
▁storms	-7593
▁surviv	-7594
▁tables	-7595
▁teleph	-7596
▁tithes	-7597
▁toggle	-7598
▁towers	-7599
erpr	-7600
lips	-7601
nels	-7602
Speak	-7603
autah	-7604
ickgt	-7605
itpur	-7606
prone	-7607
ugget	-7608
▁100-	-7609
▁2060	-7610
▁2065	-7611
▁Dipl	-7612
▁Dots	-7613
▁Meet	-7614
▁Nebu	-7615
▁Upto	-7616
▁corr	-7617
▁pane	-7618
▁tops	-7619
▁trap	-7620
▁warr	-7621
arship	-7622
erprin	-7623
graded	-7624
nickgt	-7625
rowser	-7626
▁Himal	-7627
▁Langu	-7628
▁admon	-7629
▁alias	-7630
▁bowed	-7631
▁hurry	-7632
▁learn	-7633
▁plots	-7634
▁predi	-7635
▁proof	-7636
▁slips	-7637
▁traff	-7638
alitpur	-7639
autahat	-7640
browser	-7641
erprint	-7642
ivalent	-7643
ptimize	-7644
▁Merari	-7645
▁Passes	-7646
▁Screen	-7647
▁Traded	-7648
▁agents	-7649
▁corrid	-7650
▁courty	-7651
▁declar	-7652
▁lights	-7653
▁nugget	-7654
▁sounds	-7655
▁unders	-7656
▁unique	-7657
▁unlike	-7658
▁vacanc	-7659
▁values	-7660
▁vanity	-7661
▁verify	-7662
▁vessel	-7663
▁volume	-7664
▁waiter	-7665
▁warned	-7666
▁weekly	-7667
▁whirlw	-7668
▁wonder	-7669
,00,000.	-7670
1(1974).	-7671
4-12-19(	-7672
56-1961)	-7673
Dividend	-7674
Immanuel	-7675
Notified	-7676
Trishuli	-7677
WNERSHIP	-7678
ackcloth	-7679
adcasted	-7680
amespace	-7681
andatory	-7682
anjungha	-7683
artially	-7684
atamarca	-7685
bitrator	-7686
ccessful	-7687
clopedia	-7688
ctuation	-7689
disabled	-7690
ensgaard	-7691
essarily	-7692
ferences	-7693
getables	-7694
gressive	-7695
hostscri	-7696
iculated	-7697
ilatelic	-7698
ilateral	-7699
exi	-7700
exiD	-7701
insk	-7702
▁118	-7703
▁119	-7704
amese	-7705
enins	-7706
exiDB	-7707
inski	-7708
onash	-7709
▁Cash	-7710
▁Goes	-7711
▁pier	-7712
▁pins	-7713
▁pipe	-7714
▁virt	-7715
avened	-7716
namese	-7717
▁Alumn	-7718
▁Tarai	-7719
▁Trash	-7720
▁burns	-7721
▁citiz	-7722
▁teams	-7723
▁tests	-7724
▁trash	-7725
awinski	-7726
▁Alumni	-7727
▁Heaven	-7728
▁KexiDB	-7729
▁Monash	-7730
▁Penins	-7731
▁Philip	-7732
▁Police	-7733
▁Transl	-7734
▁descri	-7735
▁frames	-7736
▁interp	-7737
▁interv	-7738
▁obeyed	-7739
▁oracle	-7740
▁pierce	-7741
▁played	-7742
▁player	-7743
▁prince	-7744
▁swords	-7745
▁twists	-7746
impanzee	-7747
judicial	-7748
kelihood	-7749
leavened	-7750
llowship	-7751
nceforth	-7752
neapolis	-7753
nowledge	-7754
ntrained	-7755
ntrusted	-7756
olarship	-7757
ommended	-7758
oriented	-7759
ornelius	-7760
otential	-7761
padyatra	-7762
plainant	-7763
reetings	-7764
relevant	-7765
requency	-7766
resenter	-7767
shithole	-7768
smelling	-7769
terflies	-7770
textured	-7771
ufacture	-7772
urelands	-7773
virginie	-7774
vocation	-7775
xecutive	-7776
▁.......	-7777
▁100,000	-7778
▁142,409	-7779
▁162,279	-7780
▁1969-70	-7781
▁1983/84	-7782
▁1990/91	-7783
▁2006-08	-7784
▁2020.11	-7785
▁2055/10	-7786
▁Aborted	-7787
▁Adjudic	-7788
▁Advance	-7789
▁Advisor	-7790
▁Affairs	-7791
▁African	-7792
▁Airport	-7793
▁Ammihud	-7794
▁Antenna	-7795
▁Atlanta	-7796
▁Auditor	-7797
▁Average	-7798
▁Baishak	-7799
▁9,	-7800
▁94	-7801
▁xd	-7802
dges	-7803
ealo	-7804
henm	-7805
▁1.0	-7806
▁900	-7807
▁94(	-7808
▁xdm	-7809
chron	-7810
rones	-7811
urbar	-7812
▁1960	-7813
▁1981	-7814
▁1985	-7815
▁Emac	-7816
▁Gram	-7817
▁Gulf	-7818
▁Mesh	-7819
▁glad	-7820
▁glob	-7821
▁slow	-7822
ealogy	-7823
ealous	-7824
▁1960/	-7825
▁1964)	-7826
▁2003)	-7827
▁Added	-7828
▁Assig	-7829
▁Based	-7830
▁Emacs	-7831
▁Phenm	-7832
▁campa	-7833
▁holds	-7834
▁hydel	-7835
▁keeps	-7836
▁misfe	-7837
▁misle	-7838
▁slain	-7839
▁steal	-7840
▁1960/6	-7841
▁Associ	-7842
▁Durbar	-7843
▁Meshil	-7844
▁cement	-7845
▁global	-7846
▁hedges	-7847
▁leased	-7848
▁liveli	-7849
▁mobile	-7850
▁phased	-7851
▁voices	-7852
chronize	-7853
enealogy	-7854
▁900,000	-7855
▁Assignt	-7856
▁Beeroth	-7857
▁Benaiah	-7858
▁Between	-7859
▁Carbide	-7860
▁Catalan	-7861
▁Central	-7862
▁Centres	-7863
▁Certain	-7864
▁Conclus	-7865
▁Connect	-7866
▁Customs	-7867
▁Defence	-7868
▁Defines	-7869
▁Elishah	-7870
▁Express	-7871
▁Farmers	-7872
▁Finance	-7873
▁Folders	-7874
▁Forests	-7875
▁Goddess	-7876
▁Greater	-7877
▁Hallett	-7878
▁Himself	-7879
▁Ignored	-7880
▁Interim	-7881
▁Interse	-7882
▁Introdu	-7883
▁Johanan	-7884
▁Joshavi	-7885
▁Kailali	-7886
▁Lambert	-7887
▁Manager	-7888
▁Martial	-7889
▁Medical	-7890
▁Menstru	-7891
▁Micaiah	-7892
▁Moabite	-7893
▁Mozilla	-7894
▁Myanmar	-7895
▁Napolit	-7896
▁Natural	-7897
▁Nebuzar	-7898
▁Netbook	-7899
-3.	-7900
▁8)	-7901
▁81	-7902
Magh	-7903
▁15.	-7904
▁150	-7905
▁153	-7906
▁814	-7907
▁err	-7908
agnet	-7909
elfth	-7910
infor	-7911
paces	-7912
rigon	-7913
udges	-7914
▁153(	-7915
▁2023	-7916
▁2028	-7917
▁2029	-7918
▁8146	-7919
▁Hamm	-7920
▁Milk	-7921
▁Nept	-7922
Judges	-7923
airman	-7924
ooling	-7925
verthe	-7926
▁Apply	-7927
▁Solid	-7928
▁Times	-7929
▁Usech	-7930
▁Using	-7931
▁Voice	-7932
▁angle	-7933
▁infor	-7934
▁liter	-7935
▁loads	-7936
▁spool	-7937
▁utter	-7938
agnetic	-7939
inforce	-7940
twitter	-7941
unately	-7942
vertise	-7943
▁2023-8	-7944
▁Marcel	-7945
▁Neptun	-7946
▁Others	-7947
▁Result	-7948
▁Trigon	-7949
▁errors	-7950
▁highly	-7951
▁layers	-7952
▁laying	-7953
▁layout	-7954
▁moneys	-7955
▁thinks	-7956
▁worldw	-7957
Geliloth	-7958
uttonous	-7959
vertical	-7960
▁Enquiry	-7961
▁Hammole	-7962
▁Inquiry	-7963
▁Neptune	-7964
▁Network	-7965
▁Notched	-7966
▁Objects	-7967
▁OpenPGP	-7968
▁Opinion	-7969
▁Pattern	-7970
▁Perform	-7971
▁Perhaps	-7972
▁Plugins	-7973
▁Preload	-7974
▁Present	-7975
▁Printer	-7976
▁Rajguth	-7977
▁Reading	-7978
▁Require	-7979
▁Restart	-7980
▁Results	-7981
▁Reuters	-7982
▁Sabbath	-7983
▁Schools	-7984
▁Science	-7985
▁Seraiah	-7986
▁Shallum	-7987
▁Shemesh	-7988
▁Similar	-7989
▁Simmons	-7990
▁Species	-7991
▁Storage	-7992
▁Susanna	-7993
▁Suspend	-7994
▁Timeout	-7995
▁Towards	-7996
▁Without	-7997
▁Zebedee	-7998
▁aborted	-7999
3.5	-8000
Open	-8001
eles	-8002
ijah	-8003
live	-8004
▁29)	-8005
▁75%	-8006
.13.5	-8007
elesc	-8008
erday	-8009
kular	-8010
rides	-8011
umped	-8012
yrene	-8013
▁Elam	-8014
▁Elon	-8015
▁Keep	-8016
▁Once	-8017
▁chec	-8018
▁chem	-8019
▁logo	-8020
▁skin	-8021
▁temp	-8022
blemak	-8023
folder	-8024
imatic	-8025
▁.13.5	-8026
▁Sherw	-8027
▁assum	-8028
▁bytes	-8029
▁cheap	-8030
▁divor	-8031
▁fixes	-8032
▁minus	-8033
▁olive	-8034
▁pains	-8035
atories	-8036
cademic	-8037
itories	-8038
ushions	-8039
▁Abijah	-8040
▁Cyrene	-8041
▁Okular	-8042
▁Telesc	-8043
▁academ	-8044
▁dingly	-8045
▁divide	-8046
▁extens	-8047
▁grains	-8048
▁jumped	-8049
▁respon	-8050
▁strips	-8051
Academic	-8052
climatic	-8053
esterday	-8054
pedition	-8055
ritories	-8056
▁Ciphers	-8057
▁Keeping	-8058
▁Sherwin	-8059
▁academy	-8060
▁afterno	-8061
▁animate	-8062
▁announc	-8063
▁anymore	-8064
▁apostle	-8065
▁applets	-8066
▁armored	-8067
▁ashamed	-8068
▁assumed	-8069
▁astruct	-8070
▁average	-8071
▁avoided	-8072
▁bargain	-8073
▁baskets	-8074
▁binding	-8075
▁borders	-8076
▁burning	-8077
▁captain	-8078
▁captive	-8079
▁capture	-8080
▁carries	-8081
▁catalog	-8082
▁checked	-8083
▁chicago	-8084
▁citizen	-8085
▁clothed	-8086
▁collage	-8087
▁commits	-8088
▁compuls	-8089
▁contend	-8090
▁convene	-8091
▁convict	-8092
▁couples	-8093
▁covered	-8094
▁crossed	-8095
▁crystal	-8096
▁culture	-8097
▁cursing	-8098
▁cutting	-8099
log	-8100
▁4)	-8101
▁CA	-8102
iraj	-8103
▁126	-8104
▁127	-8105
▁57.	-8106
▁CAL	-8107
▁hym	-8108
▁ina	-8109
▁waf	-8110
▁“”.	-8111
gedol	-8112
isins	-8113
oiada	-8114
▁1271	-8115
▁57.9	-8116
▁CALL	-8117
▁Kali	-8118
▁Mont	-8119
▁Seti	-8120
▁flor	-8121
▁gras	-8122
▁hymn	-8123
▁node	-8124
▁ridd	-8125
akenly	-8126
iaison	-8127
remely	-8128
ropath	-8129
▁Event	-8130
▁Inner	-8131
▁Plant	-8132
▁flame	-8133
▁grasp	-8134
▁guard	-8135
▁march	-8136
▁poore	-8137
▁swing	-8138
▁swore	-8139
▁uncon	-8140
▁waves	-8141
aggedol	-8142
ehoiada	-8143
ireless	-8144
iropath	-8145
ituting	-8146
ocially	-8147
uthorit	-8148
visaged	-8149
▁75,000	-8150
▁Target	-8151
▁famous	-8152
▁floral	-8153
▁herein	-8154
▁lovers	-8155
▁photog	-8156
▁uncont	-8157
▁wafers	-8158
▁waters	-8159
Jehoiada	-8160
ccession	-8161
ventions	-8162
▁Liaison	-8163
▁Targets	-8164
▁backlog	-8165
▁damaged	-8166
▁daytime	-8167
▁deceive	-8168
▁decides	-8169
▁declare	-8170
▁defined	-8171
▁definit	-8172
▁degrees	-8173
▁designs	-8174
▁dialogs	-8175
▁dictate	-8176
▁dispose	-8177
▁disposs	-8178
▁dragged	-8179
▁editing	-8180
▁edition	-8181
▁entitle	-8182
▁examine	-8183
▁explore	-8184
▁extract	-8185
▁extreme	-8186
▁federal	-8187
▁feeding	-8188
▁felling	-8189
▁folders	-8190
▁forsake	-8191
▁funding	-8192
▁garbage	-8193
▁glowing	-8194
▁goddess	-8195
▁grassro	-8196
▁greeter	-8197
▁grieved	-8198
▁growing	-8199
SD	-8200
.18	-8201
Oper	-8202
Vict	-8203
YYYY	-8204
area	-8205
elph	-8206
pany	-8207
shan	-8208
show	-8209
shur	-8210
uely	-8211
yond	-8212
▁OSD	-8213
▁Ren	-8214
▁Sum	-8215
▁awn	-8216
▁cli	-8217
Opera	-8218
aiden	-8219
rogon	-8220
veneh	-8221
▁Asse	-8222
▁Baid	-8223
▁rage	-8224
▁rare	-8225
▁shud	-8226
0.5.18	-8227
Victim	-8228
adelph	-8229
aguely	-8230
aidens	-8231
esarea	-8232
mitian	-8233
okshan	-8234
onders	-8235
▁Money	-8236
▁Renew	-8237
▁Sarah	-8238
▁autom	-8239
▁encod	-8240
▁helps	-8241
▁insol	-8242
▁shudd	-8243
▁teeth	-8244
▁tween	-8245
aesarea	-8246
anceled	-8247
inating	-8248
jection	-8249
maidens	-8250
panying	-8251
▁Assets	-8252
▁Asshur	-8253
▁Notice	-8254
▁States	-8255
▁Summit	-8256
▁awning	-8257
▁beyond	-8258
▁client	-8259
▁earned	-8260
▁finely	-8261
▁header	-8262
▁lookup	-8263
▁maiden	-8264
▁termin	-8265
▁threat	-8266
▁trogon	-8267
adelphia	-8268
ermitian	-8269
▁69,000.	-8270
▁Jokshan	-8271
▁Provide	-8272
▁Renewal	-8273
▁Seveneh	-8274
▁avatars	-8275
▁bitions	-8276
▁guarded	-8277
▁guiding	-8278
▁harvest	-8279
▁headers	-8280
▁heavily	-8281
▁hectare	-8282
▁holders	-8283
▁holiday	-8284
▁hurried	-8285
▁hygiene	-8286
▁innards	-8287
▁interim	-8288
▁involve	-8289
▁iodized	-8290
▁islands	-8291
▁jealous	-8292
▁keyword	-8293
▁kinsman	-8294
▁kinsmen	-8295
▁languis	-8296
▁latrine	-8297
▁loading	-8298
▁married	-8299
-15	-8300
7).	-8301
8).	-8302
OIN	-8303
ios	-8304
lai	-8305
▁).	-8306
-15.	-8307
OINT	-8308
Tell	-8309
Walk	-8310
ahai	-8311
ibai	-8312
lock	-8313
voke	-8314
▁104	-8315
▁107	-8316
▁fra	-8317
007).	-8318
ellar	-8319
etell	-8320
itwan	-8321
▁Enon	-8322
▁Gork	-8323
▁Tell	-8324
▁Word	-8325
▁answ	-8326
▁awes	-8327
▁unli	-8328
▁vict	-8329
angers	-8330
etWalk	-8331
iosity	-8332
ndered	-8333
▁Along	-8334
▁JOINT	-8335
▁Lahai	-8336
▁VCard	-8337
▁needy	-8338
▁newsp	-8339
▁pause	-8340
▁smoke	-8341
▁surpl	-8342
(2007).	-8343
NetWalk	-8344
chemish	-8345
unetell	-8346
▁2008).	-8347
▁Affili	-8348
▁Hadlai	-8349
▁Intens	-8350
▁buying	-8351
▁profic	-8352
▁settle	-8353
▁shared	-8354
▁victim	-8355
3(2007).	-8356
▁Chitwan	-8357
▁Jeribai	-8358
▁Minimum	-8359
▁Strateg	-8360
▁absolut	-8361
▁answers	-8362
▁awesome	-8363
▁martial	-8364
▁masters	-8365
▁matches	-8366
▁migrate	-8367
▁mislead	-8368
▁mission	-8369
▁multipl	-8370
▁musiums	-8371
▁mystery	-8372
▁neutral	-8373
▁newspap	-8374
▁nursing	-8375
▁orphans	-8376
▁outline	-8377
▁oversee	-8378
▁palaces	-8379
▁parable	-8380
▁penalty	-8381
▁pharmac	-8382
▁picture	-8383
▁pilgrim	-8384
▁pioneer	-8385
▁polygon	-8386
▁poorest	-8387
▁precise	-8388
▁princes	-8389
▁princip	-8390
▁priorit	-8391
▁provoke	-8392
▁publish	-8393
▁quoting	-8394
▁railing	-8395
▁raisins	-8396
▁ranging	-8397
▁reading	-8398
▁reflect	-8399
69	-8400
OS	-8401
mo	-8402
769	-8403
akh	-8404
▁FY	-8405
▁PM	-8406
▁ow	-8407
,769	-8408
conf	-8409
icks	-8410
moan	-8411
▁Ruk	-8412
▁War	-8413
▁typ	-8414
7,769	-8415
These	-8416
abies	-8417
adict	-8418
conic	-8419
oshen	-8420
rawan	-8421
unger	-8422
▁8601	-8423
▁Shel	-8424
▁coal	-8425
▁lakh	-8426
▁shat	-8427
▁sick	-8428
▁sits	-8429
67,769	-8430
Window	-8431
arsing	-8432
atives	-8433
ouston	-8434
radict	-8435
riches	-8436
▁Asked	-8437
▁Rukum	-8438
▁Weave	-8439
▁armed	-8440
▁embal	-8441
▁membe	-8442
▁owing	-8443
▁reply	-8444
▁spurn	-8445
▁stick	-8446
▁style	-8447
Windows	-8448
moaning	-8449
▁Forced	-8450
▁Goshen	-8451
▁Iconic	-8452
▁Idalah	-8453
▁PalmOS	-8454
▁Proced	-8455
▁Shelom	-8456
▁babies	-8457
▁curric	-8458
▁drinks	-8459
▁embalm	-8460
▁hunger	-8461
▁meager	-8462
▁spurns	-8463
▁substr	-8464
▁tricks	-8465
▁typing	-8466
andering	-8467
striches	-8468
▁267,769	-8469
▁Houston	-8470
▁Shrawan	-8471
▁Warning	-8472
▁greatly	-8473
▁healing	-8474
▁organic	-8475
▁parsing	-8476
▁refused	-8477
▁repairs	-8478
▁rescues	-8479
▁reserve	-8480
▁retired	-8481
▁revival	-8482
▁rickety	-8483
▁riddles	-8484
▁ringers	-8485
▁scripts	-8486
▁segment	-8487
▁shining	-8488
▁shorten	-8489
▁shrinks	-8490
▁signals	-8491
▁sincere	-8492
▁sinners	-8493
▁skilled	-8494
▁smaller	-8495
▁spatial	-8496
▁squares	-8497
▁statute	-8498
▁stellar	-8499
-6	-8500
aaz	-8501
ukt	-8502
▁73	-8503
▁dp	-8504
They	-8505
ahaz	-8506
etal	-8507
ioch	-8508
oute	-8509
pact	-8510
riet	-8511
rine	-8512
uote	-8513
▁000	-8514
▁Ten	-8515
▁dpk	-8516
Their	-8517
aziah	-8518
eling	-8519
itled	-8520
rigin	-8521
uktin	-8522
▁5000	-8523
▁Aram	-8524
▁dpkg	-8525
▁fles	-8526
▁keyb	-8527
▁surm	-8528
Origin	-8529
angles	-8530
armath	-8531
ctrine	-8532
ethics	-8533
filled	-8534
ilized	-8535
onized	-8536
orized	-8537
▁Alarm	-8538
▁Arrow	-8539
▁Jahaz	-8540
▁Joash	-8541
▁Route	-8542
▁bears	-8543
▁conso	-8544
▁cords	-8545
▁donor	-8546
▁drain	-8547
▁fetal	-8548
▁flesh	-8549
▁hears	-8550
▁occup	-8551
armatha	-8552
eptical	-8553
neeling	-8554
rietary	-8555
▁Muktin	-8556
▁Tenure	-8557
▁entire	-8558
▁grants	-8559
▁scient	-8560
▁supple	-8561
▁terror	-8562
Original	-8563
ctangles	-8564
etrazine	-8565
▁Ahimaaz	-8566
▁Amaziah	-8567
▁Ammizab	-8568
▁Antioch	-8569
▁Compact	-8570
▁console	-8571
▁handles	-8572
▁keybind	-8573
▁stories	-8574
▁stumble	-8575
▁success	-8576
▁suggest	-8577
▁survive	-8578
▁suspect	-8579
▁swiftly	-8580
▁systray	-8581
▁teacher	-8582
▁thrones	-8583
▁tourist	-8584
▁towards	-8585
▁trailed	-8586
▁translu	-8587
▁trapped	-8588
▁travels	-8589
▁trouble	-8590
▁turning	-8591
▁twelfth	-8592
▁upright	-8593
▁utility	-8594
▁vaguely	-8595
▁variety	-8596
▁vessels	-8597
▁victims	-8598
▁victory	-8599
SU	-8600
SUi	-8601
abd	-8602
cts	-8603
def	-8604
rex	-8605
▁'%	-8606
▁78	-8607
SUiJ	-8608
Stay	-8609
bush	-8610
eful	-8611
ohan	-8612
SUiJC	-8613
check	-8614
ducts	-8615
opled	-8616
osave	-8617
rexel	-8618
rules	-8619
sures	-8620
▁Resp	-8621
▁Spam	-8622
▁Zabd	-8623
▁chur	-8624
▁herb	-8625
▁numh	-8626
▁rose	-8627
Please	-8628
SUiJCw	-8629
define	-8630
ective	-8631
iantly	-8632
ithful	-8633
leeful	-8634
osures	-8635
ounces	-8636
plants	-8637
▁Alpha	-8638
▁Bohan	-8639
▁Never	-8640
▁arrow	-8641
▁comeb	-8642
▁dance	-8643
▁faces	-8644
▁hates	-8645
▁herit	-8646
▁matri	-8647
▁repay	-8648
▁seize	-8649
▁tithe	-8650
▁wines	-8651
▁wrath	-8652
owerful	-8653
veopled	-8654
▁Alphae	-8655
▁Drexel	-8656
▁Guides	-8657
▁ambush	-8658
▁church	-8659
▁loving	-8660
▁matrix	-8661
▁series	-8662
▁strate	-8663
▁tribut	-8664
Powerful	-8665
faithful	-8666
ffective	-8667
phSUiJCw	-8668
▁Further	-8669
▁Release	-8670
▁Respons	-8671
▁Zabdiel	-8672
▁defends	-8673
▁deserve	-8674
▁gleeful	-8675
▁healthy	-8676
▁letting	-8677
▁numhber	-8678
▁proviso	-8679
▁results	-8680
▁rightly	-8681
▁vidence	-8682
▁violent	-8683
▁warning	-8684
▁wearing	-8685
▁wedlock	-8686
▁whoever	-8687
▁witness	-8688
▁wrapped	-8689
Committee	-8690
GnomeCard	-8691
UphSUiJCw	-8692
abilities	-8693
aboration	-8694
ackground	-8695
agarmatha	-8696
aggedolim	-8697
akhapatra	-8698
attribute	-8699
%.	-8700
NC	-8701
For	-8702
mors	-8703
▁Ash	-8704
▁Gra	-8705
▁Jep	-8706
▁VNC	-8707
▁rop	-8708
alyst	-8709
amily	-8710
edily	-8711
ersia	-8712
ubble	-8713
▁10%.	-8714
▁Cour	-8715
▁Dang	-8716
▁Heth	-8717
▁Jeph	-8718
▁Life	-8719
▁Lyst	-8720
▁Noth	-8721
▁Stri	-8722
▁Town	-8723
▁fert	-8724
▁unri	-8725
ansfer	-8726
astern	-8727
atible	-8728
enched	-8729
ernand	-8730
▁About	-8731
▁Ashad	-8732
▁Graff	-8733
▁Graph	-8734
▁Joses	-8735
▁famed	-8736
▁loose	-8737
▁maybe	-8738
▁perse	-8739
▁tooth	-8740
▁wages	-8741
atrines	-8742
ernando	-8743
illages	-8744
ilmerod	-8745
▁Family	-8746
▁Hubble	-8747
▁Jephth	-8748
▁Lystra	-8749
▁Persia	-8750
▁Strike	-8751
▁actual	-8752
▁colors	-8753
▁conduc	-8754
▁filing	-8755
▁filter	-8756
▁manual	-8757
▁modify	-8758
▁pilots	-8759
▁rumors	-8760
▁struct	-8761
▁styles	-8762
▁theory	-8763
transfer	-8764
▁Courter	-8765
▁Eastern	-8766
▁Graffit	-8767
▁Nothing	-8768
▁analyst	-8769
▁fertile	-8770
▁listing	-8771
▁visions	-8772
celerator	-8773
cological	-8774
committee	-8775
conductor	-8776
dependent	-8777
effective	-8778
eteorolog	-8779
fulfilled	-8780
insurance	-8781
isitioned	-8782
itigation	-8783
mentioned	-8784
ntication	-8785
peachment	-8786
ptibility	-8787
quisition	-8788
rangement	-8789
secretary	-8790
sequently	-8791
stretched	-8792
struction	-8793
ternalize	-8794
ufacturer	-8795
valuation	-8796
ventional	-8797
▁(2017)."	-8798
▁1952-54.	-8799
IDE	-8800
▁4(	-8801
▁46	-8802
▁48	-8803
▁Od	-8804
Have	-8805
VIDE	-8806
alek	-8807
ensa	-8808
kele	-8809
rews	-8810
▁Asa	-8811
▁Haz	-8812
▁Odd	-8813
▁SSL	-8814
▁Vac	-8815
▁Var	-8816
▁Vis	-8817
▁caf	-8818
OVIDE	-8819
osals	-8820
oving	-8821
reens	-8822
▁4620	-8823
▁Bals	-8824
▁Expe	-8825
▁Germ	-8826
▁Vide	-8827
▁Visa	-8828
▁earn	-8829
▁shek	-8830
▁torn	-8831
ROVIDE	-8832
agious	-8833
allyan	-8834
ensack	-8835
liness	-8836
ragged	-8837
raised	-8838
reensh	-8839
▁Balsa	-8840
▁Hazar	-8841
▁Pensa	-8842
▁Rains	-8843
▁Sharm	-8844
▁Skele	-8845
▁Video	-8846
▁carri	-8847
▁deact	-8848
▁fears	-8849
▁innum	-8850
alekite	-8851
invests	-8852
ointing	-8853
▁Nathan	-8854
▁Sharma	-8855
▁Vacant	-8856
▁famine	-8857
▁ratche	-8858
▁riddle	-8859
▁senior	-8860
▁sheath	-8861
igration	-8862
lighting	-8863
reenshot	-8864
▁Endange	-8865
▁Germany	-8866
▁Hebrews	-8867
▁Mustang	-8868
▁PROVIDE	-8869
▁Sallyan	-8870
▁Support	-8871
▁Various	-8872
▁bragged	-8873
▁carrier	-8874
▁constru	-8875
▁finally	-8876
▁forfeit	-8877
▁innumer	-8878
▁praised	-8879
▁shekels	-8880
ackensack	-8881
▁1984/85,	-8882
▁1989/90.	-8883
▁1991/92,	-8884
▁1991/92.	-8885
▁2021-8-5	-8886
▁2055.10.	-8887
▁2055/10/	-8888
▁Abortion	-8889
▁Accounts	-8890
▁Activate	-8891
▁Airlines	-8892
▁Alphaeus	-8893
▁Arameans	-8894
▁Assignto	-8895
▁Attached	-8896
▁Attempts	-8897
▁Attendee	-8898
▁Ayurvedi	-8899
.”	-8900
DM	-8901
DMC	-8902
eez	-8903
▁3)	-8904
▁33	-8905
▁53	-8906
▁56	-8907
▁Ol	-8908
DMCP	-8909
acro	-8910
bing	-8911
ince	-8912
pper	-8913
▁563	-8914
▁Bew	-8915
▁GIM	-8916
▁Inn	-8917
▁See	-8918
▁Sil	-8919
▁Sor	-8920
▁pix	-8921
▁rne	-8922
ainee	-8923
aught	-8924
eezed	-8925
▁1024	-8926
▁Dire	-8927
▁Food	-8928
▁GIMP	-8929
▁Inns	-8930
▁Joel	-8931
▁Seek	-8932
▁Sham	-8933
▁Size	-8934
▁brow	-8935
▁hund	-8936
▁repa	-8937
▁tray	-8938
▁Reply	-8939
▁Shamm	-8940
▁Shime	-8941
▁Silas	-8942
▁Since	-8943
▁Sorry	-8944
▁Upper	-8945
▁brook	-8946
▁decay	-8947
▁hired	-8948
▁hundi	-8949
▁macro	-8950
▁newer	-8951
▁nonce	-8952
▁pixbu	-8953
▁pound	-8954
alified	-8955
ongress	-8956
▁Beware	-8957
▁Olives	-8958
▁Shimea	-8959
▁decide	-8960
▁gather	-8961
▁locate	-8962
▁pixbuf	-8963
▁taught	-8964
▁transp	-8965
vailable	-8966
▁563,000	-8967
▁Shammai	-8968
▁asserts	-8969
▁pixbufs	-8970
▁sayings	-8971
▁stating	-8972
▁trainee	-8973
▁vectors	-8974
▁weather	-8975
qualified	-8976
▁Barnabas	-8977
▁Bookmark	-8978
▁Caesarea	-8979
▁Campaner	-8980
▁Campbell	-8981
▁Chairman	-8982
▁Chapters	-8983
▁Congress	-8984
▁December	-8985
▁Delaying	-8986
▁Devighat	-8987
▁Diagnost	-8988
▁Electric	-8989
▁Entrance	-8990
▁Ethiopia	-8991
▁Expander	-8992
▁Ezrahite	-8993
▁Fernando	-8994
▁Flanagan	-8995
▁Frankfur	-8996
▁Geliloth	-8997
▁Graffiti	-8998
▁Guillain	-8999
-.	-9000
fix	-9001
six	-9002
▁Id	-9003
ecai	-9004
esie	-9005
kiah	-9006
ntax	-9007
seer	-9008
▁151	-9009
▁Amo	-9010
▁Fix	-9011
▁Tor	-9012
▁Unf	-9013
▁ack	-9014
▁fle	-9015
▁nce	-9016
cheth	-9017
chiah	-9018
endix	-9019
llite	-9020
osite	-9021
raced	-9022
razil	-9023
▁Amoz	-9024
▁Lock	-9025
▁Pest	-9026
▁Safe	-9027
▁Sink	-9028
▁pool	-9029
▁unem	-9030
center	-9031
fixnot	-9032
graced	-9033
izkiah	-9034
riving	-9035
▁Award	-9036
▁Ident	-9037
▁autoc	-9038
▁besie	-9039
▁clock	-9040
▁desir	-9041
▁flees	-9042
▁knows	-9043
▁smart	-9044
▁tread	-9045
▁unity	-9046
indness	-9047
ordecai	-9048
ormally	-9049
pposite	-9050
rechiah	-9051
regular	-9052
rescent	-9053
▁20,000	-9054
▁Brazil	-9055
▁Pestes	-9056
▁Sinkal	-9057
▁Unfort	-9058
▁forget	-9059
▁formal	-9060
▁refers	-9061
▁syntax	-9062
▁thread	-9063
atellite	-9064
readable	-9065
▁Identif	-9066
▁Torrent	-9067
▁autocom	-9068
▁counted	-9069
▁enabled	-9070
▁knowing	-9071
▁wherein	-9072
▁Appendix	-9073
▁Crescent	-9074
▁Elishama	-9075
▁Fixation	-9076
▁Hezekiah	-9077
▁Hittites	-9078
▁IOBuffer	-9079
▁Immanuel	-9080
▁Inkscape	-9081
▁Jehoiada	-9082
▁Jonathan	-9083
▁Judicial	-9084
▁KHotKeys	-9085
▁KNetWalk	-9086
▁Katmandu	-9087
▁Kindness	-9088
▁Lalitpur	-9089
▁Latrines	-9090
▁Licensee	-9091
▁Location	-9092
▁Matsuoka	-9093
▁Meetings	-9094
▁Merarite	-9095
▁Meridian	-9096
▁Meshille	-9097
▁Minerals	-9098
▁Moabites	-9099
ju	-9100
125	-9101
fty	-9102
obo	-9103
▁'/	-9104
1258	-9105
levi	-9106
pass	-9107
type	-9108
▁19,	-9109
▁5.1	-9110
▁Dib	-9111
ainly	-9112
alsam	-9113
ariju	-9114
imics	-9115
onobo	-9116
perty	-9117
prosy	-9118
rical	-9119
vised	-9120
▁Fair	-9121
▁Merc	-9122
▁Tend	-9123
▁lady	-9124
▁reck	-9125
▁rejo	-9126
▁remn	-9127
ancing	-9128
gments	-9129
istent	-9130
ompass	-9131
otchan	-9132
ployed	-9133
▁Dibon	-9134
▁Forum	-9135
▁Judge	-9136
▁advis	-9137
▁chair	-9138
▁deals	-9139
▁filen	-9140
▁lofty	-9141
▁loins	-9142
▁recur	-9143
▁twice	-9144
Botchan	-9145
eraioth	-9146
pective	-9147
▁Bonobo	-9148
▁Comput	-9149
▁Mariju	-9150
▁Motion	-9151
▁allevi	-9152
▁balsam	-9153
▁forehe	-9154
▁mimics	-9155
▁reckon	-9156
▁rejoic	-9157
▁reward	-9158
▁safety	-9159
▁stored	-9160
lections	-9161
thogonal	-9162
▁Abiezer	-9163
▁Faculty	-9164
▁Mercant	-9165
▁Tenders	-9166
▁advisor	-9167
▁deputed	-9168
▁factual	-9169
▁leprosy	-9170
▁plainly	-9171
▁remnant	-9172
▁revised	-9173
lectrical	-9174
olidating	-9175
ompassing	-9176
rescribed	-9177
▁Bachelor	-9178
▁Meraioth	-9179
▁Mobility	-9180
▁Mordecai	-9181
▁Musician	-9182
▁Neapolis	-9183
▁Netscape	-9184
▁Networks	-9185
▁Neverthe	-9186
▁Optimize	-9187
▁Overview	-9188
▁PaineWeb	-9189
▁Password	-9190
▁Position	-9191
▁Possible	-9192
▁Previous	-9193
▁Priority	-9194
▁Products	-9195
▁Programm	-9196
▁Projects	-9197
▁Property	-9198
▁Rainfall	-9199
col	-9200
poc	-9201
tip	-9202
▁FT	-9203
Hear	-9204
Mess	-9205
cont	-9206
pocr	-9207
urnh	-9208
▁(20	-9209
▁204	-9210
▁FTC	-9211
▁Squ	-9212
▁haz	-9213
▁upd	-9214
amian	-9215
color	-9216
ncome	-9217
nturn	-9218
olved	-9219
reder	-9220
three	-9221
using	-9222
▁2049	-9223
▁Abig	-9224
▁Join	-9225
▁Mend	-9226
▁Send	-9227
▁bend	-9228
▁gate	-9229
▁outl	-9230
▁poin	-9231
0(23-0	-9232
Damian	-9233
Income	-9234
aleshi	-9235
contem	-9236
ensing	-9237
iority	-9238
urnham	-9239
▁1974.	-9240
▁Conce	-9241
▁Death	-9242
▁Kross	-9243
▁Mered	-9244
▁Phase	-9245
▁Space	-9246
▁cells	-9247
▁fined	-9248
▁firms	-9249
▁neare	-9250
▁smell	-9251
▁spare	-9252
DamianF	-9253
Haleshi	-9254
Messiah	-9255
cribing	-9256
ificant	-9257
ownturn	-9258
pocrite	-9259
▁(2016)	-9260
▁1974.7	-9261
▁Freder	-9262
▁Square	-9263
▁faulty	-9264
▁hazard	-9265
▁outlay	-9266
▁requir	-9267
▁uncirc	-9268
DamianFl	-9269
eniority	-9270
icensing	-9271
▁1974.75	-9272
▁Abigail	-9273
▁Burnham	-9274
▁Develop	-9275
▁causing	-9276
▁evolved	-9277
▁hearing	-9278
▁nearest	-9279
▁notices	-9280
▁pleases	-9281
▁pointer	-9282
▁refuses	-9283
▁texture	-9284
▁tooltip	-9285
▁updated	-9286
ferencing	-9287
▁Advances	-9288
▁Fountain	-9289
▁Rajbiraj	-9290
▁Rautahat	-9291
▁Recently	-9292
▁Rehoboth	-9293
▁Removing	-9294
▁Required	-9295
▁Sections	-9296
▁Skeleton	-9297
▁Skillman	-9298
▁Smallest	-9299
HTML	-9300
Pros	-9301
arer	-9302
iuth	-9303
tath	-9304
▁(65	-9305
▁Dip	-9306
▁hip	-9307
▁ppl	-9308
▁voy	-9309
athro	-9310
eight	-9311
irror	-9312
thach	-9313
▁Butl	-9314
▁Gath	-9315
▁Hide	-9316
▁Mang	-9317
▁Rech	-9318
▁Reub	-9319
▁Zoom	-9320
▁byte	-9321
▁clan	-9322
▁clar	-9323
▁clos	-9324
▁club	-9325
▁hide	-9326
▁plug	-9327
▁root	-9328
▁sole	-9329
▁swim	-9330
iuthan	-9331
onesia	-9332
▁1936:	-9333
▁Dipay	-9334
▁Fight	-9335
▁Light	-9336
▁Thank	-9337
▁abide	-9338
▁clubs	-9339
▁creep	-9340
▁pplie	-9341
▁spots	-9342
▁stamp	-9343
▁swimm	-9344
athroom	-9345
ightage	-9346
▁Athach	-9347
▁Butler	-9348
▁Config	-9349
▁KmPlot	-9350
▁Mangle	-9351
▁Rechab	-9352
▁Reuben	-9353
▁bearer	-9354
▁enough	-9355
▁intent	-9356
▁leaned	-9357
▁lowest	-9358
▁mirror	-9359
▁recent	-9360
▁stamps	-9361
▁voyage	-9362
▁yearly	-9363
athrooms	-9364
▁Dipayal	-9365
▁Kattath	-9366
▁Piuthan	-9367
▁amounts	-9368
▁closest	-9369
▁creeper	-9370
▁inspect	-9371
▁10,73,41	-9372
▁Specific	-9373
▁Spooling	-9374
▁Standard	-9375
▁Starting	-9376
▁Subtract	-9377
▁Teachers	-9378
▁Usechars	-9379
▁Virginie	-9380
▁Whatever	-9381
▁Wildlife	-9382
▁Younkers	-9383
▁Zedekiah	-9384
▁aborting	-9385
▁accepted	-9386
▁achieved	-9387
▁actively	-9388
▁adapting	-9389
▁aerodrom	-9390
▁airfield	-9391
▁allowing	-9392
▁analysis	-9393
▁announce	-9394
▁apparent	-9395
▁arrested	-9396
▁arriving	-9397
▁assembly	-9398
▁assignee	-9399
4),	-9400
Jon	-9401
Try	-9402
awn	-9403
ibe	-9404
lso	-9405
▁AI	-9406
▁Lt	-9407
▁Vi	-9408
Also	-9409
Jonn	-9410
anke	-9411
asso	-9412
phed	-9413
reli	-9414
vied	-9415
▁18,	-9416
▁emb	-9417
▁hib	-9418
▁ign	-9419
▁lib	-9420
Jonny	-9421
ample	-9422
atter	-9423
ibeon	-9424
oried	-9425
plete	-9426
▁Adri	-9427
▁Give	-9428
▁Sell	-9429
▁View	-9430
▁burd	-9431
▁dawn	-9432
▁dign	-9433
▁emed	-9434
▁vary	-9435
......	-9436
Sample	-9437
assion	-9438
dating	-9439
ilence	-9440
minals	-9441
plevel	-9442
racing	-9443
raphed	-9444
ressee	-9445
▁Among	-9446
▁Banke	-9447
▁Charm	-9448
▁Sasso	-9449
▁Sheol	-9450
▁adult	-9451
▁autog	-9452
▁discs	-9453
▁ignor	-9454
▁split	-9455
......(	-9456
reliant	-9457
ression	-9458
storied	-9459
▁1964),	-9460
▁Adrian	-9461
▁Contro	-9462
▁Gibeon	-9463
▁Rating	-9464
▁Seller	-9465
▁burden	-9466
▁celebr	-9467
▁hibern	-9468
▁levied	-9469
▁partly	-9470
▁seeing	-9471
▁simple	-9472
▁timesc	-9473
fficient	-9474
▁Control	-9475
▁Tracing	-9476
▁Verbose	-9477
▁arrived	-9478
▁embrace	-9479
▁library	-9480
▁platter	-9481
▁relates	-9482
estilence	-9483
stonished	-9484
terminals	-9485
▁(2010)".	-9486
▁Division	-9487
▁Legendre	-9488
▁Updating	-9489
▁assignor	-9490
▁attacked	-9491
▁auditors	-9492
▁authored	-9493
▁authoriz	-9494
▁autosave	-9495
▁averaged	-9496
▁backward	-9497
▁bacteria	-9498
▁bagpipes	-9499
ils	-9500
nex	-9501
Most	-9502
Rise	-9503
bted	-9504
isha	-9505
▁Put	-9506
▁arr	-9507
▁dry	-9508
Bless	-9509
amide	-9510
andak	-9511
anger	-9512
group	-9513
ieswe	-9514
itted	-9515
oston	-9516
venes	-9517
▁Kons	-9518
▁Wall	-9519
▁ails	-9520
▁debt	-9521
▁lime	-9522
▁nick	-9523
▁ways	-9524
-5712/	-9525
andaki	-9526
andise	-9527
btedly	-9528
formal	-9529
groups	-9530
iesweg	-9531
ishael	-9532
nitted	-9533
otions	-9534
romise	-9535
▁Annex	-9536
▁Issue	-9537
▁Means	-9538
▁Stars	-9539
▁badly	-9540
▁feast	-9541
▁restr	-9542
▁rises	-9543
▁sheet	-9544
Blessed	-9545
ishable	-9546
oramide	-9547
▁Boston	-9548
▁Eighty	-9549
▁danger	-9550
▁detain	-9551
▁exhort	-9552
▁forgot	-9553
▁intell	-9554
▁popups	-9555
▁Gandaki	-9556
▁Konsole	-9557
▁Mishael	-9558
▁Wiesweg	-9559
▁chasten	-9560
▁knitted	-9561
▁motions	-9562
▁regions	-9563
imoramide	-9564
▁Barabbas	-9565
▁Trishuli	-9566
▁arranged	-9567
▁balances	-9568
▁becoming	-9569
▁belonged	-9570
▁birthday	-9571
▁browsers	-9572
▁calendar	-9573
▁campaign	-9574
▁captions	-9575
▁carryout	-9576
▁chairing	-9577
▁checking	-9578
▁chemical	-9579
▁classics	-9580
▁classify	-9581
▁climbing	-9582
▁coloured	-9583
▁comeback	-9584
▁compiled	-9585
▁complete	-9586
▁computed	-9587
▁contacts	-9588
▁convened	-9589
▁councils	-9590
▁crippled	-9591
▁cultural	-9592
▁cultures	-9593
▁daylight	-9594
▁debugger	-9595
▁deciding	-9596
▁defaults	-9597
▁departed	-9598
▁desirous	-9599
OL	-9600
ADE	-9601
OLU	-9602
ROR	-9603
Sim	-9604
ppi	-9605
ums	-9606
▁Mi	-9607
Aren	-9608
Face	-9609
OLUM	-9610
RROR	-9611
apid	-9612
apil	-9613
asts	-9614
bine	-9615
bums	-9616
fold	-9617
ippi	-9618
last	-9619
mine	-9620
ueen	-9621
▁MiB	-9622
▁Oct	-9623
▁UID	-9624
▁abh	-9625
▁ago	-9626
▁isn	-9627
▁lap	-9628
OLUMN	-9629
Simra	-9630
apilv	-9631
astro	-9632
ethro	-9633
ollow	-9634
ormat	-9635
outed	-9636
outhe	-9637
▁Arad	-9638
▁Aren	-9639
▁Bire	-9640
▁Coke	-9641
▁Ezra	-9642
▁Gran	-9643
▁Horm	-9644
▁Jair	-9645
▁Line	-9646
▁MADE	-9647
▁Page	-9648
▁Year	-9649
▁agre	-9650
▁alia	-9651
▁calf	-9652
▁ensu	-9653
▁fast	-9654
Follow	-9655
OLUMNt	-9656
acific	-9657
ilapid	-9658
ildren	-9659
rences	-9660
ulmine	-9661
▁2064.	-9662
▁ERROR	-9663
▁Plans	-9664
▁abhor	-9665
▁belly	-9666
▁canal	-9667
▁cited	-9668
▁compr	-9669
▁label	-9670
▁zonal	-9671
Pacific	-9672
Simraun	-9673
ademark	-9674
irement	-9675
lasting	-9676
▁Birend	-9677
▁Castro	-9678
▁Format	-9679
▁Hormah	-9680
▁Jethro	-9681
▁Kapilv	-9682
▁accent	-9683
▁agreed	-9684
▁albums	-9685
▁beasts	-9686
▁disper	-9687
▁encamp	-9688
▁snakes	-9689
▁southe	-9690
▁virgin	-9691
▁COLUMNt	-9692
▁Finally	-9693
▁Fulmine	-9694
▁combine	-9695
▁dilapid	-9696
▁ensured	-9697
▁lawyers	-9698
▁shouted	-9699
Dec	-9700
▁41	-9701
arok	-9702
pert	-9703
▁Chu	-9704
▁Isn	-9705
▁Iss	-9706
▁awe	-9707
Gover	-9708
elper	-9709
ineve	-9710
verty	-9711
▁(1).	-9712
▁Chin	-9713
▁Chuz	-9714
▁Link	-9715
▁Oper	-9716
▁Rich	-9717
▁Song	-9718
▁Test	-9719
▁Wind	-9720
▁repe	-9721
▁sees	-9722
Govern	-9723
ername	-9724
ineveh	-9725
▁China	-9726
▁Dover	-9727
▁GnuPG	-9728
▁Links	-9729
▁Sceva	-9730
▁Sixty	-9731
▁Subst	-9732
▁apert	-9733
▁charg	-9734
▁fract	-9735
▁incor	-9736
▁maker	-9737
▁negot	-9738
cGovern	-9739
overing	-9740
▁Amarok	-9741
▁Chuzas	-9742
▁Conven	-9743
▁Helper	-9744
▁Issach	-9745
▁Samlah	-9746
▁boring	-9747
▁entity	-9748
▁sandal	-9749
▁useful	-9750
▁Hilkiah	-9751
▁Nineveh	-9752
▁Richard	-9753
▁disable	-9754
▁incorru	-9755
▁reduced	-9756
▁scatter	-9757
▁serving	-9758
▁Birendra	-9759
▁Children	-9760
▁Convenor	-9761
▁Issachar	-9762
▁Mahavite	-9763
▁McGovern	-9764
▁Philippi	-9765
▁Substant	-9766
▁abhorred	-9767
▁aperture	-9768
▁charging	-9769
▁comprise	-9770
▁desktops	-9771
▁desolate	-9772
▁destroys	-9773
▁disabled	-9774
▁disaster	-9775
▁dishonor	-9776
▁disperse	-9777
▁distress	-9778
▁divorced	-9779
▁donation	-9780
▁downside	-9781
▁downturn	-9782
▁drafting	-9783
▁dumbness	-9784
▁earnings	-9785
▁effeorts	-9786
▁elements	-9787
▁emphasis	-9788
▁engaging	-9789
▁enhanced	-9790
▁enlisted	-9791
▁entering	-9792
▁eventual	-9793
▁excision	-9794
▁exempted	-9795
▁expanded	-9796
▁expendit	-9797
▁fairness	-9798
▁favorite	-9799
300	-9800
aff	-9801
tag	-9802
▁(5	-9803
▁UA	-9804
adok	-9805
agle	-9806
hech	-9807
help	-9808
lose	-9809
oked	-9810
▁(21	-9811
▁4),	-9812
▁4.4	-9813
▁Pix	-9814
▁Ter	-9815
▁UAD	-9816
▁gag	-9817
▁rap	-9818
▁tip	-9819
Close	-9820
again	-9821
ffers	-9822
ruous	-9823
tated	-9824
▁(5),	-9825
▁Amas	-9826
▁Head	-9827
▁Hous	-9828
▁Laws	-9829
▁adul	-9830
▁cane	-9831
▁crew	-9832
▁exag	-9833
▁leis	-9834
▁nose	-9835
▁tips	-9836
▁trad	-9837
▁tram	-9838
▁wipe	-9839
arthen	-9840
assign	-9841
elated	-9842
ervous	-9843
eshech	-9844
ugment	-9845
▁Amasa	-9846
▁UADes	-9847
▁Until	-9848
▁Zadok	-9849
▁Zorah	-9850
▁align	-9851
▁annul	-9852
▁appli	-9853
▁eagle	-9854
▁froze	-9855
▁mayor	-9856
▁plied	-9857
▁range	-9858
▁rapid	-9859
▁staff	-9860
▁virus	-9861
Related	-9862
idental	-9863
verance	-9864
▁Sector	-9865
▁Server	-9866
▁cattle	-9867
▁contem	-9868
▁render	-9869
▁retail	-9870
▁sowing	-9871
▁stated	-9872
▁summer	-9873
▁trampl	-9874
ongruous	-9875
▁Housing	-9876
▁Meshech	-9877
▁Running	-9878
▁adulter	-9879
▁applied	-9880
▁augment	-9881
▁buffers	-9882
▁content	-9883
▁earthen	-9884
▁exagger	-9885
▁justice	-9886
▁leisure	-9887
▁morator	-9888
▁nervous	-9889
▁revoked	-9890
▁rotated	-9891
▁Reassign	-9892
▁adultery	-9893
▁contempl	-9894
▁fighting	-9895
▁figurehe	-9896
▁fillable	-9897
▁fixation	-9898
▁flatters	-9899
2).	-9900
Bin	-9901
umm	-9902
▁38	-9903
Make	-9904
augh	-9905
trib	-9906
umul	-9907
▁160	-9908
▁Inv	-9909
▁Thu	-9910
▁Wor	-9911
▁ill	-9912
▁ran	-9913
▁tag	-9914
Where	-9915
abits	-9916
heart	-9917
ileam	-9918
tribe	-9919
umans	-9920
ummim	-9921
ureau	-9922
▁92).	-9923
▁Rear	-9924
▁cake	-9925
▁gear	-9926
▁goal	-9927
▁goit	-9928
▁impl	-9929
enture	-9930
humans	-9931
licant	-9932
▁Invol	-9933
▁World	-9934
▁cumul	-9935
▁exile	-9936
▁filth	-9937
▁laugh	-9938
▁loves	-9939
▁moves	-9940
▁turns	-9941
▁weary	-9942
▁white	-9943
▁worry	-9944
hearted	-9945
▁Bileam	-9946
▁Bureau	-9947
▁Unlike	-9948
▁Zimran	-9949
▁chance	-9950
▁goitre	-9951
▁habits	-9952
▁ration	-9953
▁sinful	-9954
▁speaks	-9955
▁Adummim	-9956
▁Involve	-9957
▁flowing	-9958
▁gearing	-9959
▁implies	-9960
▁underst	-9961
▁venture	-9962
▁censuses	-9963
▁focussed	-9964
▁followin	-9965
▁forehead	-9966
▁forestry	-9967
▁forthcom	-9968
▁fortress	-9969
▁fulltext	-9970
▁graceful	-9971
▁guardian	-9972
▁guidance	-9973
▁handheld	-9974
▁handling	-9975
▁handover	-9976
▁hindered	-9977
▁honoured	-9978
▁hospital	-9979
▁hostname	-9980
▁husbands	-9981
▁identify	-9982
▁imported	-9983
▁impurity	-9984
▁independ	-9985
▁informal	-9986
▁initiate	-9987
▁insolven	-9988
▁instance	-9989
▁intellig	-9990
▁intended	-9991
▁jiropath	-9992
▁judicial	-9993
▁kneeling	-9994
▁languish	-9995
▁learning	-9996
▁listener	-9997
▁lowering	-9998
▁magnetic	-9999
iza	-10000
kit	-10001
spl	-10002
upl	-10003
▁2)	-10004
▁5-	-10005
▁65	-10006
▁89	-10007
▁TC	-10008
Four	-10009
ding	-10010
hour	-10011
mbol	-10012
owas	-10013
tail	-10014
▁Kam	-10015
▁Kin	-10016
▁PID	-10017
▁Rai	-10018
▁Roy	-10019
▁TCV	-10020
▁alo	-10021
▁ark	-10022
▁ort	-10023
▁pum	-10024
▁unw	-10025
▁vel	-10026
hours	-10027
irmit	-10028
isans	-10029
level	-10030
mbols	-10031
ruits	-10032
ublic	-10033
▁Disk	-10034
▁Dupl	-10035
▁Gimp	-10036
▁Kami	-10037
▁TCVN	-10038
▁Ziza	-10039
▁cart	-10040
▁nspl	-10041
▁ovid	-10042
▁pump	-10043
▁seiz	-10044
▁spac	-10045
▁stom	-10046
ansing	-10047
firmit	-10048
onians	-10049
public	-10050
sorily	-10051
▁1968)	-10052
▁Again	-10053
▁Royal	-10054
▁aloes	-10055
▁alter	-10056
▁apply	-10057
▁bject	-10058
▁bound	-10059
▁outer	-10060
▁purch	-10061
▁spark	-10062
▁teleg	-10063
▁truer	-10064
figured	-10065
▁Prompt	-10066
▁breeze	-10067
▁counts	-10068
▁fruits	-10069
▁landed	-10070
▁observ	-10071
▁unwant	-10072
▁whowas	-10073
idonians	-10074
leansing	-10075
ollution	-10076
▁Changed	-10077
▁Chemosh	-10078
▁Cottage	-10079
▁climate	-10080
▁curtail	-10081
▁dealers	-10082
▁oviding	-10083
▁seizure	-10084
▁sparked	-10085
▁stomach	-10086
▁symbols	-10087
▁wedding	-10088
firmities	-10089
pollution	-10090
▁annivers	-10091
▁applying	-10092
▁artisans	-10093
▁mainland	-10094
▁marveled	-10095
▁matching	-10096
▁mediator	-10097
▁meetings	-10098
▁memories	-10099
:(1	-10100
Mix	-10101
cer	-10102
igs	-10103
▁),	-10104
▁Ox	-10105
:(1)	-10106
elry	-10107
erun	-10108
iary	-10109
nard	-10110
part	-10111
udim	-10112
▁Hig	-10113
▁Our	-10114
▁Shu	-10115
▁eco	-10116
▁sex	-10117
count	-10118
erves	-10119
icode	-10120
inars	-10121
izont	-10122
paper	-10123
rying	-10124
▁Bard	-10125
▁Love	-10126
▁calc	-10127
▁chas	-10128
▁oard	-10129
▁pigs	-10130
▁seat	-10131
▁sequ	-10132
eprosy	-10133
ewelry	-10134
ggling	-10135
itamin	-10136
▁Apart	-10137
▁Count	-10138
▁Ludim	-10139
▁Mount	-10140
▁Rerun	-10141
▁Shuah	-10142
▁looks	-10143
▁often	-10144
▁poles	-10145
arrying	-10146
earches	-10147
eminars	-10148
entures	-10149
izontal	-10150
▁Higher	-10151
▁Oxnard	-10152
▁Remove	-10153
▁attain	-10154
▁calcul	-10155
▁cancer	-10156
▁confus	-10157
▁leaves	-10158
▁sexual	-10159
▁skills	-10160
carrying	-10161
▁Bardiya	-10162
▁Convert	-10163
▁Country	-10164
▁Leprosy	-10165
▁Unicode	-10166
▁chasing	-10167
▁jewelry	-10168
▁vitamin	-10169
opulation	-10170
orizontal	-10171
▁Language	-10172
▁Searches	-10173
▁forsaken	-10174
▁leveling	-10175
▁merchant	-10176
▁merciful	-10177
▁midnight	-10178
▁mistakes	-10179
▁mourning	-10180
▁nominate	-10181
▁normally	-10182
▁nsplanta	-10183
▁observed	-10184
▁opposite	-10185
▁oriented	-10186
▁orphaned	-10187
▁overseer	-10188
▁packager	-10189
▁parabola	-10190
▁passport	-10191
▁password	-10192
▁patterns	-10193
▁pavilion	-10194
▁peculiar	-10195
▁performs	-10196
▁periodic	-10197
▁pictures	-10198
▁pleasure	-10199
cep	-10200
dos	-10201
iva	-10202
▁KG	-10203
▁vs	-10204
amie	-10205
aste	-10206
ildo	-10207
nual	-10208
orty	-10209
▁3.5	-10210
▁KGp	-10211
▁Nos	-10212
▁vro	-10213
estos	-10214
ocate	-10215
ports	-10216
▁3000	-10217
▁KGpg	-10218
▁Pash	-10219
▁busy	-10220
▁scep	-10221
▁ting	-10222
▁wash	-10223
NepalI	-10224
Sports	-10225
bestos	-10226
ildoer	-10227
opport	-10228
rigate	-10229
▁0.6),	-10230
▁2,000	-10231
▁First	-10232
▁Forty	-10233
▁Items	-10234
▁Jamie	-10235
▁MONEY	-10236
▁Treat	-10237
▁Waste	-10238
▁basen	-10239
▁denom	-10240
▁grave	-10241
▁grows	-10242
▁haste	-10243
▁highe	-10244
▁overc	-10245
NepalIn	-10246
▁Annual	-10247
▁Sender	-10248
▁covers	-10249
▁metres	-10250
▁rename	-10251
▁saliva	-10252
▁supper	-10253
▁unless	-10254
▁upward	-10255
NepalInP	-10256
▁Subject	-10257
▁highest	-10258
▁leather	-10259
▁renewed	-10260
▁scepter	-10261
▁stadium	-10262
▁Jephthah	-10263
▁allocate	-10264
▁asbestos	-10265
▁basename	-10266
▁ceremony	-10267
▁evildoer	-10268
▁irrigate	-10269
▁overcame	-10270
▁portions	-10271
▁presents	-10272
▁pressure	-10273
▁princess	-10274
▁prisoner	-10275
▁probable	-10276
▁procured	-10277
▁promises	-10278
▁promoted	-10279
▁promptly	-10280
▁protects	-10281
▁purchase	-10282
▁pyramids	-10283
▁quenched	-10284
▁rational	-10285
▁reaching	-10286
▁realized	-10287
▁receipts	-10288
▁recently	-10289
▁reckoned	-10290
▁reducing	-10291
▁reflects	-10292
▁rejoiced	-10293
▁relevant	-10294
▁removing	-10295
▁rendered	-10296
▁repaired	-10297
▁repealed	-10298
▁reserved	-10299
//	-10300
1:	-10301
ym	-10302
.51	-10303
://	-10304
Our	-10305
aca	-10306
een	-10307
lac	-10308
que	-10309
sue	-10310
▁62	-10311
▁BM	-10312
▁NL	-10313
▁WW	-10314
▁Wu	-10315
Head	-10316
cies	-10317
hand	-10318
heid	-10319
reak	-10320
such	-10321
term	-10322
▁(0.	-10323
▁250	-10324
▁450	-10325
▁621	-10326
▁BMP	-10327
▁Bor	-10328
▁CPU	-10329
▁Sun	-10330
▁Tru	-10331
▁WWW	-10332
▁Way	-10333
▁cru	-10334
▁gym	-10335
▁tub	-10336
Freak	-10337
admin	-10338
armel	-10339
built	-10340
esale	-10341
isive	-10342
issue	-10343
lacer	-10344
ocial	-10345
onies	-10346
▁(0.4	-10347
▁2034	-10348
▁Rana	-10349
▁SMTP	-10350
▁Sets	-10351
▁Suns	-10352
▁True	-10353
▁bein	-10354
▁game	-10355
▁meat	-10356
▁stew	-10357
▁tube	-10358
▁wear	-10359
PMRawE	-10360
anteen	-10361
tissue	-10362
▁1965)	-10363
▁2066/	-10364
▁Wayne	-10365
▁ashes	-10366
▁cruel	-10367
▁drank	-10368
▁lyres	-10369
olesale	-10370
▁Carmel	-10371
▁Column	-10372
▁Malaca	-10373
▁Social	-10374
▁bazaar	-10375
▁censes	-10376
▁cheque	-10377
▁learnt	-10378
▁stumps	-10379
PMRawEnd	-10380
▁Goliath	-10381
▁Himalay	-10382
▁canteen	-10383
▁methods	-10384
▁rebuilt	-10385
▁shields	-10386
▁sorrows	-10387
▁steward	-10388
blemakers	-10389
▁Daughter	-10390
▁Replacer	-10391
▁decisive	-10392
▁modified	-10393
▁reserves	-10394
▁residing	-10395
▁response	-10396
▁restores	-10397
▁resuming	-10398
▁retailer	-10399
Sp	-10400
dr	-10401
gub	-10402
mah	-10403
mdr	-10404
nah	-10405
raw	-10406
▁35	-10407
▁lt	-10408
ahal	-10409
apur	-10410
idth	-10411
inet	-10412
raws	-10413
ubal	-10414
▁Ith	-10415
▁Rol	-10416
▁Yam	-10417
Board	-10418
andra	-10419
inery	-10420
rinet	-10421
tapur	-10422
▁Cmdr	-10423
▁Fast	-10424
▁Fing	-10425
▁Kent	-10426
▁Magh	-10427
▁Shec	-10428
▁Vect	-10429
▁aest	-10430
▁ease	-10431
▁late	-10432
▁lest	-10433
▁pity	-10434
Spices	-10435
ahalal	-10436
▁Areas	-10437
▁Asher	-10438
▁Attai	-10439
▁Draws	-10440
▁Necoh	-10441
▁Rolpa	-10442
▁Segub	-10443
▁Tubal	-10444
▁Width	-10445
▁Yamam	-10446
▁cubit	-10447
▁haven	-10448
▁perce	-10449
▁prime	-10450
aktapur	-10451
entieth	-10452
etrinet	-10453
▁Ithmah	-10454
▁Senior	-10455
▁Shecan	-10456
▁Timnah	-10457
▁Vector	-10458
▁aesthe	-10459
▁astray	-10460
▁tasked	-10461
▁usages	-10462
▁Asherah	-10463
▁British	-10464
▁Chandra	-10465
▁Nahalal	-10466
▁aesthet	-10467
▁mediums	-10468
▁percept	-10469
▁praying	-10470
▁rescued	-10471
▁science	-10472
orporated	-10473
▁1960/61.	-10474
▁Register	-10475
▁Trustees	-10476
▁Yamamoto	-10477
▁deposits	-10478
▁drunkard	-10479
▁narrowed	-10480
▁retained	-10481
▁retrieve	-10482
▁reveling	-10483
▁revision	-10484
▁revolted	-10485
▁salaries	-10486
▁salesman	-10487
▁sambucas	-10488
▁sanctify	-10489
▁sanction	-10490
▁schedule	-10491
▁searched	-10492
▁searches	-10493
▁seminars	-10494
▁sequence	-10495
▁sewerage	-10496
▁shipyard	-10497
▁shithole	-10498
▁smelling	-10499
,'	-10500
-17	-10501
1),	-10502
hew	-10503
saf	-10504
▁42	-10505
▁HO	-10506
anks	-10507
arth	-10508
heet	-10509
omme	-10510
ropp	-10511
▁','	-10512
▁(16	-10513
▁FOR	-10514
▁Gal	-10515
▁Han	-10516
▁MOR	-10517
▁lop	-10518
Banks	-10519
amble	-10520
ephew	-10521
ghany	-10522
urder	-10523
▁2017	-10524
▁Bell	-10525
▁Gord	-10526
▁HOUS	-10527
▁MORE	-10528
▁NGOs	-10529
▁Team	-10530
▁flap	-10531
▁milk	-10532
▁seed	-10533
arrows	-10534
miteer	-10535
safety	-10536
▁(11),	-10537
▁Earth	-10538
▁MOREA	-10539
▁Motor	-10540
▁Shaul	-10541
▁basin	-10542
▁cropp	-10543
▁tents	-10544
leghany	-10545
minutes	-10546
▁Consid	-10547
▁Father	-10548
▁Gordon	-10549
▁MOREAU	-10550
▁Option	-10551
▁Smooth	-10552
▁Timber	-10553
▁eschew	-10554
▁fulfil	-10555
▁grader	-10556
▁murder	-10557
▁nephew	-10558
▁police	-10559
▁remova	-10560
▁Amended	-10561
▁Galilee	-10562
▁HOUSING	-10563
▁Hanuman	-10564
▁Sarlahi	-10565
▁Zebulun	-10566
▁encrypt	-10567
▁factory	-10568
▁harmful	-10569
▁leaving	-10570
▁mailing	-10571
▁obtains	-10572
▁recomme	-10573
▁Preamble	-10574
▁Retrieve	-10575
▁cropping	-10576
▁socially	-10577
▁software	-10578
▁solitary	-10579
▁spacebar	-10580
▁spacious	-10581
▁sparrows	-10582
▁speaking	-10583
▁speedily	-10584
▁squeezed	-10585
▁statutes	-10586
▁strategy	-10587
▁stripped	-10588
▁students	-10589
▁subtract	-10590
▁suffered	-10591
▁suitable	-10592
▁supplies	-10593
▁supposed	-10594
▁surmount	-10595
▁surveyed	-10596
▁swimming	-10597
▁syllable	-10598
▁takeover	-10599
FE	-10600
TS	-10601
oo	-10602
-4,	-10603
His	-10604
TSc	-10605
Two	-10606
elc	-10607
uis	-10608
vil	-10609
Evil	-10610
Save	-10611
TScI	-10612
from	-10613
imar	-10614
lper	-10615
otic	-10616
▁62,	-10617
▁Mak	-10618
▁NFE	-10619
▁Tax	-10620
▁wet	-10621
INGOs	-10622
aking	-10623
alome	-10624
atest	-10625
essed	-10626
imaru	-10627
▁2053	-10628
▁Luis	-10629
▁Ring	-10630
▁Welc	-10631
▁hero	-10632
▁inch	-10633
▁pave	-10634
▁puts	-10635
▁rent	-10636
▁tail	-10637
mishes	-10638
normal	-10639
▁Ethan	-10640
▁Later	-10641
▁Maker	-10642
▁STScI	-10643
▁goals	-10644
▁gross	-10645
▁shave	-10646
▁stion	-10647
ologies	-10648
▁19,000	-10649
▁Determ	-10650
▁Entity	-10651
▁Salome	-10652
▁easier	-10653
▁helper	-10654
▁latest	-10655
▁redire	-10656
▁waited	-10657
RESTRICT	-10658
lemishes	-10659
▁Jhimruk	-10660
▁Parties	-10661
▁Ringing	-10662
▁Welcome	-10663
▁cancell	-10664
▁entries	-10665
▁species	-10666
▁triplic	-10667
itionally	-10668
▁Ishimaru	-10669
▁Zawinski	-10670
▁diagrams	-10671
▁kingdoms	-10672
▁marching	-10673
▁narcotic	-10674
▁packages	-10675
▁pavement	-10676
▁prophesy	-10677
▁pureness	-10678
▁redirect	-10679
▁tackling	-10680
▁targeted	-10681
▁tetrinet	-10682
▁therefor	-10683
▁thinning	-10684
▁tomorrow	-10685
▁toplevel	-10686
▁traffick	-10687
▁treacher	-10688
▁trembled	-10689
▁trumpets	-10690
▁tutorial	-10691
▁underway	-10692
▁unlikely	-10693
▁unwanted	-10694
▁uplifted	-10695
▁upliftem	-10696
▁username	-10697
▁versions	-10698
▁vertical	-10699
,&	-10700
DC	-10701
-8,	-10702
RDC	-10703
arp	-10704
hop	-10705
mol	-10706
▁(“	-10707
▁ID	-10708
▁NO	-10709
▁PS	-10710
▁SH	-10711
Send	-10712
uram	-10713
▁17,	-10714
▁Fil	-10715
▁NOT	-10716
▁Pay	-10717
▁Pit	-10718
▁Pot	-10719
▁SHI	-10720
▁myr	-10721
ander	-10722
orate	-10723
otate	-10724
sharp	-10725
▁6.50	-10726
▁6000	-10727
▁Bapt	-10728
▁NRDC	-10729
▁SHIF	-10730
▁Term	-10731
▁band	-10732
▁call	-10733
▁gain	-10734
▁heat	-10735
▁laid	-10736
▁myrr	-10737
▁reve	-10738
▁tile	-10739
▁vice	-10740
▁warp	-10741
ensely	-10742
hopper	-10743
▁Huram	-10744
▁Kanch	-10745
▁Potos	-10746
▁SHIFT	-10747
▁Wired	-10748
▁calls	-10749
▁demol	-10750
▁myrrh	-10751
▁setup	-10752
▁venue	-10753
usiness	-10754
▁Closes	-10755
▁Filter	-10756
▁Kilmad	-10757
▁Random	-10758
▁Rotate	-10759
▁defect	-10760
▁flutes	-10761
▁healed	-10762
▁mostly	-10763
▁propel	-10764
▁undone	-10765
regional	-10766
▁Gehenna	-10767
▁Regions	-10768
▁curious	-10769
▁defects	-10770
▁densely	-10771
▁misused	-10772
▁pulling	-10773
▁slander	-10774
▁warrant	-10775
▁Baptizer	-10776
▁Business	-10777
▁amounted	-10778
▁decorate	-10779
▁inquired	-10780
▁integral	-10781
▁revealed	-10782
▁villages	-10783
▁vocation	-10784
▁wherever	-10785
▁wireless	-10786
▁worships	-10787
,00,000.00	-10788
..........	-10789
Authorized	-10790
NepalInPix	-10791
PMRawBegin	-10792
Prescribed	-10793
Vietnamese	-10794
cholarship	-10795
cyclopedia	-10796
easibility	-10797
ecommended	-10798
evaluation	-10799
);	-10800
--	-10801
PL	-10802
ti	-10803
Sch	-10804
Tod	-10805
Yet	-10806
bes	-10807
low	-10808
sur	-10809
▁("	-10810
▁GT	-10811
Schm	-10812
odom	-10813
▁00:	-10814
▁112	-10815
▁12)	-10816
▁30,	-10817
▁ACT	-10818
▁Dow	-10819
▁GPL	-10820
▁GTK	-10821
▁Mas	-10822
▁Mil	-10823
▁Pas	-10824
▁nth	-10825
▁ors	-10826
Final	-10827
Today	-10828
eding	-10829
enate	-10830
himti	-10831
▁100,	-10832
▁emer	-10833
▁thee	-10834
Schmid	-10835
ippled	-10836
isting	-10837
▁00:00	-10838
▁ASCII	-10839
▁Jones	-10840
▁Milan	-10841
▁Newly	-10842
▁Plain	-10843
▁Sodom	-10844
▁Which	-10845
▁aside	-10846
▁below	-10847
▁cheat	-10848
▁robes	-10849
Schmidt	-10850
▁Khimti	-10851
▁Masant	-10852
▁Pascal	-10853
▁Remote	-10854
▁Senate	-10855
▁accuse	-10856
▁bowels	-10857
▁chains	-10858
▁emerge	-10859
▁widely	-10860
Strategy	-10861
existing	-10862
▁Selects	-10863
▁Strings	-10864
▁courtes	-10865
▁failing	-10866
▁formats	-10867
▁partner	-10868
▁players	-10869
▁porters	-10870
▁weeding	-10871
▁workout	-10872
▁activism	-10873
▁courtesy	-10874
▁executed	-10875
▁homepage	-10876
▁reported	-10877
▁stippled	-10878
▁surfaced	-10879
hostscript	-10880
ilmerodach	-10881
imbalances	-10882
lUphSUiJCw	-10883
lusiveness	-10884
onvertible	-10885
pendicular	-10886
prevailing	-10887
repreneurs	-10888
sufficient	-10889
unctuation	-10890
unetellers	-10891
university	-10892
▁10,73,418	-10893
▁10.1.1644	-10894
▁2022.12.1	-10895
▁2023-8-29	-10896
▁2055/10/1	-10897
▁2060.5.18	-10898
▁3,00,000.	-10899
')	-10900
.-	-10901
UP	-10902
..%	-10903
Six	-10904
UPS	-10905
uge	-10906
▁(9	-10907
▁CD	-10908
▁JM	-10909
▁“%	-10910
0..%	-10911
Wall	-10912
adan	-10913
hish	-10914
ogle	-10915
▁(9)	-10916
▁101	-10917
▁50,	-10918
▁Car	-10919
▁Gor	-10920
▁JMA	-10921
▁Pil	-10922
▁gan	-10923
▁isc	-10924
Sixth	-10925
adder	-10926
alive	-10927
allen	-10928
▁0..%	-10929
▁CUPS	-10930
▁Hall	-10931
▁Hand	-10932
▁Left	-10933
▁Mark	-10934
▁Oral	-10935
▁Paid	-10936
▁arts	-10937
▁clap	-10938
▁dock	-10939
▁gent	-10940
▁jaws	-10941
▁oral	-10942
▁prox	-10943
▁Nebat	-10944
▁banks	-10945
▁claps	-10946
▁nomin	-10947
▁prove	-10948
▁proxy	-10949
▁scare	-10950
▁waist	-10951
pported	-10952
tlement	-10953
▁Coming	-10954
▁Google	-10955
▁Pilate	-10956
▁ladder	-10957
▁refuge	-10958
allenges	-10959
▁doctors	-10960
▁hashish	-10961
▁unknown	-10962
▁wonders	-10963
▁Gazetted	-10964
▁Handheld	-10965
▁circular	-10966
▁cushions	-10967
▁enabling	-10968
▁involves	-10969
▁modifier	-10970
▁optional	-10971
▁Abimelech	-10972
▁Ahimelech	-10973
▁Alleghany	-10974
▁Allowance	-10975
▁Amalekite	-10976
▁Ammizabad	-10977
▁Antitrust	-10978
▁Appending	-10979
▁Applicant	-10980
▁Assigning	-10981
▁Baishakha	-10982
▁Barzillai	-10983
▁Beautiful	-10984
▁Berechiah	-10985
▁Bhaktapur	-10986
▁Buildings	-10987
▁Calculate	-10988
▁Catamarca	-10989
▁Caucasian	-10990
▁Certainly	-10991
▁Chissapan	-10992
▁Competent	-10993
▁Configure	-10994
▁Converted	-10995
▁Cornelius	-10996
▁Currently	-10997
▁Decisions	-10998
▁Developer	-10999
As	-11000
gd	-11001
(3)	-11002
God	-11003
Jub	-11004
arr	-11005
don	-11006
gdb	-11007
may	-11008
▁6)	-11009
▁AT	-11010
-14.	-11011
Barr	-11012
Kill	-11013
User	-11014
edic	-11015
omal	-11016
onus	-11017
rels	-11018
uter	-11019
▁Ale	-11020
▁Has	-11021
▁bot	-11022
▁dut	-11023
▁sle	-11024
Stock	-11025
asher	-11026
izers	-11027
nding	-11028
orang	-11029
ussed	-11030
▁Alex	-11031
▁Base	-11032
▁Face	-11033
▁afar	-11034
▁duty	-11035
▁hall	-11036
▁spot	-11037
leased	-11038
orical	-11039
▁Agent	-11040
▁Balak	-11041
▁Hadad	-11042
▁Haman	-11043
▁Large	-11044
▁bonus	-11045
▁dedic	-11046
▁sleep	-11047
Jubilee	-11048
Teacher	-11049
omalies	-11050
▁Before	-11051
▁Dasher	-11052
▁Morang	-11053
▁United	-11054
▁armies	-11055
▁bottle	-11056
▁defile	-11057
▁guards	-11058
▁mation	-11059
▁sinned	-11060
▁strict	-11061
▁timber	-11062
▁Ahinoam	-11063
▁Savings	-11064
▁barrels	-11065
▁broader	-11066
▁emitted	-11067
▁gradual	-11068
▁lending	-11069
▁missing	-11070
▁presses	-11071
▁shouldn	-11072
▁weeping	-11073
hairahawa	-11074
▁Resource	-11075
▁Telecomm	-11076
▁canceled	-11077
▁computer	-11078
▁disposed	-11079
▁petition	-11080
▁pharmacy	-11081
▁presided	-11082
▁released	-11083
▁ropanies	-11084
Bhairahawa	-11085
▁Directory	-11086
▁Elimelech	-11087
▁Elizaphan	-11088
▁Employers	-11089
▁Encourage	-11090
▁Encrypted	-11091
▁Engineers	-11092
▁Estimates	-11093
▁Excellent	-11094
▁Exporting	-11095
▁Expressed	-11096
▁Framework	-11097
▁Frankfurt	-11098
▁Frederick	-11099
!!	-11100
'?	-11101
No	-11102
hi	-11103
lt	-11104
Nov	-11105
Put	-11106
Was	-11107
ask	-11108
▁IP	-11109
▁Ic	-11110
▁OF	-11111
▁RO	-11112
▁TH	-11113
▁ba	-11114
▁cc	-11115
▁gh	-11116
Wasn	-11117
gent	-11118
omes	-11119
▁(15	-11120
▁66,	-11121
▁ROW	-11122
▁THE	-11123
▁beg	-11124
Arise	-11125
Other	-11126
▁3/8.	-11127
▁Cost	-11128
▁Post	-11129
▁Sing	-11130
▁Task	-11131
▁cuts	-11132
▁jail	-11133
▁thou	-11134
Gather	-11135
pelled	-11136
▁Fifth	-11137
▁Gomes	-11138
▁Icons	-11139
▁March	-11140
▁Prohi	-11141
▁Samba	-11142
▁Units	-11143
▁award	-11144
▁tours	-11145
ndation	-11146
rospect	-11147
▁(1906)	-11148
▁Charge	-11149
▁Parosh	-11150
▁cogent	-11151
▁dishes	-11152
▁notify	-11153
▁palace	-11154
▁plates	-11155
▁Execute	-11156
▁backend	-11157
▁colored	-11158
▁concept	-11159
▁exalted	-11160
▁handled	-11161
▁inquire	-11162
▁ndation	-11163
▁offline	-11164
▁targets	-11165
▁academic	-11166
▁bulwarks	-11167
▁checkbox	-11168
▁consumed	-11169
▁patients	-11170
▁restrict	-11171
▁validity	-11172
▁Available	-11173
▁Frequency	-11174
▁Gebalites	-11175
▁Geometric	-11176
▁Gileadite	-11177
▁Governing	-11178
▁Greetings	-11179
▁GroupWise	-11180
▁Heberites	-11181
▁Hermitian	-11182
▁Himalayan	-11183
▁Indonesia	-11184
▁Intensity	-11185
▁Jehizkiah	-11186
▁Joshaviah	-11187
▁Kapilvast	-11188
▁Kohathite	-11189
▁Kulekhani	-11190
▁Menstrual	-11191
▁Meshillem	-11192
▁Midpoints	-11193
▁Migration	-11194
▁Namespace	-11195
▁Napolitan	-11196
▁Nutrition	-11197
▁OWNERSHIP	-11198
▁Objective	-11199
(6	-11200
13	-11201
At	-11202
FA	-11203
jR	-11204
”)	-11205
313	-11206
Get	-11207
Had	-11208
ban	-11209
▁61	-11210
▁ma	-11211
▁ms	-11212
-8-1	-11213
003)	-11214
ales	-11215
alon	-11216
kind	-11217
oman	-11218
roas	-11219
▁(24	-11220
▁20-	-11221
▁ale	-11222
▁pic	-11223
Hadad	-11224
banon	-11225
▁(10)	-11226
▁9.00	-11227
▁MOFA	-11228
▁cass	-11229
▁hasn	-11230
▁lion	-11231
▁mill	-11232
▁rson	-11233
▁shed	-11234
▁star	-11235
▁tall	-11236
▁upst	-11237
▁uses	-11238
▁wave	-11239
▁Expon	-11240
▁Kenya	-11241
▁Major	-11242
▁Troas	-11243
▁gates	-11244
▁males	-11245
▁quite	-11246
▁socio	-11247
operati	-11248
▁(1964)	-11249
▁(2003)	-11250
▁angles	-11251
▁cassia	-11252
▁evenly	-11253
▁freeze	-11254
▁protoc	-11255
▁rights	-11256
▁thrown	-11257
▁youths	-11258
▁Khutiya	-11259
▁Lebanon	-11260
▁Missing	-11261
▁despise	-11262
▁flights	-11263
▁futures	-11264
▁hinders	-11265
▁painted	-11266
▁rehabil	-11267
▁uncover	-11268
▁2022-8-1	-11269
▁7,82,992	-11270
▁Function	-11271
▁abortion	-11272
▁features	-11273
▁identity	-11274
▁officers	-11275
▁protocol	-11276
▁refunded	-11277
▁trespass	-11278
▁upstairs	-11279
▁Ammonites	-11280
▁Canaanite	-11281
▁Depressed	-11282
▁Euphrates	-11283
▁Obtaining	-11284
▁Operation	-11285
▁Ordinance	-11286
▁Overwrite	-11287
▁Pamphylia	-11288
▁Pashupati	-11289
▁Peninsula	-11290
▁Performed	-11291
▁Plaintiff	-11292
▁Playlists	-11293
▁President	-11294
▁Primarily	-11295
▁Processes	-11296
▁Provinces	-11297
▁Rajguthis	-11298
▁Reloading	-11299
30	-11300
So	-11301
▁(%	-11302
▁-3	-11303
▁DM	-11304
▁sq	-11305
Will	-11306
shap	-11307
▁430	-11308
▁Sou	-11309
▁til	-11310
aling	-11311
grame	-11312
ithth	-11313
pilot	-11314
▁1988	-11315
▁2067	-11316
▁Aner	-11317
▁Baal	-11318
▁Coal	-11319
▁Soup	-11320
▁Walk	-11321
▁appe	-11322
▁coat	-11323
▁endn	-11324
▁jute	-11325
▁null	-11326
▁rain	-11327
Health	-11328
Market	-11329
anches	-11330
select	-11331
shaped	-11332
▁2017.	-11333
▁2060,	-11334
▁Deans	-11335
▁Place	-11336
▁abode	-11337
▁books	-11338
▁saver	-11339
▁shame	-11340
▁tiles	-11341
riction	-11342
ructing	-11343
▁Berlin	-11344
▁Eithth	-11345
▁Hidden	-11346
▁Labour	-11347
▁Levels	-11348
▁Verify	-11349
▁arisen	-11350
▁emails	-11351
▁proved	-11352
▁stages	-11353
▁Aramean	-11354
▁Speaker	-11355
▁assaria	-11356
▁copying	-11357
▁eastern	-11358
▁enforce	-11359
▁entreat	-11360
▁exposed	-11361
▁forcing	-11362
▁invited	-11363
▁profane	-11364
▁scaling	-11365
▁sectary	-11366
▁storage	-11367
▁amongest	-11368
▁believed	-11369
▁branches	-11370
▁despised	-11371
▁encoding	-11372
▁endnodes	-11373
▁mistyped	-11374
▁programe	-11375
▁proverty	-11376
▁rainfall	-11377
▁remained	-11378
▁Emacspeak	-11379
▁Intersect	-11380
▁September	-11381
▁Shecaniah	-11382
▁Sidonians	-11383
▁Sinkalama	-11384
▁Smoothing	-11385
▁Submitted	-11386
▁Summiting	-11387
▁Surveyors	-11388
▁Suspended	-11389
▁Telephony	-11390
▁Temporary	-11391
▁Translate	-11392
▁Treatment	-11393
▁Tribhuvan	-11394
▁Untrusted	-11395
▁Verbosegt	-11396
▁Watermark	-11397
▁Zechariah	-11398
▁abundance	-11399
"?	-11400
'.	-11401
(5	-11402
,”	-11403
?”	-11404
MG	-11405
Ms	-11406
OP	-11407
”:	-11408
god	-11409
ini	-11410
tax	-11411
▁TO	-11412
days	-11413
even	-11414
gods	-11415
melt	-11416
oldt	-11417
tier	-11418
▁-11	-11419
▁0.5	-11420
▁2.1	-11421
▁24.	-11422
▁HMG	-11423
▁Lat	-11424
▁POP	-11425
Seven	-11426
phrah	-11427
rofit	-11428
▁Arts	-11429
▁Call	-11430
▁Dark	-11431
▁Deal	-11432
▁Drag	-11433
▁Free	-11434
▁Take	-11435
▁deep	-11436
▁fled	-11437
▁park	-11438
▁quit	-11439
▁rich	-11440
▁ruin	-11441
▁wasn	-11442
profit	-11443
▁Audit	-11444
▁Email	-11445
▁Haven	-11446
▁Latin	-11447
▁Retry	-11448
▁Setup	-11449
▁Union	-11450
▁cents	-11451
▁chore	-11452
▁towel	-11453
▁(1973)	-11454
▁Credit	-11455
▁Manila	-11456
▁Ophrah	-11457
▁Paddan	-11458
▁deeply	-11459
▁losses	-11460
▁morale	-11461
▁recipe	-11462
▁ruined	-11463
▁usemap	-11464
▁Lumbini	-11465
▁VARCHAR	-11466
▁delayed	-11467
▁planted	-11468
▁surplus	-11469
▁Everyone	-11470
▁Humboldt	-11471
▁Issuance	-11472
▁Janakpur	-11473
▁activate	-11474
▁doctrine	-11475
▁maximize	-11476
▁shudders	-11477
▁uniquely	-11478
▁upgraded	-11479
deprecated	-11480
▁accidents	-11481
▁addressee	-11482
▁addresses	-11483
▁adjusting	-11484
▁admission	-11485
▁advertise	-11486
▁aerodrome	-11487
▁aesthetic	-11488
▁afflicted	-11489
▁aforesaid	-11490
▁afternoon	-11491
▁airfields	-11492
▁allocated	-11493
▁alongwith	-11494
▁alternate	-11495
▁amendment	-11496
▁announced	-11497
▁anointing	-11498
▁anomalies	-11499
)2	-11500
)7	-11501
0-	-11502
47	-11503
8;	-11504
By	-11505
DD	-11506
MM	-11507
ii	-11508
-6,	-11509
▁mu	-11510
ader	-11511
lime	-11512
obab	-11513
this	-11514
▁Old	-11515
▁ist	-11516
share	-11517
▁List	-11518
▁Mine	-11519
▁aren	-11520
▁cite	-11521
▁duct	-11522
▁hang	-11523
▁rode	-11524
Branch	-11525
people	-11526
supply	-11527
▁Abuse	-11528
▁Jagga	-11529
▁Khola	-11530
▁Range	-11531
▁armor	-11532
▁asset	-11533
▁exact	-11534
▁giver	-11535
▁grade	-11536
▁lands	-11537
writers	-11538
▁(1971)	-11539
▁Active	-11540
▁Hebron	-11541
▁Ishbak	-11542
▁Leader	-11543
▁Record	-11544
▁Samson	-11545
▁Shobab	-11546
▁equity	-11547
▁mental	-11548
▁runway	-11549
disables	-11550
▁Claudio	-11551
▁Related	-11552
▁compete	-11553
▁entrust	-11554
▁submits	-11555
▁Informed	-11556
▁booklets	-11557
▁defeated	-11558
▁entitled	-11559
▁ignorant	-11560
▁mobility	-11561
▁properly	-11562
▁shivered	-11563
▁trampled	-11564
▁violates	-11565
▁Copyright	-11566
▁Launching	-11567
▁Telescope	-11568
▁anxieties	-11569
▁apartheid	-11570
▁architect	-11571
▁assigning	-11572
▁assistant	-11573
▁assistive	-11574
▁auxiliary	-11575
▁bathrooms	-11576
▁believing	-11577
▁bemoaning	-11578
▁blemishes	-11579
▁blessings	-11580
▁blindness	-11581
▁bodyguard	-11582
▁bookmarks	-11583
▁chartered	-11584
▁childless	-11585
▁circulars	-11586
▁circulate	-11587
▁cleansing	-11588
▁clipboard	-11589
▁comparing	-11590
▁compelled	-11591
▁component	-11592
▁concealed	-11593
▁conceives	-11594
▁conducive	-11595
▁confusion	-11596
▁connected	-11597
▁considers	-11598
▁construed	-11599
:!	-11600
dry	-11601
▁AO	-11602
▁DN	-11603
▁la	-11604
elix	-11605
free	-11606
▁110	-11607
▁15%	-11608
▁gas	-11609
▁ion	-11610
▁nin	-11611
▁ton	-11612
ipped	-11613
▁CHAR	-11614
▁Fear	-11615
▁grid	-11616
▁legs	-11617
▁pads	-11618
▁sail	-11619
▁seen	-11620
▁tion	-11621
▁2353.	-11622
▁Brush	-11623
▁Felix	-11624
▁Index	-11625
▁Stone	-11626
▁bills	-11627
▁camps	-11628
▁givin	-11629
▁reset	-11630
▁wound	-11631
istical	-11632
▁1966),	-11633
▁Danish	-11634
▁Submit	-11635
▁halted	-11636
▁ninety	-11637
▁rating	-11638
▁resume	-11639
▁vation	-11640
▁vision	-11641
▁Eliezer	-11642
▁Located	-11643
▁afflict	-11644
▁capable	-11645
▁counsel	-11646
▁execute	-11647
▁feature	-11648
▁plotted	-11649
▁sending	-11650
▁telling	-11651
▁wishing	-11652
ibilities	-11653
▁Edomites	-11654
▁Selected	-11655
▁besieged	-11656
▁commence	-11657
▁creative	-11658
▁distance	-11659
▁equipped	-11660
▁heritage	-11661
▁titlebar	-11662
Deprecated	-11663
▁2055.10.7	-11664
▁Generates	-11665
▁Marijuana	-11666
▁Muktinath	-11667
▁Shelomith	-11668
▁Specified	-11669
▁contracts	-11670
▁converted	-11671
▁copyright	-11672
▁correctly	-11673
▁corridors	-11674
▁courtyard	-11675
▁creatures	-11676
▁curiosity	-11677
▁curricula	-11678
▁dangerous	-11679
▁deceitful	-11680
▁decentral	-11681
▁dedicates	-11682
▁dependent	-11683
▁depressed	-11684
▁deputized	-11685
▁destitute	-11686
▁destroyer	-11687
▁deveopled	-11688
▁disabling	-11689
▁disasters	-11690
▁disbursed	-11691
▁discarded	-11692
▁discharge	-11693
▁discussed	-11694
▁disgraced	-11695
▁diskspace	-11696
▁displaced	-11697
▁diversify	-11698
▁efficient	-11699
”.	-11700
▁1/8	-11701
▁gains	-11702
▁Directors	-11703
▁employers	-11704
▁envisaged	-11705
▁excellent	-11706
▁excluding	-11707
▁exclusive	-11708
▁executing	-11709
▁executive	-11710
▁expertise	-11711
▁explosive	-11712
▁exporting	-11713
▁exposures	-11714
▁expressly	-11715
▁extending	-11716
▁extensive	-11717
▁extracted	-11718
▁extremely	-11719
▁festivals	-11720
▁filenames	-11721
▁finalized	-11722
▁financing	-11723
▁foolishly	-11724
▁footsteps	-11725
▁footstool	-11726
▁foreigner	-11727
▁forfeited	-11728
▁formulate	-11729
▁fractions	-11730
▁fractures	-11731
▁framework	-11732
▁frightens	-11733
▁genealogy	-11734
▁generated	-11735
▁graphical	-11736
▁grassroot	-11737
▁gravelled	-11738
▁greatness	-11739
▁happening	-11740
▁hardening	-11741
▁hazardous	-11742
▁hereafter	-11743
▁hereunder	-11744
▁hibernate	-11745
▁hindrance	-11746
▁histories	-11747
▁hyperbola	-11748
▁hypocrite	-11749
▁identical	-11750
▁imitators	-11751
▁immediate	-11752
▁impartial	-11753
▁importing	-11754
▁increases	-11755
▁indicates	-11756
▁indicator	-11757
▁indicting	-11758
▁inhabited	-11759
▁initially	-11760
▁initiated	-11761
▁injection	-11762
▁injustice	-11763
▁inspected	-11764
▁inspector	-11765
▁instantly	-11766
▁insurance	-11767
▁intending	-11768
▁intensive	-11769
▁interpret	-11770
▁intervals	-11771
▁introduce	-11772
▁inventory	-11773
▁irregular	-11774
▁judgments	-11775
▁keyboards	-11776
▁kinswoman	-11777
▁lampstand	-11778
▁landmarks	-11779
▁launching	-11780
▁licensing	-11781
▁listening	-11782
▁localized	-11783
▁machinery	-11784
▁mandatory	-11785
▁marketing	-11786
▁marvelous	-11787
▁maternity	-11788
▁measuring	-11789
▁messiness	-11790
▁misjudged	-11791
▁mnemonics	-11792
▁mobilized	-11793
▁modernise	-11794
▁municipal	-11795
▁newspaper	-11796
▁nominates	-11797
▁northward	-11798
▁notifying	-11799
▁nutrition	-11800
▁objection	-11801
▁obstructs	-11802
▁operating	-11803
▁ordinance	-11804
▁organisms	-11805
▁organized	-11806
▁organizer	-11807
▁originate	-11808
▁ostriches	-11809
▁overrides	-11810
▁overwrite	-11811
▁pamphlets	-11812
▁paragraph	-11813
▁paralysis	-11814
▁parameter	-11815
▁partition	-11816
▁perceived	-11817
▁performed	-11818
▁permanent	-11819
▁permitted	-11820
▁persecute	-11821
▁persuaded	-11822
▁petitions	-11823
▁plaintiff	-11824
▁pleasures	-11825
▁poisonous	-11826
▁populated	-11827
▁positions	-11828
▁possesses	-11829
▁potential	-11830
▁practices	-11831
▁predicted	-11832
▁prefixnot	-11833
▁pregnancy	-11834
▁primarily	-11835
▁principal	-11836
▁prisoners	-11837
▁privilege	-11838
▁producing	-11839
▁prolonged	-11840
▁promoting	-11841
▁proposals	-11842
▁proposing	-11843
▁provinces	-11844
▁publicity	-11845
▁punishing	-11846
▁pursuance	-11847
▁questions	-11848
▁quotation	-11849
▁ratcheted	-11850
▁rationale	-11851
▁realities	-11852
▁reappoint	-11853
▁receivers	-11854
▁recession	-11855
▁recording	-11856
▁redeeming	-11857
▁reduction	-11858
▁reference	-11859
▁reinforce	-11860
▁reloading	-11861
▁reluctant	-11862
▁remembers	-11863
▁renewable	-11864
▁repairing	-11865
▁requiring	-11866
▁resorting	-11867
▁restarted	-11868
▁restraint	-11869
▁resulting	-11870
▁reviewing	-11871
▁riotously	-11872
▁rtificate	-11873
▁ruminants	-11874
▁sackcloth	-11875
▁safeguard	-11876
▁sanctuary	-11877
▁satellite	-11878
▁screening	-11879
▁searching	-11880
▁secretary	-11881
▁seemingly	-11882
▁selective	-11883
▁seniority	-11884
▁separated	-11885
▁shattered	-11886
▁shepherds	-11887
▁shortages	-11888
▁shoulders	-11889
▁sincerely	-11890
▁skeptical	-11891
▁sometimes	-11892
▁somewhere	-11893
▁southeast	-11894
▁specialty	-11895
▁spreading	-11896
▁steadfast	-11897
▁strangers	-11898
▁substance	-11899
▁succeeded	-11900
▁summiteer	-11901
▁supervise	-11902
▁supplying	-11903
▁survivors	-11904
▁suspended	-11905
▁synagogue	-11906
▁teachings	-11907
▁telegraph	-11908
▁telephone	-11909
▁terminals	-11910
▁terminate	-11911
▁testified	-11912
▁testimony	-11913
▁textbooks	-11914
▁therewith	-11915
▁thickness	-11916
▁thirtieth	-11917
▁thousands	-11918
▁threatens	-11919
▁timescale	-11920
▁trademark	-11921
▁trembling	-11922
▁tributary	-11923
▁tutorials	-11924
▁twentieth	-11925
▁uncovered	-11926
▁unlearned	-11927
▁unlimited	-11928
▁unmarried	-11929
▁unsecured	-11930
▁untrained	-11931
▁vacancies	-11932
▁valiantly	-11933
▁vermilion	-11934
▁virtually	-11935
▁voluntary	-11936
▁wandering	-11937
▁weightage	-11938
▁wholesale	-11939
▁willingly	-11940
▁wonderful	-11941
▁worldwide	-11942
▁worshiped	-11943
▁yesterday	-11944
Chairperson	-11945
Complainant	-11946
Convertible	-11947
Prospecting	-11948
Recommended	-11949
application	-11950
broadcasted	-11951
coordinated	-11952
electricity	-11953
ghteousness	-11954
opportunity	-11955
stitutional	-11956
▁..........	-11957
▁2006-08-24	-11958
▁2006-2008,	-11959
▁2012-7-18(	-11960
▁2012-9-11(	-11961
▁2020.11.16	-11962
▁2021(1964)	-11963
▁2038(1981)	-11964
▁2066/09/27	-11965
▁Additional	-11966
▁Allocation	-11967
▁Amendments	-11968
▁Artaxerxes	-11969
▁Associates	-11970
▁Authorized	-11971
▁Autonomous	-11972
▁Background	-11973
▁Campaneris	-11974
▁Carchemish	-11975
▁Certifying	-11976
▁Chissapani	-11977
▁Collateral	-11978
▁Confidence	-11979
▁Convention	-11980
▁Decryption	-11981
▁Definition	-11982
▁Delegation	-11983
▁Diplomatic	-11984
▁Discarding	-11985
▁Discussion	-11986
▁Electrical	-11987
▁Embeddable	-11988
▁Endangered	-11989
▁Expedition	-11990
▁Fullscreen	-11991
▁Gershonite	-11992
▁GnomePilot	-11993
▁Hackensack	-11994
▁Haggedolim	-11995
▁Identifies	-11996
▁Importance	-11997
▁Individual	-11998
▁Jashubites	-11999
▁Jezreelite	-12000
▁KPresenter	-12001
▁Kapilvastu	-12002
▁Liquidator	-12003
▁Mercantile	-12004
▁Meteorolog	-12005
▁Montgomery	-12006
▁Panchayats	-12007
▁Philatelic	-12008
▁Population	-12009
▁Prevailing	-12010
▁Privileges	-12011
▁Procedural	-12012
▁Procedures	-12013
▁Processing	-12014
▁Programmes	-12015
▁Rechabites	-12016
▁Registered	-12017
▁Regulatory	-12018
▁Retirement	-12019
▁Revocation	-12020
▁Sagarmatha	-12021
▁Samothrace	-12022
▁Scientific	-12023
▁Scientists	-12024
▁Settlement	-12025
▁Specialize	-12026
▁Statements	-12027
▁Stensgaard	-12028
▁Strategies	-12029
▁Torrential	-12030
▁Waertsilae	-12031
▁absolutely	-12032
▁acceptance	-12033
▁adaptation	-12034
▁admonished	-12035
▁aggressive	-12036
▁agreements	-12037
▁allocation	-12038
▁allowances	-12039
▁alteration	-12040
▁apparently	-12041
▁applicable	-12042
▁arbitrator	-12043
▁assemblies	-12044
▁assessment	-12045
▁assistants	-12046
▁astonished	-12047
▁astructure	-12048
▁attachment	-12049
▁attendance	-12050
▁attractive	-12051
▁attributes	-12052
▁auctioning	-12053
▁auditorium	-12054
▁augmenting	-12055
▁authorized	-12056
▁automation	-12057
▁autonomous	-12058
▁beforehand	-12059
▁beneficial	-12060
▁biological	-12061
▁bottomless	-12062
▁capability	-12063
▁capacities	-12064
▁categories	-12065
▁celebrated	-12066
▁challenges	-12067
▁chargeable	-12068
▁chimpanzee	-12069
▁collective	-12070
▁collectors	-12071
▁commanders	-12072
▁commencing	-12073
▁commitment	-12074
▁comparable	-12075
▁compassion	-12076
▁compatible	-12077
▁completing	-12078
▁compromise	-12079
▁compulsory	-12080
▁concession	-12081
▁conclusion	-12082
▁confidence	-12083
▁connecting	-12084
▁conserving	-12085
▁consisting	-12086
▁consumable	-12087
▁contacting	-12088
▁contagious	-12089
▁continuous	-12090
▁contractor	-12091
▁contradict	-12092
▁controlled	-12093
▁correction	-12094
▁countrymen	-12095
▁cultivated	-12096
▁cumulative	-12097
▁currencies	-12098
▁customable	-12099
▁deactivate	-12100
▁debentures	-12101
▁deficiency	-12102
▁definitely	-12103
▁demolition	-12104
▁deputation	-12105
▁directions	-12106
▁directives	-12107
▁disability	-12108
▁disappears	-12109
▁discarding	-12110
▁discipline	-12111
▁discovered	-12112
▁disfigured	-12113
▁ecological	-12114
▁eliminated	-12115
▁emphasised	-12116
▁equivalent	-12117
▁exercising	-12118
▁explration	-12119
▁exportable	-12120
▁expression	-12121
▁extensions	-12122
▁extraction	-12123
▁fatherless	-12124
▁fellowship	-12125
▁fertilizer	-12126
▁foreigners	-12127
▁formulated	-12128
▁generation	-12129
▁gistration	-12130
▁gluttonous	-12131
▁graduation	-12132
▁harmonized	-12133
▁henceforth	-12134
▁historical	-12135
▁horizontal	-12136
▁identifier	-12137
▁identities	-12138
▁importable	-12139
▁importance	-12140
▁incidental	-12141
▁indictment	-12142
▁initialize	-12143
▁insolvency	-12144
▁inspectors	-12145
▁installing	-12146
▁instituted	-12147
▁integrated	-12148
▁invalidate	-12149
▁irrelevant	-12150
▁keybinding	-12151
▁languishes	-12152
▁likelihood	-12153
▁liquidator	-12154
▁literature	-12155
▁livelihood	-12156
▁manipulate	-12157
▁mechanisms	-12158
▁membership	-12159
▁misconduct	-12160
▁mistakenly	-12161
▁mitigation	-12162
▁monitoring	-12163
▁moratorium	-12164
▁multiplied	-12165
▁namespaces	-12166
▁navigation	-12167
▁negotiated	-12168
▁newspapers	-12169
▁objecttype	-12170
▁observance	-12171
▁officially	-12172
▁organizing	-12173
▁originator	-12174
▁orthogonal	-12175
▁overwrites	-12176
▁particular	-12177
▁passphrase	-12178
▁patrolling	-12179
▁percentage	-12180
▁perceptual	-12181
▁perishable	-12182
▁persistent	-12183
▁personnels	-12184
▁pestilence	-12185
▁philatelic	-12186
▁photograph	-12187
▁pilgrimage	-12188
▁plantation	-12189
▁postmaster	-12190
▁predefined	-12191
▁predictive	-12192
▁preference	-12193
▁preserving	-12194
▁prevention	-12195
▁processors	-12196
▁profession	-12197
▁profitably	-12198
▁pronounces	-12199
▁propaganda	-12200
▁prophesied	-12201
▁protecting	-12202
▁recipients	-12203
▁recognized	-12204
▁rectangles	-12205
▁reductions	-12206
▁regulatory	-12207
▁responding	-12208
▁retrospect	-12209
▁revelation	-12210
▁revocation	-12211
▁scientists	-12212
▁screenshot	-12213
▁securities	-12214
▁selections	-12215
▁separately	-12216
▁sicknesses	-12217
▁simulation	-12218
▁specialist	-12219
▁stagnation	-12220
▁stinations	-12221
▁strengthen	-12222
▁structural	-12223
▁struggling	-12224
▁stylesheet	-12225
▁subsidiary	-12226
▁substrings	-12227
▁succession	-12228
▁sufferings	-12229
▁suggestion	-12230
▁supplement	-12231
▁supposedly	-12232
▁synagogues	-12233
▁tabernacle	-12234
▁technician	-12235
▁television	-12236
▁thumbnails	-12237
▁thundering	-12238
▁trafficker	-12239
▁transition	-12240
▁transverse	-12241
▁treasuries	-12242
▁triplicate	-12243
▁unauthorit	-12244
▁understood	-12245
▁unemployed	-12246
▁unfaithful	-12247
▁unleavened	-12248
▁vegetables	-12249
▁whirlwinds	-12250
▁workpoints	-12251
0(23-03-1366	-12252
contemporary	-12253
nowledgement	-12254
registration	-12255
surveillance	-12256
▁(1956-1961)	-12257
▁2,00,000.00	-12258
▁2024-12-19(	-12259
▁2031(1974).	-12260
▁2063(2007).	-12261
▁Accelerator	-12262
▁Acquisition	-12263
▁Affiliation	-12264
▁Agriculture	-12265
▁Appointment	-12266
▁Arrangement	-12267
▁Baidyakhana	-12268
▁Calculating	-12269
▁Computation	-12270
▁Conclusions	-12271
▁Considering	-12272
▁Corpdration	-12273
▁Description	-12274
▁Diagnostics	-12275
▁Directorate	-12276
▁Duplication	-12277
▁Electricity	-12278
▁Engineering	-12279
▁Enterprises	-12280
▁Exponential	-12281
▁Externalize	-12282
▁Feasibility	-12283
▁Fertilizers	-12284
▁Fingerprint	-12285
▁Furthermore	-12286
▁Gershonites	-12287
▁Ghostscript	-12288
▁Gorkhapatra	-12289
▁Immediately	-12290
▁Individuals	-12291
▁Institution	-12292
▁Involvement	-12293
▁Kakarbhitta	-12294
▁Liquidators	-12295
▁Minneapolis	-12296
▁Nebuzaradan	-12297
▁PaineWebber	-12298
▁Performance	-12299
▁Prescribing	-12300
▁Procurement	-12301
▁Punctuation	-12302
▁Repetitions	-12303
▁Requirement	-12304
▁Responsible	-12305
▁Restriction	-12306
▁Shimronites	-12307
▁Substantial	-12308
▁Synchronize	-12309
▁Territories	-12310
▁Transformed	-12311
▁accordingly	-12312
▁accountants	-12313
▁alleviation	-12314
▁anniversary	-12315
▁articulated	-12316
▁authorizing	-12317
▁autographed	-12318
▁butterflies	-12319
▁categorized	-12320
▁celebration	-12321
▁circulation	-12322
▁classifying	-12323
▁cleanliness	-12324
▁commissions	-12325
▁commitments	-12326
▁communities	-12327
▁compensated	-12328
▁complainant	-12329
▁concentrate	-12330
▁conferences	-12331
▁constrained	-12332
▁constraints	-12333
▁consumption	-12334
▁contracting	-12335
▁contractual	-12336
▁contravenes	-12337
▁contributed	-12338
▁controlling	-12339
▁coordinated	-12340
▁corresponds	-12341
▁counselling	-12342
▁declaration	-12343
▁destination	-12344
▁determining	-12345
▁differences	-12346
▁dignitaries	-12347
▁dilapidated	-12348
▁directories	-12349
▁disciplined	-12350
▁discovering	-12351
▁dissolution	-12352
▁effectively	-12353
▁eliminating	-12354
▁elimination	-12355
▁equilateral	-12356
▁everlasting	-12357
▁expeditions	-12358
▁explanation	-12359
▁explanatory	-12360
▁exploration	-12361
▁expressions	-12362
▁figureheads	-12363
▁filebrowser	-12364
▁foolishness	-12365
▁forecasting	-12366
▁formulation	-12367
▁forthcoming	-12368
▁fortnightly	-12369
▁foundations	-12370
▁functioning	-12371
▁grasshopper	-12372
▁handmaidens	-12373
▁hentication	-12374
▁impartially	-12375
▁impeachment	-12376
▁incongruous	-12377
▁indications	-12378
▁individuals	-12379
▁ineffective	-12380
▁infirmities	-12381
▁inhabitants	-12382
▁innumerable	-12383
▁installment	-12384
▁instructing	-12385
▁instruction	-12386
▁intelligent	-12387
▁interesting	-12388
▁liabilities	-12389
▁maintaining	-12390
▁merchandise	-12391
▁misfeatures	-12392
▁mountainous	-12393
▁necessarily	-12394
▁nervousness	-12395
▁occupations	-12396
▁outstanding	-12397
▁particulars	-12398
▁partnership	-12399
▁perspective	-12400
▁pharmacists	-12401
▁prejudicial	-12402
▁preparation	-12403
▁prioritized	-12404
▁proficiency	-12405
▁prophesying	-12406
▁proprietary	-12407
▁prospecting	-12408
▁provisional	-12409
▁questioning	-12410
▁realization	-12411
▁recognition	-12412
▁recommended	-12413
▁reconfigure	-12414
▁reconstruct	-12415
▁redirecting	-12416
▁registering	-12417
▁reliability	-12418
▁repetitions	-12419
▁residential	-12420
▁resignation	-12421
▁righteously	-12422
▁scholarship	-12423
▁secretariat	-12424
▁significant	-12425
▁specialized	-12426
▁statistical	-12427
▁suggestions	-12428
▁technicians	-12429
▁testimonies	-12430
▁thumbnailer	-12431
▁traditional	-12432
▁translation	-12433
▁translucent	-12434
▁transmitted	-12435
▁transparent	-12436
▁transplants	-12437
▁transported	-12438
▁uncleanness	-12439
▁underscores	-12440
▁undertaking	-12441
▁undoubtedly	-12442
▁unfulfilled	-12443
▁unnecessary	-12444
▁unqualified	-12445
▁unsupported	-12446
▁windowpanes	-12447
▁withholding	-12448
.............	-12449
configuration	-12450
▁Additionally	-12451
▁Adjudicating	-12452
▁Arrangements	-12453
▁Conferencing	-12454
▁Construction	-12455
▁Departmental	-12456
▁Entrepreneur	-12457
▁Evilmerodach	-12458
▁Gorakhapatra	-12459
▁Hammolecheth	-12460
▁Headquarters	-12461
▁Intellectual	-12462
▁Introduction	-12463
▁Jurisdiction	-12464
▁Laboratories	-12465
▁Mahadevsthan	-12466
▁Malchielites	-12467
▁Manufacturer	-12468
▁Meshillemoth	-12469
▁Mobilisation	-12470
▁Mobilization	-12471
▁Nevertheless	-12472
▁Particularly	-12473
▁Philadelphia	-12474
▁Recimoramide	-12475
▁Remuneration	-12476
▁accompanying	-12477
▁alternatives	-12478
▁applications	-12479
▁autocomplete	-12480
▁availability	-12481
▁calculations	-12482
▁cancellation	-12483
▁circumstance	-12484
▁compulsorily	-12485
▁confirmation	-12486
▁consequently	-12487
▁constituting	-12488
▁consultation	-12489
▁contaminated	-12490
▁conventional	-12491
▁declarations	-12492
▁departmental	-12493
▁descriptions	-12494
▁differential	-12495
▁difficulties	-12496
▁disciplinary	-12497
▁dispossessed	-12498
▁dissatisfied	-12499
▁encompassing	-12500
▁encyclopedia	-12501
▁exaggeration	-12502
▁expenditures	-12503
▁experimental	-12504
▁faithfulness	-12505
▁headquarters	-12506
▁highlighting	-12507
▁inadequately	-12508
▁incorporated	-12509
▁increasingly	-12510
▁installments	-12511
▁instructions	-12512
▁intellectual	-12513
▁introduction	-12514
▁mobilisation	-12515
▁mobilization	-12516
▁nonexecutive	-12517
▁outstretched	-12518
▁participants	-12519
▁pasturelands	-12520
▁perseverance	-12521
▁prescription	-12522
▁presentation	-12523
▁propagandize	-12524
▁prostitution	-12525
▁relationship	-12526
▁representing	-12527
▁splashscreen	-12528
▁successfully	-12529
▁supplication	-12530
▁surveillance	-12531
▁technologies	-12532
▁thundercloud	-12533
▁transmission	-12534
▁unauthorized	-12535
▁underwriters	-12536
▁unexpectedly	-12537
▁unsuccessful	-12538
▁urbanization	-12539
DamianFlanagan	-12540
▁Contributions	-12541
▁Determination	-12542
▁Investigation	-12543
▁Kanchanjungha	-12544
▁Phenmetrazine	-12545
▁Rearrangement	-12546
▁Trigonometric	-12547
▁UADescription	-12548
▁Unfortunately	-12549
▁administrator	-12550
▁advertisement	-12551
▁biotechnology	-12552
▁clarification	-12553
▁collaboration	-12554
▁communication	-12555
▁comparatively	-12556
▁consolidating	-12557
▁contamination	-12558
▁contemplation	-12559
▁corresponding	-12560
▁decentralized	-12561
▁denominations	-12562
▁dissemination	-12563
▁entrepreneurs	-12564
▁granddaughter	-12565
▁inclusiveness	-12566
▁independently	-12567
▁interventions	-12568
▁jiropathalmia	-12569
▁miscellaneous	-12570
▁modifications	-12571
▁perpendicular	-12572
▁privatization	-12573
▁reappointment	-12574
▁reinforcement	-12575
▁requisitioned	-12576
▁steadfastness	-12577
▁treacherously	-12578
▁troublemakers	-12579
▁uncircumcised	-12580
▁unnecessarily	-12581
▁..............	-12582
▁Administrative	-12583
▁Constitutional	-12584
▁Meteorologists	-12585
▁appropriations	-12586
▁fortunetellers	-12587
▁initialization	-12588
▁municipalities	-12589
▁rehabilitation	-12590
▁representation	-12591
▁sanctification	-12592
▁superconductor	-12593
▁transportation	-12594
▁uncontaminated	-12595
▁Hospitalization	-12596
▁acknowledgement	-12597
▁dissatisfaction	-12598
▁diversification	-12599
▁landutilization	-12600
▁notwithstanding	-12601
▁recommendations	-12602
▁unrighteousness	-12603
-70	-12604
/8.	-12605
0(2	-12606
0-4	-12607
0.6	-12608
0/9	-12609
010	-12610
016	-12611
2,2	-12612
2,4	-12613
2,9	-12614
2-9	-12615
3-0	-12616
3/8	-12617
33.	-12618
42,	-12619
49.	-12620
53.	-12621
55)	-12622
601	-12623
62,	-12624
77)	-12625
78,	-12626
8(1	-12627
8-2	-12628
9.8	-12629
9/2	-12630
911	-12631
92.	-12632
97.	-12633
ARC	-12634
EST	-12635
IRS	-12636
NER	-12637
RES	-12638
RIP	-12639
RSH	-12640
SCI	-12641
WAR	-12642
WNE	-12643
YYY	-12644
eWe	-12645
eks	-12646
gno	-12647
mbs	-12648
mug	-12649
nks	-12650
oof	-12651
spa	-12652
tps	-12653
zek	-12654
zzi	-12655
▁0.	-12656
▁zo	-12657
(196	-12658
(197	-12659
-136	-12660
.10.	-12661
/90.	-12662
/92,	-12663
0.4)	-12664
008,	-12665
016)	-12666
017)	-12667
2,40	-12668
2-19	-12669
2.10	-12670
3.40	-12671
6-19	-12672
9-11	-12673
Buff	-12674
Curs	-12675
INGO	-12676
Plot	-12677
RawE	-12678
TRIP	-12679
afet	-12680
ahav	-12681
almO	-12682
amma	-12683
arca	-12684
auty	-12685
avil	-12686
awBe	-12687
bron	-12688
cues	-12689
ebul	-12690
edek	-12691
ehen	-12692
enef	-12693
enya	-12694
fegu	-12695
fuse	-12696
gthe	-12697
ietn	-12698
insm	-12699
.5%	-12700
.50	-12701
.52	-12702
6-2	-12703
6.5	-12704
.5.1	-12705
half	-12706
insw	-12707
ipts	-12708
isfa	-12709
kets	-12710
khan	-12711
lebr	-12712
mman	-12713
neys	-12714
oash	-12715
ools	-12716
orpd	-12717
ouds	-12718
pets	-12719
phSU	-12720
prin	-12721
pris	-12722
rips	-12723
roze	-12724
rrig	-12725
scri	-12726
sidi	-12727
umns	-12728
ylon	-12729
ypes	-12730
▁,20	-12731
▁1.5	-12732
▁229	-12733
▁5.9	-12734
▁6.2	-12735
▁Apr	-12736
▁Atl	-12737
▁COL	-12738
▁CUP	-12739
▁Ctr	-12740
▁Eln	-12741
▁IMS	-12742
▁Kex	-12743
▁Laf	-12744
▁MON	-12745
▁Oxn	-12746
▁STS	-12747
▁Ubu	-12748
▁htt	-12749
▁mov	-12750
▁nbs	-12751
▁zon	-12752
(23-0	-12753
-08-2	-12754
-5712	-12755
.1.16	-12756
1(197	-12757
1/92,	-12758
1/92.	-12759
31(19	-12760
82,99	-12761
RawBe	-12762
TRICT	-12763
aemon	-12764
ahlah	-12765
akhan	-12766
akhap	-12767
alene	-12768
alesh	-12769
amesp	-12770
amphy	-12771
anism	-12772
aptiz	-12773
arcel	-12774
ariff	-12775
arley	-12776
arnal	-12777
arosh	-12778
ashsc	-12779
ashup	-12780
asier	-12781
auses	-12782
avens	-12783
beare	-12784
blems	-12785
brate	-12786
ccurs	-12787
cript	-12788
cured	-12789
depre	-12790
elius	-12791
eload	-12792
eneal	-12793
epeal	-12794
erari	-12795
erati	-12796
fault	-12797
ffili	-12798
forth	-12799
Ru	-12800
SM	-12801
Si	-12802
kk	-12803
tp	-12804
3.8	-12805
DED	-12806
erd	-12807
hud	-12808
isu	-12809
wth	-12810
▁VC	-12811
▁fi	-12812
(198	-12813
agog	-12814
eeps	-12815
erri	-12816
eskt	-12817
jail	-12818
ogue	-12819
oniz	-12820
ontg	-12821
oubt	-12822
soci	-12823
uilt	-12824
utiz	-12825
utog	-12826
vals	-12827
ysis	-12828
▁alp	-12829
▁rei	-12830
▁sic	-12831
ajest	-12832
anner	-12833
ecomm	-12834
esday	-12835
gaard	-12836
gaged	-12837
gents	-12838
gists	-12839
gnant	-12840
gnore	-12841
grees	-12842
habit	-12843
helor	-12844
herds	-12845
herou	-12846
herpa	-12847
himru	-12848
iblah	-12849
icted	-12850
ihood	-12851
ilots	-12852
imony	-12853
ingle	-12854
insur	-12855
iolog	-12856
iples	-12857
irrig	-12858
iscal	-12859
itish	-12860
itleb	-12861
joice	-12862
juana	-12863
ktops	-12864
leanl	-12865
lists	-12866
llane	-12867
maiah	-12868
minut	-12869
mpets	-12870
nakes	-12871
nomeC	-12872
nomeP	-12873
odges	-12874
odule	-12875
ommun	-12876
onfig	-12877
onics	-12878
osses	-12879
oudly	-12880
pipes	-12881
plied	-12882
plift	-12883
raged	-12884
rapes	-12885
rator	-12886
reets	-12887
remon	-12888
rengt	-12889
rests	-12890
rimes	-12891
ripts	-12892
saken	-12893
sapan	-12894
stees	-12895
steps	-12896
stool	-12897
sumer	-12898
taken	-12899
64	-12900
AI	-12901
Pat	-12902
asp	-12903
hst	-12904
hus	-12905
ogs	-12906
pac	-12907
rab	-12908
uag	-12909
alin	-12910
amil	-12911
chad	-12912
ctur	-12913
fess	-12914
heol	-12915
ilar	-12916
medi	-12917
ocat	-12918
owar	-12919
tely	-12920
then	-12921
uner	-12922
yper	-12923
▁Spo	-12924
▁exa	-12925
▁phy	-12926
▁pov	-12927
▁sli	-12928
activ	-12929
adian	-12930
aison	-12931
asian	-12932
eaven	-12933
ecies	-12934
entis	-12935
esser	-12936
hough	-12937
idget	-12938
idian	-12939
ircra	-12940
itely	-12941
ncirc	-12942
nderw	-12943
newal	-12944
nkard	-12945
pised	-12946
quely	-12947
ritor	-12948
royed	-12949
royer	-12950
thday	-12951
thmah	-12952
trate	-12953
tsila	-12954
uaded	-12955
uches	-12956
uides	-12957
uliar	-12958
urban	-12959
utput	-12960
utton	-12961
verwr	-12962
vival	-12963
winds	-12964
yatra	-12965
zarad	-12966
zziah	-12967
▁(196	-12968
▁(199	-12969
▁,204	-12970
▁159.	-12971
▁1952	-12972
▁1961	-12973
▁1962	-12974
▁1965	-12975
▁1966	-12976
▁1968	-12977
▁1969	-12978
▁1970	-12979
▁1986	-12980
▁1989	-12981
▁1991	-12982
▁2001	-12983
▁2021	-12984
▁2038	-12985
▁2064	-12986
▁3,00	-12987
▁779.	-12988
▁Acce	-12989
▁Auth	-12990
▁Barz	-12991
▁Baza	-12992
▁Benj	-12993
▁Birg	-12994
▁COLU	-12995
▁Cott	-12996
▁Draw	-12997
▁Durb	-12998
▁Elih	-12999
.1.	-13000
.11	-13001
.13	-13002
73)	-13003
Mor	-13004
Use	-13005
Zon	-13006
eho	-13007
ehu	-13008
fra	-13009
hup	-13010
▁KD	-13011
Wise	-13012
arre	-13013
assh	-13014
clim	-13015
ehiz	-13016
ercy	-13017
etup	-13018
heat	-13019
ixty	-13020
lare	-13021
llat	-13022
ntel	-13023
onds	-13024
reng	-13025
▁Bas	-13026
▁Bud	-13027
2,000	-13028
9,000	-13029
andeh	-13030
artup	-13031
econd	-13032
ercis	-13033
iplom	-13034
lared	-13035
otous	-13036
ubmit	-13037
usive	-13038
▁Alph	-13039
▁Alum	-13040
▁Eliz	-13041
▁Elna	-13042
▁Entr	-13043
▁Epip	-13044
▁Faun	-13045
▁Flan	-13046
▁Geom	-13047
▁Geor	-13048
▁Gibe	-13049
▁IMSA	-13050
▁Idal	-13051
▁Inde	-13052
▁Inte	-13053
▁JOIN	-13054
▁Jeho	-13055
▁Jhap	-13056
▁Joan	-13057
▁Kexi	-13058
▁Khut	-13059
▁KmPl	-13060
▁Laun	-13061
▁Liqu	-13062
▁MONE	-13063
▁Maac	-13064
▁Medi	-13065
▁Midp	-13066
▁Myan	-13067
▁Naom	-13068
▁Netb	-13069
▁Opin	-13070
▁Phen	-13071
▁Prel	-13072
▁Rapt	-13073
▁Raut	-13074
▁Rupe	-13075
▁STSc	-13076
▁Samb	-13077
▁Swit	-13078
▁Teac	-13079
▁Trig	-13080
▁acad	-13081
▁adop	-13082
▁alig	-13083
▁assu	-13084
▁baza	-13085
▁bemo	-13086
▁bigg	-13087
▁bott	-13088
▁budd	-13089
▁ceil	-13090
▁cele	-13091
▁chan	-13092
▁cott	-13093
▁drun	-13094
▁esca	-13095
▁flow	-13096
▁heav	-13097
▁hunt	-13098
▁inhe	-13099
An	-13100
-13	-13101
.).	-13102
1).	-13103
3).	-13104
3-1	-13105
4).	-13106
6-1	-13107
9-1	-13108
War	-13109
adu	-13110
aiw	-13111
cyc	-13112
eas	-13113
oog	-13114
rav	-13115
-8-2	-13116
List	-13117
ampa	-13118
atio	-13119
bage	-13120
camp	-13121
eaut	-13122
ithe	-13123
lion	-13124
manu	-13125
ntio	-13126
opia	-13127
orio	-13128
orkh	-13129
orks	-13130
ppor	-13131
rams	-13132
udic	-13133
▁102	-13134
▁Env	-13135
▁Lif	-13136
▁Mem	-13137
▁Ord	-13138
▁Tai	-13139
▁dun	-13140
▁edu	-13141
▁gri	-13142
▁pad	-13143
▁sup	-13144
0.5.1	-13145
aited	-13146
althy	-13147
aving	-13148
chine	-13149
eated	-13150
ectar	-13151
gthen	-13152
illai	-13153
ircum	-13154
itter	-13155
ittle	-13156
nails	-13157
wards	-13158
▁Kros	-13159
▁Nutr	-13160
▁Phys	-13161
▁Saml	-13162
▁acqu	-13163
▁dumb	-13164
▁excl	-13165
▁exte	-13166
▁join	-13167
▁leng	-13168
▁memb	-13169
▁midn	-13170
▁misj	-13171
▁miss	-13172
▁musc	-13173
▁musi	-13174
▁opin	-13175
▁pati	-13176
▁phil	-13177
▁phys	-13178
▁quak	-13179
▁raid	-13180
▁rail	-13181
▁rais	-13182
▁rede	-13183
▁relo	-13184
▁sadd	-13185
▁shor	-13186
▁silk	-13187
▁skep	-13188
▁swif	-13189
▁trek	-13190
▁util	-13191
▁volu	-13192
▁writ	-13193
.1.164	-13194
1(1974	-13195
40-4-1	-13196
9,000.	-13197
Author	-13198
Webber	-13199
Jam	-13200
Oct	-13201
Ren	-13202
cum	-13203
esa	-13204
gat	-13205
ida	-13206
liz	-13207
pus	-13208
sil	-13209
uac	-13210
allu	-13211
aman	-13212
arsh	-13213
doms	-13214
ensu	-13215
fits	-13216
gger	-13217
gget	-13218
ghts	-13219
hesy	-13220
ileg	-13221
kram	-13222
nick	-13223
obot	-13224
oter	-13225
pure	-13226
ruin	-13227
uche	-13228
upre	-13229
▁Cip	-13230
▁Dau	-13231
▁Nep	-13232
▁fal	-13233
▁smo	-13234
aioth	-13235
armac	-13236
armon	-13237
awins	-13238
chars	-13239
duced	-13240
erned	-13241
erred	-13242
etits	-13243
iscon	-13244
isdom	-13245
olars	-13246
osits	-13247
pable	-13248
rican	-13249
ricul	-13250
ubits	-13251
▁Farm	-13252
▁Neap	-13253
▁Neit	-13254
▁armo	-13255
▁begg	-13256
▁farm	-13257
▁glut	-13258
▁pock	-13259
▁rick	-13260
▁siss	-13261
▁vert	-13262
aching	-13263
afayet	-13264
agname	-13265
aintif	-13266
amianF	-13267
anchay	-13268
anguis	-13269
anuary	-13270
apable	-13271
apting	-13272
arches	-13273
arents	-13274
argets	-13275
arkets	-13276
armful	-13277
arnali	-13278
arning	-13279
arvest	-13280
asised	-13281
ategor	-13282
athalm	-13283
athshe	-13284
atrine	-13285
atters	-13286
author	-13287
avings	-13288
ayable	-13289
azette	-13290
boards	-13291
cGover	-13292
casted	-13293
cealed	-13294
cepted	-13295
chieve	-13296
chools	-13297
ctares	-13298
ctives	-13299
:1	-13300
Ba	-13301
Ke	-13302
LD	-13303
Ox	-13304
ei	-13305
fi	-13306
mc	-13307
3):	-13308
CIT	-13309
aly	-13310
ete	-13311
nly	-13312
oaz	-13313
rim	-13314
▁Ze	-13315
▁Zo	-13316
ceit	-13317
clud	-13318
egin	-13319
enly	-13320
etow	-13321
gins	-13322
ingl	-13323
lace	-13324
odyg	-13325
ooks	-13326
pers	-13327
plus	-13328
▁Zaw	-13329
▁mig	-13330
▁wiv	-13331
arned	-13332
atars	-13333
autif	-13334
bably	-13335
broad	-13336
cient	-13337
emote	-13338
estiv	-13339
hairp	-13340
ighli	-13341
ighly	-13342
ithin	-13343
ludes	-13344
olves	-13345
onize	-13346
ortab	-13347
ouble	-13348
raves	-13349
ticle	-13350
▁Tras	-13351
alaces	-13352
anning	-13353
assify	-13354
asures	-13355
atmand	-13356
culate	-13357
dalene	-13358
dation	-13359
depend	-13360
ducted	-13361
ediate	-13362
edient	-13363
edings	-13364
edited	-13365
edural	-13366
elcome	-13367
ellers	-13368
elphia	-13369
enaiah	-13370
encing	-13371
enealo	-13372
enefit	-13373
enship	-13374
entral	-13375
eraiah	-13376
ercise	-13377
ershon	-13378
ersify	-13379
ertify	-13380
esktop	-13381
etails	-13382
etauda	-13383
ethods	-13384
etimes	-13385
etween	-13386
etwork	-13387
evelop	-13388
feited	-13389
forced	-13390
forted	-13391
getabl	-13392
grains	-13393
gument	-13394
hoboam	-13395
honite	-13396
ialogs	-13397
ibrary	-13398
icaiah	-13399
5/	-13400
Ta	-13401
To	-13402
me	-13403
zi	-13404
412	-13405
PGP	-13406
dum	-13407
gnt	-13408
hal	-13409
igi	-13410
▁66	-13411
▁nt	-13412
Ever	-13413
aros	-13414
auli	-13415
brow	-13416
cute	-13417
ewly	-13418
hath	-13419
mbly	-13420
mful	-13421
nown	-13422
ourc	-13423
rror	-13424
rrow	-13425
vene	-13426
▁Bec	-13427
▁Gos	-13428
▁Joh	-13429
▁bir	-13430
▁lik	-13431
ablis	-13432
aboth	-13433
alles	-13434
andiz	-13435
atute	-13436
ceful	-13437
cknow	-13438
dered	-13439
ented	-13440
erify	-13441
error	-13442
oyful	-13443
ractu	-13444
roupW	-13445
rowth	-13446
spend	-13447
suant	-13448
uprem	-13449
▁effe	-13450
▁fram	-13451
▁fron	-13452
▁hors	-13453
▁impr	-13454
▁poly	-13455
▁rupe	-13456
acture	-13457
allest	-13458
anchan	-13459
andize	-13460
eneral	-13461
essful	-13462
ganize	-13463
icated	-13464
icator	-13465
iction	-13466
iculty	-13467
idator	-13468
iddles	-13469
iginal	-13470
ilarly	-13471
ileges	-13472
ilkiah	-13473
iminal	-13474
imited	-13475
inator	-13476
inimum	-13477
inning	-13478
insman	-13479
insmen	-13480
iodine	-13481
ipient	-13482
irtual	-13483
iscell	-13484
isfied	-13485
isoner	-13486
itably	-13487
itures	-13488
joying	-13489
kspace	-13490
lights	-13491
llowsh	-13492
manded	-13493
manent	-13494
mblies	-13495
mption	-13496
munity	-13497
ncient	-13498
ndment	-13499
Gu	-13500
nh	-13501
feg	-13502
nol	-13503
raf	-13504
sca	-13505
▁Gh	-13506
▁JU	-13507
arai	-13508
arli	-13509
astn	-13510
buch	-13511
burs	-13512
clus	-13513
cure	-13514
ecul	-13515
eded	-13516
enou	-13517
erst	-13518
feat	-13519
feit	-13520
gral	-13521
iffe	-13522
imiz	-13523
inar	-13524
obil	-13525
okle	-13526
tual	-13527
ulls	-13528
vens	-13529
▁Sev	-13530
adual	-13531
ahweh	-13532
ctual	-13533
idual	-13534
imary	-13535
jectt	-13536
oners	-13537
oreau	-13538
ricts	-13539
ructs	-13540
sible	-13541
terns	-13542
uchad	-13543
ullte	-13544
▁Hidd	-13545
▁Lang	-13546
▁Spir	-13547
▁arou	-13548
▁inad	-13549
▁keyw	-13550
▁lett	-13551
▁sess	-13552
▁stin	-13553
anging	-13554
arried	-13555
attern	-13556
cyclop	-13557
entual	-13558
ferent	-13559
idents	-13560
igible	-13561
inants	-13562
ipants	-13563
isible	-13564
neapol	-13565
nezzar	-13566
nowled	-13567
ocBook	-13568
odules	-13569
olding	-13570
omless	-13571
onomet	-13572
onvert	-13573
opment	-13574
opying	-13575
oreign	-13576
orials	-13577
orient	-13578
orning	-13579
orrows	-13580
ortant	-13581
ostles	-13582
ourism	-13583
ourtes	-13584
ovable	-13585
owever	-13586
pboard	-13587
peaker	-13588
pended	-13589
percon	-13590
pervis	-13591
phSUiJ	-13592
phasis	-13593
pherds	-13594
phlets	-13595
plaint	-13596
ppoint	-13597
ptured	-13598
quares	-13599
aft	-13600
eem	-13601
iut	-13602
sam	-13603
san	-13604
tow	-13605
uad	-13606
Book	-13607
Rand	-13608
bent	-13609
idel	-13610
ioth	-13611
ivis	-13612
life	-13613
lory	-13614
nced	-13615
ndhe	-13616
odiz	-13617
ookm	-13618
pond	-13619
rops	-13620
sory	-13621
tect	-13622
xist	-13623
▁Hum	-13624
▁Phy	-13625
▁Rup	-13626
amoth	-13627
ampus	-13628
andat	-13629
asked	-13630
dence	-13631
ediat	-13632
emory	-13633
eroth	-13634
etown	-13635
field	-13636
idors	-13637
itors	-13638
licab	-13639
loses	-13640
oboth	-13641
othra	-13642
ships	-13643
sment	-13644
▁Abie	-13645
▁Comp	-13646
▁Kook	-13647
▁Manu	-13648
▁Phot	-13649
▁Star	-13650
▁Stat	-13651
▁Step	-13652
▁Stre	-13653
▁acce	-13654
▁appo	-13655
▁dayt	-13656
▁filt	-13657
▁flut	-13658
▁midd	-13659
▁scen	-13660
▁scri	-13661
▁usem	-13662
entory	-13663
istory	-13664
isused	-13665
itizen	-13666
olving	-13667
ourned	-13668
pendic	-13669
rading	-13670
rategy	-13671
razine	-13672
reasur	-13673
refore	-13674
remble	-13675
reneur	-13676
rieved	-13677
ritten	-13678
roduce	-13679
rouble	-13680
ructed	-13681
rusted	-13682
rypted	-13683
sembly	-13684
served	-13685
stitut	-13686
suming	-13687
uditor	-13688
uesday	-13689
ulling	-13690
unicip	-13691
unning	-13692
upreme	-13693
urried	-13694
ursing	-13695
usband	-13696
usiven	-13697
ustang	-13698
uthent	-13699
UA	-13700
Bac	-13701
Pas	-13702
Upp	-13703
ajg	-13704
bim	-13705
but	-13706
del	-13707
emb	-13708
hul	-13709
olt	-13710
plr	-13711
rob	-13712
sef	-13713
yel	-13714
▁HT	-13715
▁VA	-13716
▁VP	-13717
abia	-13718
adit	-13719
chni	-13720
echn	-13721
edia	-13722
esia	-13723
iais	-13724
ithh	-13725
omer	-13726
phia	-13727
rgan	-13728
sets	-13729
vily	-13730
▁Ask	-13731
▁Gaz	-13732
▁Hub	-13733
▁Ple	-13734
▁Uni	-13735
▁Vir	-13736
▁cov	-13737
▁hil	-13738
aract	-13739
aterw	-13740
chnic	-13741
ealth	-13742
erman	-13743
eving	-13744
inals	-13745
odify	-13746
perts	-13747
rency	-13748
trans	-13749
tting	-13750
▁Corn	-13751
▁Lege	-13752
▁Trad	-13753
▁Vill	-13754
▁Welf	-13755
▁bact	-13756
▁bron	-13757
▁buil	-13758
▁corn	-13759
▁defa	-13760
▁enab	-13761
▁sinf	-13762
▁sinn	-13763
etting	-13764
ffered	-13765
inally	-13766
itting	-13767
leting	-13768
nowing	-13769
ounted	-13770
phaned	-13771
roving	-13772
utized	-13773
utures	-13774
vances	-13775
verely	-13776
verest	-13777
verify	-13778
versar	-13779
viewer	-13780
visory	-13781
warded	-13782
xtured	-13783
zation	-13784
▁10,73	-13785
▁7,82,	-13786
▁Abime	-13787
▁Abort	-13788
▁Absal	-13789
▁Adjud	-13790
▁Adumm	-13791
▁Anten	-13792
▁Attac	-13793
▁Autom	-13794
▁Auton	-13795
▁Babyl	-13796
▁Biote	-13797
▁Calne	-13798
▁Catal	-13799
82	-13800
RO	-13801
Jes	-13802
MAP	-13803
igu	-13804
nne	-13805
seg	-13806
sou	-13807
uar	-13808
zee	-13809
▁57	-13810
▁VN	-13811
,...	-13812
adne	-13813
anic	-13814
erms	-13815
fiel	-13816
itud	-13817
kies	-13818
miel	-13819
ndee	-13820
neap	-13821
neel	-13822
odly	-13823
oldi	-13824
orne	-13825
owns	-13826
quee	-13827
ques	-13828
twit	-13829
urch	-13830
▁Boh	-13831
▁Sha	-13832
▁ced	-13833
addan	-13834
eform	-13835
enses	-13836
ensus	-13837
ethic	-13838
icall	-13839
ivery	-13840
izens	-13841
leted	-13842
ntens	-13843
oices	-13844
orale	-13845
ounds	-13846
pired	-13847
ppens	-13848
press	-13849
retch	-13850
tired	-13851
tress	-13852
vervi	-13853
▁Pens	-13854
▁Shar	-13855
▁actu	-13856
▁plag	-13857
alized	-13858
ensity	-13859
ermine	-13860
ficult	-13861
mental	-13862
ressly	-13863
tified	-13864
▁Amale	-13865
▁Chang	-13866
▁Chapt	-13867
▁Cinem	-13868
▁Citiz	-13869
▁Claud	-13870
▁Colum	-13871
▁Coord	-13872
▁Damas	-13873
▁Elime	-13874
▁Enabl	-13875
▁Evalu	-13876
▁Exten	-13877
▁Fulls	-13878
▁Imman	-13879
▁Indiv	-13880
▁Indon	-13881
▁Insur	-13882
▁Intel	-13883
▁Intro	-13884
▁Inval	-13885
▁Ishma	-13886
▁Janak	-13887
▁Jerob	-13888
▁Jerus	-13889
▁Jezre	-13890
▁Manag	-13891
▁Manas	-13892
▁Manil	-13893
▁Manuf	-13894
▁Misha	-13895
▁Mobil	-13896
▁Mortg	-13897
▁Nahal	-13898
▁Names	-13899
Ic	-13900
ui	-13901
Kon	-13902
Mou	-13903
Pil	-13904
adf	-13905
ftw	-13906
nsu	-13907
rro	-13908
sew	-13909
cret	-13910
gets	-13911
lass	-13912
miah	-13913
mong	-13914
nsel	-13915
ocks	-13916
omeC	-13917
orns	-13918
tock	-13919
tret	-13920
▁Ama	-13921
▁Amn	-13922
agarm	-13923
ahite	-13924
alues	-13925
alves	-13926
anite	-13927
antil	-13928
atche	-13929
ecret	-13930
epart	-13931
esche	-13932
essel	-13933
ester	-13934
ializ	-13935
icket	-13936
kness	-13937
leche	-13938
ocked	-13939
orite	-13940
ortag	-13941
ounts	-13942
owerf	-13943
ppell	-13944
retar	-13945
stret	-13946
udget	-13947
veget	-13948
▁Amal	-13949
▁Sund	-13950
▁annu	-13951
▁empt	-13952
▁refe	-13953
actual	-13954
aluate	-13955
anness	-13956
cheted	-13957
edness	-13958
hersel	-13959
ignals	-13960
inistr	-13961
inment	-13962
itness	-13963
onounc	-13964
revail	-13965
rossed	-13966
ulness	-13967
undant	-13968
unding	-13969
uspend	-13970
vailab	-13971
veyors	-13972
▁Jerib	-13973
▁Napol	-13974
▁Nebul	-13975
▁OpenP	-13976
▁Panch	-13977
▁Passw	-13978
▁Piuth	-13979
▁Previ	-13980
▁Rainf	-13981
▁Repet	-13982
▁Samar	-13983
▁Secon	-13984
▁Secur	-13985
▁Seven	-13986
▁Solom	-13987
▁Stens	-13988
▁Susan	-13989
▁Teles	-13990
▁Tribh	-13991
▁Trish	-13992
▁Uniqu	-13993
▁Whate	-13994
▁Younk	-13995
▁acros	-13996
▁adequ	-13997
▁affil	-13998
▁agend	-13999
61	-14000
nf	-14001
xb	-14002
-18	-14003
Bor	-14004
HIP	-14005
avy	-14006
bie	-14007
hio	-14008
iez	-14009
ixn	-14010
lef	-14011
off	-14012
uda	-14013
▁AS	-14014
▁Ei	-14015
..99	-14016
axer	-14017
cedu	-14018
eath	-14019
esom	-14020
ffer	-14021
gard	-14022
inie	-14023
lain	-14024
ntru	-14025
odin	-14026
stly	-14027
tack	-14028
udio	-14029
uish	-14030
vanc	-14031
▁Cok	-14032
▁Max	-14033
▁Unk	-14034
▁mix	-14035
▁une	-14036
▁unf	-14037
▁uni	-14038
▁unl	-14039
centr	-14040
chedu	-14041
ctify	-14042
enabl	-14043
heche	-14044
hicle	-14045
ieved	-14046
isabl	-14047
ivory	-14048
onest	-14049
otted	-14050
rease	-14051
rites	-14052
tites	-14053
ucent	-14054
▁Read	-14055
▁desk	-14056
▁mani	-14057
▁nutr	-14058
▁unqu	-14059
ablish	-14060
alites	-14061
elites	-14062
enites	-14063
establ	-14064
ivated	-14065
lished	-14066
omites	-14067
orrent	-14068
readth	-14069
rounds	-14070
ubites	-14071
▁Creat	-14072
▁Katth	-14073
▁answe	-14074
▁arbit	-14075
▁assoc	-14076
▁attra	-14077
▁authe	-14078
▁backl	-14079
▁backw	-14080
▁banan	-14081
▁betwe	-14082
▁bookm	-14083
▁bowel	-14084
▁busin	-14085
▁capab	-14086
▁capit	-14087
▁caref	-14088
▁catch	-14089
▁cerem	-14090
▁chees	-14091
▁cinem	-14092
▁colle	-14093
▁colou	-14094
▁colum	-14095
▁consc	-14096
▁coord	-14097
▁counc	-14098
▁coupl	-14099
02	-14100
CO	-14101
OU	-14102
Zo	-14103
Bal	-14104
Jor	-14105
RLs	-14106
bus	-14107
cip	-14108
ctm	-14109
dah	-14110
dow	-14111
ext	-14112
gro	-14113
ido	-14114
imn	-14115
lob	-14116
pam	-14117
rul	-14118
uil	-14119
uor	-14120
wat	-14121
whe	-14122
xtb	-14123
xtu	-14124
▁Eg	-14125
alog	-14126
emic	-14127
eriv	-14128
itic	-14129
nanc	-14130
nces	-14131
obal	-14132
ptiv	-14133
tact	-14134
tage	-14135
viah	-14136
vict	-14137
vigh	-14138
viso	-14139
▁193	-14140
▁Fam	-14141
▁Plu	-14142
▁afo	-14143
OBuff	-14144
anche	-14145
bness	-14146
ialty	-14147
levis	-14148
mical	-14149
nical	-14150
obile	-14151
rovis	-14152
sical	-14153
stanc	-14154
vites	-14155
xture	-14156
▁Prov	-14157
▁afra	-14158
▁chil	-14159
▁quen	-14160
▁quer	-14161
▁quic	-14162
▁revi	-14163
▁succ	-14164
▁unre	-14165
ancies	-14166
anical	-14167
axable	-14168
ernity	-14169
itants	-14170
ithout	-14171
phical	-14172
▁coven	-14173
▁datab	-14174
▁daugh	-14175
▁dayli	-14176
▁decid	-14177
▁diagn	-14178
▁disab	-14179
▁disob	-14180
▁divid	-14181
▁donke	-14182
▁dragg	-14183
▁earli	-14184
▁elsew	-14185
▁entru	-14186
▁envir	-14187
▁equip	-14188
▁equiv	-14189
▁etern	-14190
▁famil	-14191
▁finel	-14192
▁frequ	-14193
▁greet	-14194
▁handl	-14195
▁hence	-14196
▁herea	-14197
▁hereb	-14198
▁hereu	-14199
25	-14200
Va	-14201
zu	-14202
Key	-14203
Uph	-14204
eca	-14205
eyb	-14206
eyw	-14207
ney	-14208
nti	-14209
phS	-14210
ref	-14211
uin	-14212
xty	-14213
ymb	-14214
1100	-14215
Mark	-14216
West	-14217
airm	-14218
airn	-14219
ampb	-14220
anda	-14221
arri	-14222
assi	-14223
assw	-14224
etwe	-14225
icon	-14226
ifty	-14227
isag	-14228
itam	-14229
leat	-14230
leph	-14231
lict	-14232
nows	-14233
ogon	-14234
penP	-14235
pens	-14236
phan	-14237
phic	-14238
phle	-14239
yors	-14240
▁Eph	-14241
▁Hez	-14242
▁Nam	-14243
▁Ras	-14244
▁roc	-14245
▁sei	-14246
airah	-14247
alued	-14248
assed	-14249
asses	-14250
assic	-14251
assro	-14252
emark	-14253
erich	-14254
ganiz	-14255
gramm	-14256
phans	-14257
phone	-14258
spect	-14259
stair	-14260
xpect	-14261
▁Park	-14262
▁curi	-14263
▁curr	-14264
▁curs	-14265
▁sett	-14266
ayings	-14267
itment	-14268
lieved	-14269
othing	-14270
pening	-14271
strict	-14272
vering	-14273
▁Chair	-14274
▁curre	-14275
▁expen	-14276
▁hostn	-14277
▁impur	-14278
▁inapp	-14279
▁innoc	-14280
▁inser	-14281
▁inste	-14282
▁integ	-14283
▁itsel	-14284
▁judic	-14285
▁looku	-14286
▁mainl	-14287
▁manuf	-14288
▁medic	-14289
▁memor	-14290
▁miner	-14291
▁minim	-14292
▁misce	-14293
▁monit	-14294
▁mysel	-14295
▁notif	-14296
▁obser	-14297
▁overr	-14298
▁panch	-14299
RE	-14300
Sw	-14301
df	-14302
mm	-14303
oz	-14304
Cor	-14305
Gol	-14306
jac	-14307
kel	-14308
lor	-14309
org	-14310
ups	-14311
wel	-14312
wns	-14313
ctit	-14314
ders	-14315
edol	-14316
endi	-14317
eved	-14318
ghly	-14319
imea	-14320
liev	-14321
lind	-14322
nabl	-14323
oved	-14324
rawn	-14325
riot	-14326
wner	-14327
▁Deb	-14328
▁exh	-14329
▁hun	-14330
▁isl	-14331
▁nex	-14332
▁pot	-14333
actor	-14334
aging	-14335
ainou	-14336
alist	-14337
anent	-14338
ategy	-14339
emove	-14340
endar	-14341
ended	-14342
etail	-14343
ggest	-14344
ictor	-14345
ppend	-14346
riend	-14347
roved	-14348
udent	-14349
urved	-14350
wners	-14351
▁Dece	-14352
▁Evil	-14353
▁Unli	-14354
▁eval	-14355
▁evol	-14356
▁exal	-14357
▁feas	-14358
▁feat	-14359
▁forf	-14360
▁indi	-14361
▁irre	-14362
▁modu	-14363
▁neut	-14364
alific	-14365
arific	-14366
chants	-14367
ecific	-14368
enders	-14369
escrib	-14370
ffices	-14371
inders	-14372
ointer	-14373
onment	-14374
ositor	-14375
retari	-14376
ricity	-14377
utting	-14378
▁concl	-14379
▁indiv	-14380
▁param	-14381
▁parce	-14382
▁partn	-14383
▁plann	-14384
▁polit	-14385
▁popul	-14386
▁posit	-14387
▁press	-14388
▁procu	-14389
▁quest	-14390
▁rainf	-14391
▁recei	-14392
▁recip	-14393
▁recog	-14394
▁recom	-14395
▁reduc	-14396
▁refer	-14397
▁rehab	-14398
▁remot	-14399
:0	-14400
04)	-14401
3.4	-14402
4-1	-14403
ipy	-14404
lub	-14405
olu	-14406
otK	-14407
oye	-14408
oyf	-14409
roa	-14410
zra	-14411
▁Av	-14412
▁je	-14413
▁jo	-14414
Fing	-14415
Wies	-14416
alne	-14417
aram	-14418
cate	-14419
colo	-14420
fare	-14421
harm	-14422
iach	-14423
ilip	-14424
iner	-14425
ipal	-14426
ipul	-14427
irel	-14428
itta	-14429
oyed	-14430
spen	-14431
tach	-14432
turn	-14433
urns	-14434
yped	-14435
▁10%	-14436
▁20.	-14437
▁207	-14438
▁Sel	-14439
▁cla	-14440
▁jum	-14441
▁jut	-14442
▁ram	-14443
▁tar	-14444
Power	-14445
ctare	-14446
esare	-14447
eware	-14448
ights	-14449
ipant	-14450
lives	-14451
mised	-14452
odach	-14453
odine	-14454
oyage	-14455
oying	-14456
pened	-14457
quare	-14458
rines	-14459
suing	-14460
▁Cana	-14461
▁Reas	-14462
▁Sche	-14463
▁clou	-14464
▁ente	-14465
▁invo	-14466
▁pare	-14467
▁reci	-14468
▁righ	-14469
ffairs	-14470
ightly	-14471
metraz	-14472
ndange	-14473
urname	-14474
▁Eight	-14475
▁Might	-14476
▁admis	-14477
▁beare	-14478
▁entri	-14479
▁inval	-14480
▁irreg	-14481
▁manip	-14482
▁remun	-14483
▁repat	-14484
▁requi	-14485
▁resul	-14486
▁retri	-14487
▁retro	-14488
▁revis	-14489
▁salar	-14490
▁sambu	-14491
▁secur	-14492
▁sewer	-14493
▁soldi	-14494
▁spend	-14495
▁stair	-14496
▁statu	-14497
▁stead	-14498
▁stell	-14499
II	-14500
Tu	-14501
wE	-14502
yu	-14503
Mas	-14504
ajb	-14505
awy	-14506
bir	-14507
ibl	-14508
ibr	-14509
itn	-14510
key	-14511
mpl	-14512
nco	-14513
oil	-14514
ois	-14515
oku	-14516
opi	-14517
sib	-14518
xpe	-14519
Vide	-14520
atha	-14521
bide	-14522
cide	-14523
derf	-14524
drop	-14525
guth	-14526
heal	-14527
ideo	-14528
inde	-14529
indr	-14530
isib	-14531
kage	-14532
mind	-14533
ncon	-14534
ndal	-14535
orro	-14536
otog	-14537
path	-14538
ping	-14539
rank	-14540
rath	-14541
rder	-14542
roke	-14543
sole	-14544
wide	-14545
▁Ske	-14546
▁daw	-14547
▁sof	-14548
alend	-14549
crate	-14550
emple	-14551
essib	-14552
fence	-14553
imple	-14554
mence	-14555
onath	-14556
ookle	-14557
orced	-14558
orolo	-14559
roide	-14560
tment	-14561
ultan	-14562
uthis	-14563
▁Engl	-14564
▁Notc	-14565
▁alle	-14566
▁empl	-14567
▁guil	-14568
▁mast	-14569
▁relu	-14570
ainten	-14571
andals	-14572
anking	-14573
erated	-14574
ersist	-14575
ervant	-14576
gement	-14577
orator	-14578
ossess	-14579
tainly	-14580
▁Gehen	-14581
▁Phara	-14582
▁Sally	-14583
▁becom	-14584
▁prefe	-14585
▁relat	-14586
▁stopp	-14587
▁suppl	-14588
▁synag	-14589
▁templ	-14590
▁textb	-14591
▁thous	-14592
▁thumb	-14593
▁trapp	-14594
▁treac	-14595
▁treas	-14596
▁troub	-14597
▁twelf	-14598
▁twist	-14599
4/	-14600
Inc	-14601
Jeh	-14602
Jul	-14603
Nep	-14604
cin	-14605
dau	-14606
iro	-14607
ixb	-14608
lik	-14609
ndd	-14610
nli	-14611
onf	-14612
yli	-14613
Eith	-14614
acke	-14615
amel	-14616
ayli	-14617
bind	-14618
ctim	-14619
elaw	-14620
ewis	-14621
fied	-14622
igne	-14623
impl	-14624
indn	-14625
iums	-14626
jack	-14627
lack	-14628
liab	-14629
ncil	-14630
ncry	-14631
oves	-14632
plie	-14633
ruou	-14634
sack	-14635
sult	-14636
tair	-14637
ulti	-14638
▁Pow	-14639
▁fli	-14640
ackal	-14641
acken	-14642
amous	-14643
anied	-14644
educt	-14645
enied	-14646
ignal	-14647
ignat	-14648
igned	-14649
ignit	-14650
imely	-14651
inanc	-14652
ntant	-14653
ultur	-14654
uried	-14655
▁Hack	-14656
▁Sign	-14657
▁Thre	-14658
▁bran	-14659
▁guar	-14660
▁myse	-14661
▁pref	-14662
▁preg	-14663
▁prej	-14664
▁prem	-14665
▁prev	-14666
▁pric	-14667
▁sack	-14668
▁whic	-14669
aanite	-14670
ctific	-14671
lating	-14672
sioner	-14673
ultant	-14674
ulting	-14675
▁Regul	-14676
▁encom	-14677
▁entre	-14678
▁knowl	-14679
▁overw	-14680
▁veget	-14681
▁vehic	-14682
▁vocab	-14683
▁worsh	-14684
,000.00	-14685
2.10(23	-14686
4-12-19	-14687
6-1961)	-14688
ESTRICT	-14689
NERSHIP	-14690
PMRawBe	-14691
Present	-14692
achings	-14693
acility	-14694
ackager	-14695
ackages	-14696
actured	-14697
adation	-14698
adequac	-14699
Ja	-14700
Jh	-14701
lo	-14702
61.	-14703
eil	-14704
gas	-14705
lih	-14706
rad	-14707
▁nc	-14708
comm	-14709
eare	-14710
entr	-14711
gles	-14712
gree	-14713
imil	-14714
isee	-14715
liel	-14716
lude	-14717
mise	-14718
oise	-14719
olom	-14720
once	-14721
onsi	-14722
oons	-14723
ostm	-14724
ostn	-14725
perc	-14726
pise	-14727
plin	-14728
post	-14729
quip	-14730
rish	-14731
ruck	-14732
sake	-14733
stor	-14734
▁Cha	-14735
▁Geb	-14736
ackag	-14737
agons	-14738
amath	-14739
anish	-14740
etted	-14741
ffect	-14742
forms	-14743
heted	-14744
icons	-14745
inted	-14746
iodiz	-14747
isees	-14748
ishah	-14749
ishak	-14750
ishly	-14751
iture	-14752
ndent	-14753
olish	-14754
olted	-14755
ostal	-14756
osted	-14757
raise	-14758
tedly	-14759
ultiv	-14760
▁Bost	-14761
▁Fail	-14762
▁Mish	-14763
▁Nath	-14764
▁allo	-14765
▁arre	-14766
▁arri	-14767
▁arro	-14768
▁beli	-14769
ainted	-14770
ernise	-14771
ervise	-14772
erying	-14773
illing	-14774
istres	-14775
liable	-14776
livery	-14777
ortcut	-14778
reserv	-14779
sually	-14780
sumers	-14781
▁Jesth	-14782
▁Judic	-14783
ailable	-14784
ainment	-14785
aintain	-14786
airness	-14787
ajority	-14788
alances	-14789
alidate	-14790
amework	-14791
ampbell	-14792
ananiah	-14793
anguage	-14794
anguish	-14795
ansform	-14796
apanese	-14797
appoint	-14798
aptized	-14799
Ab	-14800
DI	-14801
-03	-14802
.10	-14803
Che	-14804
Hol	-14805
Ric	-14806
ctr	-14807
eon	-14808
fth	-14809
fus	-14810
pap	-14811
▁(8	-14812
▁Ka	-14813
Dire	-14814
King	-14815
aler	-14816
bber	-14817
bert	-14818
ccup	-14819
dire	-14820
east	-14821
fast	-14822
hell	-14823
ishn	-14824
lank	-14825
omeP	-14826
oure	-14827
pons	-14828
rast	-14829
renc	-14830
ught	-14831
west	-14832
yren	-14833
▁Pam	-14834
▁Tog	-14835
▁Unl	-14836
▁Zab	-14837
▁abo	-14838
▁enj	-14839
▁obe	-14840
▁thr	-14841
amber	-14842
apers	-14843
asted	-14844
asten	-14845
astis	-14846
astru	-14847
berit	-14848
ctang	-14849
ensee	-14850
esire	-14851
[...]
