[PAD]	0
[EOS]	0
[UNK]	0
[SOS]	0
[MASK]	0
र्	-0
▁स	-1
▁प	-2
को	-3
्र	-4
मा	-5
▁ग	-6
का	-7
न्	-8
▁त	-9
हर	-10
्य	-11
ले	-12
ने	-13
▁अ	-14
ला	-15
नि	-16
▁व	-17
▁क	-18
हरू	-19
▁र	-20
▁ब	-21
नु	-22
स्	-23
▁भ	-24
▁गर्	-25
▁ह	-26
▁द	-27
▁म	-28
▁प्र	-29
▁य	-30
ति	-31
ार	-32
▁ज	-33
क्	-34
ना	-35
▁आ	-36
लाई	-37
▁उ	-38
▁गर	-39
ित	-40
म्	-41
यो	-42
▁छ	-43
▁ति	-44
▁मा	-45
नी	-46
▁।	-47
▁नि	-48
ाल	-49
▁(	-50
..	-51
▁का	-52
▁वि	-53
था	-54
ता	-55
नेछ	-56
▁पर	-57
ेश	-58
िए	-59
▁हु	-60
त्र	-61
▁न	-62
ाँ	-63
मी	-64
्व	-65
▁ख	-66
रा	-67
दा	-68
▁श	-69
िक	-70
▁त्य	-71
ाट	-72
नुह	-73
▁वा	-74
▁ए	-75
▁च	-76
ाउ	-77
स्त	-78
▁ला	-79
▁ल	-80
▁कु	-81
हरु	-82
▁भए	-83
▁गर्न	-84
▁थ	-85
र्य	-86
▁सम्	-87
्ट	-88
क्ष	-89
ोज	-90
्या	-91
कार	-92
▁मानि	-93
वा	-94
पा	-95
धि	-96
बाट	-97
ेर	-98
▁रा	-99
ोस्	-100
▁मानिस	-101
▁लाग	-102
▁परम	-103
▁फ	-104
▁यस	-105
▁पर्	-106
ेको	-107
▁दि	-108
िम	-109
नुहोस्	-110
▁अनि	-111
न्छ	-112
त्	-113
ल्	-114
▁तिनी	-115
▁सम	-116
▁तिमी	-117
रण	-118
▁उप	-119
द्	-120
हरूले	-121
▁सं	-122
या	-123
जा	-124
प्र	-125
....	-126
▁कार्य	-127
▁लागि	-128
▁अनु	-129
▁गर्ने	-130
▁दे	-131
ष्ट	-132
▁यो	-133
ाइ	-134
्न	-135
▁सा	-136
ैन	-137
न्ध	-138
▁सु	-139
योग	-140
▁स्	-141
▁आफ	-142
▁व्य	-143
हरूलाई	-144
स्था	-145
्रा	-146
ही	-147
मोज	-148
मोजिम	-149
▁इ	-150
हाँ	-151
▁तथा	-152
वि	-153
भु	-154
ान	-155
न्द	-156
हि	-157
▁के	-158
▁भएको	-159
री	-160
ियो	-161
▁कि	-162
▁प्रा	-163
▁भन्	-164
िएको	-165
▁बमोजिम	-166
्त	-167
▁हा	-168
▁पनि	-169
▁ध	-170
▁प्रति	-171
नै	-172
बन्ध	-173
प्रभु	-174
▁गर्नुहोस्	-175
▁सक्	-176
पाई	-177
▁पा	-178
▁एक	-179
▁पु	-180
▁परमप्रभु	-181
▁कुनै	-182
▁२	-183
ारी	-184
▁अन्	-185
▁को	-186
▁तपाई	-187
▁ना	-188
▁१	-189
हरूको	-190
▁देख	-191
▁त्यस	-192
टा	-193
देश	-194
हा	-195
▁परि	-196
▁तर	-197
नको	-198
क्ति	-199
्च	-200
्रो	-201
▁गरि	-202
▁से	-203
▁गरी	-204
ङ्	-205
▁गरे	-206
यम	-207
▁सम्बन्ध	-208
▁ः	-209
▁निर्	-210
ूर्	-211
▁थिए	-212
▁क्	-213
लो	-214
िति	-215
▁हो	-216
गा	-217
▁गर्नु	-218
▁ती	-219
क्र	-220
्वर	-221
एको	-222
▁बा	-223
▁क्ष	-224
दि	-225
र्थ	-226
▁"	-227
ध्य	-228
▁भने	-229
ेश्वर	-230
रि	-231
सा	-232
▁परमेश्वर	-233
बै	-234
▁ड	-235
▁रह	-236
पत्र	-237
▁आफ्न	-238
▁छो	-239
भा	-240
▁ने	-241
▁“	-242
कास	-243
स्तो	-244
▁थियो	-245
▁हुनेछ	-246
दन	-247
▁घ	-248
द्य	-249
पाल	-250
▁सबै	-251
लि	-252
ास	-253
र्ष	-254
रू	-255
त्य	-256
नुहु	-257
▁विश	-258
फा	-259
प्त	-260
▁कुरा	-261
ित्र	-262
ेत्र	-263
जना	-264
▁अधि	-265
▁सो	-266
रो	-267
एल	-268
▁मु	-269
धार	-270
▁ठ	-271
▁क्षेत्र	-272
ूच	-273
▁काम	-274
▁स्व	-275
▁व्यव	-276
▁नेपाल	-277
▁प्रयोग	-278
यन	-279
न्त	-280
माण	-281
ँग	-282
▁सक	-283
ालय	-284
्री	-285
▁छैन	-286
▁आफ्नो	-287
ूल	-288
ेक	-289
ेल	-290
ाँच	-291
ैले	-292
मि	-293
▁जा	-294
र्ता	-295
▁बना	-296
▁त्यो	-297
▁स्था	-298
........	-299
ोक	-300
▁विकास	-301
▁ऐ	-302
न्न	-303
ारा	-304
▁सि	-305
▁अधिकार	-306
दै	-307
रु	-308
▁दु	-309
क्त	-310
नुभ	-311
पमा	-312
सम्	-313
▁निम्	-314
खा	-315
▁राख	-316
▁अव	-317
ीक	-318
▁ट	-319
मान	-320
▁एउ	-321
▁हामी	-322
▁लि	-323
नुहुन्छ	-324
▁बढ	-325
ाउने	-326
▁तिनीहरू	-327
▁व्यक्ति	-328
ौं	-329
र्ग	-330
▁गरेको	-331
भि	-332
▁सर	-333
▁मानिसहरू	-334
पर्	-335
▁इस	-336
▁बि	-337
▁२०	-338
▁कर्	-339
▁भयो	-340
▁उहाँ	-341
सले	-342
▁दा	-343
▁उत्	-344
▁अन्य	-345
▁पर्छ	-346
ेका	-347
रह	-348
वश	-349
▁रु	-350
न्त्र	-351
्राएल	-352
▁सेवा	-353
ब्	-354
दैन	-355
▁नै	-356
▁रू	-357
▁अनुस	-358
छि	-359
नमा	-360
सँग	-361
▁बो	-362
म्रो	-363
▁तपाईँ	-364
▁निम्ति	-365
▁संस्था	-366
▁इस्राएल	-367
ाउँ	-368
्यक	-369
क्रम	-370
वे	-371
ाइल	-372
▁छन्	-373
▁एउटा	-374
▁तपाईं	-375
▁प्राप्त	-376
▁व्यवस्था	-377
थि	-378
स्थ	-379
▁सरकार	-380
नले	-381
यमा	-382
▁ले	-383
स्तु	-384
▁किन	-385
वश्यक	-386
दछ	-387
ीय	-388
ुट	-389
ञ्च	-390
ाउन	-391
स्ता	-392
▁पर्नेछ	-393
▁पू	-394
▁बै	-395
नुभयो	-396
उँ	-397
ज्	-398
द्ध	-399
ेरो	-400
हरुको	-401
▁आवश्यक	-402
▁ऐन	-403
▁समिति	-404
ञ्	-405
ेशू	-406
▁खा	-407
▁सूच	-408
▁हुने	-409
डी	-410
दी	-411
क्षा	-412
▁दिन	-413
▁येशू	-414
▁गरिएको	-415
याँ	-416
ाली	-417
ोजना	-418
▁मेरो	-419
▁राजा	-420
▁योजना	-421
ग्	-422
जी	-423
▁चा	-424
पूर्	-425
▁फाइल	-426
▁वर्ष	-427
▁तिमीहरू	-428
ेत	-429
▁यह	-430
▁यी	-431
ल्ला	-432
▁नाम	-433
▁मूल	-434
▁केही	-435
ङ्क	-436
द्धि	-437
सम्म	-438
▁शहर	-439
▁हुन्छ	-440
▁तिनीहरूले	-441
दे	-442
ली	-443
न्य	-444
▁भू	-445
▁पुन	-446
▁हुन	-447
ण्	-448
▁अस	-449
▁जि	-450
▁जो	-451
▁हे	-452
ेन	-453
००	-454
मति	-455
हाय	-456
▁या	-457
▁त्यस्तो	-458
▁परमप्रभुले	-459
ती	-460
ज्ञ	-461
रमा	-462
ालन	-463
▁सह	-464
▁धेर	-465
ष्ट्र	-466
▁मैले	-467
▁गर्दा	-468
▁पर्ने	-469
की	-470
ेट	-471
ण्ड	-472
▁वित	-473
▁धेरै	-474
िय	-475
ेष	-476
▁तब	-477
▁मि	-478
▁सम्बन्धित	-479
सु	-480
धिक	-481
▁पूर्	-482
▁अनुमति	-483
▁कार्यक्रम	-484
▁मानिसहरूलाई	-485
यु	-486
जार	-487
दान	-488
ेमा	-489
▁अर्	-490
्वारा	-491
▁नियम	-492
ोग	-493
▁झ	-494
▁ढ	-495
छन्	-496
नियम	-497
पादन	-498
▁आफ्	-499
▁छोरा	-500
▁देखि	-501
▁सम्झ	-502
गर	-503
ृत	-504
▁तोक	-505
▁दिए	-506
नेछन्	-507
ृद्धि	-508
▁मलाई	-509
शा	-510
ूह	-511
▁३	-512
निक	-513
▁जु	-514
▁मो	-515
▁शि	-516
▁परिव	-517
▁मात्र	-518
▁विश्व	-519
▁प्रत्य	-520
सित	-521
ाउनु	-522
▁देश	-523
▁यहू	-524
▁आदेश	-525
गत	-526
छु	-527
डा	-528
धा	-529
मु	-530
।"	-531
पछि	-532
वरण	-533
ेला	-534
▁उपल	-535
सं	-536
▁कस	-537
▁समा	-538
▁रूपमा	-539
▁५	-540
दफा	-541
्ने	-542
▁उस	-543
▁सद	-544
वेदन	-545
▁राज	-546
▁सर्	-547
▁भूमि	-548
▁विशेष	-549
▁सम्बन्धी	-550
कम	-551
स्य	-552
ीमा	-553
ीकरण	-554
▁चाह	-555
▁पहि	-556
▁रकम	-557
▁हुँ	-558
▁दिनु	-559
▁भएका	-560
▁सञ्च	-561
▁आफ्ना	-562
▁उपदफा	-563
▁गरिनेछ	-564
ुल	-565
भाव	-566
▁बच	-567
स्तै	-568
▁विष	-569
▁रहेको	-570
▁सक्नेछ	-571
▁निर्माण	-572
▁राष्ट्र	-573
▁प्रत्येक	-574
▁मानिसहरूले	-575
नो	-576
शत	-577
ष्	-578
हु	-579
।”	-580
क्ट	-581
▁जब	-582
क्ता	-583
क्षण	-584
▁यदि	-585
▁कारण	-586
द्वारा	-587
▁तिनीहरूलाई	-588
इन	-589
बा	-590
ेस	-591
▁४	-592
देख	-593
र्फ	-594
▁जन	-595
र्ने	-596
▁सकि	-597
न्द्र	-598
हरुमा	-599
▁कर्म	-600
▁मिति	-601
▁गर्नेछ	-602
▁प्रतिशत	-603
रको	-604
ान्	-605
कारी	-606
▁आयो	-607
▁अध्य	-608
▁अन्त	-609
▁बनाउ	-610
▁सन्द	-611
▁सदस्य	-612
▁प्रमाण	-613
प्	-614
चार	-615
ृति	-616
ोल्	-617
▁अग	-618
▁मह	-619
▁दफा	-620
कर्ता	-621
▁अवधि	-622
हरुलाई	-623
▁जिल्ला	-624
टी	-625
धन	-626
फल	-627
सी	-628
ून	-629
▁औ	-630
एका	-631
ङ्ग	-632
मिक	-633
िया	-634
▁भा	-635
नाले	-636
ारको	-637
▁जुन	-638
▁साथ	-639
युक्त	-640
हरूमा	-641
▁उपनियम	-642
▁तिम्रो	-643
▁बमोजिमको	-644
▁परमेश्वरले	-645
न्ट	-646
भाग	-647
स्क	-648
▁खु	-649
चारी	-650
न्दा	-651
न्या	-652
हारी	-653
▁अभि	-654
▁चयन	-655
▁बढी	-656
▁पूजा	-657
▁सूचना	-658
ंक	-659
घि	-660
कको	-661
र्च	-662
्यो	-663
▁जी	-664
▁दर	-665
▁फि	-666
ख्या	-667
▁निका	-668
▁उपलब्	-669
▁त्यहाँ	-670
र्त	-671
र्श	-672
ारे	-673
पूर्ण	-674
▁आधार	-675
▁स्वा	-676
▁गरेका	-677
▁देहाय	-678
▁वस्तु	-679
▁कर्मचारी	-680
▁कार्यालय	-681
च्	-682
जन	-683
रे	-684
तको	-685
भने	-686
श्र	-687
▁कृ	-688
▁लग	-689
▁हि	-690
ध्ये	-691
नलाई	-692
▁जग्	-693
▁समय	-694
▁पार्	-695
▁व्या	-696
▁गरिने	-697
▁उपलब्ध	-698
ज्ञा	-699
त्ति	-700
देखि	-701
▁कुल	-702
▁फर्	-703
▁लगा	-704
▁सेट	-705
द्योग	-706
भित्र	-707
हरूका	-708
▁जग्गा	-709
▁किनभने	-710
▁तिमीले	-711
▁उत्पादन	-712
▁केन्द्र	-713
▁तपाईँले	-714
ड्	-715
म्प	-716
िता	-717
▁अब	-718
▁कर	-719
▁ता	-720
र्या	-721
▁अघि	-722
▁बाट	-723
▁जसले	-724
▁प्रव	-725
▁सन्देश	-726
▁अधिकारी	-727
▁हुनुहुन्छ	-728
ंश	-729
कै	-730
छौ	-731
...	-732
काश	-733
नका	-734
सार	-735
िका	-736
▁गु	-737
ष्टि	-738
▁उद्	-739
▁लेख	-740
भिन्न	-741
▁नयाँ	-742
▁अर्को	-743
▁प्रवि	-744
▁उहाँले	-745
▁सञ्चालन	-746
▁इस्राएलका	-747
जत	-748
सि	-749
पना	-750
▁घर	-751
▁चि	-752
▁नग	-753
▁नभ	-754
▁मे	-755
▁शु	-756
माथि	-757
▁खर्च	-758
▁जाँच	-759
▁दर्ता	-760
▁भन्ने	-761
▁मूल्य	-762
▁आयोजना	-763
▁प्रदान	-764
▁मन्त्र	-765
▁शिक्षा	-766
▁पूजाहारी	-767
▁तिमीहरूले	-768
▁व्यक्तिले	-769
वी	-770
मुख	-771
र्ड	-772
लिक	-773
व्य	-774
▁पठ	-775
क्षम	-776
द्यु	-777
हिले	-778
ालको	-779
▁जान	-780
▁महि	-781
▁विभाग	-782
▁विवरण	-783
▁विश्वास	-784
▁भन्नुभयो	-785
तर	-786
पन	-787
मो	-788
▁६	-789
उने	-790
नीय	-791
यार	-792
ल्य	-793
ुवा	-794
▁रो	-795
▁लु	-796
▁शा	-797
जाजत	-798
▁जीव	-799
▁पेश	-800
▁बस्	-801
भन्दा	-802
रहेको	-803
▁उसले	-804
▁सकेन	-805
▁समूह	-806
▁इजाजत	-807
▁गर्दै	-808
▁जस्तै	-809
▁भित्र	-810
▁त्यसपछि	-811
▁विभिन्न	-812
ऊद	-813
दो	-814
कमा	-815
ट्ट	-816
म्भ	-817
श्च	-818
षद्	-819
▁ठू	-820
कारण	-821
▁दुई	-822
▁पार	-823
▁मुख	-824
हरुले	-825
▁ग्रा	-826
▁हुनु	-827
▁भन्दा	-828
▁मूल्या	-829
▁भन्नाले	-830
▁परमेश्वरको	-831
एर	-832
चि	-833
डि	-834
णा	-835
सक	-836
ेम	-837
ैं	-838
ष्ठ	-839
्रि	-840
▁जे	-841
▁बस	-842
म्रा	-843
िएका	-844
▁खोज	-845
▁भनी	-846
▁हात	-847
▁दाऊद	-848
▁सम्प	-849
▁हुन्	-850
▁गर्दछ	-851
▁सक्ने	-852
▁समितिको	-853
▁परमप्रभुको	-854
................	-855
बु	-856
यी	-857
शो	-858
ूर	-859
च्च	-860
डीई	-861
शले	-862
▁पृ	-863
▁बी	-864
ञ्जी	-865
पर्छ	-866
ीहरू	-867
▁बिक	-868
▁हेर	-869
वित्र	-870
▁दिने	-871
▁भएमा	-872
▁वितरण	-873
▁वित्त	-874
▁कुराहरू	-875
▁परिवर्त	-876
▁मन्त्रालय	-877
▁अनुमतिपत्र	-878
गो	-879
पु	-880
मक	-881
▁-	-882
जिक	-883
पनि	-884
र्न	-885
▁अद	-886
▁थप	-887
▁था	-888
त्रु	-889
र्गत	-890
विधा	-891
ान्व	-892
▁उनी	-893
▁पदा	-894
▁बैठ	-895
▁रुप	-896
स्थ्य	-897
▁न्या	-898
▁बैंक	-899
▁माथि	-900
▁लक्ष	-901
▁विषय	-902
▁शक्ति	-903
▁अनुसूच	-904
▁प्रमुख	-905
▁स्थानीय	-906
▁कार्यान्व	-907
कि	-908
टक	-909
ोर	-910
ज्य	-911
वाद	-912
स्व	-913
हिर	-914
्रे	-915
▁जल	-916
▁डे	-917
▁बु	-918
ङ्कन	-919
ताको	-920
देशी	-921
ुट्ट	-922
▁निज	-923
▁बचत	-924
रूशले	-925
▁प्रश	-926
▁केडीई	-927
▁जस्तो	-928
▁तिनले	-929
▁यहूदा	-930
▁व्याप	-931
▁अनुसार	-932
▁परिषद्	-933
▁बिक्री	-934
▁बृद्धि	-935
▁सम्झनु	-936
▁वित्तीय	-937
▁तिनीहरूको	-938
▁सम्बन्धमा	-939
▁तिमीहरूलाई	-940
ठन	-941
लग	-942
सम	-943
ूब	-944
▁७	-945
उनु	-946
च्छ	-947
नन्	-948
मको	-949
मित	-950
धारण	-951
▁अरू	-952
▁कार	-953
▁क्र	-954
▁पछि	-955
▁संर	-956
देश्य	-957
रहेका	-958
▁खोल्	-959
▁ख्री	-960
▁ठाउँ	-961
▁तयार	-962
▁सिर्	-963
▁पूर्व	-964
▁बाहिर	-965
▁मिश्र	-966
▁यसर्थ	-967
▁यस्तो	-968
▁स्थान	-969
▁कुञ्जी	-970
▁पवित्र	-971
▁यरूशले	-972
▁येशूले	-973
▁सुविधा	-974
▁अध्यक्ष	-975
▁ख्रीष्ट	-976
उन	-977
भर	-978
वल	-979
ेद	-980
▁ऊ	-981
▁–	-982
म्ब	-983
लेख	-984
संग	-985
▁आइ	-986
क्टर	-987
्रोत	-988
▁जन्	-989
▁ताल	-990
▁पाप	-991
▁भाग	-992
न्छन्	-993
▁आयोग	-994
▁उसको	-995
▁बाटो	-996
▁मोशा	-997
▁यसको	-998
▁अहिले	-999
▁दिएको	-1000
▁निकाय	-1001
▁मध्ये	-1002
▁प्रकार	-1003
▁प्रकाश	-1004
▁यसकारण	-1005
▁हामीले	-1006
▁सरकारले	-1007
▁सिर्जना	-1008
▁इस्राएली	-1009
▁उद्देश्य	-1010
▁इजाजतपत्र	-1011
के	-1012
चल	-1013
टन	-1014
शु	-1015
ाए	-1016
ोड	-1017
त्व	-1018
धान	-1019
परि	-1020
बार	-1021
यास	-1022
ुटि	-1023
▁कै	-1024
▁छा	-1025
कृति	-1026
ीकृत	-1027
▁पाठ	-1028
र्थिक	-1029
▁खण्ड	-1030
▁ठूलो	-1031
▁राख्	-1032
▁तापनि	-1033
▁पुनरा	-1034
▁यहूदी	-1035
▁उद्योग	-1036
▁लक्ष्य	-1037
▁तपाईंले	-1038
▁तिमीलाई	-1039
▁स्थापना	-1040
▁क्षेत्रमा	-1041
▁स्वास्थ्य	-1042
▁कार्यान्वयन	-1043
कु	-1044
जु	-1045
थे	-1046
धी	-1047
पर	-1048
भव	-1049
यौ	-1050
हो	-1051
▁'	-1052
करण	-1053
कले	-1054
चिव	-1055
ञ्ज	-1056
न्ड	-1057
लको	-1058
▁गए	-1059
▁जस	-1060
▁रङ	-1061
ँदैन	-1062
कहाँ	-1063
णाली	-1064
त्मक	-1065
र्शन	-1066
ैनिक	-1067
्यान	-1068
▁अगम	-1069
▁काग	-1070
▁कान	-1071
▁किस	-1072
▁छोड	-1073
▁जना	-1074
▁त्र	-1075
बन्धी	-1076
स्ताव	-1077
स्थित	-1078
▁अदाल	-1079
▁पूरा	-1080
▁बजार	-1081
▁यहाँ	-1082
▁सम्म	-1083
▁हजार	-1084
पूर्ति	-1085
▁आफ्नै	-1086
▁उपयोग	-1087
▁रुपमा	-1088
▁आर्थिक	-1089
▁त्रुटि	-1090
▁प्रयास	-1091
▁अनुसूची	-1092
▁परिवर्तन	-1093
▁प्रस्ताव	-1094
पत	-1095
शी	-1096
षा	-1097
▁९	-1098
वली	-1099
विक	-1100
ितो	-1101
ेरि	-1102
▁तह	-1103
▁रि	-1104
▁रे	-1105
▁सी	-1106
द्दा	-1107
नीति	-1108
्याल	-1109
▁उल्	-1110
▁चार	-1111
▁नगर	-1112
▁न्य	-1113
▁संग	-1114
▁सुर	-1115
न्तरण	-1116
▁कर्त	-1117
▁कारो	-1118
▁गर्छ	-1119
▁नाउँ	-1120
▁सहाय	-1121
▁सुरु	-1122
▁होइन	-1123
द्यालय	-1124
बमोजिम	-1125
▁गराउन	-1126
▁निर्ण	-1127
▁विस्त	-1128
▁सहयोग	-1129
▁प्रभाव	-1130
▁व्यवसा	-1131
सम्बन्धी	-1132
▁तपाईँको	-1133
▁यरूशलेम	-1134
▁हामीलाई	-1135
कन	-1136
चा	-1137
जि	-1138
टो	-1139
ढा	-1140
भो	-1141
सो	-1142
ूत	-1143
जात	-1144
रिद	-1145
रोध	-1146
ारो	-1147
▁कम	-1148
▁ची	-1149
▁छु	-1150
▁प्	-1151
नेछु	-1152
म्मा	-1153
ल्लो	-1154
▁अति	-1155
▁दिइ	-1156
▁नाप	-1157
▁पत्	-1158
▁बार	-1159
▁बाह	-1160
▁मर्	-1161
▁योग	-1162
▁स्थ	-1163
दर्शन	-1164
पर्ने	-1165
ारम्भ	-1166
▁अधिक	-1167
▁आएको	-1168
▁मन्द	-1169
▁यसरी	-1170
▁श्री	-1171
▁संशो	-1172
▁समेत	-1173
▁आज्ञा	-1174
▁प्रचल	-1175
▁प्राथ	-1176
▁मुख्य	-1177
▁समयमा	-1178
▁अनुमान	-1179
▁निवेदन	-1180
▁पदार्थ	-1181
▁मुद्दा	-1182
▁विद्यु	-1183
▁निर्देश	-1184
▁प्रविधि	-1185
▁प्रारम्भ	-1186
▁सम्पत्ति	-1187
▁प्रतिवेदन	-1188
▁प्रमाणपत्र	-1189
▁मूल्याङ्कन	-1190
▁प्रयोगकर्ता	-1191
यर	-1192
सर	-1193
▁८	-1194
एमा	-1195
लमा	-1196
वलो	-1197
ामा	-1198
िएर	-1199
ेरी	-1200
▁एव	-1201
▁गो	-1202
▁चु	-1203
▁दो	-1204
▁यि	-1205
▁हर	-1206
त्री	-1207
नीको	-1208
वारी	-1209
▁आत्	-1210
▁काठ	-1211
▁चाँ	-1212
▁चीज	-1213
▁तीन	-1214
▁तुल	-1215
▁निय	-1216
▁पाइ	-1217
▁ल्य	-1218
▁सजा	-1219
▁अगमव	-1220
▁असफल	-1221
▁ढाँच	-1222
▁धितो	-1223
▁नजिक	-1224
▁फेरि	-1225
▁अदालत	-1226
▁किसिम	-1227
▁त्यही	-1228
▁प्रेम	-1229
▁अध्ययन	-1230
▁कागजात	-1231
▁गराउने	-1232
▁निर्णय	-1233
▁प्रवेश	-1234
▁विदेशी	-1235
ाउनुहोस्	-1236
▁कर्तव्य	-1237
▁कारोबार	-1238
▁मानिसले	-1239
▁व्यापार	-1240
▁प्राथमिक	-1241
पि	-1242
फि	-1243
मू	-1244
मे	-1245
ृह	-1246
ैठ	-1247
चना	-1248
ठित	-1249
डान	-1250
द्र	-1251
बलि	-1252
ालक	-1253
ेगा	-1254
▁चौ	-1255
▁पद	-1256
▁भइ	-1257
▁भे	-1258
▁मौ	-1259
▁वै	-1260
▁शै	-1261
▁हट	-1262
▁१०	-1263
▁११	-1264
निर्	-1265
ल्यै	-1266
▁कति	-1267
▁कृष	-1268
▁परा	-1269
▁रोज	-1270
▁वटा	-1271
▁शब्	-1272
▁शास	-1273
▁साम	-1274
▁सुन	-1275
क्रमण	-1276
र्षिक	-1277
ेगाना	-1278
▁उच्च	-1279
▁उनले	-1280
▁कायम	-1281
▁गरेर	-1282
▁नीति	-1283
▁पत्र	-1284
▁पर्य	-1285
▁बोल्	-1286
▁मूर्	-1287
▁मेरा	-1288
▁ल्या	-1289
▁वर्ग	-1290
▁सक्छ	-1291
▁साँच	-1292
▁साथै	-1293
▁सार्	-1294
क्रिया	-1295
न्त्रण	-1296
▁उसलाई	-1297
▁एकजना	-1298
▁खोल्न	-1299
▁गरेमा	-1300
▁दुष्ट	-1301
▁नियमा	-1302
▁मन्दि	-1303
▁शत्रु	-1304
▁स्रोत	-1305
▁अवस्था	-1306
▁ठेगाना	-1307
▁अनुसन्ध	-1308
▁तोकिएको	-1309
▁देखिन्छ	-1310
▁प्रचलित	-1311
▁निर्धारण	-1312
ऋण	-1313
तम	-1314
पो	-1315
बो	-1316
वै	-1317
ुक	-1318
▁ओ	-1319
दिए	-1320
मता	-1321
मती	-1322
मीण	-1323
यात	-1324
वटा	-1325
०००	-1326
▁अझ	-1327
▁आँ	-1328
▁ऋण	-1329
▁गा	-1330
▁छौ	-1331
▁थि	-1332
▁दृ	-1333
▁धा	-1334
▁पि	-1335
▁बे	-1336
▁वन	-1337
तर्फ	-1338
पर्क	-1339
लग्न	-1340
वाला	-1341
स्तर	-1342
ैयाँ	-1343
ोल्ड	-1344
▁उपा	-1345
▁कोष	-1346
▁देव	-1347
▁परी	-1348
▁पाल	-1349
▁माग	-1350
▁मेट	-1351
▁रूप	-1352
▁समु	-1353
खास्त	-1354
धारित	-1355
र्थना	-1356
ुट्टा	-1357
▁खरिद	-1358
▁जारी	-1359
▁जीवन	-1360
▁परिच	-1361
▁लिने	-1362
▁होस्	-1363
▁कसैले	-1364
▁कानून	-1365
▁न्याय	-1366
▁बाहेक	-1367
▁सम्झौ	-1368
▁उहाँको	-1369
▁क्षमता	-1370
▁बारेमा	-1371
▁संशोधन	-1372
विद्यालय	-1373
▁आपूर्ति	-1374
▁ग्रामीण	-1375
▁जानकारी	-1376
▁प्रणाली	-1377
▁संरक्षण	-1378
▁नियमावली	-1379
▁अनुसन्धान	-1380
▁प्रार्थना	-1381
चन	-1382
ठा	-1383
ण्ट	-1384
तिर	-1385
थवा	-1386
निज	-1387
माड	-1388
षित	-1389
हान	-1390
▁अन	-1391
▁औष	-1392
▁घट	-1393
▁टा	-1394
▁नव	-1395
▁यु	-1396
▁१९	-1397
क्षक	-1398
त्या	-1399
नेको	-1400
योजन	-1401
रुवा	-1402
स्या	-1403
▁...	-1404
▁एवं	-1405
▁कहि	-1406
▁खेत	-1407
▁गठन	-1408
▁पृथ	-1409
▁बलि	-1410
▁मान	-1411
▁मेल	-1412
▁सङ्	-1413
▁सात	-1414
तावरण	-1415
वलोकन	-1416
▁अथवा	-1417
▁अर्थ	-1418
▁कम्प	-1419
▁खनिज	-1420
▁खाली	-1421
▁छोरी	-1422
▁जडान	-1423
▁पाँच	-1424
▁पारि	-1425
▁पुनः	-1426
▁भनेर	-1427
▁सचिव	-1428
▁सहित	-1429
▁सीमा	-1430
▁सेना	-1431
नुभएको	-1432
▁आत्मा	-1433
▁गरियो	-1434
▁गर्छु	-1435
▁तालिम	-1436
▁तोकिए	-1437
▁न्यून	-1438
▁बनाउँ	-1439
▁भन्नु	-1440
▁यसलाई	-1441
▁लगानी	-1442
▁समक्ष	-1443
▁हालको	-1444
▁अवधिमा	-1445
▁गर्नका	-1446
▁परिवार	-1447
▁पूर्वा	-1448
▁प्रावि	-1449
▁विषयमा	-1450
▁वृद्धि	-1451
▁संलग्न	-1452
▁दरखास्त	-1453
▁नियुक्त	-1454
▁येशूलाई	-1455
▁लेखिएको	-1456
▁वातावरण	-1457
▁विद्युत	-1458
▁सकिँदैन	-1459
▁सम्पर्क	-1460
▁अगमवक्ता	-1461
▁सम्पूर्ण	-1462
▁तिमीहरूको	-1463
▁राष्ट्रिय	-1464
▁मानिसहरूको	-1465
▁व्यक्तिलाई	-1466
मै	-1467
वज	-1468
िङ	-1469
▁्	-1470
खित	-1471
चित	-1472
ञ्झ	-1473
तिक	-1474
द्द	-1475
पया	-1476
पाद	-1477
मले	-1478
योज	-1479
राब	-1480
रोड	-1481
लाक	-1482
वाट	-1483
ोक्	-1484
▁खो	-1485
▁टे	-1486
▁पो	-1487
▁भर	-1488
▁भु	-1489
▁लै	-1490
तिको	-1491
न्दु	-1492
सुकै	-1493
ाइरे	-1494
▁असल	-1495
▁अस्	-1496
▁आउँ	-1497
▁इन्	-1498
▁कन्	-1499
▁क्य	-1500
▁पुग	-1501
▁बता	-1502
▁बाँ	-1503
▁भएर	-1504
▁माल	-1505
▁लिई	-1506
▁वरि	-1507
▁स्प	-1508
क्षित	-1509
च्छेद	-1510
ताहरू	-1511
नीहरू	-1512
▁ऐनको	-1513
▁औषधि	-1514
▁करोड	-1515
▁कृषि	-1516
▁क्या	-1517
▁क्रम	-1518
▁चेला	-1519
▁नष्ट	-1520
▁निजी	-1521
▁पक्ष	-1522
▁लागू	-1523
▁सजाय	-1524
▁सामा	-1525
प्रयोग	-1526
▁निश्च	-1527
▁पहिलो	-1528
▁पाउने	-1529
▁पृथ्व	-1530
▁प्रभु	-1531
▁फोल्ड	-1532
▁बनाउन	-1533
▁महिला	-1534
▁मालिक	-1535
▁समर्थ	-1536
▁हस्ता	-1537
ञ्झ्याल	-1538
▁काठमाड	-1539
▁गर्नुभ	-1540
▁त्यसको	-1541
▁नवीकरण	-1542
▁सहायता	-1543
▁स्त्री	-1544
▁तिनीहरु	-1545
▁योजनामा	-1546
▁वार्षिक	-1547
▁विस्तार	-1548
▁सम्पादन	-1549
▁सरकारको	-1550
▁क्षेत्रको	-1551
▁तिनीहरूका	-1552
▁नियन्त्रण	-1553
▁प्रक्रिया	-1554
▁प्राविधिक	-1555
▁व्यवस्थापन	-1556
▁सक्नुहुन्छ	-1557
▁विश्वविद्यालय	-1558
यक	-1559
यत	-1560
वत	-1561
व्	-1562
हे	-1563
ीत	-1564
▁:	-1565
▁t	-1566
इन्	-1567
कल्	-1568
बुझ	-1569
रका	-1570
ारि	-1571
▁अप	-1572
▁उठ	-1573
▁चढ	-1574
▁ढु	-1575
▁भई	-1576
▁मृ	-1577
▁यू	-1578
अन्त	-1579
तिमी	-1580
थ्यो	-1581
दिनु	-1582
नामा	-1583
नेछौ	-1584
न्छु	-1585
न्नु	-1586
▁आफू	-1587
▁गुण	-1588
▁छवि	-1589
▁नहु	-1590
▁पाउ	-1591
▁याक	-1592
▁लाई	-1593
▁सँग	-1594
▁सही	-1595
▁स्ट	-1596
▁स्त	-1597
▁२०१	-1598
जामती	-1599
मध्ये	-1600
मित्त	-1601
लेमान	-1602
वस्तु	-1603
▁आउने	-1604
▁आएका	-1605
▁घरमा	-1606
▁जहाँ	-1607
▁ट्या	-1608
▁दण्ड	-1609
▁पालन	-1610
▁पावल	-1611
▁पुरा	-1612
▁प्रो	-1613
▁बैठक	-1614
▁रोक्	-1615
▁लैजा	-1616
▁शब्द	-1617
▁सङ्क	-1618
▁सत्य	-1619
▁साना	-1620
▁सिका	-1621
▁सूची	-1622
भोक्ता	-1623
योजनको	-1624
▁अक्षम	-1625
▁अगुवा	-1626
▁उत्तर	-1627
▁कृपया	-1628
▁पर्दछ	-1629
▁पहिले	-1630
▁माध्य	-1631
▁राज्य	-1632
▁वास्त	-1633
▁सवारी	-1634
▁सैनिक	-1635
▁हुलाक	-1636
ाइरेक्ट	-1637
▁आक्रमण	-1638
▁कारणले	-1639
▁राजस्व	-1640
▁राजाले	-1641
▁वरिपरि	-1642
▁संख्या	-1643
▁समस्या	-1644
▁सरकारी	-1645
▁हाम्रो	-1646
▁हुँदैन	-1647
▁कहिल्यै	-1648
▁जुनसुकै	-1649
▁तपाईंको	-1650
▁दिनुभयो	-1651
▁देहायका	-1652
▁निमित्त	-1653
▁मानिसको	-1654
▁सम्झौता	-1655
▁सुलेमान	-1656
▁अन्तर्गत	-1657
▁सञ्झ्याल	-1658
▁तिमीहरूका	-1659
▁कर्मचारीको	-1660
▁गर्नुहुन्छ	-1661
?”	-1662
बि	-1663
बी	-1664
से	-1665
ाई	-1666
१२	-1667
ग्र	-1668
बेल	-1669
मका	-1670
रिक	-1671
वार	-1672
हुँ	-1673
िमो	-1674
्रय	-1675
▁गण	-1676
▁छन	-1677
▁छल	-1678
▁डि	-1679
▁पछ	-1680
▁फो	-1681
▁बज	-1682
▁वे	-1683
▁१५	-1684
डियो	-1685
त्यु	-1686
पन्न	-1687
प्रा	-1688
र्खा	-1689
र्मि	-1690
समूह	-1691
▁आदि	-1692
▁खान	-1693
▁गल्	-1694
▁नरा	-1695
▁पशु	-1696
▁फिर	-1697
▁भत्	-1698
▁भेट	-1699
▁भोज	-1700
▁यहो	-1701
▁रोग	-1702
▁लोड	-1703
▁साँ	-1704
▁सुद	-1705
▁२०२	-1706
▁२०४	-1707
वजनिक	-1708
सकेको	-1709
▁आँखा	-1710
▁उक्त	-1711
▁उनको	-1712
▁किलो	-1713
▁खोजी	-1714
▁जन्म	-1715
▁जलवि	-1716
▁पानी	-1717
▁पिता	-1718
▁बनाए	-1719
▁बेला	-1720
▁म्या	-1721
▁राखी	-1722
▁लिएर	-1723
▁लिनु	-1724
▁साधन	-1725
▁स्तर	-1726
▁अब्रा	-1727
▁उनलाई	-1728
▁उपकरण	-1729
▁जम्मा	-1730
▁जान्द	-1731
▁दस्तु	-1732
▁देशमा	-1733
▁नभएको	-1734
▁पत्नी	-1735
▁परेको	-1736
▁पर्वत	-1737
▁योग्य	-1738
▁सक्षम	-1739
▁सर्भर	-1740
▁हुँदा	-1741
ष्टि्रय	-1742
▁अधिकृत	-1743
▁आधारित	-1744
▁औद्योग	-1745
▁गरिएका	-1746
▁गर्छन्	-1747
▁ठाउँमा	-1748
▁त्यसले	-1749
▁फिर्ता	-1750
▁भूमिमा	-1751
▁मृत्यु	-1752
▁शहरहरू	-1753
▁साँच्च	-1754
▁हाम्रा	-1755
अन्तर्गत	-1756
▁उपयुक्त	-1757
▁निजामती	-1758
▁यहूदाका	-1759
▁समितिले	-1760
▁स्वीकृत	-1761
▁हुनेछन्	-1762
ाइरेक्टरी	-1763
▁काठमाडौं	-1764
▁जलविद्यु	-1765
▁प्रदर्शन	-1766
▁प्रयोजनको	-1767
▁राष्टि्रय	-1768
▁डाइरेक्टरी	-1769
कल	-1770
टि	-1771
डो	-1772
पण	-1773
पी	-1774
भू	-1775
मत	-1776
शः	-1777
शि	-1778
श्	-1779
हण	-1780
ाा	-1781
िन	-1782
ुस	-1783
ृद	-1784
कूल	-1785
र्स	-1786
लाइ	-1787
ल्ट	-1788
वाह	-1789
व्ध	-1790
सुफ	-1791
ालो	-1792
ित्	-1793
▁गि	-1794
▁गै	-1795
▁झू	-1796
▁भि	-1797
▁मन	-1798
▁१२	-1799
कल्प	-1800
कासी	-1801
गरिक	-1802
ध्या	-1803
पयोग	-1804
प्ति	-1805
स्कट	-1806
हामी	-1807
ारमा	-1808
▁अरु	-1809
▁कम्	-1810
▁खेल	-1811
▁जवा	-1812
▁झैं	-1813
▁ध्व	-1814
▁बीच	-1815
▁बेत	-1816
▁मना	-1817
▁रहे	-1818
▁सिफ	-1819
▁हृद	-1820
कृतिक	-1821
रूद्ध	-1822
शक्ति	-1823
▁इन्ट	-1824
▁छलफल	-1825
▁दुवै	-1826
▁फर्क	-1827
▁फिरऊ	-1828
▁यसले	-1829
▁रोटी	-1830
▁लुगा	-1831
▁लेवी	-1832
▁हरेक	-1833
ियोजना	-1834
▁कन्फि	-1835
▁कारबा	-1836
▁निम्न	-1837
▁पृष्ठ	-1838
▁बोर्ड	-1839
▁महत्व	-1840
▁याकूब	-1841
▁यूसुफ	-1842
▁सेटिङ	-1843
▁हुँदै	-1844
▁अन्त्य	-1845
▁उपलव्ध	-1846
▁क्रमशः	-1847
▁डेस्कट	-1848
▁दस्तुर	-1849
▁दृष्टि	-1850
▁नगर्ने	-1851
▁नागरिक	-1852
▁लाग्ने	-1853
▁वर्षमा	-1854
▁समाप्त	-1855
▁स्वर्ग	-1856
▁अवस्थित	-1857
▁किलोवाट	-1858
▁योजनाको	-1859
▁राजपत्र	-1860
▁रुपैयाँ	-1861
▁विभागले	-1862
▁विरूद्ध	-1863
▁आवश्यकता	-1864
▁परियोजना	-1865
▁अनुप्रयोग	-1866
▁क्षेत्रका	-1867
▁सार्वजनिक	-1868
▁पार्नुहोस्	-1869
▁हस्तान्तरण	-1870
,–	-1871
ःख	-1872
खत	-1873
पू	-1874
ौट	-1875
क्स	-1876
जमा	-1877
तिम	-1878
दार	-1879
माई	-1880
याह	-1881
यिक	-1882
राध	-1883
र्म	-1884
हास	-1885
ोका	-1886
▁आज	-1887
▁आय	-1888
▁छे	-1889
▁पढ	-1890
▁पी	-1891
▁फल	-1892
▁सध	-1893
▁१३	-1894
ग्ने	-1895
ग्री	-1896
ताले	-1897
तिका	-1898
द्या	-1899
द्रा	-1900
न्छौ	-1901
भूमि	-1902
मानि	-1903
मूएल	-1904
र्फत	-1905
विधि	-1906
शाली	-1907
ाउँछ	-1908
िएमा	-1909
ित्त	-1910
ियाह	-1911
ेनन्	-1912
▁उपर	-1913
▁कैद	-1914
▁गृह	-1915
▁छौं	-1916
▁जमी	-1917
▁जहा	-1918
▁तर्	-1919
▁बाल	-1920
▁भर्	-1921
▁यसै	-1922
▁लिन	-1923
▁संघ	-1924
▁सन्	-1925
▁सभा	-1926
▁सिं	-1927
▁सोध	-1928
▁हार	-1929
▁हाल	-1930
▁२०६	-1931
कार्य	-1932
क्रिय	-1933
दिष्ट	-1934
दैनन्	-1935
धिकरण	-1936
रुपमा	-1937
▁अत्य	-1938
▁आन्त	-1939
▁उपाय	-1940
▁कसूर	-1941
▁कानु	-1942
▁कोही	-1943
▁खाने	-1944
▁खारे	-1945
▁छोरो	-1946
▁जनसं	-1947
▁जवाफ	-1948
▁जाने	-1949
▁तर्फ	-1950
▁थाले	-1951
▁थिएँ	-1952
▁दरले	-1953
▁देखे	-1954
▁निरी	-1955
▁पर्ख	-1956
▁बराब	-1957
▁मध्य	-1958
▁महान	-1959
▁रेखा	-1960
▁रोजग	-1961
▁लेखा	-1962
▁सर्व	-1963
▁सानो	-1964
▁हृदय	-1965
तन्त्र	-1966
▁कारवा	-1967
▁परिभा	-1968
▁पूर्ण	-1969
▁बाबेल	-1970
▁भएपछि	-1971
▁महिना	-1972
▁मार्ग	-1973
▁यस्ता	-1974
▁युद्ध	-1975
▁रहेका	-1976
▁राख्न	-1977
▁विमान	-1978
▁शमूएल	-1979
▁सुन्द	-1980
नुहुनेछ	-1981
▁अनुरोध	-1982
▁अन्तिम	-1983
▁कम्पनी	-1984
▁खुट्टा	-1985
▁दाऊदले	-1986
▁निकासी	-1987
▁प्रशास	-1988
▁बनाउने	-1989
▁माध्यम	-1990
▁राखेको	-1991
▁राख्नु	-1992
▁विकल्प	-1993
▁समुद्र	-1994
▁सिफारि	-1995
▁हेर्ने	-1996
▁आन्तरिक	-1997
▁कारबाही	-1998
▁जग्गाको	-1999
▁जनशक्ति	-2000
▁ढाँचामा	-2001
▁निश्चित	-2002
▁मूल्यमा	-2003
▁सङ्ख्या	-2004
▁सुरक्षा	-2005
निर्धारित	-2006
▁उपभोक्ता	-2007
▁औद्योगिक	-2008
▁जनसंख्या	-2009
▁परिच्छेद	-2010
▁प्रविष्ट	-2011
▁व्यवसायी	-2012
▁संस्थाको	-2013
▁अधिकारीले	-2014
▁कार्यविधि	-2015
▁प्राकृतिक	-2016
▁शक्तिशाली	-2017
▁प्रमाणीकरण	-2018
▁प्राथमिकता	-2019
▁कार्यक्रमको	-2020
▁देखाउनुहोस्	-2021
▁परमेश्वरलाई	-2022
▁पूर्वनिर्धारित	-2023
ंग	-2024
खु	-2025
जर	-2026
ट्	-2027
डे	-2028
थो	-2029
मय	-2030
लत	-2031
लु	-2032
वक	-2033
वृ	-2034
षण	-2035
हू	-2036
ृढ	-2037
ोट	-2038
्ञ	-2039
।'	-2040
▁‘	-2041
उँछ	-2042
कका	-2043
चाइ	-2044
जित	-2045
न्ह	-2046
परम	-2047
परी	-2048
पित	-2049
प्ट	-2050
मेर	-2051
यदि	-2052
वास	-2053
विध	-2054
वेद	-2055
वेश	-2056
श्त	-2057
समा	-2058
साव	-2059
हार	-2060
ाटा	-2061
ियौ	-2062
ीको	-2063
्रम	-2064
▁आई	-2065
▁चे	-2066
▁जै	-2067
▁डो	-2068
▁दश	-2069
▁दू	-2070
▁नब	-2071
▁पच	-2072
▁बल	-2073
▁मत	-2074
क्नु	-2075
ङ्गा	-2076
ज्यू	-2077
द्दत	-2078
न्ती	-2079
लामा	-2080
ल्ने	-2081
वर्ष	-2082
ालमा	-2083
ालित	-2084
िताब	-2085
ित्व	-2086
ूहन्	-2087
▁अंश	-2088
▁अझै	-2089
▁अधी	-2090
▁क्व	-2091
▁खडा	-2092
▁खास	-2093
▁चला	-2094
▁जोड	-2095
▁ज्ञ	-2096
▁डरा	-2097
▁तत्	-2098
▁तेल	-2099
▁देऊ	-2100
▁पैठ	-2101
▁बुझ	-2102
▁भनि	-2103
▁भाइ	-2104
▁मनो	-2105
▁मोड	-2106
▁यसो	-2107
▁रही	-2108
▁हिं	-2109
▁२०७	-2110
नुसार	-2111
रिक्त	-2112
ीकृति	-2113
▁अन्ध	-2114
▁अभाव	-2115
▁आएमा	-2116
▁ऐनमा	-2117
▁करार	-2118
▁कष्ट	-2119
▁कसरी	-2120
▁कहाँ	-2121
▁खुशी	-2122
▁थाहा	-2123
▁दुःख	-2124
▁देख्	-2125
▁भन्द	-2126
▁रहने	-2127
▁लामो	-2128
▁विनि	-2129
▁शासन	-2130
▁सारा	-2131
स्थायी	-2132
हरुबाट	-2133
हरूबाट	-2134
▁अध्या	-2135
▁अनुभव	-2136
▁किताब	-2137
▁खाद्य	-2138
▁गर्यौ	-2139
▁जस्ता	-2140
▁तुल्य	-2141
▁देशको	-2142
▁बस्ने	-2143
▁मद्दत	-2144
▁रहनेछ	-2145
▁शहरमा	-2146
▁शुद्ध	-2147
▁संसार	-2148
▁संस्क	-2149
▁सक्छौ	-2150
▁सुदृढ	-2151
▁हेर्न	-2152
राष्ट्र	-2153
ारेक्टर	-2154
्नुहोस्	-2155
▁अभिलेख	-2156
▁आधारमा	-2157
▁उल्लेख	-2158
▁खाद्या	-2159
▁चीजहरू	-2160
▁तिनलाई	-2161
▁तिम्रा	-2162
▁तोकेको	-2163
▁त्यसरी	-2164
▁द्वारा	-2165
▁न्याया	-2166
▁पैठारी	-2167
▁प्रचार	-2168
▁फोल्डर	-2169
▁बिन्दु	-2170
▁बुद्धि	-2171
▁भुक्ता	-2172
▁मार्फत	-2173
▁राम्रो	-2174
▁समावेश	-2175
▁सम्भाव	-2176
▁स्थिति	-2177
▁स्पष्ट	-2178
र्नुहोस्	-2179
▁अस्थायी	-2180
▁उत्पन्न	-2181
▁कन्फिगर	-2182
▁कुलसमूह	-2183
▁डेस्कटप	-2184
▁नराम्रो	-2185
▁परीक्षण	-2186
▁प्रकृति	-2187
▁प्रतिनि	-2188
▁समितिमा	-2189
▁हुन्छन्	-2190
▁अतिरिक्त	-2191
▁गरिरहेका	-2192
▁गर्नेछन्	-2193
▁दिनुहोस्	-2194
▁धितोपत्र	-2195
▁पर्वतारो	-2196
▁प्रकाशित	-2197
▁प्रतिष्ठ	-2198
▁बमोजिमका	-2199
▁मानिसलाई	-2200
▁विमानस्थ	-2201
▁विशेषज्ञ	-2202
▁शिक्षाको	-2203
▁सुरक्षित	-2204
▁हुनुपर्छ	-2205
▁गर्नुपर्छ	-2206
▁निर्दिष्ट	-2207
▁कार्यालयको	-2208
▁जलविद्युत्	-2209
▁पुनरावलोकन	-2210
▁महत्वपूर्ण	-2211
▁मानिसहरूका	-2212
▁पूजाहारीहरू	-2213
▁पूजाहारीहरूले	-2214
in	-2215
आब	-2216
उस	-2217
टर	-2218
टै	-2219
दर	-2220
पय	-2221
बल	-2222
यल	-2223
य्	-2224
रक	-2225
वन	-2226
१०	-2227
क्क	-2228
ड्ढ	-2229
तया	-2230
तला	-2231
न्ज	-2232
न्व	-2233
न्स	-2234
ब्र	-2235
यौं	-2236
राई	-2237
रीय	-2238
रुप	-2239
र्ट	-2240
र्ण	-2241
र्भ	-2242
र्‍	-2243
लले	-2244
लाम	-2245
श्व	-2246
ष्य	-2247
सको	-2248
ाँउ	-2249
िने	-2250
ेसन	-2251
ैको	-2252
▁--	-2253
▁आउ	-2254
▁घो	-2255
▁चल	-2256
▁डर	-2257
▁डल	-2258
▁तथ	-2259
▁थु	-2260
▁धर	-2261
▁फै	-2262
▁भौ	-2263
▁सड	-2264
▁१७	-2265
इएको	-2266
जुमा	-2267
ट्टी	-2268
तीमा	-2269
त्रा	-2270
दाको	-2271
नाको	-2272
पानी	-2273
प्ता	-2274
मर्श	-2275
हिने	-2276
ेरित	-2277
ैलाई	-2278
्रिङ	-2279
▁अगा	-2280
▁उदा	-2281
▁कमा	-2282
▁काँ	-2283
▁गैर	-2284
▁छुट	-2285
▁तिर	-2286
▁दाख	-2287
▁दुइ	-2288
▁नदी	-2289
▁पलि	-2290
▁पाए	-2291
▁बोल	-2292
▁यही	-2293
▁रात	-2294
▁शाऊ	-2295
▁१००	-2296
▁२०३	-2297
ज्ञिक	-2298
धिकार	-2299
पर्दछ	-2300
राज्य	-2301
र्मिक	-2302
लिखित	-2303
स्त्र	-2304
ाइएको	-2305
ाइनेछ	-2306
ेस्रो	-2307
▁अपना	-2308
▁एउटै	-2309
▁खानी	-2310
▁घटना	-2311
▁चारै	-2312
▁जहाज	-2313
▁ज्या	-2314
▁टाढा	-2315
▁तोक्	-2316
▁थिएन	-2317
▁थियौ	-2318
▁पचास	-2319
▁पढ्न	-2320
▁पुस्	-2321
▁प्रस	-2322
▁भन्छ	-2323
▁यसमा	-2324
▁याता	-2325
▁शिमो	-2326
▁शुरु	-2327
▁हकमा	-2328
सम्मको	-2329
▁इन्टर	-2330
▁कतिपय	-2331
▁कहिले	-2332
▁क्लिक	-2333
▁छैनन्	-2334
▁जन्मा	-2335
▁जैविक	-2336
▁ढाँचा	-2337
▁तुलना	-2338
▁देख्न	-2339
▁दैनिक	-2340
▁निस्क	-2341
▁पत्रु	-2342
▁पुर्‍	-2343
▁फिरऊन	-2344
▁बराबर	-2345
▁बिहान	-2346
▁मर्मत	-2347
▁मूर्ख	-2348
▁यसैले	-2349
▁यूहन्	-2350
▁रक्षा	-2351
▁विविध	-2352
▁सकिने	-2353
▁सक्छु	-2354
▁सक्नु	-2355
▁सबैले	-2356
र्याप्त	-2357
▁अधीनमा	-2358
▁उत्पाद	-2359
▁कुराको	-2360
▁परिमाण	-2361
▁पलिश्त	-2362
▁पुर्या	-2363
▁पृथ्वी	-2364
▁प्रधान	-2365
▁बनाउनु	-2366
▁भएकोमा	-2367
▁मन्दिर	-2368
▁मानिने	-2369
▁मितिले	-2370
▁यन्त्र	-2371
▁येशूको	-2372
▁वर्षको	-2373
▁सङ्केत	-2374
▁समर्थन	-2375
▁सम्मान	-2376
▁गर्नेछु	-2377
▁छोराहरू	-2378
▁जाँचबुझ	-2379
▁तर्जुमा	-2380
▁देहायको	-2381
▁धार्मिक	-2382
▁परामर्श	-2383
▁परिचालन	-2384
▁प्रकाशन	-2385
▁प्रेरित	-2386
▁राखिएको	-2387
▁व्यवसाय	-2388
▁अवस्थामा	-2389
▁आयोजनाको	-2390
▁उल्लिखित	-2391
▁गर्नुभयो	-2392
▁तपाईंलाई	-2393
▁देवताहरू	-2394
▁पुस्तिका	-2395
▁भुक्तानी	-2396
▁माथिल्लो	-2397
▁मानिसहरु	-2398
▁वास्तविक	-2399
▁तिनीहरुले	-2400
▁पुनरावेदन	-2401
▁प्रतिज्ञा	-2402
▁उद्देश्यले	-2403
▁क्यारेक्टर	-2404
▁गर्नुपर्ने	-2405
▁चाहनुहुन्छ	-2406
▁प्रतिष्ठान	-2407
▁प्रभावकारी	-2408
▁भन्नुहुन्छ	-2409
),	-2410
आत	-2411
कू	-2412
ख्	-2413
गम	-2414
घट	-2415
घा	-2416
टु	-2417
धु	-2418
पे	-2419
रै	-2420
वट	-2421
वव	-2422
शे	-2423
हन	-2424
ीन	-2425
११	-2426
▁%	-2427
▁1	-2428
▁C	-2429
▁०	-2430
कुल	-2431
कोे	-2432
क्य	-2433
चान	-2434
छौं	-2435
जोर	-2436
डाई	-2437
तैन	-2438
दको	-2439
दिन	-2440
दैछ	-2441
नाम	-2442
पति	-2443
फेर	-2444
बास	-2445
भार	-2446
भूत	-2447
मूल	-2448
रहे	-2449
रूष	-2450
लेट	-2451
ल्क	-2452
साथ	-2453
सिल	-2454
सुल	-2455
हित	-2456
ारण	-2457
िकी	-2458
ौटी	-2459
▁अँ	-2460
▁आन	-2461
▁कठ	-2462
▁कल	-2463
▁घु	-2464
▁ठा	-2465
▁तु	-2466
▁धै	-2467
▁नप	-2468
▁पै	-2469
▁भन	-2470
▁भै	-2471
▁वी	-2472
▁शी	-2473
▁सू	-2474
▁सृ	-2475
▁२२	-2476
▁२५	-2477
कलाई	-2478
काको	-2479
कामा	-2480
क्ने	-2481
क्रि	-2482
ञ्चल	-2483
ट्टा	-2484
न्तै	-2485
मलाई	-2486
र्धन	-2487
र्नु	-2488
लिपि	-2489
लियन	-2490
ल्दै	-2491
श्चि	-2492
स्ती	-2493
स्रो	-2494
हुँच	-2495
ाहरू	-2496
िदिए	-2497
्यौं	-2498
▁आगो	-2499
▁आधु	-2500
▁आवा	-2501
▁एकद	-2502
▁एकै	-2503
▁एदो	-2504
▁एला	-2505
▁एली	-2506
▁जरि	-2507
▁दया	-2508
▁दाय	-2509
▁नभए	-2510
▁पटक	-2511
▁पस्	-2512
▁पहा	-2513
▁पास	-2514
▁फाइ	-2515
▁बटन	-2516
▁बसो	-2517
▁बहु	-2518
▁भरि	-2519
▁रोक	-2520
▁लाइ	-2521
▁लाख	-2522
▁वचन	-2523
▁वेश	-2524
▁साल	-2525
▁२०५	-2526
क्षिक	-2527
चालित	-2528
तलासी	-2529
तालाई	-2530
प्रति	-2531
ुट्टै	-2532
्यानल	-2533
▁अन्न	-2534
▁आयात	-2535
▁कैदी	-2536
▁गराउ	-2537
▁गरें	-2538
▁छनौट	-2539
▁जाति	-2540
▁जानु	-2541
▁ठूला	-2542
▁त्रि	-2543
▁धन्य	-2544
▁नापी	-2545
▁निष्	-2546
▁पञ्च	-2547
▁पर्न	-2548
▁प्या	-2549
▁फेला	-2550
▁बोसो	-2551
▁भाषा	-2552
▁राखे	-2553
▁लाग्	-2554
▁वेदी	-2555
▁शान्	-2556
▁शुरू	-2557
▁सधैं	-2558
▁सामु	-2559
▁सुन्	-2560
पालिका	-2561
बृद्धि	-2562
वृत्ति	-2563
श्रमिक	-2564
▁अस्पत	-2565
▁आइमाई	-2566
▁आनन्द	-2567
▁आफ्नी	-2568
▁उपचार	-2569
▁कोषको	-2570
▁खुलाई	-2571
▁गर्थे	-2572
▁ज्ञान	-2573
▁ट्याग	-2574
▁तथ्या	-2575
▁तिनका	-2576
▁दिनेछ	-2577
▁धरौटी	-2578
▁पहुँच	-2579
▁पार्न	-2580
▁पुरूष	-2581
▁प्रशि	-2582
▁बचाउन	-2583
▁भौतिक	-2584
▁म्याद	-2585
▁यहोया	-2586
▁व्याव	-2587
▁सुधार	-2588
राज्यका	-2589
▁अनुकूल	-2590
▁अन्तर्	-2591
▁आधुनिक	-2592
▁आयोगको	-2593
▁किल्ला	-2594
▁थिएनन्	-2595
▁दिइएको	-2596
▁देखेमा	-2597
▁नजिकको	-2598
▁नेपाली	-2599
▁पर्यटक	-2600
▁पर्यटन	-2601
▁फर्केर	-2602
▁बैंकले	-2603
▁बैठकमा	-2604
▁भेक्टर	-2605
▁मुद्रा	-2606
▁राजाको	-2607
▁रोजगार	-2608
▁विनियम	-2609
▁सकिदैन	-2610
▁सकिनेछ	-2611
▁सक्तैन	-2612
▁सीमाना	-2613
▁अन्यत्र	-2614
▁उहाँलाई	-2615
▁कार्यमा	-2616
▁तिमीहरु	-2617
▁त्यसलाई	-2618
▁देखाउने	-2619
▁निकायको	-2620
▁निकायमा	-2621
▁नियमहरू	-2622
▁प्रस्तु	-2623
▁बोलपत्र	-2624
▁मानिनेछ	-2625
▁यातायात	-2626
▁योजनाका	-2627
▁विकासमा	-2628
▁शैक्षिक	-2629
▁संस्करण	-2630
▁संस्थान	-2631
▁सम्पन्न	-2632
▁साँच्चै	-2633
▁सामग्री	-2634
▁सामान्य	-2635
▁सिफारिस	-2636
राष्ट्रिय	-2637
▁खानतलासी	-2638
▁निर्देशन	-2639
▁मिश्रदेश	-2640
▁वस्तुहरू	-2641
▁संस्थागत	-2642
▁सरकारबाट	-2643
▁स्वचालित	-2644
▁स्वीकृति	-2645
▁खाद्यान्न	-2646
▁प्रतिनिधि	-2647
▁प्रतिलिपि	-2648
▁प्राज्ञिक	-2649
▁यरूशलेममा	-2650
▁विमानस्थल	-2651
▁अधिराज्यका	-2652
▁कर्मचारीले	-2653
▁तिनीहरुलाई	-2654
▁परमप्रभुका	-2655
▁पारिश्रमिक	-2656
▁यहूदीहरूले	-2657
............	-2658
▁देहायबमोजिम	-2659
▁मन्त्रालयले	-2660
▁अन्तर्राष्ट्रिय	-2661
?"	-2662
AR	-2663
te	-2664
ंङ	-2665
उप	-2666
एन	-2667
कस	-2668
जू	-2669
जे	-2670
णी	-2671
तु	-2672
दद	-2673
नल	-2674
िि	-2675
ीी	-2676
ौच	-2677
ँजी	-2678
ओस्	-2679
डमा	-2680
दथे	-2681
दूत	-2682
देऊ	-2683
पोद	-2684
पोर	-2685
फाई	-2686
ममा	-2687
मार	-2688
मेल	-2689
म्र	-2690
रूप	-2691
लाग	-2692
वधि	-2693
वमा	-2694
स्ट	-2695
स्प	-2696
हाल	-2697
ाँट	-2698
िएन	-2699
िन्	-2700
ैया	-2701
ोरी	-2702
▁अभ	-2703
▁आए	-2704
▁की	-2705
▁खे	-2706
▁गइ	-2707
▁ढा	-2708
▁पे	-2709
▁मर	-2710
▁शू	-2711
▁सय	-2712
▁१४	-2713
▁२१	-2714
▁५०	-2715
कहरू	-2716
तपाई	-2717
नबाट	-2718
नेका	-2719
पक्ष	-2720
पाही	-2721
फाइल	-2722
म्बा	-2723
यमित	-2724
रिया	-2725
रिसी	-2726
शीर्	-2727
संगै	-2728
सचिव	-2729
स्तक	-2730
स्स्	-2731
ीकार	-2732
ैठौं	-2733
्यास	-2734
्युल	-2735
▁अम्	-2736
▁अल्	-2737
▁अवि	-2738
▁असर	-2739
▁आधा	-2740
▁आमा	-2741
▁आरो	-2742
▁आशा	-2743
▁एका	-2744
▁करि	-2745
▁कहा	-2746
▁गएर	-2747
▁गलत	-2748
▁गीत	-2749
▁चढा	-2750
▁छाड	-2751
▁जाऊ	-2752
▁टाइ	-2753
▁डलर	-2754
▁थाल	-2755
▁दास	-2756
▁दिई	-2757
▁द्व	-2758
▁नबू	-2759
▁नसक	-2760
▁बसे	-2761
▁मात	-2762
▁मार	-2763
▁लगत	-2764
▁वैध	-2765
▁संस	-2766
▁सफल	-2767
▁साझ	-2768
▁साध	-2769
कालाई	-2770
चित्र	-2771
मानिस	-2772
मित्व	-2773
रोधमा	-2774
सामान	-2775
सायिक	-2776
ुक्रा	-2777
ेक्षा	-2778
▁आकार	-2779
▁इमेल	-2780
▁उचित	-2781
▁क्रो	-2782
▁गएको	-2783
▁गराई	-2784
▁गराए	-2785
▁चेता	-2786
▁चौथो	-2787
▁छैनौ	-2788
▁छोड्	-2789
▁दुर्	-2790
▁नानी	-2791
▁निको	-2792
▁पाउँ	-2793
▁प्लग	-2794
▁प्ले	-2795
▁बजेट	-2796
▁बन्द	-2797
▁बाँच	-2798
▁बिना	-2799
▁भण्ड	-2800
▁भेडा	-2801
▁भोजन	-2802
▁माउस	-2803
▁मार्	-2804
▁यसका	-2805
▁रचना	-2806
▁रहेछ	-2807
▁लागत	-2808
▁लुका	-2809
▁वर्ण	-2810
▁शर्त	-2811
▁शहरी	-2812
▁शाखा	-2813
▁सङ्ग	-2814
▁सञ्ज	-2815
▁सर्भ	-2816
▁साँढ	-2817
▁सींङ	-2818
▁सोको	-2819
▁सोही	-2820
▁ह्या	-2821
द्र्धन	-2822
न्थ्यो	-2823
न्द्री	-2824
पुर्खा	-2825
भूमिमा	-2826
मेरिकी	-2827
र्गतको	-2828
स्थिति	-2829
▁अँध्य	-2830
▁अगाडि	-2831
▁अन्तर	-2832
▁अर्पण	-2833
▁आशीर्	-2834
▁कट्टी	-2835
▁कमजोर	-2836
▁खेतमा	-2837
▁गर्यो	-2838
▁चाँदी	-2839
▁चिन्ह	-2840
▁चिहान	-2841
▁ट्याब	-2842
▁तरवार	-2843
▁तरिका	-2844
▁त्यसै	-2845
▁थिइन्	-2846
▁दायाँ	-2847
▁दिइने	-2848
▁धैर्य	-2849
▁ध्यान	-2850
▁निजको	-2851
▁पञ्चा	-2852
▁पर्दा	-2853
▁पहिला	-2854
▁फरिसी	-2855
▁फर्का	-2856
▁बढीमा	-2857
▁बायाँ	-2858
▁बीचमा	-2859
▁बैङ्क	-2860
▁बोल्न	-2861
▁भत्का	-2862
▁भनेका	-2863
▁महिमा	-2864
▁मुद्र	-2865
▁रूपले	-2866
▁लिखित	-2867
▁लेख्न	-2868
▁शीर्ष	-2869
▁संगठन	-2870
▁समन्व	-2871
▁सरुवा	-2872
▁सहायक	-2873
▁हासिल	-2874
क्षेत्र	-2875
पाहीहरू	-2876
प्राप्त	-2877
व्यक्ति	-2878
▁अभियोग	-2879
▁कसैलाई	-2880
▁कामहरू	-2881
▁कुरामा	-2882
▁गराउनु	-2883
▁गरिन्छ	-2884
▁गर्दछु	-2885
▁गर्नको	-2886
▁जान्नु	-2887
▁ढुङ्गा	-2888
▁तेस्रो	-2889
▁निजलाई	-2890
▁पठाउने	-2891
▁पहिचान	-2892
▁पावलले	-2893
▁पुगेको	-2894
▁पुरानो	-2895
▁प्रसार	-2896
▁बैठकको	-2897
▁भएकोले	-2898
▁भन्सार	-2899
▁मूर्ति	-2900
▁यात्रा	-2901
▁विनिमय	-2902
▁शान्ति	-2903
▁सक्दैन	-2904
▁सक्रिय	-2905
▁सुरुआत	-2906
▁सूचीमा	-2907
▁हेक्टर	-2908
▁हेरफेर	-2909
परमप्रभु	-2910
▁अनियमित	-2911
▁अब्राहा	-2912
▁कम्तीमा	-2913
▁कारवाही	-2914
▁क्याम्प	-2915
▁गर्नेछौ	-2916
▁गुणस्तर	-2917
▁चेलाहरू	-2918
▁जान्दछौ	-2919
▁त्यस्ता	-2920
▁त्यस्तै	-2921
▁दायित्व	-2922
▁दिनसम्म	-2923
▁न्यूनतम	-2924
▁प्रतिमा	-2925
▁प्रत्या	-2926
▁प्रबन्ध	-2927
▁प्रभुको	-2928
▁भइरहेको	-2929
▁मोड्युल	-2930
▁यिनीहरू	-2931
▁ल्याउनु	-2932
▁विकासको	-2933
▁सन्दर्भ	-2934
▁सामाजिक	-2935
▁स्ट्रिङ	-2936
▁स्थानमा	-2937
▁स्वीकार	-2938
तिमीहरूले	-2939
▁अनुसारको	-2940
▁आज्ञाहरू	-2941
▁आशीर्वाद	-2942
▁गरिरहेको	-2943
▁दिनभित्र	-2944
▁परिषद्को	-2945
▁परिषद्ले	-2946
▁पर्याप्त	-2947
▁प्रकारको	-2948
▁मालवस्तु	-2949
▁संस्थाले	-2950
▁सम्भाव्य	-2951
▁अध्यक्षता	-2952
▁अवधिभित्र	-2953
▁इस्राएलको	-2954
▁इस्राएलमा	-2955
▁केन्द्रको	-2956
▁क्षेत्रीय	-2957
▁ख्रीष्टमा	-2958
▁नगरपालिका	-2959
▁निर्धारित	-2960
▁प्रतिस्था	-2961
▁राजपत्रमा	-2962
▁व्यक्तिको	-2963
▁व्यापारिक	-2964
▁सिपाहीहरू	-2965
▁स्वामित्व	-2966
▁अन्तर्गतको	-2967
▁कन्फिगरेसन	-2968
▁कार्यालयमा	-2969
▁परमेश्वरका	-2970
▁प्रारम्भिक	-2971
▁मार्गदर्शन	-2972
▁व्यावसायिक	-2973
▁परमप्रभुलाई	-2974
▁पूर्वावलोकन	-2975
▁मानिसहरूबाट	-2976
▁शत्रुहरूलाई	-2977
▁अनुमतिपत्रको	-2978
DM	-2979
अप	-2980
अब	-2981
कद	-2982
कृ	-2983
खे	-2984
गग	-2985
गु	-2986
गे	-2987
घन	-2988
छा	-2989
जो	-2990
ठी	-2991
डर	-2992
णत	-2993
तन	-2994
दू	-2995
पक	-2996
बे	-2997
यं	-2998
यस	-2999
वर	-3000
शू	-3001
सह	-3002
हक	-3003
हल	-3004
ैँ	-3005
ोस	-3006
्ठ	-3007
१५	-3008
१८	-3009
▁>	-3010
▁B	-3011
▁I	-3012
▁P	-3013
▁S	-3014
▁	-3015
▁	-3016
ंकन	-3017
ंदा	-3018
अनु	-3019
अर्	-3020
इने	-3021
घाट	-3022
चाह	-3023
जनक	-3024
टकट	-3025
डाइ	-3026
णाम	-3027
तीस	-3028
तोक	-3029
त्त	-3030
निय	-3031
नेट	-3032
नेर	-3033
पाट	-3034
पात	-3035
फिक	-3036
फेस	-3037
ब्य	-3038
ब्श	-3039
भाइ	-3040
य्य	-3041
लिन	-3042
लेर	-3043
विर	-3044
शास	-3045
शील	-3046
षणा	-3047
संर	-3048
साब	-3049
हले	-3050
हीन	-3051
हेर	-3052
िना	-3053
िला	-3054
ेटो	-3055
ेयर	-3056
ेलु	-3057
ौरा	-3058
▁अफ	-3059
▁आक	-3060
▁आठ	-3061
▁उभ	-3062
▁जू	-3063
▁झर	-3064
▁टि	-3065
▁तल	-3066
▁दी	-3067
▁धु	-3068
▁नं	-3069
▁भय	-3070
▁भी	-3071
▁भो	-3072
▁मी	-3073
▁मै	-3074
▁सग	-3075
▁सब	-3076
▁सौ	-3077
▁१६	-3078
▁२४	-3079
▁२९	-3080
कदने	-3081
छोरी	-3082
ट्टि	-3083
डेको	-3084
तामा	-3085
त्ता	-3086
त्सा	-3087
दायक	-3088
दारी	-3089
न्तु	-3090
प्रै	-3091
बद्ध	-3092
भवती	-3093
मूना	-3094
म्बर	-3095
रणमा	-3096
रोसा	-3097
र्का	-3098
र्जा	-3099
लिया	-3100
ल्नु	-3101
वधिक	-3102
सलाई	-3103
स्को	-3104
स्सर	-3105
हिनी	-3106
होरा	-3107
ासम्	-3108
्रमण	-3109
▁अशु	-3110
▁अही	-3111
▁आउन	-3112
▁आपू	-3113
▁कमी	-3114
▁करा	-3115
▁काट	-3116
▁गति	-3117
▁ग्य	-3118
▁चाड	-3119
▁चाल	-3120
▁छेउ	-3121
▁जति	-3122
▁टाँ	-3123
▁ठीक	-3124
▁तस्	-3125
▁थिई	-3126
▁थोक	-3127
▁दान	-3128
▁दोष	-3129
▁द्र	-3130
▁धनी	-3131
▁नका	-3132
▁नगद	-3133
▁नभई	-3134
▁पछा	-3135
▁बखत	-3136
▁बाइ	-3137
▁बात	-3138
▁बाद	-3139
▁बीउ	-3140
▁बृह	-3141
▁बेच	-3142
▁बोट	-3143
▁ब्य	-3144
▁भवि	-3145
▁भार	-3146
▁मरू	-3147
▁महा	-3148
▁याद	-3149
▁रजि	-3150
▁लाभ	-3151
▁लिए	-3152
▁विध	-3153
▁शरी	-3154
▁शोक	-3155
▁साइ	-3156
▁सित	-3157
▁स्म	-3158
▁होम	-3159
ट्टान	-3160
तियार	-3161
देशिक	-3162
नेछैन	-3163
न्तुल	-3164
प्लेट	-3165
योजना	-3166
य्यूब	-3167
राधना	-3168
रुद्ध	-3169
र्यात	-3170
र्याह	-3171
लदेखि	-3172
लिएको	-3173
ल्लाह	-3174
स्थान	-3175
ौचालय	-3176
▁अङ्क	-3177
▁अप्र	-3178
▁अब्श	-3179
▁आकाश	-3180
▁आवाज	-3181
▁इसहा	-3182
▁उनका	-3183
▁एपोद	-3184
▁एसाव	-3185
▁औजार	-3186
▁करिब	-3187
▁केवल	-3188
▁कोठा	-3189
▁खाना	-3190
▁खुला	-3191
▁खेला	-3192
▁गठित	-3193
▁गणना	-3194
▁जसको	-3195
▁जसरी	-3196
▁झूटो	-3197
▁टाइप	-3198
▁ठाँउ	-3199
▁डाटा	-3200
▁तराई	-3201
▁तहको	-3202
▁तारा	-3203
▁दक्ष	-3204
▁दर्श	-3205
▁दिएँ	-3206
▁दियो	-3207
▁दिशा	-3208
▁नदेख	-3209
▁नोक्	-3210
▁पठाए	-3211
▁फन्ट	-3212
▁फर्म	-3213
▁फारा	-3214
▁बढेर	-3215
▁बाधा	-3216
▁बापत	-3217
▁बाबु	-3218
▁बालक	-3219
▁बाली	-3220
▁बिगो	-3221
▁बोला	-3222
▁ब्या	-3223
▁भेला	-3224
▁मानव	-3225
▁मारि	-3226
▁मुलु	-3227
▁मेनु	-3228
▁मोआब	-3229
▁यिनी	-3230
▁रहनु	-3231
▁लगाए	-3232
▁लाइन	-3233
▁लागे	-3234
▁विना	-3235
▁समान	-3236
▁स्थग	-3237
▁हानि	-3238
▁२०१७	-3239
▁२०१८	-3240
▁२०६६	-3241
क्षकले	-3242
धिकारी	-3243
नाङ्कन	-3244
पूर्वक	-3245
मन्त्र	-3246
र्मिनल	-3247
र्मिया	-3248
वृद्धि	-3249
सम्ममा	-3250
स्तरमा	-3251
हामीले	-3252
ाउँछन्	-3253
▁अपराध	-3254
▁आफन्त	-3255
▁इन्जि	-3256
▁उपत्य	-3257
▁एप्रै	-3258
▁क्रोध	-3259
▁खारेज	-3260
▁गरिनु	-3261
▁गरिरह	-3262
▁घोषणा	-3263
▁चाँहि	-3264
▁चित्त	-3265
▁छैठौं	-3266
▁जसलाई	-3267
▁जीवित	-3268
▁तिनको	-3269
▁दिएका	-3270
▁दिनमा	-3271
▁दिन्छ	-3272
▁देखिन	-3273
▁देशका	-3274
▁ध्वंश	-3275
▁नहुने	-3276
▁नाममा	-3277
▁निजले	-3278
▁निस्त	-3279
▁परिणत	-3280
▁पहाडी	-3281
▁पुत्र	-3282
▁पुर्य	-3283
▁प्राय	-3284
▁फिल्ट	-3285
▁बढुवा	-3286
▁बनेको	-3287
▁बलियो	-3288
▁बहिनी	-3289
▁भत्ता	-3290
▁भनिन्	-3291
▁भरोसा	-3292
▁भ्रमण	-3293
▁महसुल	-3294
▁मान्य	-3295
▁मित्र	-3296
▁मुक्त	-3297
▁मेट्न	-3298
▁यस्तै	-3299
▁रिक्त	-3300
▁लिलाम	-3301
▁लैजान	-3302
▁ल्याए	-3303
▁वाध्य	-3304
▁विद्य	-3305
▁विवाद	-3306
▁संवाद	-3307
▁सन्ता	-3308
▁सम्भव	-3309
▁सर्वो	-3310
▁साँचो	-3311
▁साझेद	-3312
▁सालको	-3313
▁सूचका	-3314
▁हारून	-3315
▁हिंड्	-3316
▁हिसाब	-3317
उनुहोस्	-3318
क्रिप्ट	-3319
न्द्रीय	-3320
प्तिकरण	-3321
▁अध्याय	-3322
▁अय्यूब	-3323
▁अशुद्ध	-3324
▁आफूलाई	-3325
▁आराधना	-3326
▁उठाउने	-3327
▁उद्धार	-3328
▁औषधिको	-3329
▁कानुनी	-3330
▁कामदार	-3331
▁खर्चमा	-3332
▁खारेजी	-3333
▁खोज्ने	-3334
▁गर्दथे	-3335
▁गर्नमा	-3336
▁चट्टान	-3337
▁चाहेमा	-3338
▁च्यानल	-3339
▁जमीनमा	-3340
▁तालिका	-3341
▁दाऊदका	-3342
▁दाज्यू	-3343
▁दाहिने	-3344
▁दिइनेछ	-3345
▁दिनेछु	-3346
▁देखाउन	-3347
▁नियमित	-3348
▁पठाउनु	-3349
▁पत्रुस	-3350
▁पराजित	-3351
▁परिणाम	-3352
▁पर्खाल	-3353
▁पार्ने	-3354
▁पुर्‍य	-3355
▁पूर्ति	-3356
▁प्लगइन	-3357
▁फाइलको	-3358
▁बजारको	-3359
▁बजारमा	-3360
▁बढाउने	-3361
▁बोल्नु	-3362
▁भन्छन्	-3363
▁भविष्य	-3364
▁मिलियन	-3365
▁मुद्रण	-3366
▁मोशाको	-3367
▁मोशाले	-3368
▁रेडियो	-3369
▁लागेमा	-3370
▁लुक्नु	-3371
▁ल्याउन	-3372
▁वेश्या	-3373
▁शब्दले	-3374
▁शाऊलले	-3375
▁शिक्षक	-3376
▁संगठित	-3377
▁संघर्ष	-3378
▁संरचना	-3379
▁सकेनन्	-3380
▁सञ्जाल	-3381
▁सम्भार	-3382
▁सर्टकट	-3383
▁सल्लाह	-3384
▁साधारण	-3385
▁सेवामा	-3386
▁स्तम्भ	-3387
▁स्तरीय	-3388
▁हटाउने	-3389
▁हुनाले	-3390
▁हेरचाह	-3391
कदनेस्सर	-3392
▁अब्शालो	-3393
▁अस्पताल	-3394
▁आधारभूत	-3395
▁उपस्थित	-3396
▁गराइनेछ	-3397
▁गर्दछन्	-3398
▁गर्भवती	-3399
▁जन्मेका	-3400
▁धन्यवाद	-3401
▁निकायले	-3402
▁निर्यात	-3403
▁पञ्चायत	-3404
▁परिभाषा	-3405
▁पलिश्ती	-3406
▁बाबेलका	-3407
▁मालिकले	-3408
▁यहूदाको	-3409
▁यूहन्ना	-3410
▁योग्यता	-3411
▁रूपैयाँ	-3412
▁लुगाहरू	-3413
▁लेखापरी	-3414
▁विकासका	-3415
▁विरोधमा	-3416
▁विस्तृत	-3417
▁संसारमा	-3418
▁सदस्यको	-3419
▁समायोजन	-3420
▁सवारीको	-3421
▁सामरिया	-3422
▁स्थापित	-3423
.........	-3424
▁अँध्यारो	-3425
▁अत्यन्तै	-3426
▁कार्यलाई	-3427
▁क्षमतामा	-3428
▁निरीक्षण	-3429
▁परिभाषित	-3430
▁पृथ्वीमा	-3431
▁प्रस्तुत	-3432
▁प्रोत्सा	-3433
▁प्रोफाइल	-3434
▁फोल्डरमा	-3435
▁मन्दिरको	-3436
▁मालसामान	-3437
▁विश्वासी	-3438
▁सैनिकहरू	-3439
▁अनुसूचीमा	-3440
▁केन्द्रीय	-3441
▁गर्नुभएको	-3442
▁गुप्तिकरण	-3443
▁पदाधिकारी	-3444
▁प्रशिक्षण	-3445
▁बोलपत्रको	-3446
▁मरूभूमिमा	-3447
▁मूल्यांकन	-3448
▁विरूद्धमा	-3449
▁संस्थानको	-3450
▁संस्थानले	-3451
▁सन्दर्भमा	-3452
▁सुदृढीकरण	-3453
▁सुलेमानले	-3454
▁स्वर्गदूत	-3455
▁क्षेत्रलाई	-3456
▁गर्नुपर्दछ	-3457
▁निरीक्षकले	-3458
▁पर्वतारोहण	-3459
▁योजनाकालमा	-3460
▁सम्पत्तिको	-3461
▁तत्सम्बन्धी	-3462
▁नबूकदनेस्सर	-3463
▁न्यायाधिकरण	-3464
▁प्रतिस्थापन	-3465
▁प्रत्यायोजन	-3466
▁विकाससम्बन्धी	-3467
▁विश्वविद्यालयको	-3468
!"	-3469
,"	-3470
.)	-3471
//	-3472
AP	-3473
al	-3474
bu	-3475
ct	-3476
ob	-3477
or	-3478
pe	-3479
अज	-3480
एक	-3481
कट	-3482
खन	-3483
गल	-3484
जक	-3485
ठो	-3486
डै	-3487
ढी	-3488
तत	-3489
ते	-3490
तो	-3491
थम	-3492
धध	-3493
धै	-3494
नँ	-3495
नन	-3496
फत	-3497
बढ	-3498
यय	-3499
लन	-3500
लै	-3501
सल	-3502
सव	-3503
सस	-3504
हँ	-3505
ाव	-3506
ुर	-3507
ूस	-3508
ें	-3509
ैध	-3510
।)	-3511
२४	-3512
४२	-3513
५०	-3514
▁#	-3515
▁A	-3516
▁G	-3517
▁K	-3518
▁L	-3519
▁M	-3520
▁U	-3521
▁X	-3522
▁d	-3523
▁s	-3524
▁े	-3525
ect	-3526
अनि	-3527
उनी	-3528
उपर	-3529
कीय	-3530
कूद	-3531
केज	-3532
क्न	-3533
गमन	-3534
ङ्‍	-3535
जनी	-3536
जूर	-3537
जेल	-3538
त्न	-3539
थिर	-3540
दाय	-3541
देव	-3542
दोष	-3543
द्व	-3544
धीश	-3545
नयन	-3546
नाथ	-3547
नोह	-3548
पान	-3549
पूर	-3550
प्य	-3551
बित	-3552
भरी	-3553
मोन	-3554
लाप	-3555
वाई	-3556
वित	-3557
सान	-3558
सिब	-3559
सिय	-3560
हको	-3561
हरण	-3562
हाब	-3563
ह्र	-3564
ााा	-3565
ूढा	-3566
ृणा	-3567
ेकी	-3568
ेटि	-3569
ौला	-3570
्ठा	-3571
्दा	-3572
्दो	-3573
्नु	-3574
्यौ	-3575
▁अज	-3576
▁आऊ	-3577
▁आप	-3578
▁एफ	-3579
▁कप	-3580
▁खट	-3581
▁छि	-3582
▁टु	-3583
▁डु	-3584
▁तँ	-3585
▁ते	-3586
▁थर	-3587
▁री	-3588
▁र्	-3589
▁शक	-3590
▁हन	-3591
▁।"	-3592
▁००	-3593
▁१८	-3594
▁२३	-3595
▁३८	-3596
▁४७	-3597
क्री	-3598
क्लो	-3599
क्वि	-3600
क्षर	-3601
गर्स	-3602
ङ्गल	-3603
जन्य	-3604
जुरी	-3605
डामा	-3606
तबाट	-3607
तिनी	-3608
दाता	-3609
दिने	-3610
दिया	-3611
न्ने	-3612
पचार	-3613
पाटी	-3614
बेला	-3615
मुनि	-3616
मेरा	-3617
म्बन	-3618
युया	-3619
रामी	-3620
रीको	-3621
र्जन	-3622
लोको	-3623
वद्ध	-3624
वाना	-3625
शेबा	-3626
सफाई	-3627
साको	-3628
सामा	-3629
स्के	-3630
स्मा	-3631
हीना	-3632
ाइलट	-3633
ाएको	-3634
िनेछ	-3635
िपरि	-3636
िमशो	-3637
ेकोछ	-3638
ोकरी	-3639
्याण	-3640
्युट	-3641
्राम	-3642
्व्व	-3643
▁अख्	-3644
▁अना	-3645
▁अनौ	-3646
▁अमा	-3647
▁आफै	-3648
▁इभो	-3649
▁इमा	-3650
▁इला	-3651
▁उज्	-3652
▁कला	-3653
▁किग	-3654
▁खाँ	-3655
▁गयो	-3656
▁चिक	-3657
▁चोट	-3658
▁छेऊ	-3659
▁जफत	-3660
▁जबर	-3661
▁जिम	-3662
▁ठहर	-3663
▁ठोस	-3664
▁डेइ	-3665
▁तवर	-3666
▁तीस	-3667
▁दाम	-3668
▁धना	-3669
▁नखा	-3670
▁नपा	-3671
▁नलि	-3672
▁नसो	-3673
▁नाघ	-3674
▁नाश	-3675
▁निल	-3676
▁नोट	-3677
▁नोड	-3678
▁पतन	-3679
▁पब्	-3680
▁पात	-3681
▁फरक	-3682
▁फार	-3683
▁बर्	-3684
▁बसि	-3685
▁बिल	-3686
▁बिष	-3687
▁बेर	-3688
▁बोक	-3689
▁भति	-3690
▁मरे	-3691
▁मुल	-3692
▁रंग	-3693
▁रगत	-3694
▁रहन	-3695
▁रुख	-3696
▁लडि	-3697
▁लुक	-3698
▁वंश	-3699
▁वीर	-3700
▁वेब	-3701
▁सकु	-3702
▁सडक	-3703
▁सदा	-3704
▁सदु	-3705
▁सरा	-3706
▁सीप	-3707
▁हमा	-3708
▁हाँ	-3709
▁हाड	-3710
▁हिँ	-3711
▁हौं	-3712
▁१९८	-3713
▁२००	-3714
.....	-3715
उपयोग	-3716
ञ्जेल	-3717
डाहरू	-3718
तपाईँ	-3719
तापनि	-3720
तिहास	-3721
त्र्च	-3722
त्र्य	-3723
दायिक	-3724
दारको	-3725
देशमा	-3726
न्धित	-3727
न्ध्र	-3728
बलिको	-3729
मानित	-3730
योग्य	-3731
रमाथा	-3732
र्द्ध	-3733
ल्युस	-3734
वार्य	-3735
श्वास	-3736
सक्ने	-3737
सहभाग	-3738
सारको	-3739
सुधार	-3740
हरुका	-3741
ाउँछु	-3742
ाउँदा	-3743
ाउँदै	-3744
ासम्म	-3745
ैंतीस	-3746
्याउन	-3747
▁अग्र	-3748
▁अञ्च	-3749
▁अनुप	-3750
▁अवैध	-3751
▁आइपु	-3752
▁आउनु	-3753
▁आश्च	-3754
▁आहाब	-3755
▁उज्य	-3756
▁उसका	-3757
▁एउटी	-3758
▁करको	-3759
▁कोशि	-3760
▁खाता	-3761
▁खेती	-3762
▁गरिए	-3763
▁गाउँ	-3764
▁गोरू	-3765
▁घृणा	-3766
▁चक्र	-3767
▁चिनी	-3768
▁छान्	-3769
▁छोडे	-3770
▁जानी	-3771
▁झूटा	-3772
▁टेम्	-3773
▁टेलि	-3774
▁ट्रे	-3775
▁ढुकु	-3776
▁तत्व	-3777
▁ताकि	-3778
▁ताली	-3779
▁थुमा	-3780
▁दावी	-3781
▁दिदी	-3782
▁धागो	-3783
▁नबुझ	-3784
▁नलाग	-3785
▁निलो	-3786
▁निस्	-3787
▁पक्र	-3788
▁पठाइ	-3789
▁पैसा	-3790
▁प्ला	-3791
▁फोहर	-3792
▁बस्न	-3793
▁बिदा	-3794
▁बूढा	-3795
▁भक्त	-3796
▁भन्न	-3797
▁भन्‍	-3798
▁मसित	-3799
▁माता	-3800
▁मारे	-3801
▁मासु	-3802
▁मुना	-3803
▁मुनि	-3804
▁मौका	-3805
▁रूपा	-3806
▁लगइन	-3807
▁लाभा	-3808
▁विदा	-3809
▁विधि	-3810
▁विरा	-3811
▁शावल	-3812
▁शैली	-3813
▁श्रम	-3814
▁श्रे	-3815
▁सातौ	-3816
▁साथी	-3817
▁सिय्	-3818
▁सुनि	-3819
▁सूती	-3820
▁सेवक	-3821
▁सोच्	-3822
▁स्वर	-3823
▁हेर्	-3824
▁२०४०	-3825
▁२०७२	-3826
▁२०७३	-3827
क्षकको	-3828
ग्रस्त	-3829
न्तुलन	-3830
पचारिक	-3831
भाइहरू	-3832
माञ्चल	-3833
रात्मक	-3834
वेक्षण	-3835
समाचार	-3836
स्त्री	-3837
ारेण्ट	-3838
▁अनन्त	-3839
▁अन्धा	-3840
▁अरामी	-3841
▁उत्तम	-3842
▁एकत्र	-3843
▁एकदमै	-3844
▁कर्मी	-3845
▁कानुन	-3846
▁कामको	-3847
▁क्रूस	-3848
▁क्षति	-3849
▁गन्ती	-3850
▁गर्छौ	-3851
▁गल्ती	-3852
▁गोप्य	-3853
▁घरेलु	-3854
▁चरणमा	-3855
▁चाँडै	-3856
▁चाहनु	-3857
▁चित्र	-3858
▁छोडेर	-3859
▁जानेछ	-3860
▁डिजेल	-3861
▁तल्लो	-3862
▁त्यति	-3863
▁दिनको	-3864
▁देखाए	-3865
▁देखें	-3866
▁ध्वनि	-3867
▁नदीको	-3868
▁नभएका	-3869
▁नमूना	-3870
▁नम्बर	-3871
▁पत्ता	-3872
▁पदबाट	-3873
▁परेका	-3874
▁परेमा	-3875
▁पश्चि	-3876
▁पाइने	-3877
▁पाइलट	-3878
▁पाएको	-3879
▁पार्छ	-3880
▁पालमा	-3881
▁पुनर्	-3882
▁पूँजी	-3883
▁प्रकट	-3884
▁प्रथम	-3885
▁प्राण	-3886
▁प्रिय	-3887
▁फर्की	-3888
▁बनाएर	-3889
▁बसेका	-3890
▁बेतेल	-3891
▁बेहेर	-3892
▁बैड्ढ	-3893
▁भनेको	-3894
▁भन्छु	-3895
▁भन्दै	-3896
▁भन्यो	-3897
▁भागमा	-3898
▁भिन्न	-3899
▁मकहाँ	-3900
▁महीना	-3901
▁मानोह	-3902
▁मार्न	-3903
▁मौलिक	-3904
▁यहोशू	-3905
▁रहन्छ	-3906
▁रुपले	-3907
▁रुबाट	-3908
▁रोगको	-3909
▁लगायत	-3910
▁लाग्छ	-3911
▁वर्णन	-3912
▁वर्षा	-3913
▁विवाह	-3914
▁शब्दा	-3915
▁शहरको	-3916
▁शून्य	-3917
▁संसूच	-3918
▁सकिएन	-3919
▁सक्दछ	-3920
▁सहवास	-3921
▁साँढे	-3922
▁साथमा	-3923
▁सीमित	-3924
▁सुन्न	-3925
▁सुम्प	-3926
▁स्त्र	-3927
▁स्थिर	-3928
▁स्वयं	-3929
▁हातमा	-3930
▁हुन्न	-3931
कर्ताले	-3932
कार्यको	-3933
ज्ञानिक	-3934
त्र्चाइ	-3935
नान्तरण	-3936
नुभन्दा	-3937
िपरिषद्	-3938
▁अनुदान	-3939
▁अनुसरण	-3940
▁अन्तमा	-3941
▁आदेशको	-3942
▁आयोगले	-3943
▁इमान्द	-3944
▁उहाँका	-3945
▁एकीकृत	-3946
▁एसावको	-3947
▁करारको	-3948
▁कर्पोर	-3949
▁कल्याण	-3950
▁कारवाई	-3951
▁किनारा	-3952
▁क्वेरी	-3953
▁खेलाडी	-3954
▁गरेपछि	-3955
▁गर्दैछ	-3956
▁गर्दैन	-3957
▁चढाएको	-3958
▁चाहेको	-3959
▁चिकित्	-3960
▁छुट्टै	-3961
▁जिम्मा	-3962
▁जीवनको	-3963
▁टुक्रा	-3964
▁तोक्ने	-3965
▁त्यसमा	-3966
▁थोकहरू	-3967
▁दिएनन्	-3968
▁दुईजना	-3969
▁देखिने	-3970
▁देशलाई	-3971
▁दोस्रो	-3972
▁द्रष्ट	-3973
▁नपर्ने	-3974
▁पक्षको	-3975
▁पन्ध्र	-3976
▁पब्लिक	-3977
▁परास्त	-3978
▁पर्दैन	-3979
▁पाउनेछ	-3980
▁पानीको	-3981
▁पुग्यो	-3982
▁पुर्खा	-3983
▁फाइलमा	-3984
▁बनायाह	-3985
▁बसोबास	-3986
▁बस्छन्	-3987
▁बाक्लो	-3988
▁बाटोमा	-3989
▁बिरुवा	-3990
▁भिडियो	-3991
▁मनोनयन	-3992
▁मिल्ने	-3993
▁मुक्ति	-3994
▁योगदान	-3995
▁राख्ने	-3996
▁लगाउने	-3997
▁लाइब्र	-3998
▁लागेको	-3999
▁लैजानु	-4000
▁लैजाने	-4001
▁वर्गको	-4002
▁वायुया	-4003
▁विषयका	-4004
▁शीर्षक	-4005
▁सक्छौं	-4006
▁सचिवले	-4007
▁सबैलाई	-4008
▁समन्वय	-4009
▁समूहका	-4010
▁सम्पाद	-4011
▁सरसफाई	-4012
▁सहयोगी	-4013
▁साधनको	-4014
▁सुन्दर	-4015
▁सेवाको	-4016
▁स्थायी	-4017
▁स्मृति	-4018
▁हनन्या	-4019
▁हुनुहु	-4020
▁होमबलि	-4021
न्नुहोस्	-4022
सहभागिता	-4023
हरुमध्ये	-4024
▁अजर्याह	-4025
▁अञ्चलको	-4026
▁अदालतमा	-4027
▁अमेरिकी	-4028
▁आश्चर्य	-4029
▁उज्यालो	-4030
▁उपेक्षा	-4031
▁कार्यका	-4032
▁कार्यको	-4033
▁किसिमका	-4034
▁किसिमको	-4035
▁गरिदिनु	-4036
▁चारैतिर	-4037
▁चाहन्छु	-4038
▁जरिवाना	-4039
▁जान्दछु	-4040
▁टर्मिनल	-4041
▁दर्ताको	-4042
▁दाऊदलाई	-4043
▁देखाउनु	-4044
▁नलागेमा	-4045
▁नियमहरु	-4046
▁निर्दोष	-4047
▁निस्तार	-4048
▁नेपालको	-4049
▁पछिल्लो	-4050
▁पुर्याए	-4051
▁प्याकेज	-4052
▁प्रशासन	-4053
▁फाइलहरू	-4054
▁बुझाउनु	-4055
▁बेतशेबा	-4056
▁बोर्डको	-4057
▁बोर्डमा	-4058
▁भइसकेको	-4059
▁मोशालाई	-4060
▁यर्मिया	-4061
▁यहोयाकी	-4062
▁याकूबले	-4063
▁वस्तुको	-4064
▁विभागमा	-4065
▁विरुद्ध	-4066
▁सगरमाथा	-4067
▁सङ्गठित	-4068
▁सचिवालय	-4069
▁सञ्चालक	-4070
▁सदुपयोग	-4071
▁समूहबाट	-4072
▁सर्भरमा	-4073
▁सालदेखि	-4074
▁सेनाहरू	-4075
▁हामीहरू	-4076
▁ह्यान्ड	-4077
▁अख्तियार	-4078
▁अनिवार्य	-4079
▁अब्रामले	-4080
▁इन्टरफेस	-4081
▁इभोल्युस	-4082
▁खानेपानी	-4083
▁गरिनेछन्	-4084
▁जिल्लाको	-4085
▁जिल्लामा	-4086
▁तपाईँलाई	-4087
▁त्यसबेला	-4088
▁दिनुभएको	-4089
▁पदार्थको	-4090
▁परिवारको	-4091
▁प्रमाणित	-4092
▁मानाङ्कन	-4093
▁मुख्यतया	-4094
▁रजिष्ट्र	-4095
▁वरिपरिका	-4096
▁वर्षसम्म	-4097
▁वास्तवमा	-4098
▁विद्यमान	-4099
▁विद्यालय	-4100
▁विद्युत्	-4101
▁व्यापारी	-4102
▁शत्रुहरू	-4103
▁शहरहरूमा	-4104
▁सक्दैनन्	-4105
▁सुसमाचार	-4106
▁सूचकाङ्क	-4107
▁स्थितिमा	-4108
▁स्रोतबाट	-4109
▁.........	-4110
▁अधिकारीको	-4111
▁अभिबृद्धि	-4112
▁आपूर्तिमा	-4113
▁केन्द्रित	-4114
▁क्षेत्रगत	-4115
▁चेलाहरूले	-4116
▁टेम्प्लेट	-4117
▁तिनीहरूमा	-4118
▁तिमीहरुले	-4119
▁दिनुहुनेछ	-4120
▁दिनुहुन्छ	-4121
▁नकारात्मक	-4122
▁न्यायाधीश	-4123
▁पुर्याउने	-4124
▁पूर्वाधार	-4125
▁पृष्ठभूमि	-4126
▁प्रकृतिका	-4127
▁प्रतिवर्ष	-4128
▁प्रतिशतका	-4129
▁प्रतिशतले	-4130
▁प्रत्यक्ष	-4131
▁प्रवर्द्ध	-4132
▁प्राधिकरण	-4133
▁बुद्धिमान	-4134
▁भूमिसुधार	-4135
▁माध्यमबाट	-4136
▁रूपान्तरण	-4137
▁वर्षहरुमा	-4138
▁वातावरणीय	-4139
▁विनियमहरू	-4140
▁वैज्ञानिक	-4141
▁व्यवस्थाप	-4142
▁सल्लाहकार	-4143
▁सामुदायिक	-4144
▁स्क्रिप्ट	-4145
▁स्त्रीहरू	-4146
▁अगुवाहरूले	-4147
▁गर्नुहुनेछ	-4148
▁जनसहभागिता	-4149
▁नियमावलीको	-4150
▁निर्देशकको	-4151
▁पर्वतारोही	-4152
▁प्रवद्र्धन	-4153
▁प्रस्तावित	-4154
▁बनाउनुहोस्	-4155
▁मेट्नुहोस्	-4156
▁रोज्नुहोस्	-4157
▁स्पष्टीकरण	-4158
▁हेर्नुहोस्	-4159
▁अगमवक्ताहरू	-4160
▁उद्योगहरुको	-4161
▁कर्मचारीलाई	-4162
▁कार्यक्रममा	-4163
▁कार्यालयबाट	-4164
▁क्षतिपूर्ति	-4165
▁जिल्लाहरुमा	-4166
▁तिनीहरूमाथि	-4167
▁तोकिएबमोजिम	-4168
▁मन्त्रालयको	-4169
▁मानिसहरूसंग	-4170
▁मानिसहरूसित	-4171
▁विशेषज्ञलाई	-4172
▁केन्द्रहरुको	-4173
▁क्षेत्रहरुमा	-4174
▁डाइरेक्टरीमा	-4175
▁नबूकदनेस्सरले	-4176
▁मन्त्रिपरिषद्	-4177
▁इस्राएलीहरूलाई	-4178
,,	-4179
SL	-4180
TR	-4181
gt	-4182
ig	-4183
is	-4184
tt	-4185
अअ	-4186
एस	-4187
चत	-4188
टौ	-4189
फन	-4190
मन	-4191
यट	-4192
यि	-4193
रत	-4194
रस	-4195
िल	-4196
ूश	-4197
्‍	-4198
१३	-4199
",	-4200
))	-4201
DE	-4202
ID	-4203
ht	-4204
इस	-4205
कर	-4206
टछ	-4207
थथ	-4208
हव	-4209
१४	-4210
१६	-4211
२०	-4212
२३	-4213
२७	-4214
४९	-4215
▁!	-4216
▁.	-4217
▁0	-4218
▁D	-4219
▁ि	-4220
▁ु	-4221
DAP	-4222
KDE	-4223
अघि	-4224
उन्	-4225
ओमी	-4226
कपु	-4227
कर्	-4228
कलन	-4229
काल	-4230
किन	-4231
कृत	-4232
खिम	-4233
गरी	-4234
घका	-4235
घात	-4236
चाप	-4237
जको	-4238
जला	-4239
जाड	-4240
ज्न	-4241
झाव	-4242
टले	-4243
टिल	-4244
डको	-4245
डले	-4246
डिए	-4247
डिङ	-4248
तका	-4249
थिए	-4250
थ्र	-4251
दित	-4252
नात	-4253
नान	-4254
निङ	-4255
नोट	-4256
पाइ	-4257
पुर	-4258
फ्न	-4259
बान	-4260
बाल	-4261
बिक	-4262
बेस	-4263
बोल	-4264
भयो	-4265
भरि	-4266
भिद	-4267
भोग	-4268
मिन	-4269
मिल	-4270
याइ	-4271
रही	-4272
रीद	-4273
र्ई	-4274
र्क	-4275
र्ज	-4276
र्ह	-4277
लका	-4278
लिप	-4279
लेह	-4280
ल्ड	-4281
ल्थ	-4282
ल्न	-4283
वनी	-4284
शमा	-4285
शेष	-4286
सका	-4287
सला	-4288
सिक	-4289
ाँई	-4290
िकट	-4291
िजर	-4292
िनु	-4293
िलो	-4294
ीरा	-4295
ीले	-4296
ीीी	-4297
ूनी	-4298
ूषा	-4299
50	-4300
lt	-4301
एँ	-4302
गी	-4303
जब	-4304
नक	-4305
फो	-4306
बर	-4307
िच	-4308
ूद	-4309
१९	-4310
तार	-4311
म्स	-4312
लोड	-4313
ून्	-4314
ेकै	-4315
ेदन	-4316
ेन्	-4317
ेहू	-4318
ोरै	-4319
्की	-4320
्चा	-4321
्दछ	-4322
्दै	-4323
्ले	-4324
।'"	-4325
।”‘	-4326
▁12	-4327
▁ob	-4328
▁अं	-4329
▁अम	-4330
▁आम	-4331
▁आर	-4332
▁आश	-4333
▁एन	-4334
▁औं	-4335
▁गई	-4336
▁गफ	-4337
▁गे	-4338
▁छर	-4339
▁झा	-4340
▁झु	-4341
▁टो	-4342
▁धन	-4343
▁धू	-4344
▁नह	-4345
▁नो	-4346
▁पप	-4347
▁फ्	-4348
▁बग	-4349
▁मल	-4350
▁यश	-4351
▁लड	-4352
▁वृ	-4353
▁सँ	-4354
▁सट	-4355
▁सफ	-4356
▁सै	-4357
▁हक	-4358
▁हद	-4359
▁है	-4360
▁हौ	-4361
▁३४	-4362
▁३९	-4363
▁४२	-4364
▁५६	-4365
▁६०	-4366
▁७७	-4367
▁८६	-4368
आफ्न	-4369
इन्ड	-4370
उँछु	-4371
उच्च	-4372
कनको	-4373
कानी	-4374
क्का	-4375
क्या	-4376
क्वा	-4377
क्षे	-4378
क्ष्	-4379
खाना	-4380
खुरा	-4381
खेटा	-4382
ग्दो	-4383
ग्रह	-4384
ग्रा	-4385
ङ्का	-4386
ङ्गी	-4387
चालक	-4388
च्चा	-4389
जसले	-4390
जाइन	-4391
टामा	-4392
टुले	-4393
टौती	-4394
ट्ठी	-4395
डाको	-4396
ढोका	-4397
णायक	-4398
ताका	-4399
थथथा	-4400
दानी	-4401
दायी	-4402
द्धा	-4403
धिक्	-4404
नानी	-4405
न्न्	-4406
पतको	-4407
पिता	-4408
पूरक	-4409
पोलि	-4410
प्ने	-4411
प्रो	-4412
फ्रे	-4413
बाना	-4414
बिखन	-4415
ब्रो	-4416
ब्लु	-4417
भारा	-4418
मञ्ज	-4419
माना	-4420
मिना	-4421
मूलक	-4422
मेले	-4423
मैला	-4424
मैले	-4425
मोरी	-4426
म्ती	-4427
म्ने	-4428
म्मे	-4429
यनको	-4430
युर्	-4431
रियम	-4432
रीगर	-4433
रुरी	-4434
र्दन	-4435
र्मी	-4436
र्शो	-4437
र्सी	-4438
लाको	-4439
लिदि	-4440
लेको	-4441
लेखन	-4442
वधान	-4443
वर्ग	-4444
वाचन	-4445
वारण	-4446
वाही	-4447
शाखा	-4448
श्शे	-4449
ष्टा	-4450
साना	-4451
सानी	-4452
सुरा	-4453
स्टक	-4454
स्थे	-4455
हलाई	-4456
ारका	-4457
ारले	-4458
ासँग	-4459
िकरण	-4460
िमले	-4461
ेण्ट	-4462
ेष्ठ	-4463
ैनन्	-4464
्यमा	-4465
्याँ	-4466
्याग	-4467
▁अंग	-4468
▁अग्	-4469
▁अचल	-4470
▁अवा	-4471
▁अश्	-4472
▁अहँ	-4473
▁आइट	-4474
▁आएर	-4475
▁उन्	-4476
▁उभि	-4477
▁ऊनी	-4478
▁एक्	-4479
▁कथा	-4480
▁करी	-4481
▁कले	-4482
▁खस्	-4483
▁खाल	-4484
▁गाइ	-4485
▁घरा	-4486
▁चाप	-4487
▁छाउ	-4488
▁छान	-4489
▁जला	-4490
▁जल्	-4491
▁ज्य	-4492
▁टगल	-4493
▁टेब	-4494
▁डाँ	-4495
▁ढाल	-4496
▁दूत	-4497
▁दूध	-4498
▁दूर	-4499
▁दृश	-4500
▁नक्	-4501
▁नपढ	-4502
▁निग	-4503
▁नोक	-4504
▁पजी	-4505
▁पति	-4506
▁फुक	-4507
▁फोन	-4508
▁बनि	-4509
▁बन्	-4510
▁बहन	-4511
▁बीस	-4512
▁बेन	-4513
▁बेल	-4514
▁ब्र	-4515
▁भया	-4516
▁भरी	-4517
▁भवन	-4518
▁भूल	-4519
▁मसा	-4520
▁मृत	-4521
▁यथा	-4522
▁यिश	-4523
▁योश	-4524
▁राय	-4525
▁रिस	-4526
▁रूख	-4527
▁लाल	-4528
▁लेब	-4529
▁विज	-4530
▁श्र	-4531
▁संय	-4532
▁समझ	-4533
▁समी	-4534
▁सुग	-4535
▁सोच	-4536
▁हाट	-4537
▁हैन	-4538
▁होऊ	-4539
आफ्नो	-4540
उनेछौ	-4541
कासित	-4542
कृष्ट	-4543
क्रिन	-4544
गर्ने	-4545
ङ्गली	-4546
ङ्गले	-4547
जन्तु	-4548
जस्ता	-4549
जस्ती	-4550
जियाह	-4551
टछाँट	-4552
ड्नेछ	-4553
ण्डली	-4554
त्र्ग	-4555
दानमा	-4556
दिनेछ	-4557
द्धरण	-4558
द्यपि	-4559
न्जेल	-4560
न्टाइ	-4561
न्दैन	-4562
पट्टि	-4563
पश्चि	-4564
फ्रेज	-4565
भाविक	-4566
मनिर्	-4567
यपत्र	-4568
रुपले	-4569
रूपले	-4570
र्घका	-4571
र्थका	-4572
लार्ई	-4573
लेहेम	-4574
ल्डमा	-4575
विधान	-4576
वीकार	-4577
वीघाट	-4578
समिति	-4579
स्रोत	-4580
हारको	-4581
ाउँदछ	-4582
ाउनको	-4583
ालनको	-4584
ियोस्	-4585
ुवानी	-4586
▁LDAP	-4587
▁अपरा	-4588
▁अभिष	-4589
▁अर्घ	-4590
▁अवसर	-4591
▁असुल	-4592
▁असूल	-4593
▁अस्व	-4594
▁आठौं	-4595
▁आफैं	-4596
▁इजला	-4597
▁उजाड	-4598
▁उत्र	-4599
▁ऋणको	-4600
▁एक्स	-4601
▁एदोम	-4602
▁कक्ष	-4603
▁कम्म	-4604
▁काँध	-4605
▁कित्	-4606
▁कुरो	-4607
▁कृपा	-4608
▁कृषक	-4609
▁केटी	-4610
▁कोरह	-4611
▁खराब	-4612
▁खरीद	-4613
▁खुबै	-4614
▁खोला	-4615
▁खोली	-4616
▁गराइ	-4617
▁गर्भ	-4618
▁गहुँ	-4619
▁गाडे	-4620
▁गुणा	-4621
▁घण्ट	-4622
▁घुमा	-4623
▁चाहे	-4624
▁चौकी	-4625
▁छिटो	-4626
▁जटिल	-4627
▁जमान	-4628
▁जर्ज	-4629
▁जसमा	-4630
▁जान्	-4631
▁झरेर	-4632
▁टिकट	-4633
▁डरले	-4634
▁डाउन	-4635
▁डेटा	-4636
▁तान्	-4637
▁त्या	-4638
▁थपघट	-4639
▁थप्न	-4640
▁थिच्	-4641
▁दाजू	-4642
▁दुरू	-4643
▁दूरी	-4644
▁देखा	-4645
▁दोषी	-4646
▁धर्म	-4647
▁धातु	-4648
▁धारा	-4649
▁नगदै	-4650
▁नतोक	-4651
▁नदेऊ	-4652
▁नलिई	-4653
▁निकु	-4654
▁निकै	-4655
▁निहु	-4656
▁न्यु	-4657
▁पद्ध	-4658
▁परित	-4659
▁परिष	-4660
▁पस्न	-4661
▁पारे	-4662
▁पैदा	-4663
▁पोषण	-4664
▁फारम	-4665
▁फिला	-4666
▁फैला	-4667
▁बताए	-4668
▁बनाइ	-4669
▁बाँध	-4670
▁बाचन	-4671
▁बाछा	-4672
▁बादल	-4673
▁बारी	-4674
▁बिषय	-4675
▁बीमक	-4676
▁बीमा	-4677
▁बृहत	-4678
▁बोअज	-4679
▁ब्रि	-4680
▁भनें	-4681
▁भाकल	-4682
▁भारत	-4683
▁भेरी	-4684
▁मातह	-4685
▁मानी	-4686
▁माने	-4687
▁मापन	-4688
▁मिटर	-4689
▁मिला	-4690
▁युवा	-4691
▁येहू	-4692
▁रङको	-4693
▁रद्द	-4694
▁रहबा	-4695
▁रातो	-4696
▁रामा	-4697
▁लङ्ग	-4698
▁वनको	-4699
▁विगत	-4700
▁विभा	-4701
▁शकेम	-4702
▁शासक	-4703
▁शैता	-4704
▁सन्त	-4705
▁समया	-4706
▁समाज	-4707
▁सम्ब	-4708
▁सहमत	-4709
▁साहू	-4710
▁सिमो	-4711
▁सियो	-4712
▁सिला	-4713
▁सुकै	-4714
▁सुने	-4715
▁सुरू	-4716
▁सेयर	-4717
▁सोधे	-4718
▁हावा	-4719
▁हीरा	-4720
▁हेरी	-4721
▁होला	-4722
▁२०२२	-4723
▁२०३१	-4724
▁२०५५	-4725
▁९द्य	-4726
अनुसार	-4727
क्टरमा	-4728
क्यांश	-4729
क्षाको	-4730
च्छेदन	-4731
छुट्टै	-4732
जाहारी	-4733
डिएन्ट	-4734
तिम्रो	-4735
दाताको	-4736
दाताले	-4737
दासम्म	-4738
दिनेछु	-4739
ध्यक्ष	-4740
न्द्रा	-4741
पानीको	-4742
युक्ति	-4743
र्तमान	-4744
र्ताको	-4745
वर्षीय	-4746
वशक्ति	-4747
वालाले	-4748
विन्दु	-4749
संरचना	-4750
सरकारी	-4751
स्तरको	-4752
स्तरीय	-4753
स्स्स्	-4754
हारहरू	-4755
▁अगमवा	-4756
▁अद्या	-4757
▁अन्धो	-4758
▁अम्मी	-4759
▁असिना	-4760
▁आउँदा	-4761
▁आकर्ष	-4762
▁आदिको	-4763
▁आयुर्	-4764
▁आयोडि	-4765
▁उस्तै	-4766
▁ऊर्जा	-4767
▁एमोरी	-4768
▁एलीशा	-4769
▁एस्तर	-4770
▁कच्चा	-4771
▁कटौती	-4772
▁कप्ता	-4773
▁कर्सर	-4774
▁काजमा	-4775
▁काममा	-4776
▁किनकि	-4777
▁कैदमा	-4778
▁कोर्ट	-4779
▁कोषमा	-4780
▁खान्छ	-4781
▁गर्छन	-4782
▁गल्ति	-4783
▁गवाही	-4784
▁चलाउन	-4785
▁चाँडो	-4786
▁चाहने	-4787
▁चौडाइ	-4788
▁चौडाई	-4789
▁छैनौं	-4790
▁छोड्न	-4791
▁जरुरी	-4792
▁जान्न	-4793
▁जुलाई	-4794
▁जोखिम	-4795
▁झ्याल	-4796
▁टाँगो	-4797
▁डिस्क	-4798
▁तामार	-4799
▁तालीम	-4800
▁तोक्न	-4801
▁दाखरस	-4802
▁दिंदा	-4803
▁दिएमा	-4804
▁दुषित	-4805
▁दूषित	-4806
▁देवता	-4807
▁नभएमा	-4808
▁नाओमी	-4809
▁निवेद	-4810
▁नैतिक	-4811
▁पछाडि	-4812
▁पठाउन	-4813
▁परिमा	-4814
▁पस्ने	-4815
▁पालना	-4816
▁प्रेष	-4817
▁फर्कि	-4818
▁फाइदा	-4819
▁फाराम	-4820
▁फ्याँ	-4821
▁बटुले	-4822
▁बढाउन	-4823
▁बनेका	-4824
▁बप्ति	-4825
▁बस्थे	-4826
▁बाँकी	-4827
▁बाध्य	-4828
▁बिशेष	-4829
▁बैजनी	-4830
▁भएनन्	-4831
▁भर्ना	-4832
▁भेट्न	-4833
▁मरियम	-4834
▁मर्नु	-4835
▁मर्ने	-4836
▁मुखमा	-4837
▁मुलुक	-4838
▁मुल्य	-4839
▁मेलको	-4840
▁यर्दन	-4841
▁यशैया	-4842
▁रक्षक	-4843
▁रोक्न	-4844
▁लगाउन	-4845
▁लिएको	-4846
▁लेखिए	-4847
▁ल्याऊ	-4848
▁वनस्प	-4849
▁विज्ञ	-4850
▁विधवा	-4851
▁शङ्का	-4852
▁शहरका	-4853
▁शिमशो	-4854
▁शिमोन	-4855
▁शुल्क	-4856
▁श्रोत	-4857
▁संकलन	-4858
▁संग्र	-4859
▁संशोध	-4860
▁सकेको	-4861
▁सक्ति	-4862
▁सञ्चय	-4863
▁सट्टा	-4864
▁सभामा	-4865
▁समस्त	-4866
▁समाति	-4867
▁ससुरा	-4868
▁सहभाग	-4869
▁सहमति	-4870
▁सातौँ	-4871
▁सार्न	-4872
▁सुझाव	-4873
▁सुदूर	-4874
▁सृजना	-4875
▁सेटअप	-4876
▁स्विच	-4877
▁हटाउन	-4878
▁हत्या	-4879
▁हारान	-4880
▁हेल्थ	-4881
▁हैसिय	-4882
▁होस्ट	-4883
.......	-4884
कर्ताको	-4885
केन्द्र	-4886
खेटाहरू	-4887
तपाईँको	-4888
थथथाााा	-4889
धिक्कार	-4890
मञ्जूषा	-4891
मनिर्भर	-4892
मेलेकले	-4893
वलोकनको	-4894
स्रोतको	-4895
▁अनुरुप	-4896
▁अनुरूप	-4897
▁अनुशास	-4898
▁अन्द्र	-4899
▁अभ्यास	-4900
▁अवधिको	-4901
▁आँखाले	-4902
▁आदेशमा	-4903
▁आहाबले	-4904
▁इतिहास	-4905
▁उदाहरण	-4906
▁उद्धरण	-4907
▁उद्भिद	-4908
▁उनीहरु	-4909
▁उनीहरू	-4910
▁एदोमको	-4911
▁एलाजार	-4912
▁कारीगर	-4913
▁कार्यह	-4914
▁कुनामा	-4915
▁क्रममा	-4916
▁क्वारे	-4917
▁खाताको	-4918
▁खुल्ला	-4919
▁खेतहरू	-4920
▁खेलकूद	-4921
▁गणपूरक	-4922
▁गरीएको	-4923
▁गेर्शो	-4924
▁ग्राहक	-4925
▁चढाउनु	-4926
▁चाहिने	-4927
▁चुक्ता	-4928
▁चेष्टा	-4929
▁छलफलको	-4930
▁छुट्टा	-4931
▁जमीनको	-4932
▁जिम्मे	-4933
▁जिम्री	-4934
▁डिजाइन	-4935
▁ढुवानी	-4936
▁तस्विर	-4937
▁थाल्यो	-4938
▁दाखिला	-4939
▁दिन्छु	-4940
▁दुइवटा	-4941
▁दुर्घट	-4942
▁देखेका	-4943
▁धितोको	-4944
▁नगरेमा	-4945
▁नसकेको	-4946
▁नसकेमा	-4947
▁नाउँमा	-4948
▁नाप्यो	-4949
▁निर्भर	-4950
▁निर्मा	-4951
▁निवारण	-4952
▁निश्चय	-4953
▁पर्यवे	-4954
▁पाएनन्	-4955
▁पाखुरा	-4956
▁पुग्ने	-4957
▁पुस्तक	-4958
▁पेश्की	-4959
▁पैंतीस	-4960
▁प्रवाह	-4961
▁प्रश्न	-4962
▁प्रापक	-4963
▁फिल्टर	-4964
▁फुकुवा	-4965
▁बजेटको	-4966
▁बनाउँछ	-4967
▁बिन्ती	-4968
▁बिहानै	-4969
▁बुहारी	-4970
▁बोटलाई	-4971
▁भरिएको	-4972
▁भाइलाई	-4973
▁भित्री	-4974
▁मण्डली	-4975
▁मनश्शे	-4976
▁मनासिब	-4977
▁मसान्त	-4978
▁मान्नु	-4979
▁मार्ने	-4980
▁मुनाफा	-4981
▁यद्यपि	-4982
▁राख्दा	-4983
▁राख्यो	-4984
▁राम्रा	-4985
▁रोक्का	-4986
▁लक्षित	-4987
▁लेखेको	-4988
▁लेख्ने	-4989
▁विक्री	-4990
▁विश्वस	-4991
▁विषयगत	-4992
▁व्यक्त	-4993
▁व्यापक	-4994
▁शावलले	-4995
▁शौचालय	-4996
▁श्रमिक	-4997
▁संसूचक	-4998
▁सकिन्छ	-4999
▁सक्छन्	-5000
▁सक्नेः	-5001
▁समाचार	-5002
▁समुचित	-5003
▁समूहमा	-5004
▁समूहले	-5005
▁सम्भवत	-5006
▁सहितको	-5007
▁सिंचाइ	-5008
▁सिंहास	-5009
▁सिकागो	-5010
▁सिमाना	-5011
▁सुन्दै	-5012
▁सुरुको	-5013
▁सृष्टि	-5014
▁स्थगित	-5015
▁हुनेछौ	-5016
अनुसारको	-5017
उपभोक्ता	-5018
परमेश्वर	-5019
मानिसहरू	-5020
स्थितिमा	-5021
▁अगमवक्त	-5022
▁अघिल्लो	-5023
▁अत्यधिक	-5024
▁अदालतको	-5025
▁अधिलेखन	-5026
▁अपनाइने	-5027
▁अभिभारा	-5028
▁आत्माले	-5029
▁आनन्दित	-5030
▁आफन्तले	-5031
▁आयोगलाई	-5032
▁आयोजनाह	-5033
▁इन्टिजर	-5034
▁उपायहरु	-5035
▁एकत्रित	-5036
▁कर्णाली	-5037
▁किताबमा	-5038
▁किसिमले	-5039
▁कुराहरु	-5040
▁गरेकोमा	-5041
▁गरेकोले	-5042
▁गर्नुहु	-5043
▁चलचित्र	-5044
▁चाहन्छौ	-5045
▁चेताउनी	-5046
▁चेतावनी	-5047
▁जनतालाई	-5048
▁जरिबाना	-5049
▁जर्जिया	-5050
▁डाटाबेस	-5051
▁तर्फबाट	-5052
▁तिमीसँग	-5053
▁तोकिदिए	-5054
▁त्यसैले	-5055
▁दिनेछन्	-5056
▁दीर्घका	-5057
▁नबुझ्ने	-5058
▁नराम्रा	-5059
▁परिचालक	-5060
▁पश्चिमी	-5061
▁पहिल्यै	-5062
▁पाँचवटा	-5063
▁प्रतिफल	-5064
▁प्रसन्न	-5065
▁प्रसारण	-5066
▁बार्षिक	-5067
▁बालकहरू	-5068
▁बेचबिखन	-5069
▁भइरहेका	-5070
▁भएतापनि	-5071
▁भित्रको	-5072
▁मूल्यको	-5073
▁यहूदिया	-5074
▁यहूदीया	-5075
▁यहोशूले	-5076
▁युद्धमा	-5077
▁यूसुफको	-5078
▁रहनेछन्	-5079
▁रहेकोमा	-5080
▁राखिदिए	-5081
▁रेखाहरू	-5082
▁रोजगारी	-5083
▁लगाइएको	-5084
▁लगायतका	-5085
▁लिन्छन्	-5086
▁लेवीहरू	-5087
▁विच्छेद	-5088
▁विश्राम	-5089
▁व्यहोरा	-5090
▁शक्तिको	-5091
▁शमूएलले	-5092
▁शिमोनले	-5093
▁समझदारी	-5094
▁सर्भरले	-5095
▁सर्वोत्	-5096
▁साँच्चो	-5097
▁स्वदेशी	-5098
▁हामीसित	-5099
▁९द्यष्य	-5100
वशक्तिमान	-5101
हरूद्वारा	-5102
▁अदालतबाट	-5103
▁अधिकारमा	-5104
▁अधिकृतको	-5105
▁अन्त्यमा	-5106
▁अब्शालोम	-5107
▁अविश्वास	-5108
▁अस्वीकार	-5109
▁आइमाईहरू	-5110
▁आमन्त्रण	-5111
▁आयुर्वेद	-5112
▁इन्जिनिय	-5113
▁इन्टरनेट	-5114
▁इमान्दार	-5115
▁उज्जियाह	-5116
▁उद्योगको	-5117
▁उनीहरुको	-5118
▁उनीहरूले	-5119
▁उपकरणहरु	-5120
▁उपहारहरू	-5121
▁कम्पनीले	-5122
▁कम्प्युट	-5123
▁काँटछाँट	-5124
▁कार्यसम्	-5125
▁कार्यहरु	-5126
▁कार्यहरू	-5127
▁कुराकानी	-5128
▁चिकित्सा	-5129
▁जन्माइन्	-5130
▁जबरजस्ती	-5131
▁जानुहोस्	-5132
▁त्यसकारण	-5133
▁दृष्टिले	-5134
▁देखिँदैन	-5135
▁नदेखाउने	-5136
▁निकायबाट	-5137
▁निकायलाई	-5138
▁निर्णायक	-5139
▁निर्वाचन	-5140
▁निष्पक्ष	-5141
▁नोक्सानी	-5142
▁परित्याग	-5143
▁पर्खालको	-5144
▁पाउनेछन्	-5145
▁पासफ्रेज	-5146
▁प्रकारका	-5147
▁प्रकारले	-5148
▁प्रतिकूल	-5149
▁प्रमुखको	-5150
▁प्रयोगका	-5151
▁प्रयोगमा	-5152
▁फोहरमैला	-5153
▁बस्नेछन्	-5154
▁बेतलेहेम	-5155
▁मन्दिरमा	-5156
▁मितिदेखि	-5157
▁मुद्दाको	-5158
▁मुद्रामा	-5159
▁यहूदीहरू	-5160
▁योजनावधि	-5161
▁राजपत्रा	-5162
▁राजस्वमा	-5163
▁वर्गिकरण	-5164
▁वाक्यांश	-5165
▁व्यर्थका	-5166
▁शब्दावली	-5167
▁शास्त्री	-5168
▁सदस्यहरू	-5169
▁सबैभन्दा	-5170
▁समितिकोे	-5171
▁सम्बन्धन	-5172
▁सम्भावना	-5173
▁सुगन्धित	-5174
▁हुनुहोस्	-5175
▁हुलाकबाट	-5176
स्थथथथाााा	-5177
▁अद्यावधिक	-5178
▁अध्यक्षले	-5179
▁अनौपचारिक	-5180
▁अभिवृद्धि	-5181
▁उत्पादनको	-5182
▁उत्पादनमा	-5183
▁उपत्यकामा	-5184
▁कार्यकारी	-5185
▁कुराहरूको	-5186
▁खन्नुहोस्	-5187
▁ख्रीष्टको	-5188
▁ख्रीष्टले	-5189
▁ग्यारेण्ट	-5190
▁जनशक्तिको	-5191
▁जलस्रोतको	-5192
▁जिल्लाबाट	-5193
▁तिमीहरुको	-5194
▁तुलनात्मक	-5195
▁तुल्याउनु	-5196
▁द्रष्टव्य	-5197
▁निर्णयहरू	-5198
▁परिवत्र्य	-5199
▁प्रतिक्षा	-5200
▁प्रतिशतको	-5201
▁प्रविष्टि	-5202
▁प्रवेशद्व	-5203
▁प्रशासकीय	-5204
▁प्रसङ्गले	-5205
▁प्रादेशिक	-5206
▁बप्तिस्मा	-5207
▁बिषयवस्तु	-5208
▁बेहेरिएको	-5209
▁भन्नुभएको	-5210
▁भन्‍नुभयो	-5211
▁मूल्याङ्क	-5212
▁यरूशलेमको	-5213
▁राखिएकोमा	-5214
▁राष्ट्रका	-5215
▁लाइब्रेरी	-5216
▁वनस्पतिको	-5217
▁विद्युतीय	-5218
▁विश्वासको	-5219
▁व्यवस्थित	-5220
▁संस्थालाई	-5221
▁संस्थासँग	-5222
▁सम्झौताको	-5223
▁सम्झौतामा	-5224
▁सर्टकटहरू	-5225
▁सर्वेक्षण	-5226
▁सुविधाहरु	-5227
▁स्वतन्त्र	-5228
▁हस्ताक्षर	-5229
▁हुनुपर्दछ	-5230
▁हुनुभन्दा	-5231
पश्चिमाञ्चल	-5232
▁अधिकारपत्र	-5233
▁अधिकारीलाई	-5234
▁अब्राहामको	-5235
▁अभिव्यक्ति	-5236
▁अर्थतन्त्र	-5237
▁आत्मनिर्भर	-5238
▁कर्मीहरूले	-5239
▁कार्यकर्ता	-5240
▁कुञ्जीपाटी	-5241
▁केन्द्रबाट	-5242
▁क्षेत्रहरू	-5243
▁खानेपानीको	-5244
▁खोल्नुहोस्	-5245
▁ख्रीष्टलाई	-5246
▁ग्राडिएन्ट	-5247
▁चेलाहरूलाई	-5248
▁जिम्मेवारी	-5249
▁तिनीहरूसंग	-5250
▁तिमीहरुलाई	-5251
▁नियमावलीमा	-5252
▁पलिश्तीहरू	-5253
▁पारिदिनेछु	-5254
▁पूजाहारीले	-5255
▁पूर्णरूपले	-5256
▁प्रवर्द्धन	-5257
▁प्रेरितहरू	-5258
▁महिनाभित्र	-5259
▁राख्नुहोस्	-5260
▁वातावरणलाई	-5261
▁सञ्झ्यालमा	-5262
▁सदस्यहरूले	-5263
▁सम्भाव्यता	-5264
▁सामग्रीहरु	-5265
▁सामान्यतया	-5266
▁आयोजनाहरुको	-5267
▁उद्योगहरुमा	-5268
▁क्वारेन्टाइ	-5269
▁जिल्लाहरूमा	-5270
▁पत्रमञ्जूषा	-5271
▁पुनर्संरचना	-5272
▁प्रतिक्रिया	-5273
▁प्रोत्साहित	-5274
▁मानिसहरुलाई	-5275
▁रुपैयाँसम्म	-5276
▁स्थानान्तरण	-5277
▁स्वास्थ्यको	-5278
▁आयोजनाहरुबाट	-5279
▁क्षेत्रहरुको	-5280
▁क्षेत्रहरूको	-5281
▁छुट्टाछुट्टै	-5282
▁परमप्रभुमाथि	-5283
▁पर्यवेक्षकको	-5284
▁पुनरावलोकनको	-5285
▁प्रतिष्ठानको	-5286
▁प्रधानमन्त्र	-5287
▁प्रभावकारीता	-5288
▁सर्वशक्तिमान	-5289
▁इस्राएलीहरूको	-5290
▁कार्यान्वयनका	-5291
▁कार्यान्वयनको	-5292
▁प्रयोगकर्ताले	-5293
HAR	-5294
att	-5295
for	-5296
gin	-5297
ibu	-5298
inx	-5299
alu	-5300
ःशु	-5301
इनँ	-5302
कुद	-5303
खरै	-5304
खीत	-5305
गठन	-5306
चाई	-5307
जुर	-5308
टोल	-5309
ट्स	-5310
ततत	-5311
नोम	-5312
पटक	-5313
पणी	-5314
पोत	-5315
प्स	-5316
बीच	-5317
बोत	-5318
भीत	-5319
ययय	-5320
रेख	-5321
लसि	-5322
वील	-5323
शूब	-5324
शूर	-5325
ससस	-5326
सोस	-5327
हसी	-5328
होर	-5329
ाबढ	-5330
ेसह	-5331
▁%.	-5332
▁0.	-5333
▁10	-5334
▁AI	-5335
▁CP	-5336
▁bu	-5337
▁ty	-5338
▁औस	-5339
▁०१	-5340
▁४०	-5341
▁४४	-5342
▁६५	-5343
▁७५	-5344
▁७९	-5345
▁(	-5346
alue	-5347
attr	-5348
ँडाई	-5349
इदिए	-5350
उन्ट	-5351
एनन्	-5352
ककका	-5353
कर्म	-5354
कशमा	-5355
किका	-5356
किने	-5357
कुनै	-5358
कुमा	-5359
क्कै	-5360
क्यौ	-5361
क्सि	-5362
गञ्ज	-5363
गन्ज	-5364
गर्न	-5365
गुरू	-5366
घाटा	-5367
ङ्घन	-5368
चाहि	-5369
चौरा	-5370
जस्व	-5371
ज्यु	-5372
टीको	-5373
टुको	-5374
डिया	-5375
डोमा	-5376
ड्डी	-5377
ढ्ने	-5378
णीको	-5379
तिफन	-5380
त्सव	-5381
थ्यौ	-5382
दूषण	-5383
नातक	-5384
निकल	-5385
न्ट्	-5386
न्डो	-5387
न्थे	-5388
न्सी	-5389
परित	-5390
परीत	-5391
प्सन	-5392
फिला	-5393
बितर	-5394
ब्बर	-5395
ब्रे	-5396
मतको	-5397
मस्प	-5398
मूलन	-5399
६३	-5400
▁ई	-5401
ग्द	-5402
डित	-5403
डेट	-5404
दीट	-5405
बडी	-5406
लीन	-5407
शाक	-5408
ेही	-5409
▁नज	-5410
▁३२	-5411
एण्ड	-5412
कसँग	-5413
चालन	-5414
डीको	-5415
डेटर	-5416
डेरी	-5417
पूरा	-5418
मेरी	-5419
मोहर	-5420
म्भी	-5421
यत्न	-5422
रदान	-5423
रिदम	-5424
रेखा	-5425
र्चा	-5426
र्सि	-5427
लागि	-5428
लीलो	-5429
ल्की	-5430
ल्ये	-5431
वववव	-5432
वायु	-5433
वासी	-5434
वैधा	-5435
व्यव	-5436
शक्य	-5437
शांश	-5438
श्मा	-5439
संशो	-5440
साएर	-5441
सुरू	-5442
सुलभ	-5443
सेवा	-5444
स्की	-5445
हकको	-5446
हावट	-5447
होरो	-5448
ाननन	-5449
ृष्ठ	-5450
ेतना	-5451
ेतेर	-5452
ेम्ब	-5453
ैँया	-5454
ोरखा	-5455
▁"//	-5456
▁%.2	-5457
▁--;	-5458
▁BAR	-5459
▁GDM	-5460
▁dig	-5461
▁for	-5462
▁अअअ	-5463
▁अघा	-5464
▁अनग	-5465
▁अबी	-5466
▁आषा	-5467
▁इकल	-5468
▁उखु	-5469
▁उठे	-5470
▁ओपे	-5471
▁कयि	-5472
▁कसम	-5473
▁कसू	-5474
▁कोर	-5475
▁खाए	-5476
▁गधा	-5477
▁गयल	-5478
▁गाई	-5479
▁गोश	-5480
▁घोड	-5481
▁चिज	-5482
▁जुम	-5483
▁झुट	-5484
▁झूट	-5485
▁टाढ	-5486
▁डबल	-5487
▁ढुक	-5488
▁तृत	-5489
▁तेज	-5490
▁थिइ	-5491
▁दीन	-5492
▁दोश	-5493
▁दोस	-5494
▁नहो	-5495
▁नोभ	-5496
▁पिछ	-5497
▁पेट	-5498
▁पोभ	-5499
tem	-5500
एकी	-5501
कुट	-5502
टौं	-5503
नवे	-5504
मेट	-5505
रोक	-5506
▁एज	-5507
▁एस	-5508
▁फा	-5509
ंदैन	-5510
क्वे	-5511
पचाप	-5512
फायट	-5513
बोला	-5514
लयमा	-5515
लेखा	-5516
वश्य	-5517
▁एयर	-5518
▁जब्	-5519
▁टाउ	-5520
▁ट्र	-5521
▁फुट	-5522
▁बदर	-5523
▁बीज	-5524
▁बील	-5525
▁बैक	-5526
▁भें	-5527
▁मसि	-5528
▁महल	-5529
▁मोर	-5530
▁मौख	-5531
▁मौज	-5532
▁याई	-5533
▁येन	-5534
▁रोप	-5535
▁लुट	-5536
▁लूत	-5537
▁विस	-5538
▁शेक	-5539
▁सरह	-5540
▁सवै	-5541
▁हमो	-5542
▁११५	-5543
▁११९	-5544
▁१९७	-5545
▁५००	-5546
value	-5547
अक्षम	-5548
कसैको	-5549
काबाट	-5550
कालको	-5551
किकात	-5552
केडीई	-5553
क्वाय	-5554
गावाट	-5555
ग्दलि	-5556
ग्रहण	-5557
जदारी	-5558
जर्सी	-5559
जापान	-5560
जार्ड	-5561
जिप्ट	-5562
ज्जित	-5563
ज्ञात	-5564
ञ्चित	-5565
टौंडा	-5566
डब्लु	-5567
तपाईं	-5568
दैछन्	-5569
धित्व	-5570
नियाँ	-5571
नीीीी	-5572
नुवाई	-5573
नैतिक	-5574
न्वित	-5575
पट्टी	-5576
पतिको	-5577
पतिले	-5578
पत्ति	-5579
परिवे	-5580
पर्दो	-5581
पातले	-5582
पोष्ट	-5583
प्पणी	-5584
फिकको	-5585
फिलाट	-5586
बोर्ड	-5587
माकरण	-5588
मिलाप	-5589
मीनको	-5590
म्पति	-5591
म्परा	-5592
म्बाई	-5593
म्भीर	-5594
याहका	-5595
रहन्छ	-5596
रामको	-5597
र्कमा	-5598
र्भिक	-5599
MR	-5600
on	-5601
तल	-5602
MRa	-5603
ँडी	-5604
डीज	-5605
पतन	-5606
मिट	-5607
रोद	-5608
लात	-5609
हदद	-5610
ाँत	-5611
ेली	-5612
ोकल	-5613
▁उड	-5614
▁चर	-5615
▁६७	-5616
MRaw	-5617
एलको	-5618
तिहा	-5619
पीएन	-5620
मरोद	-5621
म्री	-5622
व्या	-5623
साँच	-5624
सितै	-5625
हिरो	-5626
ाँचो	-5627
िप्त	-5628
ेसको	-5629
ोकका	-5630
्रेम	-5631
▁उखे	-5632
▁लोक	-5633
▁सघन	-5634
▁सरो	-5635
▁हाइ	-5636
नीलाई	-5637
भुँडी	-5638
लङ्घन	-5639
लिभरी	-5640
लीलोत	-5641
ल्छन्	-5642
वारको	-5643
शासित	-5644
शीलता	-5645
श्चित	-5646
संचार	-5647
सेन्स	-5648
स्केप	-5649
स्तखत	-5650
हुन्छ	-5651
होनले	-5652
ात्मक	-5653
ाराजा	-5654
ारोपण	-5655
ित्तो	-5656
िदिनु	-5657
ृत्ति	-5658
ेर्ने	-5659
ेसनको	-5660
ोग्ने	-5661
ोड्ने	-5662
्यकता	-5663
्यययय	-5664
्रेजी	-5665
्रेता	-5666
▁type	-5667
▁अङ्ग	-5668
▁अट्ट	-5669
▁अनाज	-5670
▁अल्ट	-5671
▁अल्प	-5672
▁आईडी	-5673
▁आचार	-5674
▁आदान	-5675
▁आपसी	-5676
▁आवास	-5677
▁आश्र	-5678
▁आषाढ	-5679
▁उजूर	-5680
▁उडने	-5681
▁उत्त	-5682
▁उन्न	-5683
▁उपास	-5684
▁उमार	-5685
▁उम्र	-5686
▁उसकी	-5687
▁एकदम	-5688
▁एकाइ	-5689
▁एवील	-5690
▁कठोर	-5691
▁कनान	-5692
▁कसले	-5693
▁कहात	-5694
▁काली	-5695
▁खजूर	-5696
▁खाएर	-5697
▁खानु	-5698
▁खुल्	-5699
▁ा	-5700
ंसा	-5701
ग्न	-5702
ञ्छ	-5703
दैं	-5704
फान	-5705
र्द	-5706
लगा	-5707
शिष	-5708
ूला	-5709
▁"'	-5710
▁घम	-5711
▁७६	-5712
कायम	-5713
ठूला	-5714
त्नु	-5715
द्रो	-5716
रहरू	-5717
र्थे	-5718
लोमी	-5719
साही	-5720
सेयर	-5721
ितिय	-5722
ुक्त	-5723
्रोन	-5724
▁अड्	-5725
▁घेर	-5726
▁तीव	-5727
▁नदि	-5728
▁नेट	-5729
▁रद्	-5730
काउनु	-5731
कासको	-5732
निएको	-5733
न्नको	-5734
िम्रो	-5735
▁आशिष	-5736
▁कालो	-5737
▁क्षण	-5738
▁गरिन	-5739
▁गरीब	-5740
▁गरेन	-5741
▁गाली	-5742
▁गिदो	-5743
▁गिला	-5744
▁गुमा	-5745
▁घरको	-5746
▁चढाए	-5747
▁चालक	-5748
▁चाहा	-5749
▁चुलो	-5750
▁चौडा	-5751
▁छाडी	-5752
▁छाडे	-5753
▁छिन्	-5754
▁छोटो	-5755
▁जमिन	-5756
▁जर्म	-5757
▁जादू	-5758
▁जीवि	-5759
▁जेथा	-5760
▁झापा	-5761
▁झिका	-5762
▁टायल	-5763
▁टोली	-5764
▁ट्रा	-5765
▁ठक्क	-5766
▁ठाडो	-5767
▁डकपु	-5768
▁डण्ड	-5769
▁डरला	-5770
▁ढोका	-5771
▁तहले	-5772
▁तुरु	-5773
▁तोकी	-5774
▁थोरै	-5775
▁दलका	-5776
▁दाँत	-5777
▁दाबी	-5778
▁देवी	-5779
▁धारण	-5780
▁धूलो	-5781
▁नक्क	-5782
▁नखाऊ	-5783
▁नजीक	-5784
▁नपर्	-5785
▁नामः	-5786
▁नायक	-5787
▁नेको	-5788
▁नेगे	-5789
▁पछ्य	-5790
▁पठाई	-5791
▁पदया	-5792
▁पपअप	-5793
▁पापी	-5794
▁पिछड	-5795
▁पीडा	-5796
▁पूरै	-5797
▁पेशा	-5798
▁फाँट	-5799
नौ	-5800
शल	-5801
विन	-5802
शिय	-5803
सूल	-5804
हाड	-5805
हिन	-5806
ेशन	-5807
▁चू	-5808
▁पं	-5809
▁२६	-5810
अन्य	-5811
दियो	-5812
विद्	-5813
ाचार	-5814
ूभयो	-5815
▁कोड	-5816
▁कोण	-5817
▁तरै	-5818
▁दिँ	-5819
▁पङ्	-5820
▁शमा	-5821
▁साय	-5822
▁हटा	-5823
▁हाग	-5824
▁हेब	-5825
ibute	-5826
उँछन्	-5827
दर्ता	-5828
देशको	-5829
नुमान	-5830
पर्धा	-5831
यक्ति	-5832
ित्रो	-5833
ेशनको	-5834
्दछन्	-5835
▁चुने	-5836
▁छोडी	-5837
▁तिरी	-5838
▁तिरो	-5839
▁दिला	-5840
▁ध्या	-5841
▁फोटो	-5842
▁फ्रि	-5843
▁बज्र	-5844
▁बढदै	-5845
▁बनाई	-5846
▁बाटा	-5847
▁बारा	-5848
▁बासि	-5849
▁बेगर	-5850
▁भरमा	-5851
▁भैरह	-5852
▁भोका	-5853
▁भोलि	-5854
▁मद्य	-5855
▁मर्फ	-5856
▁महला	-5857
▁मागे	-5858
▁माटो	-5859
▁माया	-5860
▁मेका	-5861
▁याकू	-5862
▁यादा	-5863
▁युनि	-5864
▁योआब	-5865
▁रनिङ	-5866
▁रिब्	-5867
▁रीति	-5868
▁लगाऊ	-5869
▁लाने	-5870
▁लिखत	-5871
▁वन्य	-5872
▁वाधा	-5873
▁शरीर	-5874
▁शाऊल	-5875
▁शारी	-5876
▁शाहव	-5877
▁शुल्	-5878
▁शेयर	-5879
▁शोका	-5880
▁सँधै	-5881
▁संसा	-5882
▁सङ्ध	-5883
▁सटही	-5884
▁सधैँ	-5885
▁सफाई	-5886
▁समयम	-5887
▁सरदर	-5888
▁सराप	-5889
▁साँझ	-5890
▁साइज	-5891
▁सायद	-5892
▁सिक्	-5893
▁सुती	-5894
▁स्थल	-5895
▁हजुर	-5896
▁हत्त	-5897
▁हवाई	-5898
▁हारू	-5899
ँही	-5900
उत्	-5901
ज्र	-5902
तिह	-5903
दका	-5904
बाइ	-5905
संस	-5906
▁९०	-5907
ंकित	-5908
उँदै	-5909
त्मा	-5910
नजिक	-5911
प्रे	-5912
बारे	-5913
शुली	-5914
सर्ग	-5915
ाइने	-5916
िनाई	-5917
िष्ट	-5918
▁असा	-5919
▁उही	-5920
▁करण	-5921
▁गिर	-5922
▁जनग	-5923
▁झिक	-5924
▁भना	-5925
▁साद	-5926
▁हल्	-5927
आत्मा	-5928
तिहाइ	-5929
विष्ट	-5930
्राहल	-5931
▁करणी	-5932
▁जनगण	-5933
▁जलमा	-5934
▁जोडी	-5935
▁दिएर	-5936
▁बन्ध	-5937
▁भनाई	-5938
▁सानी	-5939
▁हिजक	-5940
▁हिलो	-5941
▁हेरि	-5942
▁ह्रा	-5943
▁२०२०	-5944
▁२०२१	-5945
▁२०४८	-5946
▁२०६४	-5947
ँडाईका	-5948
ःशुल्क	-5949
अधिकार	-5950
आयोजना	-5951
इरहेको	-5952
कककााा	-5953
कर्पोर	-5954
कुञ्जी	-5955
कुमारी	-5956
क्यौता	-5957
क्षमता	-5958
क्सिजन	-5959
गुरूले	-5960
गोरिदम	-5961
ग्राहक	-5962
तेस्रो	-5963
त्यक्ष	-5964
द्रोही	-5965
नजिकको	-5966
नात्मक	-5967
नामिना	-5968
नेछैनौ	-5969
न्दर्य	-5970
न्देही	-5971
पर्नेछ	-5972
पिताले	-5973
प्रचार	-5974
प्रधान	-5975
प्रमुख	-5976
ब्रोले	-5977
मस्पेस	-5978
म्मानु	-5979
यसकारण	-5980
याइनेछ	-5981
योगिता	-5982
रेखाको	-5983
लन्छन्	-5984
लाग्ने	-5985
ल्लाले	-5986
श्माएल	-5987
संशोधन	-5988
संस्था	-5989
सम्मका	-5990
सहरुको	-5991
स्केवा	-5992
स्वरुप	-5993
हरुबीच	-5994
ाँउछौं	-5995
ाउनेछु	-5996
ितासँग	-5997
ीकरणको	-5998
ौजदारी	-5999
RS	-6000
if	-6001
आर	-6002
एफ	-6003
ोष	-6004
▁n	-6005
खुद	-6006
घाउ	-6007
दात	-6008
फ्र	-6009
बहि	-6010
िमि	-6011
▁nb	-6012
▁फस	-6013
▁भव	-6014
▁रथ	-6015
कबाट	-6016
जकको	-6017
म्ना	-6018
रबाट	-6019
ल्या	-6020
वर्ड	-6021
सञ्च	-6022
स्वा	-6023
्याफ	-6024
▁nbs	-6025
▁गरा	-6026
▁घाँ	-6027
▁चरा	-6028
▁छिम	-6029
▁नाक	-6030
▁राह	-6031
▁सिक	-6032
दालाई	-6033
नाबाट	-6034
विश्व	-6035
ित्ती	-6036
ोषजनक	-6037
▁nbsp	-6038
▁आइन्	-6039
▁जूवा	-6040
▁तोकि	-6041
▁पिसी	-6042
▁विमा	-6043
▁श्रा	-6044
▁सघाउ	-6045
त्यादि	-6046
बिक्री	-6047
बिन्दु	-6048
माईहरू	-6049
सञ्चार	-6050
ौलाहरू	-6051
्यान्ड	-6052
्व्व्व	-6053
▁PMRaw	-6054
▁value	-6055
▁अग्लो	-6056
▁अडियो	-6057
▁अन्डर	-6058
▁अरुले	-6059
▁अवकाश	-6060
▁आइरहे	-6061
▁आएकोछ	-6062
▁आगोमा	-6063
▁आफैले	-6064
▁आबद्ध	-6065
▁आरोहण	-6066
▁आवश्य	-6067
▁आश्रय	-6068
▁इगर्स	-6069
▁इट्टा	-6070
▁इसहाक	-6071
▁उजुरी	-6072
▁उत्सव	-6073
▁उपभोग	-6074
▁उपर्य	-6075
▁उभियो	-6076
▁एकपटक	-6077
▁एलाका	-6078
▁ओपेरा	-6079
▁कचौरा	-6080
▁कमारा	-6081
▁कलेजो	-6082
▁कहाती	-6083
▁काउन्	-6084
▁कामका	-6085
▁कामना	-6086
▁कायमै	-6087
▁कारोब	-6088
▁किनार	-6089
▁किसान	-6090
▁कुलका	-6091
▁कोशिश	-6092
▁कोशिस	-6093
▁कोषले	-6094
▁क्याट	-6095
▁क्यास	-6096
▁खडेरी	-6097
▁खाँचो	-6098
▁खेलका	-6099
.–	-6100
ex	-6101
ृय	-6102
०४	-6103
धनी	-6104
नीत	-6105
नेक	-6106
मीर	-6107
राइ	-6108
रात	-6109
र्व	-6110
वाल	-6111
ाँड	-6112
ितर	-6113
ूरा	-6114
ोमा	-6115
्वा	-6116
१००	-6117
▁नी	-6118
मानी	-6119
रानी	-6120
लान्	-6121
सर्व	-6122
सारी	-6123
्याट	-6124
्रेड	-6125
▁गते	-6126
▁गाँ	-6127
▁जाँ	-6128
▁जोग	-6129
▁तार	-6130
▁पनी	-6131
▁पुर	-6132
▁प्य	-6133
▁भाँ	-6134
▁यरी	-6135
▁विल	-6136
▁होट	-6137
ंङ्गा	-6138
पुञ्ज	-6139
पोलिस	-6140
म्ररी	-6141
ाउँछौ	-6142
ेकोमा	-6143
▁अनेक	-6144
▁कार्	-6145
▁खमीर	-6146
▁चिन्	-6147
▁ज्वा	-6148
▁तितर	-6149
▁तेरो	-6150
▁बोका	-6151
▁मनोर	-6152
▁मसँग	-6153
▁रुको	-6154
▁हमात	-6155
▁होटल	-6156
▁२०३८	-6157
शस्त्र	-6158
सर्वदा	-6159
िरहेको	-6160
्राहलय	-6161
▁खोलेर	-6162
▁गधामा	-6163
▁गरिएन	-6164
▁गरिनँ	-6165
▁गरिबी	-6166
▁गरून्	-6167
▁गरेकी	-6168
▁गहिरो	-6169
▁गार्ह	-6170
▁गुप्त	-6171
▁गुहार	-6172
▁गैरका	-6173
▁गोरखा	-6174
▁ग्याफ	-6175
▁घमण्ड	-6176
▁घरहरू	-6177
▁घराना	-6178
▁चढाउन	-6179
▁चयनमा	-6180
▁चर्चा	-6181
▁छरितो	-6182
▁छविको	-6183
▁छाडयौ	-6184
▁छुट्ट	-6185
▁छेउको	-6186
▁छेऊमा	-6187
▁छोडयौ	-6188
▁जनाले	-6189
▁जन्मै	-6190
▁जमानत	-6191
▁जल्दछ	-6192
▁जल्दै	-6193
▁जालमा	-6194
▁जिनोम	-6195
▁जोनाथ	-6196
▁झरेको	-6197
▁झुण्ड	-6198
▁टाउको	-6199
HT	-6200
SO	-6201
▁+	-6202
HTM	-6203
ISO	-6204
क्छ	-6205
गति	-6206
तना	-6207
नाउ	-6208
नाऊ	-6209
नाश	-6210
्चै	-6211
▁KG	-6212
▁ht	-6213
▁आख	-6214
▁आव	-6215
▁जं	-6216
▁दै	-6217
▁नर	-6218
▁फु	-6219
▁बद	-6220
▁ित	-6221
HTML	-6222
च्छा	-6223
नुको	-6224
म्मै	-6225
र्ति	-6226
स्नु	-6227
िङ्ग	-6228
▁KGp	-6229
▁आर्	-6230
▁कसु	-6231
▁कूल	-6232
▁गरग	-6233
▁चम्	-6234
▁चेक	-6235
▁जरा	-6236
▁जित	-6237
▁पाई	-6238
▁पाट	-6239
▁यति	-6240
▁लिइ	-6241
▁सहन	-6242
▁१५९	-6243
न्टिङ	-6244
परेको	-6245
पृष्ठ	-6246
मानको	-6247
▁KGpg	-6248
▁आरोप	-6249
▁करीब	-6250
▁गरगह	-6251
▁ढिलो	-6252
▁बताउ	-6253
▁सोफा	-6254
वेदनको	-6255
हरुसँग	-6256
▁इजलास	-6257
▁टिमले	-6258
▁टोकरी	-6259
▁ठक्कर	-6260
▁डराएँ	-6261
▁डलरको	-6262
▁डेइमन	-6263
▁डोर्य	-6264
▁ढुकुर	-6265
▁तथापि	-6266
▁तल्ला	-6267
▁तवरले	-6268
▁तीव्र	-6269
▁तुरही	-6270
▁तृतीय	-6271
▁तेलमा	-6272
▁तोकिद	-6273
▁त्याग	-6274
▁दफामा	-6275
▁दर्शक	-6276
▁दर्शन	-6277
▁दशजना	-6278
▁दशांश	-6279
▁दासको	-6280
▁देखाई	-6281
▁देखाउ	-6282
▁धर्मी	-6283
▁नखानु	-6284
▁नजिकै	-6285
▁नपारी	-6286
▁नहाली	-6287
▁नाबोत	-6288
▁नामको	-6289
▁निदान	-6290
▁नियमन	-6291
▁निर्भ	-6292
▁नोटरी	-6293
▁पक्रन	-6294
▁पछाडी	-6295
▁पछ्या	-6296
▁पाइला	-6297
▁पाएका	-6298
▁पारेर	-6299
er	-6300
fr	-6301
ंस	-6302
कड	-6303
घु	-6304
ूट	-6305
‍ट	-6306
काम	-6307
ठहर	-6308
तीन	-6309
दला	-6310
द्न	-6311
माग	-6312
लिङ	-6313
लोट	-6314
शका	-6315
हिक	-6316
ालु	-6317
्यु	-6318
▁अट	-6319
▁जर	-6320
▁तै	-6321
▁द्	-6322
▁फछ	-6323
▁बट	-6324
▁२८	-6325
ंशीय	-6326
ग्नु	-6327
दीएल	-6328
पहरू	-6329
लेका	-6330
सहरू	-6331
▁उपज	-6332
▁एल्	-6333
▁ग्र	-6334
▁नजर	-6335
र्षद्	-6336
▁अपमा	-6337
▁उद्य	-6338
▁घरका	-6339
▁चालू	-6340
▁जलाई	-6341
▁तिर्	-6342
▁नठहर	-6343
▁निश्	-6344
▁पारा	-6345
▁मबाट	-6346
▁मौसम	-6347
▁लानु	-6348
▁सम्व	-6349
▁हेरे	-6350
▁२०४९	-6351
वालाको	-6352
▁आफूले	-6353
▁एलिया	-6354
▁कान्छ	-6355
▁खोज्न	-6356
▁गरीबी	-6357
▁जान्छ	-6358
▁दानका	-6359
▁परिचय	-6360
▁पर्नु	-6361
▁पालको	-6362
▁पिउँछ	-6363
▁पिलात	-6364
▁पुँजी	-6365
▁पुग्न	-6366
▁पोभरे	-6367
▁पोशाक	-6368
▁प्राप	-6369
▁फलकका	-6370
▁फैसला	-6371
▁फोहोर	-6372
▁फ्रेम	-6373
▁बचतको	-6374
▁बचाउँ	-6375
▁बढ्दो	-6376
▁बढ्ने	-6377
▁बताउन	-6378
▁बतायो	-6379
▁बत्ति	-6380
▁बलिको	-6381
▁बलिया	-6382
▁बलिले	-6383
▁बल्दै	-6384
▁बसेको	-6385
▁बस्दा	-6386
▁बस्नु	-6387
▁बाँड्	-6388
▁बाह्य	-6389
▁बिर्स	-6390
▁बृहत्	-6391
▁बोकेर	-6392
▁बोक्न	-6393
▁बोन्ड	-6394
▁बोलाए	-6395
▁बोल्छ	-6396
▁ब्रुस	-6397
▁भएकोछ	-6398
▁भतिजा	-6399
!”	-6400
):	-6401
-1	-6402
ar	-6403
एम	-6404
औं	-6405
गच	-6406
चक	-6407
डफ	-6408
थ०	-6409
शश	-6410
१७	-6411
२५	-6412
६२	-6413
६५	-6414
‍च	-6415
▁ष	-6416
ऊन्	-6417
कोण	-6418
कोश	-6419
खाल	-6420
चीन	-6421
जाऊ	-6422
पेश	-6423
मेन	-6424
रीक	-6425
िकल	-6426
िको	-6427
▁घा	-6428
▁जौ	-6429
▁मध	-6430
▁सज	-6431
▁सल	-6432
इनमा	-6433
क्षी	-6434
गामी	-6435
टकमा	-6436
डियन	-6437
धारा	-6438
म्पा	-6439
राको	-6440
ूकको	-6441
▁उठा	-6442
▁घुस	-6443
▁होई	-6444
कालिन	-6445
नुहुन	-6446
ाउँनु	-6447
▁आँधी	-6448
▁ग्रि	-6449
▁नारी	-6450
▁विजय	-6451
▁होईन	-6452
णालीमा	-6453
▁अर्कै	-6454
▁आरक्ष	-6455
▁उपदेश	-6456
▁किन्न	-6457
▁गल्ली	-6458
▁छात्र	-6459
▁ड्यास	-6460
▁दिऊन्	-6461
▁नाबाल	-6462
▁पटकमा	-6463
▁बस्तु	-6464
▁बाँडफ	-6465
▁भयभीत	-6466
▁भयानक	-6467
▁भर्नु	-6468
▁भर्ने	-6469
▁भागका	-6470
▁मङ्गल	-6471
▁मनाउन	-6472
▁ममाथि	-6473
▁मरारी	-6474
▁मर्या	-6475
▁मर्यो	-6476
▁मल्की	-6477
▁मसिनो	-6478
▁मासिक	-6479
▁मितिः	-6480
▁मुडीज	-6481
▁मौखिक	-6482
▁म्याक	-6483
▁याशूब	-6484
▁येतेर	-6485
▁रकमको	-6486
▁रगतले	-6487
▁रजस्व	-6488
▁रहस्य	-6489
▁रह्यो	-6490
▁राख्छ	-6491
▁लफायट	-6492
▁लाबान	-6493
▁लेबीय	-6494
▁ल्याई	-6495
▁ल्याउ	-6496
▁वंशका	-6497
▁वर्षे	-6498
▁वाञ्छ	-6499
++	-6500
CT	-6501
MP	-6502
RE	-6503
au	-6504
bo	-6505
ch	-6506
nd	-6507
उभ	-6508
चु	-6509
ठठ	-6510
बब	-6511
यच	-6512
लभ	-6513
शन	-6514
हस	-6515
््	-6516
४१	-6517
▁?	-6518
▁O	-6519
▁x	-6520
इला	-6521
ैठौ	-6522
▁गत	-6523
▁शप	-6524
टनगर	-6525
टबाट	-6526
र्मा	-6527
समेत	-6528
साथै	-6529
सार्	-6530
हजार	-6531
हरको	-6532
हुने	-6533
ाइयो	-6534
ेलिक	-6535
ेशका	-6536
▁कुन	-6537
▁जूम	-6538
▁पसल	-6539
▁पोख	-6540
▁भान	-6541
▁शपथ	-6542
जनाको	-6543
सकेका	-6544
▁उचाइ	-6545
▁उडान	-6546
▁तुरू	-6547
▁नहुन	-6548
▁स्कि	-6549
क्ताले	-6550
यक्तिक	-6551
▁कर्जा	-6552
▁धनीले	-6553
▁नगर्न	-6554
▁पर्सा	-6555
▁फिल्ड	-6556
▁बढाबढ	-6557
▁बनायो	-6558
▁महसूल	-6559
▁मुकुट	-6560
▁वितरक	-6561
▁विदेश	-6562
▁विधान	-6563
▁विनाश	-6564
▁विशाल	-6565
▁विषको	-6566
▁शिरमा	-6567
▁शिविर	-6568
▁शेकेल	-6569
▁संक्ष	-6570
▁संदेश	-6571
▁संभार	-6572
▁संरषण	-6573
▁सकुन्	-6574
▁सकेमा	-6575
▁सक्थे	-6576
▁सजायः	-6577
▁सबैको	-6578
▁समचार	-6579
▁समयको	-6580
▁सस्तो	-6581
▁सहारा	-6582
▁सामना	-6583
▁सामान	-6584
▁सालमा	-6585
▁साविक	-6586
▁सिंढी	-6587
▁सिमोन	-6588
▁सिलसि	-6589
▁सुनको	-6590
▁सुनेर	-6591
▁सैन्य	-6592
▁सौर्य	-6593
▁स्थगन	-6594
▁स्याल	-6595
▁हकहित	-6596
▁हड्डी	-6597
▁हनानी	-6598
▁हप्ता	-6599
((	-6600
DB	-6601
भत	-6602
रर	-6603
सय	-6604
टको	-6605
नेह	-6606
पको	-6607
भुज	-6608
▁अच	-6609
▁अड	-6610
▁एच	-6611
▁झि	-6612
▁तौ	-6613
कत्व	-6614
जाना	-6615
्याह	-6616
▁तिन	-6617
▁बरू	-6618
▁लहर	-6619
ख्यात	-6620
ष्टिक	-6621
▁attr	-6622
▁कागज	-6623
▁चाहि	-6624
▁ढाक्	-6625
▁दलको	-6626
▁नोकर	-6627
▁बनाऊ	-6628
▁लियो	-6629
▁सिधै	-6630
क्टरको	-6631
व्यापी	-6632
स्तविक	-6633
▁आइपुग	-6634
▁एज्रा	-6635
▁कार्ड	-6636
▁खाध्य	-6637
▁गरिन्	-6638
▁दर्जा	-6639
▁नदिने	-6640
▁पट्टि	-6641
▁प्राड	-6642
▁मर्कू	-6643
▁सजावट	-6644
▁सम्झी	-6645
▁साहसी	-6646
▁सिकाए	-6647
▁हराउन	-6648
▁हिंडे	-6649
▁हिसाव	-6650
▁हुँदछ	-6651
अमेरिकी	-6652
इस्राएल	-6653
उत्पादन	-6654
कारवाला	-6655
क्वायरी	-6656
क्ष्यमा	-6657
ग्दलिनी	-6658
छोरीहरू	-6659
जर्सीको	-6660
त्यासित	-6661
दीटोकरी	-6662
देवीघाट	-6663
द्धान्त	-6664
निर्देश	-6665
निर्माण	-6666
नीहरूको	-6667
पेक्षित	-6668
म्परागत	-6669
यापोलिस	-6670
रक्षाको	-6671
र्सिङ्ग	-6672
लिदिन्छ	-6673
वालालाई	-6674
वैधानिक	-6675
संरक्षण	-6676
साँच्चै	-6677
सामान्य	-6678
स्ट्रिङ	-6679
स्पर्धा	-6680
हरुमाथि	-6681
हरूमाथि	-6682
हामीलाई	-6683
हेल्डमा	-6684
ीहरूबाट	-6685
ेम्बरमा	-6686
ेसहोल्ड	-6687
्यात्मक	-6688
▁अगुवाई	-6689
▁अग्रिम	-6690
▁अज्ञात	-6691
▁अधिकतम	-6692
▁अनिकाल	-6693
▁अनुगमन	-6694
▁अनुपात	-6695
▁अनुवाद	-6696
▁अन्यथा	-6697
▁अपराधी	-6698
▁अभावमा	-6699
▁अभिषेक	-6700
▁अमस्या	-6701
▁अम्मोन	-6702
▁अवधिभर	-6703
▁अश्शूर	-6704
▁आँखामा	-6705
▁आइटमको	-6706
▁आउँदैछ	-6707
▁आउनेछु	-6708
▁आकर्षण	-6709
▁आकाशको	-6710
▁आदेशले	-6711
▁आयुक्त	-6712
▁आयोडिन	-6713
▁आरोपित	-6714
▁उनीसित	-6715
▁उपयोगी	-6716
▁उपासना	-6717
▁एक्रोन	-6718
▁एप्रैम	-6719
▁कठिनाई	-6720
▁कन्फिग	-6721
▁कप्तान	-6722
▁कयिनले	-6723
▁कलाकार	-6724
▁काँधमा	-6725
▁कानूनी	-6726
▁कामबाट	-6727
▁किनेका	-6728
▁किस्ता	-6729
▁कुकर्म	-6730
▁कुराले	-6731
▁कुलबाट	-6732
▁केन्या	-6733
▁कैदबाट	-6734
▁क्रमिक	-6735
▁क्षणिक	-6736
▁खजूरका	-6737
▁खटिएका	-6738
▁खण्डमा	-6739
▁खन्छन्	-6740
▁खर्चको	-6741
▁खाम्बा	-6742
▁खुद्रा	-6743
▁खुलेको	-6744
▁खेलकुद	-6745
▁खोजीका	-6746
▁खोल्ने	-6747
▁गणनामा	-6748
▁गम्भीर	-6749
▁गरगहना	-6750
▁गरिदिए	-6751
▁गरिरहे	-6752
▁गरेनन्	-6753
▁गर्छौं	-6754
▁गर्दछौ	-6755
▁गर्यौं	-6756
▁गृहहरू	-6757
▁घुम्ती	-6758
▁घेरेको	-6759
▁चढाउने	-6760
▁चयनबाट	-6761
▁चारवटा	-6762
▁चाहन्छ	-6763
▁चाहेका	-6764
▁चिट्ठी	-6765
▁चुहावट	-6766
▁छाडेका	-6767
▁छान्नु	-6768
▁छाप्रो	-6769
▁छोड्नु	-6770
▁छोप्ने	-6771
▁छोराको	-6772
▁जङ्गली	-6773
▁जनतामा	-6774
▁जनाउँछ	-6775
▁जलवायु	-6776
▁जहाजले	-6777
▁जानेको	-6778
▁जान्छौ	-6779
▁जापानी	-6780
▁जीवनमा	-6781
▁ज्यादै	-6782
▁ज्याला	-6783
▁झुट्ठा	-6784
▁टेबलमा	-6785
▁टेलिफो	-6786
▁ठाँउको	-6787
▁ठाँउमा	-6788
▁ठान्छौ	-6789
▁डराउने	-6790
▁डेइमोन	-6791
▁ढालहरू	-6792
▁तवरबाट	-6793
▁ताल्चा	-6794
▁तिर्खा	-6795
▁तीनजना	-6796
▁तोड्ने	-6797
▁त्यहीं	-6798
▁दक्षता	-6799
▁दम्पति	-6800
▁दस्तखत	-6801
▁दाज्यु	-6802
▁दिनलाई	-6803
▁दिनुहु	-6804
▁दुईवटा	-6805
▁देखेको	-6806
▁देख्नु	-6807
▁देब्रे	-6808
▁देवदार	-6809
▁दोब्बर	-6810
▁दोश्रो	-6811
▁धारामा	-6812
▁नगरेका	-6813
▁नगर्नु	-6814
▁नजिकका	-6815
▁नबढ्ने	-6816
▁नसकिने	-6817
▁नसक्ने	-6818
▁नाउँको	-6819
▁नाघेको	-6820
▁नातिनी	-6821
▁निकाली	-6822
▁निक्षे	-6823
▁नियमले	-6824
▁नियोजन	-6825
▁निर्गत	-6826
▁निर्भय	-6827
▁निस्के	-6828
▁निस्सा	-6829
▁नीतिको	-6830
▁नोडहरू	-6831
▁पकाउनु	-6832
▁पठाएको	-6833
▁परदेशी	-6834
▁पाइएको	-6835
▁पाउदान	-6836
▁पारेको	-6837
▁पार्दा	-6838
▁प्यानल	-6839
▁प्रगति	-6840
▁प्रदेश	-6841
▁प्राणी	-6842
▁प्रायः	-6843
▁प्रेषक	-6844
▁फर्काइ	-6845
▁फर्किए	-6846
▁फर्मको	-6847
▁फ्र्या	-6848
▁बचाउनु	-6849
▁बढाउनु	-6850
▁बनाएका	-6851
▁बनाएको	-6852
▁बलिदान	-6853
▁बस्नेछ	-6854
▁बाँच्न	-6855
▁बाटोको	-6856
▁बादलमा	-6857
▁बापतको	-6858
▁बाबुको	-6859
▁बालकको	-6860
▁बालश्र	-6861
▁बिजकको	-6862
▁बिदाको	-6863
▁बिदामा	-6864
▁बिलियन	-6865
▁बीउहरु	-6866
▁बुनेको	-6867
▁बोक्नु	-6868
▁बोटुको	-6869
▁बोल्ने	-6870
▁भएकहाँ	-6871
▁भएकाले	-6872
▁भक्तजन	-6873
▁भण्डार	-6874
▁भन्दछु	-6875
▁भर्खरै	-6876
▁भाडामा	-6877
▁भीपीएन	-6878
▁भूमिका	-6879
▁भेटघाट	-6880
▁भैरहवा	-6881
▁मनाएका	-6882
▁मनोनीत	-6883
▁मरेनन्	-6884
▁महानगर	-6885
▁मातेका	-6886
▁मात्रा	-6887
▁माथिका	-6888
▁मार्यो	-6889
▁मालपोत	-6890
▁मितिमा	-6891
▁मुकायम	-6892
▁मुखबाट	-6893
▁मुखहरू	-6894
▁मेट्दा	-6895
▁मोआबको	-6896
▁यहाँको	-6897
▁यित्रो	-6898
▁यिशैको	-6899
▁येशूमा	-6900
▁येहूले	-6901
▁रकमबाट	-6902
▁रकमलाई	-6903
▁रकमहरु	-6904
▁रहेनन्	-6905
▁राखिने	-6906
▁राखेका	-6907
▁राख्दछ	-6908
▁रातभरि	-6909
▁रित्तो	-6910
▁रुपबाट	-6911
▁रुपैया	-6912
▁रोकिने	-6913
▁लगाउनु	-6914
▁लगाएको	-6915
▁लगातार	-6916
▁लगिनेछ	-6917
▁लङ्गडो	-6918
▁लज्जित	-6919
▁लडिरहे	-6920
▁लम्बाई	-6921
▁लागेका	-6922
▁लाभांश	-6923
▁लिक्वि	-6924
▁लुकेका	-6925
▁लोग्ने	-6926
▁वर्गीय	-6927
▁वर्षका	-6928
▁विक्रि	-6929
▁विपरित	-6930
▁विपरीत	-6931
▁विभाजन	-6932
▁विश्ले	-6933
▁वेदीमा	-6934
▁शमायाह	-6935
▁शासनका	-6936
▁श्रीषा	-6937
▁संग्रह	-6938
▁संयोजन	-6939
▁सक्तिन	-6940
▁सङ्कलन	-6941
▁सङ्गीत	-6942
▁सजायमा	-6943
▁सञ्चार	-6944
▁सडकहरू	-6945
▁सन्तान	-6946
▁समाजमा	-6947
▁समाधान	-6948
▁समुदाय	-6949
▁समूहगत	-6950
▁सम्मको	-6951
▁सहभागी	-6952
▁सावधान	-6953
▁साहूको	-6954
▁सुन्ने	-6955
▁सुव्यव	-6956
▁सूचीका	-6957
▁सेवाका	-6958
▁सोच्नु	-6959
▁स्टकमा	-6960
▁स्तिफन	-6961
▁स्थलमा	-6962
▁स्नातक	-6963
▁स्वच्छ	-6964
▁स्वागत	-6965
▁हजुरले	-6966
▁हदसम्म	-6967
▁हमातको	-6968
▁हाडहरू	-6969
▁हातहरू	-6970
▁हित्ती	-6971
▁हिम्रो	-6972
▁हुनबाट	-6973
▁हुनेछः	-6974
▁हुनेछन	-6975
▁हुन्छु	-6976
▁हुन्छे	-6977
▁हुर्का	-6978
▁हृदयले	-6979
▁हेर्दै	-6980
▁हैसियत	-6981
आत्माहरू	-6982
क्वेन्सी	-6983
न्त्रकले	-6984
पूजाहारी	-6985
बहिनीहरू	-6986
मन्त्रणा	-6987
स्वीकृति	-6988
▁.......	-6989
▁अक्सिजन	-6990
▁अगमवाणी	-6991
▁अट्टेरी	-6992
▁अदालतले	-6993
▁अधिकारः	-6994
▁अनुकूलन	-6995
▁अनुग्रह	-6996
▁अनुशासन	-6997
▁अन्धकार	-6998
▁अन्नबलि	-6999
▁अपनाउनु	-7000
▁अपराधको	-7001
▁अपवित्र	-7002
▁अपेक्षा	-7003
▁अर्घबलि	-7004
▁अहिलेको	-7005
▁आउँनेछौ	-7006
▁आउनुभयो	-7007
▁आउनेछन्	-7008
▁आत्मामा	-7009
▁आन्द्रा	-7010
▁आयोगबाट	-7011
▁आश्यकता	-7012
▁इत्यादि	-7013
▁इन्गर्स	-7014
▁इलाकामा	-7015
▁इश्माएल	-7016
▁उच्चारण	-7017
▁उन्मूलन	-7018
▁उपयोगमा	-7019
▁उपलब्धि	-7020
▁उपहारको	-7021
▁उपायलाई	-7022
▁एकजनाले	-7023
▁एकभन्दा	-7024
▁एपोदलाई	-7025
▁एलीशाले	-7026
▁कर्कशमा	-7027
▁कर्तब्य	-7028
▁कसूरहरु	-7029
▁कहिल्ये	-7030
▁काँसाको	-7031
▁कालदेखि	-7032
▁किनारमा	-7033
▁कुराबाट	-7034
▁क्रोधको	-7035
▁खुलाउनु	-7036
▁खुल्नेछ	-7037
▁गइरहेको	-7038
▁गराउनका	-7039
▁गराउनको	-7040
▁गरियोस्	-7041
▁गरिरहनु	-7042
▁गर्दैछु	-7043
▁गर्नलाई	-7044
▁गर्भपतन	-7045
▁घटनाहरू	-7046
▁चक्रेटो	-7047
▁चाँदीका	-7048
▁चाहनुहु	-7049
▁चिनियाँ	-7050
▁चिहानमा	-7051
▁छेउसम्म	-7052
▁छोरालाई	-7053
▁छोरीहरू	-7054
▁जग्गामा	-7055
▁जनहरूले	-7056
▁जलमार्ग	-7057
▁जलस्रोत	-7058
▁जहाँबाट	-7059
▁जहाजहरु	-7060
▁जानुभयो	-7061
▁ज्येष्ठ	-7062
▁टिप्पणी	-7063
▁ठहरिएमा	-7064
▁डेलिभरी	-7065
▁ढुकुरको	-7066
▁तथ्याको	-7067
▁तपाईंका	-7068
▁तरिकाले	-7069
▁तहकिकात	-7070
▁ताराहरु	-7071
▁त्यस्को	-7072
▁दिनदेखि	-7073
▁दिन्छन्	-7074
▁दियोलाई	-7075
▁देखिएको	-7076
▁देखिएमा	-7077
▁देख्यौं	-7078
▁द्वारमा	-7079
▁धनात्मक	-7080
▁धिक्कार	-7081
▁ध्यानमा	-7082
▁नलाग्ने	-7083
▁नाओमीले	-7084
▁नानीहरू	-7085
▁नामाकरण	-7086
▁निकुञ्ज	-7087
▁निकृष्ट	-7088
▁निगरानी	-7089
▁निलम्बन	-7090
▁निष्काश	-7091
▁निस्कृय	-7092
▁नेपालमा	-7093
▁नेपालले	-7094
▁नोक्सान	-7095
▁पङ्क्ति	-7096
▁पछ्याउन	-7097
▁पटकसम्म	-7098
▁पत्रिका	-7099
▁परिप्रे	-7100
▁परिषदको	-7101
▁पर्थ्यो	-7102
▁पर्दाको	-7103
▁पारिएको	-7104
▁पार्षद्	-7105
▁पावललाई	-7106
▁पासवर्ड	-7107
▁पितासँग	-7108
▁पूँजीको	-7109
▁पृष्ठमा	-7110
▁पेटेण्ट	-7111
▁पेन्टिङ	-7112
▁प्रयत्न	-7113
▁प्रवृति	-7114
▁प्रशंसा	-7115
▁प्राचीन	-7116
▁प्लाण्ट	-7117
▁फर्काउन	-7118
▁फाइदाको	-7119
▁फाइलनाम	-7120
▁फाराममा	-7121
▁फैलिएको	-7122
▁फौजदारी	-7123
▁फ्याँकि	-7124
▁बढुवाको	-7125
▁बनाइएको	-7126
▁बनाउँछु	-7127
▁बनाउँदछ	-7128
▁बनाउँने	-7129
▁बनाउनेछ	-7130
▁बहुमतको	-7131
▁बाबेलमा	-7132
▁बिभिन्न	-7133
▁बिशेषता	-7134
▁बैड्ढले	-7135
▁बोर्डले	-7136
▁ब्यहोरा	-7137
▁भएकाछन्	-7138
▁भण्डारण	-7139
▁भन्दछन्	-7140
▁भरपर्दो	-7141
▁भूमिबाट	-7142
▁भूमिलाई	-7143
▁मद्यपान	-7144
▁महाराजा	-7145
▁महिमामय	-7146
▁महिमाले	-7147
▁महिलाको	-7148
▁मान्दैन	-7149
▁मान्यता	-7150
▁माफिकको	-7151
▁मारेनन्	-7152
▁मार्नेछ	-7153
▁मितिबाट	-7154
▁मुलुकको	-7155
▁मुलुकमा	-7156
▁मूर्खता	-7157
▁मेगावाट	-7158
▁मैदानमा	-7159
▁यथाशक्य	-7160
▁युद्धको	-7161
▁यूसुफका	-7162
▁यूसुफले	-7163
▁योशियाह	-7164
▁राजाबाट	-7165
▁राजालाई	-7166
▁राजाहरू	-7167
▁राज्यका	-7168
▁राम्ररी	-7169
▁रुपैँया	-7170
▁लँडाईका	-7171
▁लगाइनेछ	-7172
▁लगानीको	-7173
▁लाभदायक	-7174
▁लालमोहर	-7175
▁लिनुभयो	-7176
▁लेबीयथा	-7177
▁ल्याएको	-7178
▁वर्तमान	-7179
▁वस्तुमा	-7180
▁विजार्ड	-7181
▁विज्ञान	-7182
▁वितरणको	-7183
▁विदेशमा	-7184
▁विभागको	-7185
▁विभागीय	-7186
▁विवादमा	-7187
▁विशिष्ट	-7188
▁विशेषता	-7189
▁वैदेशिक	-7190
▁व्व्व्व	-7191
▁शमूएलको	-7192
▁शारीरिक	-7193
▁शास्त्र	-7194
▁शोकाकुल	-7195
▁संयुक्त	-7196
▁संविधान	-7197
▁संशोधित	-7198
▁संसारको	-7199
▁सक्तैनौ	-7200
▁सङ्धठित	-7201
▁सचिवबाट	-7202
▁सदस्यमा	-7203
▁समक्रमण	-7204
▁समयावधि	-7205
▁समात्नु	-7206
▁समाप्ति	-7207
▁समीक्षा	-7208
▁समूहलाई	-7209
▁समेतलाई	-7210
▁साँच्चि	-7211
▁साँढेको	-7212
▁साथीहरू	-7213
▁सिकाउनु	-7214
▁सिफारिश	-7215
▁सिलाएको	-7216
▁सीमान्त	-7217
▁सीहोनले	-7218
▁सुनुवाई	-7219
▁सुपरिवे	-7220
▁सूचनामा	-7221
▁सूचीकृत	-7222
▁सेनालाई	-7223
▁स्क्रिन	-7224
▁स्थानको	-7225
▁हटाइएको	-7226
▁हनन्याह	-7227
▁हामीसँग	-7228
▁हारूनका	-7229
▁हिँडेको	-7230
▁हुँदाका	-7231
▁हुनुभयो	-7232
▁हुनेछैन	-7233
▁हेटौंडा	-7234
कर्पोरेटि	-7235
न्यामीनको	-7236
प्रणालीमा	-7237
फिलाटेलिक	-7238
स्वास्थ्य	-7239
ाननननीीीी	-7240
्ययययवववव	-7241
▁अंग्रेजी	-7242
▁अगुवालाई	-7243
▁अदालतलाई	-7244
▁अधिकारको	-7245
▁अधिकृतले	-7246
▁अनावश्यक	-7247
▁अनुमतिको	-7248
▁अनुमानित	-7249
▁अर्कालाई	-7250
▁अवधिसम्म	-7251
▁असन्तुलन	-7252
▁आईमाईहरू	-7253
▁आउँनेछन्	-7254
▁आयोजनाका	-7255
▁इसहाकलाई	-7256
▁उत्पादित	-7257
▁उनीहरूका	-7258
▁उल्लङ्घन	-7259
▁उल्लेखित	-7260
▁एप्रैमका	-7261
▁एलाजारले	-7262
▁ऐनबमोजिम	-7263
▁कामदारको	-7264
▁कित्ताको	-7265
▁गणतन्त्र	-7266
▁गरेकाछौं	-7267
▁गर्नेलाई	-7268
▁गुणात्मक	-7269
▁ग्राहकको	-7270
▁घरानालाई	-7271
▁चाहन्छन्	-7272
▁चीजहरूको	-7273
▁जग्गाधनी	-7274
▁जन्माउने	-7275
▁जन्मिएका	-7276
▁जिब्रोले	-7277
▁जिम्मामा	-7278
▁ज्यालामा	-7279
▁झ्यालहरू	-7280
▁डकपुस्तक	-7281
▁डण्डाहरू	-7282
▁डरलाग्दो	-7283
▁ढुङ्गाले	-7284
▁तथ्याङ्क	-7285
▁तपाईँसँग	-7286
▁तपाईंबाट	-7287
▁तपाईंसँग	-7288
▁तुल्याउन	-7289
▁त्यहाँका	-7290
▁दिनभन्दा	-7291
▁दुरूपयोग	-7292
▁दूरसंचार	-7293
▁दैनिकबलि	-7294
▁धनादेशको	-7295
▁नठहरिएमा	-7296
▁नतोकिएको	-7297
▁नसकेकोले	-7298
▁नहुञ्जेल	-7299
▁नहुन्जेल	-7300
▁निःशुल्क	-7301
▁निकाल्नु	-7302
▁नियुक्ति	-7303
▁नियुक्ती	-7304
▁निर्णयको	-7305
▁निर्णयमा	-7306
▁निवेदकको	-7307
▁नेमस्पेस	-7308
▁पत्राचार	-7309
▁पत्रुसले	-7310
▁पदयात्रा	-7311
▁पद्धतिको	-7312
▁परिमाणमा	-7313
▁परिवारले	-7314
▁परिसकेको	-7315
▁पर्नेछन्	-7316
▁पर्नेछैन	-7317
▁पाइरहेका	-7318
▁पापबलिको	-7319
▁पार्नेछु	-7320
▁प्रकार्य	-7321
▁प्रख्यात	-7322
▁प्रभावित	-7323
▁प्रमाणको	-7324
▁बनाउँनेछ	-7325
▁बन्नुभयो	-7326
▁बसिरहेको	-7327
▁बाबेलबाट	-7328
▁बासिन्दा	-7329
▁बिक्रेता	-7330
▁बेलासम्म	-7331
▁बैंकिङ्ग	-7332
▁भन्नेछैन	-7333
▁भविष्यमा	-7334
▁मग्दलिनी	-7335
▁मङ्गलबार	-7336
▁मतप्रचार	-7337
▁मध्येबाट	-7338
▁मनश्शेले	-7339
▁मात्रामा	-7340
▁मानचित्र	-7341
▁मानिससित	-7342
▁मिश्रलाई	-7343
▁मेकानिकल	-7344
▁मेलमिलाप	-7345
▁यन्त्रको	-7346
▁यहूदालाई	-7347
▁याकूबलाई	-7348
▁येशूकहाँ	-7349
▁योजनाहरु	-7350
▁राजस्वको	-7351
▁लगाउँछन्	-7352
▁लाइसेन्स	-7353
▁लिनुभएको	-7354
▁वर्गीकरण	-7355
▁वर्षदेखि	-7356
▁विच्छेदन	-7357
▁विद्रोही	-7358
▁विभागलाई	-7359
▁विराटनगर	-7360
▁वैयक्तिक	-7361
▁व्याख्या	-7362
▁शत्रुलाई	-7363
▁शमूएललाई	-7364
▁शाहवंशीय	-7365
▁शिमोनलाई	-7366
▁श्रेणीको	-7367
▁संयन्त्र	-7368
▁संस्कृति	-7369
▁संस्थापन	-7370
▁संस्थामा	-7371
▁सदस्यहरु	-7372
▁सन्तानको	-7373
▁सन्दूकको	-7374
▁सन्देशमा	-7375
▁समस्याको	-7376
▁समाविष्ट	-7377
▁समितिलाई	-7378
▁समुद्रमा	-7379
▁सरकारलाई	-7380
▁सरकारसँग	-7381
▁सरकारसंग	-7382
▁सर्भरबाट	-7383
▁सर्वसुलभ	-7384
▁सर्वोच्च	-7385
▁ससुरालाई	-7386
▁साझेदारी	-7387
▁सुन्नेछौ	-7388
▁सुरुआतमा	-7389
▁सौन्दर्य	-7390
▁स्वयंलाई	-7391
▁स्वशासित	-7392
▁हजारसम्म	-7393
▁हिजकियाह	-7394
▁हिनामिना	-7395
▁हुनेवाला	-7396
▁हुन्थ्यो	-7397
▁हेक्टरमा	-7398
▁ह्यान्डल	-7399
परमप्रभुले	-7400
परमेश्वरले	-7401
▁attribute	-7402
▁अधिकारहरू	-7403
▁अध्यक्षको	-7404
▁अध्यावधिक	-7405
▁अनुपयुक्त	-7406
▁अन्द्रिया	-7407
▁अल्गोरिदम	-7408
▁अवास्तविक	-7409
▁अस्पतालको	-7410
▁अस्वभाविक	-7411
▁आवश्यक्ता	-7412
▁इभोल्युसन	-7413
▁उद्योगहरु	-7414
▁उपर्युक्त	-7415
▁उपाध्यक्ष	-7416
▁कागजातहरु	-7417
▁कारणहरुले	-7418
▁कारबाहीको	-7419
▁कारोबारको	-7420
▁कारोबारमा	-7421
▁कुराहरूका	-7422
▁कुराहरूले	-7423
▁केन्द्रमा	-7424
▁गुणस्तरीय	-7425
▁गैरसरकारी	-7426
▁गोरखापत्र	-7427
▁छोराहरूको	-7428
▁छोराहरूले	-7429
▁जलविद्युत	-7430
▁जातिहरूले	-7431
▁ठाउँहरूमा	-7432
▁डेस्कटपमा	-7433
▁तपाईंमाथि	-7434
▁तिनीहरुका	-7435
▁तिनीहरुको	-7436
▁तुल्याउँछ	-7437
▁तोकिदिएको	-7438
▁त्यहाँबाट	-7439
▁दर्तावाला	-7440
▁दुःखहरूमा	-7441
▁दृष्टिबाट	-7442
▁देखाँउछौं	-7443
▁देख्दैनन्	-7444
▁नागरिकलाई	-7445
▁नानीहरूले	-7446
▁नियमहरुमा	-7447
▁निवेदनउपर	-7448
▁पंखेटाहरू	-7449
▁परम्परागत	-7450
▁परिमार्जन	-7451
▁परिषद्लाई	-7452
▁परीक्षणको	-7453
▁पर्यटकहरु	-7454
▁पुर्खाहरू	-7455
▁पुर्याएको	-7456
▁पृथ्वीलाई	-7457
▁पैदावारको	-7458
▁प्रणालीको	-7459
▁प्रणालीमा	-7460
▁प्रधानहरू	-7461
▁प्रयासहरु	-7462
▁प्रवृत्ति	-7463
▁प्लाष्टिक	-7464
▁फाइलहरूले	-7465
▁बाँच्दछन्	-7466
▁बिक्रीबाट	-7467
▁बुहारीलाई	-7468
▁मन्दिरबाट	-7469
▁मन्दिरलाई	-7470
▁महिनासम्म	-7471
▁महीनासम्म	-7472
▁मानिसहलाई	-7473
▁मिश्रदेशी	-7474
▁मूर्तिहरू	-7475
▁मूल्याड्ढ	-7476
▁यहूदीयामा	-7477
▁यिनीहरूको	-7478
▁यूहन्नाको	-7479
▁योजनावद्ध	-7480
▁रुपन्देही	-7481
▁रुपैयाँको	-7482
▁रूपैयाँको	-7483
▁लाभान्वित	-7484
▁लिनुपर्ने	-7485
▁वन्यजन्तु	-7486
▁विकल्पलाई	-7487
▁विवरणपत्र	-7488
▁विविधीकरण	-7489
▁विश्वसनीय	-7490
▁विश्वासमा	-7491
▁विषयहरुको	-7492
▁विषयहरुमा	-7493
▁विस्तारका	-7494
▁व्यक्तिगत	-7495
▁व्यवसायमा	-7496
▁संक्षिप्त	-7497
▁संग्राहलय	-7498
▁सञ्चालनको	-7499
▁सन्तोषजनक	-7500
▁समस्याहरू	-7501
▁समुद्रबाट	-7502
▁सर्वोत्तम	-7503
▁सिद्धान्त	-7504
▁सिलसिलामा	-7505
▁सुनिश्चित	-7506
▁सुन्दैनन्	-7507
▁सुम्पिएको	-7508
▁स्वर्गबाट	-7509
▁हनन्याहले	-7510
▁हेरिरहेका	-7511
...........	-7512
पुर्खाहरूको	-7513
हरुमध्येबाट	-7514
▁अँध्यारोले	-7515
▁अप्रत्यक्ष	-7516
▁अभियोगपत्र	-7517
▁अहीमेलेकले	-7518
▁आरक्षभित्र	-7519
▁आश्चर्यजनक	-7520
▁इन्क्वायरी	-7521
▁इन्जिनियरि	-7522
▁इस्राएलबाट	-7523
▁उखेलिदिन्छ	-7524
▁उत्पादकत्व	-7525
▁काठमाडौंका	-7526
▁काठमाडौंमा	-7527
▁कारोबारसँग	-7528
▁कार्यविधिः	-7529
▁कार्यहरूको	-7530
▁कृषकहरुलाई	-7531
▁क्षेत्रबाट	-7532
▁खरिदबिक्री	-7533
▁गार्हस्थ्य	-7534
▁ग्यारेण्टी	-7535
▁चलाउनुहोस्	-7536
▁छोड्नुहोस्	-7537
▁छोराहरूलाई	-7538
▁छोरीहरूलाई	-7539
▁जनशक्तिलाई	-7540
▁जनसंख्याको	-7541
▁जातिहरूलाई	-7542
▁तान्नुहोस्	-7543
▁तिमीहरुसित	-7544
▁तिमीहरूसित	-7545
▁त्रिवर्षीय	-7546
▁थिच्नुहोस्	-7547
▁दरखास्तसाथ	-7548
▁दीर्घकालीन	-7549
▁दृश्यात्मक	-7550
▁नगर्नुहोस्	-7551
▁निमन्त्रणा	-7552
▁निर्देशिका	-7553
▁परिवर्तनका	-7554
▁परिवर्तनले	-7555
▁पुनप्राप्त	-7556
▁पूजाहारीको	-7557
▁पृथ्वीमाथि	-7558
▁प्रकार्यको	-7559
▁प्रवक्ताले	-7560
▁प्रस्तावको	-7561
▁प्रोत्साहन	-7562
▁फरिसीहरूले	-7563
▁बिरुवाजन्य	-7564
▁बुद्धिमानी	-7565
▁बोन्डहरूको	-7566
▁मानिसहरूमा	-7567
▁मालवस्तुको	-7568
▁मिश्रदेशका	-7569
▁मिश्रदेशमा	-7570
▁यरूशलेमबाट	-7571
▁यरूशलेमलाई	-7572
▁यहूदीहरूको	-7573
▁योजनावधिमा	-7574
▁रजिष्ट्रार	-7575
▁रद्दीटोकरी	-7576
▁राजाहरूलाई	-7577
▁लिक्विडेटर	-7578
▁लेवीहरूलाई	-7579
▁व्यवस्थाका	-7580
▁शब्दकुञ्जी	-7581
▁शब्दावलीको	-7582
▁संस्करणसँग	-7583
▁सदस्यहरुले	-7584
▁सम्बद्र्धन	-7585
▁सम्बन्धलाई	-7586
▁सरोकारवाला	-7587
▁सार्नुहोस्	-7588
▁सुन्नुहोस्	-7589
▁सुलेमानलाई	-7590
▁सैनिकहरूले	-7591
▁स्तिफनसलाई	-7592
▁हेल्थपोष्ट	-7593
पुर्खाहरूलाई	-7594
▁अनुप्रयोगको	-7595
▁अनुसन्धानको	-7596
▁अप्रत्यासित	-7597
▁आइमाईहरूलाई	-7598
▁इस्राएलीहरू	-7599
▁उज्जियाहलाई	-7600
▁उद्देश्यहरु	-7601
▁उपभोक्तालाई	-7602
▁कर्पोरेशनको	-7603
▁कानूनबमोजिम	-7604
▁कार्यक्रमले	-7605
▁कार्यक्षमता	-7606
▁खाद्यान्नको	-7607
▁छात्रवृत्ति	-7608
▁जिल्लाहरुको	-7609
▁तिनीहरूदेखि	-7610
▁नगरपालिकाको	-7611
▁नियन्त्रकले	-7612
▁नियन्त्रणको	-7613
▁न्युजर्सीको	-7614
▁न्यूनस्तरको	-7615
▁परमप्रभुबाट	-7616
▁पुनरावृत्ति	-7617
▁पुर्‍याइनेछ	-7618
▁प्रक्रियाको	-7619
▁प्रतियोगिता	-7620
▁प्रतिवेदनको	-7621
▁प्रतिवेदनमा	-7622
▁प्रत्यारोपण	-7623
▁प्रमुखहरूले	-7624
▁प्रयासहरुको	-7625
▁प्रवेशद्वार	-7626
▁मिश्रदेशबाट	-7627
▁मूल्यबृद्धि	-7628
▁रूपान्तरणीय	-7629
▁लेखापरीक्षक	-7630
▁लेखापरीक्षण	-7631
▁ल्याउनुहोस्	-7632
▁वस्तुस्थिति	-7633
▁विद्युततर्फ	-7634
▁विश्वासीहरू	-7635
▁व्यवसायीलाई	-7636
▁व्यापारघाटा	-7637
▁शास्त्रीहरू	-7638
▁सञ्झ्यालहरू	-7639
▁सिकाउनुहोस्	-7640
▁सुदृढीकरणमा	-7641
▁सुपरिवेक्षक	-7642
▁सूचनाद्वारा	-7643
▁स्त्रीहरूले	-7644
▁स्वर्गदूतले	-7645
.............	-7646
▁अगमवक्तहरूको	-7647
▁अनुप्रयोगलाई	-7648
▁अनुमतिपत्रमा	-7649
▁आपूर्तिकर्ता	-7650
▁इन्कर्पोरेटि	-7651
▁कार्यक्रमबाट	-7652
▁कार्यक्रमहरु	-7653
▁कार्यक्षेत्र	-7654
▁कार्यसम्पादन	-7655
▁क्वारेन्टाइन	-7656
▁पदाधिकारीलाई	-7657
▁पर्वतारोहणको	-7658
▁प्रतिनिधित्व	-7659
▁प्रतिरक्षाको	-7660
▁प्रतिस्पर्धा	-7661
▁प्रमाणपत्रको	-7662
▁भक्तजनहरूलाई	-7663
▁मसान्तसम्ममा	-7664
▁मानिसहरूमाथि	-7665
▁मूल्याङ्कनमा	-7666
▁राजपत्रांकित	-7667
▁व्यवस्थापिका	-7668
▁संशोधनद्वारा	-7669
▁संस्थानहरुको	-7670
▁सञ्चयकर्ताको	-7671
▁स्त्रीहरूलाई	-7672
▁हुनुहुन्थ्यो	-7673
▁अगमवक्ताहरुले	-7674
▁अगमवक्ताहरूका	-7675
▁अधिकारक्षेत्र	-7676
▁आवश्यकतानुसार	-7677
▁इस्राएलीहरूका	-7678
▁इस्राएलीहरूले	-7679
▁कर्मचारीहरुको	-7680
▁कार्यान्वयनमा	-7681
▁केन्द्रहरुबाट	-7682
▁क्षतिपूर्तिको	-7683
▁चाहनुहुन्थ्यो	-7684
▁न्यायाधिकरणका	-7685
▁न्यायाधिकरणमा	-7686
▁पलिश्तीहरूसँग	-7687
▁पूजाहारीहरूको	-7688
▁पूर्वस्वीकृति	-7689
▁प्रतिवेदनमाथि	-7690
▁प्रेरितहरूलाई	-7691
▁बोलपत्रदाताले	-7692
▁मेलमिलापकर्ता	-7693
▁राष्ट्रहरूलाई	-7694
▁विश्वासद्वारा	-7695
▁व्यापारीहरूले	-7696
...............	-7697
्ययययववववस्स्स्	-7698
▁आयोजनाअन्तर्गत	-7699
▁निर्माणकार्यको	-7700
▁परिप्रेक्ष्यमा	-7701
▁प्रयोगकार्ताको	-7702
▁प्रस्तावदाताको	-7703
▁ह्यान्डहेल्डमा	-7704
▁इजाजतपत्रवालाले	-7705
▁मन्त्रिपरिषद्को	-7706
▁विश्वविद्यालयले	-7707
-12	-7708
550	-7709
End	-7710
RES	-7711
and	-7712
arr	-7713
bos	-7714
box	-7715
eig	-7716
fau	-7717
fer	-7718
hif	-7719
his	-7720
iff	-7721
iss	-7722
एफ्	-7723
कगच	-7724
गचभ	-7725
चसय	-7726
ठठठ	-7727
धयच	-7728
भतज	-7729
लमन	-7730
शशश	-7731
०४५	-7732
१६ख	-7733
२७९	-7734
७४९	-7735
९२३	-7736
▁50	-7737
▁OF	-7738
▁TR	-7739
▁ch	-7740
▁षड	-7741
▁ाक	-7742
▁िझ	-7743
,550	-7744
-12)	-7745
Barr	-7746
KDED	-7747
bose	-7748
efau	-7749
egin	-7750
ffer	-7751
gKDE	-7752
gini	-7753
heig	-7754
hift	-7755
issi	-7756
mand	-7757
tbox	-7758
आमेन	-7759
आरडी	-7760
एनान	-7761
कगचख	-7762
कबोल	-7763
खिनु	-7764
ग्नल	-7765
चुरू	-7766
च्‍च	-7767
डीएफ	-7768
थ्रु	-7769
दथिए	-7770
दलाल	-7771
दलाह	-7772
धयचप	-7773
नविन	-7774
नवेब	-7775
न्शल	-7776
पहाड	-7777
पेशी	-7778
फोटक	-7779
बानो	-7780
मपाइ	-7781
रररक	-7782
विनत	-7783
ष्‍ट	-7784
संसद	-7785
सक्छ	-7786
सूरा	-7787
हिनप	-7788
ाँघु	-7789
ाजको	-7790
्‍चा	-7791
▁(((	-7792
▁100	-7793
▁101	-7794
▁150	-7795
▁DCT	-7796
▁Kex	-7797
▁Ope	-7798
▁SMP	-7799
▁bul	-7800
▁tex	-7801
▁अंह	-7802
▁आवस	-7803
▁ईफा	-7804
▁औसत	-7805
▁खूद	-7806
▁घाम	-7807
▁झिल	-7808
▁तौल	-7809
▁पकड	-7810
▁सँध	-7811
▁हूश	-7812
▁िझम	-7813
▁िबढ	-7814
▁ुखु	-7815
▁२८ख	-7816
▁३१३	-7817
ggKDE	-7818
ginie	-7819
uffer	-7820
इकसँग	-7821
इच्छा	-7822
इदियो	-7823
उन्टे	-7824
किमले	-7825
केल्न	-7826
क्काप	-7827
खजाना	-7828
ज्दात	-7829
टनलगा	-7830
टामिन	-7831
तीनपु	-7832
ददशशश	-7833
धीीीी	-7834
न्डिङ	-7835
परेकै	-7836
पार्क	-7837
पीडित	-7838
ब्याह	-7839
ब्रोन	-7840
भतजष्	-7841
भुजीय	-7842
माइला	-7843
मितिय	-7844
मिलित	-7845
मोदित	-7846
मोशका	-7847
यटर्स	-7848
र्दशन	-7849
लबानो	-7850
लोटले	-7851
लोडिङ	-7852
ल्याई	-7853
सट्ठी	-7854
साँघु	-7855
सेजको	-7856
हददका	-7857
होशिय	-7858
ाँईमा	-7859
िएट्स	-7860
ितततत	-7861
िम्ती	-7862
िलहरु	-7863
िशुली	-7864
ुरेशन	-7865
ेन्स्	-7866
ोजिकल	-7867
्डोमा	-7868
्तगचभ	-7869
्दैछु	-7870
्युवव	-7871
्रिकल	-7872
‍चिति	-7873
▁((((	-7874
▁HTML	-7875
▁Kexi	-7876
▁SMPT	-7877
▁diff	-7878
▁heig	-7879
▁text	-7880
▁this	-7881
▁अंगत	-7882
▁अअअअ	-7883
▁अअअआ	-7884
▁अचम्	-7885
▁अडेस	-7886
▁अबीग	-7887
▁अमृत	-7888
▁आघात	-7889
▁उखाल	-7890
▁उचाई	-7891
▁एकसय	-7892
▁एनएल	-7893
▁कबोल	-7894
▁करीव	-7895
▁कुशल	-7896
▁खनाउ	-7897
▁खस्न	-7898
▁खालि	-7899
▁AIM	-7900
▁तेई	-7901
▁रीस	-7902
उजुरी	-7903
दिनें	-7904
शिमशो	-7905
सर्जन	-7906
ीमुनि	-7907
्युटो	-7908
▁butt	-7909
▁खाँए	-7910
▁गाइड	-7911
▁घराय	-7912
▁घाँस	-7913
▁घायल	-7914
▁चरेस	-7915
▁चेली	-7916
▁छल्न	-7917
▁छैठौ	-7918
▁जिते	-7919
▁जेएम	-7920
▁झिनो	-7921
▁ढुकक	-7922
▁तँमा	-7923
▁तेईस	-7924
▁तेर्	-7925
▁थोमा	-7926
▁दबाइ	-7927
▁द्धि	-7928
▁धनवा	-7929
▁नरसि	-7930
▁नलगा	-7931
▁पतित	-7932
▁पनीर	-7933
▁फरात	-7934
▁फुका	-7935
▁फोकल	-7936
▁फ्लो	-7937
▁बागी	-7938
▁बेलब	-7939
▁भएनौ	-7940
▁मसला	-7941
▁मुकर	-7942
▁लुइस	-7943
▁वृता	-7944
▁षड्य	-7945
▁सफास	-7946
▁समतल	-7947
▁सरीक	-7948
▁हाइब	-7949
▁ुमान	-7950
▁००००	-7951
▁१९७९	-7952
▁१९८१	-7953
▁१९८३	-7954
▁१९८८	-7955
▁२००६	-7956
Buffer	-7957
efault	-7958
ँडाहरू	-7959
आरडीसी	-7960
इन्डने	-7961
उन्टेन	-7962
कामहरू	-7963
कालोको	-7964
कोणमित	-7965
क्षेपण	-7966
क्ष्लत	-7967
गन्जका	-7968
गर्भिक	-7969
गलीलोत	-7970
गोमेरी	-7971
टनैतिक	-7972
टिटीको	-7973
टेर्ने	-7974
डियामा	-7975
तिहासम	-7976
त्सवको	-7977
थीमुनि	-7978
दातबाट	-7979
दानीमा	-7980
दिन्थे	-7981
नविनतम	-7982
नान्डो	-7983
नालयमा	-7984
नेन्शल	-7985
न्जुरी	-7986
न्डोने	-7987
न्न्न्	-7988
न्स्की	-7989
पुर्ति	-7990
पेशीको	-7991
फेरेन्	-7992
फ्रेटि	-7993
बडीलाई	-7994
बालिका	-7995
बुन्ट्	-7996
बोउच्च	-7997
भाविकछ	-7998
माइन्ड	-7999
▁GP	-8000
▁Km	-8001
▁MI	-8002
▁MO	-8003
▁My	-8004
▁UA	-8005
▁dp	-8006
कलाप	-8007
गबित	-8008
ङ्‍ख	-8009
पूरै	-8010
सानो	-8011
ह्रै	-8012
▁GPL	-8013
▁KmP	-8014
▁MIM	-8015
▁MyS	-8016
▁XDM	-8017
▁कपट	-8018
▁ेप्	-8019
▁४५०	-8020
▁७७२	-8021
ङ्‍कि	-8022
नगबित	-8023
मुदाय	-8024
सियार	-8025
ााादद	-8026
ुरेसन	-8027
ृङ्‍ख	-8028
ोग्यौ	-8029
▁KmPl	-8030
▁MIME	-8031
▁MORE	-8032
▁XDMC	-8033
▁असुर	-8034
▁नदिई	-8035
▁बक्न	-8036
▁रत्न	-8037
▁सकें	-8038
▁सधें	-8039
▁ेप्थ	-8040
▁१०२४	-8041
▁२००८	-8042
ङ्‍किङ	-8043
चुरेसन	-8044
भनगबित	-8045
मागबाट	-8046
म्पाने	-8047
म्मैका	-8048
रखजाना	-8049
रोकिने	-8050
र्मामा	-8051
र्मीले	-8052
लिपल्ट	-8053
लुम्ना	-8054
लोजिकल	-8055
वत्र्य	-8056
शिमशोन	-8057
सदालाई	-8058
समुदाय	-8059
ससससम्	-8060
सार्यो	-8061
स्किमि	-8062
स्फोटक	-8063
होरोपन	-8064
ाउराको	-8065
ाररररक	-8066
िमेण्ट	-8067
ुकताका	-8068
ूरामले	-8069
्रग्रा	-8070
्रेडिय	-8071
्रेडेर	-8072
▁KmPlo	-8073
▁MOREA	-8074
▁XDMCP	-8075
▁sissi	-8076
▁अघाडि	-8077
▁अचम्भ	-8078
▁अड्को	-8079
▁अनगन्	-8080
▁अफसोस	-8081
▁अमासा	-8082
▁अश्शू	-8083
▁आखेटो	-8084
▁आपसमा	-8085
▁आम्ने	-8086
▁आर्जन	-8087
▁आर्टा	-8088
▁आवद्ध	-8089
▁इलाका	-8090
▁ईफानि	-8091
▁उत्रन	-8092
▁एक्सए	-8093
▁एक्स्	-8094
▁औसतको	-8095
▁कठ्ठा	-8096
▁कोटको	-8097
▁कोणका	-8098
▁कोरेस	-8099
alm	-8100
ape	-8101
mor	-8102
ord	-8103
असल	-8104
तोप	-8105
धधक	-8106
ननन	-8107
पढी	-8108
almO	-8109
cape	-8110
more	-8111
ords	-8112
तोले	-8113
दाँई	-8114
र्जक	-8115
लैका	-8116
विखन	-8117
हँको	-8118
हिलै	-8119
ििधध	-8120
▁७७९	-8121
almOS	-8122
scape	-8123
words	-8124
ठनननन	-8125
लैसित	-8126
ष्टाव	-8127
▁पीठो	-8128
▁बिजक	-8129
▁मीठो	-8130
▁सोसल	-8131
moreau	-8132
ywords	-8133
तोपनले	-8134
मोतोले	-8135
ल्लैका	-8136
ििििधध	-8137
▁अहिलै	-8138
▁उहँको	-8139
▁खस्ने	-8140
▁खेद्न	-8141
▁गराइँ	-8142
▁गिदोन	-8143
▁गिलाद	-8144
▁गैह्र	-8145
▁गोशेन	-8146
▁ग्रहण	-8147
▁घडीको	-8148
▁घण्टा	-8149
▁चराले	-8150
▁चापले	-8151
▁छाउरा	-8152
▁छाउरी	-8153
▁छिमेक	-8154
▁जनाऔं	-8155
▁जरयाह	-8156
▁जाँदा	-8157
▁जेष्ठ	-8158
▁जोगिन	-8159
▁टाढिन	-8160
▁ट्रया	-8161
▁डब्लु	-8162
▁ताररह	-8163
▁तुफान	-8164
▁तैयार	-8165
▁तौलनु	-8166
▁थलोको	-8167
▁दिँदै	-8168
▁धनवान	-8169
▁नक्कल	-8170
▁नक्सा	-8171
▁नबनाऊ	-8172
▁नरकमा	-8173
▁नलिने	-8174
▁नविनत	-8175
▁नहोला	-8176
▁नहोस्	-8177
▁निनवे	-8178
▁निश्‍	-8179
▁नेगेब	-8180
▁नेटबु	-8181
▁नोडको	-8182
▁नोभेल	-8183
▁पक्का	-8184
▁पक्वि	-8185
▁पढ्दा	-8186
▁पुरस्	-8187
▁फसलको	-8188
▁फैलाए	-8189
▁फ्रिज	-8190
▁बच्चा	-8191
▁बन्ने	-8192
▁बन्यो	-8193
▁बर्णा	-8194
▁बर्लि	-8195
▁बीजका	-8196
▁बेरेक	-8197
▁बेह्र	-8198
▁ब्राउ	-8199
ORS	-8200
TORS	-8201
ATORS	-8202
▁बाइन	-8203
▁विधे	-8204
▁शोकग	-8205
मारीको	-8206
मिटरका	-8207
सस्थान	-8208
्नेछैन	-8209
▁तस्वि	-8210
▁दोषाए	-8211
▁पठाएन	-8212
▁फिलिप	-8213
▁ब्यार	-8214
▁भतिजी	-8215
▁भरपाइ	-8216
▁भवनको	-8217
▁भवनमा	-8218
▁भोकका	-8219
▁मानेन	-8220
▁मिहिन	-8221
▁मैनाथ	-8222
▁मोरेर	-8223
▁यरीबै	-8224
▁यरीहो	-8225
▁याकूव	-8226
▁यातना	-8227
▁यिशबा	-8228
▁रहबाम	-8229
▁रहेकै	-8230
▁रिसाइ	-8231
▁रेलिङ	-8232
▁रोपनी	-8233
▁र्माण	-8234
▁र्हास	-8235
▁लडछन्	-8236
▁लिइयो	-8237
▁विजोड	-8238
▁विदित	-8239
▁विलाप	-8240
▁विसङ्	-8241
▁वृक्ष	-8242
▁वृद्ध	-8243
▁शर्मा	-8244
▁शलोमी	-8245
▁श्राव	-8246
▁संयमी	-8247
▁सलोमी	-8248
▁ससाना	-8249
▁सादोक	-8250
▁सुत्न	-8251
▁सुनाऊ	-8252
▁सुनें	-8253
▁सोच्न	-8254
▁सोधें	-8255
▁स्नेह	-8256
▁स्मरण	-8257
▁स्याट	-8258
▁स्वरु	-8259
▁हल्लि	-8260
▁हाँगा	-8261
▁हाडना	-8262
▁हिँड्	-8263
▁होउन्	-8264
▁ह्रास	-8265
OBuffer	-8266
SLATORS	-8267
default	-8268
अध्यक्ष	-8269
आयोजनाह	-8270
इच्छाधि	-8271
इन्डनेस	-8272
इम्मानु	-8273
उकुमारी	-8274
कलापहरू	-8275
किरहन्छ	-8276
कुञ्जेल	-8277
कुन्जेल	-8278
केडीईको	-8279
क्रीनिङ	-8280
क्सेकोछ	-8281
खानालाई	-8282
गौलाहरू	-8283
ग्दैछन्	-8284
चालनबाट	-8285
जिलैसित	-8286
ञ्‍चिति	-8287
टनलगायत	-8288
टसहरुको	-8289
तिहाडले	-8290
तिहासमै	-8291
तिहासिक	-8292
धधधीीीी	-8293
नुमानित	-8294
पाजस्ता	-8295
प्तहलाई	-8296
प्ताहिक	-8297
प्रदूषण	-8298
फ्रेटिस	-8299
गिला	-8300
टेटो	-8301
बोअज	-8302
यालु	-8303
ोहले	-8304
ौरान	-8305
▁टिठ	-8306
▁तलव	-8307
▁धुव	-8308
▁नंं	-8309
▁भीख	-8310
▁१६०	-8311
जनशील	-8312
नमूना	-8313
पाटको	-8314
हलेसी	-8315
ुलौरा	-8316
ेयरले	-8317
्रामण	-8318
▁अहीत	-8319
▁चालु	-8320
▁जलेर	-8321
▁दीबो	-8322
▁धुने	-8323
▁धुलो	-8324
▁बेलु	-8325
▁बौरा	-8326
▁भब्य	-8327
▁भयंक	-8328
▁भयले	-8329
▁मीका	-8330
▁मैला	-8331
▁सगूब	-8332
▁हाँक	-8333
छोरीको	-8334
न्तब्य	-8335
फिलिया	-8336
र्त्ता	-8337
▁उभिएर	-8338
▁कमीले	-8339
▁कराउन	-8340
▁काटेर	-8341
▁काट्न	-8342
▁गतिमा	-8343
▁ग्याँ	-8344
▁टाँग्	-8345
▁तानेर	-8346
▁दयालु	-8347
▁दौरान	-8348
▁धुवाँ	-8349
▁भयंकर	-8350
▁भोल्य	-8351
▁मिलेर	-8352
क्षासम्	-8353
गिलादको	-8354
प्रदायक	-8355
बन्न्न्	-8356
ब्यपूरै	-8357
भाविकछअ	-8358
मानोहले	-8359
मेयपत्र	-8360
यनात्मक	-8361
योर्कमा	-8362
र्तिमान	-8363
र्याइयो	-8364
वर्गसंग	-8365
विश्वास	-8366
ष्टावलि	-8367
सर्गबाट	-8368
साँघुरो	-8369
स्किमिड	-8370
स्तचालक	-8371
होशियार	-8372
ह्यान्ड	-8373
ाउँथ्यौ	-8374
िस्तरमा	-8375
ेन्स्गा	-8376
ेरिडियन	-8377
ोत्सवको	-8378
्याट्रि	-8379
्युटोरि	-8380
्युरेशन	-8381
्युववेल	-8382
्रग्राह	-8383
▁KmPlot	-8384
▁PalmOS	-8385
▁height	-8386
▁अगमवाण	-8387
▁अघाएका	-8388
▁अप्रिल	-8389
▁अबीगेल	-8390
▁अमान्य	-8391
▁अवसरका	-8392
▁अवार्ड	-8393
▁असन्तु	-8394
▁असाध्य	-8395
▁अहीतूब	-8396
▁आइटममा	-8397
▁आइपुग्	-8398
▁आरामको	-8399
DMX	-8400
गगग	-8401
छाप	-8402
यअब	-8403
हलल	-8404
्डर	-8405
४१८	-8406
▁BE	-8407
▁In	-8408
▁PO	-8409
ँयअब	-8410
गुठी	-8411
ग्गे	-8412
तुहल	-8413
त्तै	-8414
लियस	-8415
▁DMX	-8416
▁POP	-8417
गगगगत	-8418
घनत्व	-8419
ठाछाप	-8420
तोकिए	-8421
त्तरी	-8422
दूषित	-8423
नियता	-8424
नुहोस	-8425
बेस्ट	-8426
ौतुहल	-8427
▁आगमन	-8428
▁चिठी	-8429
▁नहलल	-8430
▁निडर	-8431
▁पीछा	-8432
▁रूबे	-8433
▁लडाइ	-8434
▁हेडर	-8435
गुठीका	-8436
ग्गेदो	-8437
नीलियस	-8438
माण्डर	-8439
▁अत्तै	-8440
▁जनावर	-8441
▁पुअर्	-8442
▁बर्न्	-8443
▁लडाइँ	-8444
▁साँगु	-8445
अर्कामा	-8446
ौतुहलता	-8447
▁आवाससु	-8448
▁आषाढमा	-8449
▁उखाल्न	-8450
▁उत्तरा	-8451
▁उत्तरी	-8452
▁उत्रेर	-8453
▁उद्यमी	-8454
▁उन्नता	-8455
▁उन्नति	-8456
▁उपसर्ग	-8457
▁उभिइन्	-8458
▁उम्रिए	-8459
▁कमोशका	-8460
▁कराइन्	-8461
▁कलेजको	-8462
▁काटोस्	-8463
▁कान्छो	-8464
▁काम्ने	-8465
▁कार्वन	-8466
▁किगबाट	-8467
▁किन्ने	-8468
▁कुरोको	-8469
▁कुर्सी	-8470
▁कोरहका	-8471
▁कोरेसो	-8472
▁खटाउने	-8473
▁खाँदैन	-8474
▁खालबाट	-8475
▁खुलाएन	-8476
▁गराएका	-8477
▁गरिंदा	-8478
▁गरेनौं	-8479
▁गहुँको	-8480
▁गुमाउन	-8481
▁गोरूको	-8482
▁ग्यारे	-8483
▁ग्रहको	-8484
▁घरायसी	-8485
▁घेर्ने	-8486
▁घोडेटो	-8487
▁चढाइने	-8488
▁चुपचाप	-8489
▁चुम्बन	-8490
▁छकेडीई	-8491
▁छक्काप	-8492
▁छान्ने	-8493
▁छिमेकी	-8494
▁जरासँग	-8495
▁जर्मप्	-8496
▁जान्द्	-8497
▁जिस्की	-8498
▁जोनाथन	-8499
जगी	-8500
▁उभिन	-8501
▁ह्यु	-8502
जगीलाई	-8503
टुक्रा	-8504
ट्याउन	-8505
्यापको	-8506
▁गराएन	-8507
▁बन्दी	-8508
▁बिनाश	-8509
▁ब्याक	-8510
▁मार्प	-8511
म्यापको	-8512
स्थितिप	-8513
ाटुक्रा	-8514
▁गराएमा	-8515
▁झार्नु	-8516
▁झिकाउन	-8517
▁झिलमिल	-8518
▁टिकटको	-8519
▁टिपहरू	-8520
▁टेबलको	-8521
▁टोलीले	-8522
▁ट्रेडि	-8523
▁ठीकसित	-8524
▁डराइनँ	-8525
▁डुङ्गा	-8526
▁डुल्दै	-8527
▁डेटाका	-8528
▁ढोकामा	-8529
▁तँमाथि	-8530
▁तराईका	-8531
▁तराईमा	-8532
▁तिम्ना	-8533
▁तिम्री	-8534
▁तेर्सो	-8535
▁त्यागे	-8536
▁थाल्नु	-8537
▁थिच्दा	-8538
▁दुर्बल	-8539
▁दुर्लभ	-8540
▁दूतहरू	-8541
▁दूरीका	-8542
▁देखरेख	-8543
▁देलान्	-8544
▁धूलोको	-8545
▁नकार्न	-8546
▁नपढेका	-8547
▁नपराको	-8548
▁नपाइने	-8549
▁नसोधिक	-8550
▁नानीकी	-8551
▁निहुरा	-8552
▁नेपोलि	-8553
▁न्यूनी	-8554
▁पक्रने	-8555
▁पक्राउ	-8556
▁पछ्याउ	-8557
▁पठाइने	-8558
▁पाइलोट	-8559
▁पाईएमा	-8560
▁पाउँछु	-8561
▁पाटीमा	-8562
▁पारामि	-8563
▁पार्छन	-8564
▁पार्थे	-8565
▁पिउँदै	-8566
▁पीठोको	-8567
▁पूटबाट	-8568
▁प्रश्‍	-8569
▁फन्टको	-8570
▁फर्काई	-8571
▁फिलाडे	-8572
▁फुलौरा	-8573
▁बनाइयो	-8574
▁बनिएका	-8575
▁बसिरहे	-8576
▁बहुभुज	-8577
▁बालिको	-8578
▁बालीको	-8579
▁बाल्नु	-8580
▁बीमकले	-8581
▁बीमाले	-8582
▁बुझ्दो	-8583
▁बेलयात	-8584
▁बोल्छन	-8585
▁ब्यारी	-8586
▁ब्राउज	-8587
▁भत्काइ	-8588
▁भत्काई	-8589
▁भत्ताः	-8590
▁भन्दैछ	-8591
▁भारदार	-8592
▁भोग्नु	-8593
▁भोल्यु	-8594
▁मधेशका	-8595
▁मल्कीए	-8596
▁महादेव	-8597
▁माटोको	-8598
▁मानवीय	-8599
शनल	-8600
ििि	-8601
तुरा	-8602
वधिः	-8603
वहाल	-8604
ष्िि	-8605
▁पेय	-8606
जरिया	-8607
जाओस्	-8608
टिदेऊ	-8609
पक्षि	-8610
फ्रिक	-8611
भष्िि	-8612
राममा	-8613
ोरममा	-8614
▁अभिम	-8615
▁करिव	-8616
▁गइरह	-8617
▁चोरी	-8618
▁छाडन	-8619
▁द्वि	-8620
▁द्वी	-8621
▁पेनि	-8622
▁पेन्	-8623
▁बहाल	-8624
तुराले	-8625
पक्षका	-8626
परबोला	-8627
पुस्तक	-8628
षाकहरू	-8629
सचिवले	-8630
हाल्यो	-8631
्रेडमा	-8632
▁अभिमु	-8633
▁अभ्या	-8634
▁अल्फा	-8635
▁अविच्	-8636
▁आमाबा	-8637
▁दिदैं	-8638
▁द्वीप	-8639
▁नबूजर	-8640
▁फ्लोर	-8641
▁बनाइब	-8642
▁मारिए	-8643
▁सफलता	-8644
▁साधरण	-8645
दनराममा	-8646
न्याशनल	-8647
प्ताहको	-8648
भष्ििबल	-8649
▁अभिमुख	-8650
▁असरलाई	-8651
▁आधाबाट	-8652
▁खेल्दै	-8653
▁गइरहेक	-8654
▁गर्वमा	-8655
▁छानेका	-8656
▁जुत्ता	-8657
▁ढाक्ने	-8658
▁तिनबाट	-8659
▁थालहरू	-8660
▁दिदैंन	-8661
▁नजाओस्	-8662
▁पहाडमा	-8663
▁पेनिन्	-8664
▁पेन्सा	-8665
▁पेयबलि	-8666
▁फोरममा	-8667
▁मानसिक	-8668
▁मान्ने	-8669
▁मारेका	-8670
▁मारेको	-8671
▁मीकाया	-8672
▁मुनिको	-8673
▁मुलुकी	-8674
▁मृतहरू	-8675
▁मौजदात	-8676
▁यथार्थ	-8677
▁यसैगरी	-8678
▁याईरका	-8679
▁याकूको	-8680
▁यादाका	-8681
▁याशूबी	-8682
▁युनिको	-8683
▁योआबले	-8684
▁रहनुले	-8685
▁रहन्छे	-8686
▁रहन्थे	-8687
▁राजदूत	-8688
▁रिङ्गी	-8689
▁रिब्ला	-8690
▁रुखहरु	-8691
▁रुमिना	-8692
▁रोज्नु	-8693
▁लगइनमा	-8694
▁लङ्गडे	-8695
▁लड्नेछ	-8696
▁लाएलको	-8697
▁लिखितम	-8698
▁लिडिया	-8699
ARC	-8700
ARE	-8701
इजू	-8702
एनौं	-8703
जूदा	-8704
▁उजू	-8705
जेन्ड	-8706
▁पूजे	-8707
▁बाजे	-8708
▁मिठो	-8709
▁वाणी	-8710
ARCHAR	-8711
कपुरमा	-8712
ज्रेली	-8713
▁उजूरी	-8714
▁थर्का	-8715
▁निष्क	-8716
▁माइजू	-8717
कसभित्र	-8718
▁थर्काउ	-8719
▁नेकोका	-8720
▁प्याम्	-8721
▁भाषाका	-8722
▁मौजूदा	-8723
▁लाग्दा	-8724
▁लुकाएर	-8725
▁लुकेकै	-8726
▁लुकेको	-8727
▁वञ्चित	-8728
▁वापतको	-8729
▁विधुवा	-8730
▁विधेयक	-8731
▁विपक्ष	-8732
▁विषालु	-8733
▁विसङ्ध	-8734
▁शकेममा	-8735
▁शरीरका	-8736
▁शुरूवा	-8737
▁शैतानी	-8738
▁शैलीको	-8739
▁श्रावण	-8740
▁सँधैको	-8741
▁संगठनः	-8742
▁संचालक	-8743
▁सत्तरी	-8744
▁सन्तति	-8745
▁सन्सका	-8746
▁सफाईको	-8747
▁समयानु	-8748
▁समाजसे	-8749
▁समीपमा	-8750
▁सरापेर	-8751
▁सहसचिव	-8752
▁साँझको	-8753
▁साइजमा	-8754
▁सामुने	-8755
▁साम्बा	-8756
▁साह्रै	-8757
▁सिंचाई	-8758
▁सिंहको	-8759
▁सिग्नल	-8760
▁सिस्को	-8761
▁सींङको	-8762
▁सुकैको	-8763
▁सुजाना	-8764
▁सुरूमा	-8765
▁सोच्दछ	-8766
▁सोफामा	-8767
▁सौजन्य	-8768
▁स्टेशन	-8769
▁स्वरमा	-8770
▁हत्तूश	-8771
▁हनुमान	-8772
▁हावामा	-8773
▁हिँडाइ	-8774
▁हेर्दा	-8775
▁ह्याकु	-8776
▁िबढ्दो	-8777
▁०१पूरा	-8778
▁.....	-8779
ंशपेशीको	-8780
इच्छाधिन	-8781
उँदासम्म	-8782
कुँडाहरू	-8783
केन्द्री	-8784
क्लन्छन्	-8785
क्ष्लतभि	-8786
ग्गेदोली	-8787
ग्लन्छन्	-8788
चिन्थ्यो	-8789
च्भनगबित	-8790
जेन्ड्रे	-8791
तपाईँसँग	-8792
तपाईंहरू	-8793
देवतालाई	-8794
नर्सिङ्ग	-8795
नाउनेछन्	-8796
निर्देशक	-8797
नुहुनज्न	-8798
न्जुरीले	-8799
SSL	-8800
क्यु	-8801
▁कलङ	-8802
▁भनः	-8803
▁वीच	-8804
▁२२५	-8805
डाईको	-8806
व्दको	-8807
स्पति	-8808
हितमा	-8809
हित्य	-8810
्रिकी	-8811
▁कठीन	-8812
▁कलङक	-8813
▁घुम्	-8814
▁पटके	-8815
▁फछ्य	-8816
▁बल्क	-8817
▁वीरे	-8818
▁वेशी	-8819
▁हलेट	-8820
▁२०५०	-8821
▁२०५८	-8822
क्युरि	-8823
जोरसँग	-8824
ण्डारण	-8825
धारभूत	-8826
नामहरु	-8827
पतिलाई	-8828
लेटहरु	-8829
व्दकोष	-8830
ुल्यौं	-8831
▁Shift	-8832
▁आगोको	-8833
▁आवागम	-8834
▁उभ्या	-8835
▁एकदिन	-8836
▁एलाको	-8837
▁एलीसा	-8838
▁एलीहू	-8839
▁कट्टा	-8840
▁चञ्चल	-8841
▁जस्ती	-8842
▁दायरा	-8843
▁बहुमु	-8844
▁भरिका	-8845
▁रोकथा	-8846
▁शोकको	-8847
▁स्वरू	-8848
आधारभूत	-8849
क्नेहरू	-8850
ञ्चलबाट	-8851
टनामहरु	-8852
द्धाहरू	-8853
भण्डारण	-8854
स्थाकोे	-8855
ाँचिदिए	-8856
ौंडाईको	-8857
▁एदोमका	-8858
▁कठीनता	-8859
▁गरिदिन	-8860
▁गरिदैछ	-8861
▁गर्दिन	-8862
▁घुम्दै	-8863
▁तिर्नु	-8864
▁पशुपति	-8865
▁प्रमूल	-8866
▁फछ्यौट	-8867
▁बटनहरू	-8868
▁बसोवास	-8869
▁भरिदैन	-8870
▁रोकथाम	-8871
▁स्वरूप	-8872
क्युरिटि	-8873
द्धाहरूः	-8874
प्रदेशमा	-8875
फेरेन्सि	-8876
बेस्टसको	-8877
म्पाञ्जी	-8878
म्पानेरि	-8879
युक्तिले	-8880
लान्टामा	-8881
लिपबोर्ड	-8882
विधानहरू	-8883
विन्दुको	-8884
विन्स्की	-8885
विश्वस्त	-8886
वीघाटबाट	-8887
संस्थाले	-8888
सकेकाछन्	-8889
सट्ठीजना	-8890
ससससम्म्	-8891
सोसिएट्स	-8892
स्केवाका	-8893
हरुबीचको	-8894
हिनपट्टा	-8895
ह्राउँछौ	-8896
ीकृतफाइल	-8897
्रेडेरिक	-8898
▁अँध्यरो	-8899
ter	-8900
११ग	-8901
nter	-8902
ख्नु	-8903
घटको	-8904
घानी	-8905
ङ्घा	-8906
रुआत	-8907
▁BMP	-8908
▁वतन	-8909
▁वहन	-8910
enter	-8911
जङ्घा	-8912
पेक्ष	-8913
▁एक्ल	-8914
▁ओकुल	-8915
▁कुरै	-8916
▁निगम	-8917
▁परपे	-8918
▁पुरै	-8919
टाघटको	-8920
नजङ्घा	-8921
रपेक्ष	-8922
लिघानी	-8923
सुरुआत	-8924
▁enter	-8925
▁पाइएन	-8926
▁प्रसू	-8927
दायित्व	-8928
स्त्रको	-8929
▁अनुकुल	-8930
▁खानीमा	-8931
▁चाख्नु	-8932
▁पचासौं	-8933
▁पत्रुश	-8934
▁भन्छौं	-8935
▁मूर्खब	-8936
▁याताया	-8937
▁सघाउथे	-8938
मेसम्मको	-8939
▁अडेसिएर	-8940
▁अड्याउन	-8941
▁अन्धोले	-8942
▁अपनाउने	-8943
▁अफ्रिकी	-8944
▁अमस्याह	-8945
▁अम्मीहू	-8946
▁अलुम्ना	-8947
▁अवसरहरू	-8948
▁असन्तुल	-8949
▁आउनसक्छ	-8950
▁आक्रामण	-8951
▁आदानप्र	-8952
▁आपुर्ति	-8953
▁आयस्रोत	-8954
▁आयातहरू	-8955
▁इजलासले	-8956
▁इन्जिनक	-8957
▁इन्जिनि	-8958
▁इलाकाको	-8959
▁इसहाकले	-8960
▁उत्रियो	-8961
▁उपभोग्य	-8962
▁उम्रियो	-8963
▁उसकोअघि	-8964
▁एकाइहरू	-8965
▁एक्कासी	-8966
▁एक्लैले	-8967
▁एक्सप्र	-8968
▁एलिघानी	-8969
▁एलीसापा	-8970
▁ओकुलरका	-8971
▁औंठाछाप	-8972
▁कटौतीको	-8973
▁कतुराले	-8974
▁कमाण्डर	-8975
▁कम्मरको	-8976
▁कम्मरमा	-8977
▁करयोग्य	-8978
▁कर्त्ता	-8979
▁कहातबाट	-8980
▁काँधबाट	-8981
▁काउन्सी	-8982
▁कार्बाइ	-8983
▁कार्यरत	-8984
▁कैदीलाई	-8985
▁कोकालाई	-8986
▁खरखजाना	-8987
▁खानाबाट	-8988
▁खानाहरू	-8989
▁खेलाउने	-8990
▁गइरहेका	-8991
▁गन्तब्य	-8992
▁गराउँदा	-8993
▁गरिरह्र	-8994
▁गर्थ्यौ	-8995
▁गर्दथिए	-8996
▁गल्तिपी	-8997
▁गल्तिवश	-8998
▁गाउनेछु	-8999
्‍व	-9000
फर्ट	-9001
मश्व	-9002
यर्ट	-9003
यसको	-9004
रसको	-9005
कफर्ट	-9006
जिलले	-9007
तीर्ण	-9008
नपानी	-9009
फयसको	-9010
ब्रता	-9011
ब्राउ	-9012
विसको	-9013
ाँउथे	-9014
ीइएको	-9015
▁आश्व	-9016
▁एलाम	-9017
▁गयौं	-9018
▁छुट्	-9019
▁तथ्य	-9020
▁दलले	-9021
▁भयौं	-9022
▁भराई	-9023
▁यहीं	-9024
▁२०३४	-9025
खानाको	-9026
द्लेका	-9027
प्रसको	-9028
मश्वेत	-9029
म्बर्ट	-9030
यर्टसि	-9031
र्टर्ड	-9032
लानाको	-9033
वस्त्र	-9034
ाधिकार	-9035
ेतनाको	-9036
ेसनहरू	-9037
▁अगाडी	-9038
▁कमाउन	-9039
▁कमारी	-9040
▁कैयौं	-9041
▁गराउछ	-9042
▁घोषित	-9043
▁चललाई	-9044
▁जीर्ण	-9045
▁नगराई	-9046
▁बालाम	-9047
▁बिलाम	-9048
▁विकृत	-9049
▁हिब्र	-9050
धिकारमा	-9051
धिराज्य	-9052
ब्राउजर	-9053
▁आधिकार	-9054
▁आफैलाई	-9055
▁आश्वान	-9056
▁कमाउने	-9057
▁खेल्ने	-9058
▁छातीमा	-9059
▁छुटेको	-9060
▁छुट्या	-9061
▁तोकिने	-9062
▁विश्‍व	-9063
▁हालैको	-9064
▁हिब्रू	-9065
ङ्‍कफर्ट	-9066
पानीसम्म	-9067
यर्टसिले	-9068
र्टहरूले	-9069
्राजिलले	-9070
▁एलामबाट	-9071
▁खोनपानी	-9072
▁गाविसको	-9073
▁गिदोनले	-9074
▁गिलादका	-9075
▁गुहारको	-9076
▁गैरकानु	-9077
▁ग्याफको	-9078
▁ग्रेडिय	-9079
▁घटनालाई	-9080
▁घटाघटको	-9081
▁घुमाउँछ	-9082
▁घुमाउनु	-9083
▁घोडाहरू	-9084
▁घोषणाको	-9085
▁चढाउँछु	-9086
▁चम्किने	-9087
▁चाँदीले	-9088
▁चारहजार	-9089
▁चेतनाको	-9090
▁चौडाईको	-9091
▁छमागबाट	-9092
▁छेड्नेछ	-9093
▁जनघनत्व	-9094
▁जन्मदिन	-9095
▁जातिलाई	-9096
▁जातिहरू	-9097
▁जानूभयो	-9098
▁जीवनभरी	-9099
inf	-9100
inl	-9101
info	-9102
ईन्स	-9103
उसका	-9104
भुवन	-9105
म्वन	-9106
ितवन	-9107
▁आदर	-9108
▁इय्	-9109
inlis	-9110
उसलाई	-9111
टरहरू	-9112
ड्ढित	-9113
नान्स	-9114
लेन्स	-9115
लोटका	-9116
▁औंला	-9117
▁कलमी	-9118
▁छक्क	-9119
▁टेबल	-9120
▁माय्	-9121
▁सेवन	-9122
न्सीमा	-9123
ब्रेका	-9124
▁चितवन	-9125
▁जोन्स	-9126
▁नाघेर	-9127
▁प्रबल	-9128
▁मनोबल	-9129
▁साबिक	-9130
ईन्सटले	-9131
नान्सिय	-9132
भिलेन्स	-9133
▁कक्षका	-9134
▁कमायौं	-9135
▁संसारै	-9136
▁हेबेरी	-9137
teminlis	-9138
दरबमोजिम	-9139
नान्सियल	-9140
मामोतोले	-9141
राइटरहरू	-9142
▁उब्रेका	-9143
▁किताबको	-9144
▁खडेरीको	-9145
▁जुलाईमा	-9146
▁ज्ञानमा	-9147
▁ज्ञानले	-9148
▁झिकाउने	-9149
▁झिकिएको	-9150
▁टाँस्नु	-9151
▁टिठाउने	-9152
▁ट्याबमा	-9153
▁ट्राफिक	-9154
▁ठहराउनु	-9155
▁ठानिएको	-9156
▁डाँडाको	-9157
▁डाउनलोड	-9158
▁डिस्कमा	-9159
▁ढाक्नको	-9160
▁तल्लामा	-9161
▁तान्नुह	-9162
▁ताराहरू	-9163
▁तिनकहाँ	-9164
▁तीब्रता	-9165
▁तुरुन्त	-9166
▁तुरून्त	-9167
▁तोकेकोे	-9168
▁त्यागेर	-9169
▁थुमाहरू	-9170
▁दबाइन्छ	-9171
▁दर्जाका	-9172
▁दर्त्ता	-9173
▁दर्शकका	-9174
▁दस्तखतः	-9175
▁दिँदैछु	-9176
▁दिनूभयो	-9177
▁दिलाउने	-9178
▁दुरूस्त	-9179
▁देखाइयो	-9180
▁नक्कलको	-9181
▁नक्सामा	-9182
▁नटेर्ने	-9183
▁नपढिएको	-9184
▁नपार्ने	-9185
▁नबुझेमा	-9186
▁नविनतम्	-9187
▁नसोधिकन	-9188
▁नाओमीका	-9189
▁नानीलाई	-9190
▁नाबालले	-9191
▁निकालेर	-9192
▁निकाल्न	-9193
▁निक्षेप	-9194
▁निडरसाथ	-9195
▁निलम्वन	-9196
▁नेपोलिट	-9197
▁नैतिकता	-9198
▁पठाइदिए	-9199
थोन	-9200
यहू	-9201
▁se	-9202
▁sy	-9203
णामय	-9204
पहार	-9205
फाटा	-9206
वृद्	-9207
ष्लत	-9208
ोटेम	-9209
▁sys	-9210
▁जैत	-9211
किचाइ	-9212
यन्ती	-9213
यष्लत	-9214
यहूदी	-9215
हरीको	-9216
हालमा	-9217
▁sear	-9218
▁अमेर	-9219
▁अश्त	-9220
▁घाटा	-9221
▁चलाऊ	-9222
▁डोरी	-9223
▁नसोध	-9224
▁हिंड	-9225
▁१९७७	-9226
कालामा	-9227
पितलाई	-9228
रुणामय	-9229
वृद्घि	-9230
वृष्टि	-9231
ोटेमले	-9232
▁उपवास	-9233
▁चलाऊन	-9234
▁चलायो	-9235
▁छवर्ष	-9236
▁जैतून	-9237
▁जोडनु	-9238
▁जोड्न	-9239
▁तत्का	-9240
▁थालमा	-9241
▁थुन्न	-9242
▁दशकमा	-9243
▁दशवटा	-9244
▁दुःखी	-9245
▁निवास	-9246
▁फल्ने	-9247
▁भनिसक	-9248
▁भाइबु	-9249
▁मतबाट	-9250
▁यहसमा	-9251
▁रुचाइ	-9252
▁लाउँछ	-9253
▁विनिम	-9254
▁सुपरी	-9255
च्किचाइ	-9256
मानुसार	-9257
लामार्फ	-9258
हरजस्ता	-9259
िएयष्लत	-9260
▁search	-9261
▁system	-9262
▁क्वेरि	-9263
▁खुल्ने	-9264
▁चलाउनु	-9265
▁जयन्ती	-9266
▁डराएका	-9267
▁डोरीमा	-9268
▁तत्त्व	-9269
▁पाइथोन	-9270
▁बुझेको	-9271
तिवृष्टि	-9272
नहरजस्ता	-9273
न्कालामा	-9274
▁अधीकारी	-9275
▁अभावलाई	-9276
▁अमेरिका	-9277
▁अश्तारो	-9278
▁उपवासको	-9279
▁करुणामय	-9280
▁कहाँबाट	-9281
▁टोटेमले	-9282
▁तत्कालै	-9283
▁नसोध्ने	-9284
▁पठाउँदा	-9285
▁पठाउनका	-9286
▁पदावधिः	-9287
▁परपेन्ड	-9288
▁पराउँछु	-9289
▁परिपाटी	-9290
▁परिहरको	-9291
▁पसार्यो	-9292
▁पाउँदैन	-9293
▁पातालमा	-9294
▁पापगर्न	-9295
▁पुग्यौं	-9296
▁पुनसुरू	-9297
▁पुरूषले	-9298
▁पुर्‍या	-9299
एजर	-9300
थों	-9301
थोप	-9302
जरमे	-9303
ट्नु	-9304
ौथों	-9305
▁एट्	-9306
ंगलको	-9307
एजरले	-9308
गट्नु	-9309
चौथों	-9310
नमुनि	-9311
्टिने	-9312
▁इथोप	-9313
▁छोट्	-9314
▁थुने	-9315
▁प्यू	-9316
▁हालै	-9317
▁२०६०	-9318
फ्टिने	-9319
मेजरमे	-9320
्दैनन्	-9321
▁उपायह	-9322
▁तँलाई	-9323
▁प्यूठ	-9324
▁सोध्न	-9325
ष्क्रिय	-9326
▁अमारोक	-9327
▁ओगट्नु	-9328
▁छोट््य	-9329
▁जंगलको	-9330
▁जवाफदे	-9331
▁सर्वसा	-9332
कार्यालय	-9333
▁इथोपिया	-9334
▁गइसकेको	-9335
▁जवाफलाई	-9336
▁जीनमुनि	-9337
▁निदिष्ट	-9338
▁पोखरीको	-9339
▁पोखाउनु	-9340
▁प्याडको	-9341
▁प्यूठान	-9342
▁प्रतिकृ	-9343
▁प्रतीमा	-9344
▁प्रदायक	-9345
▁प्रदूषण	-9346
▁प्रसूति	-9347
▁फर्किजा	-9348
▁फर्किरह	-9349
▁फलानाको	-9350
▁फोटोहरू	-9351
▁बक्यौता	-9352
▁बचाउँदा	-9353
▁बटुलेका	-9354
▁बताइदिए	-9355
▁बताउँछु	-9356
▁बनाउँछन	-9357
▁बन्धनले	-9358
▁बराबरको	-9359
▁बर्दिया	-9360
▁बलहरूको	-9361
▁बसपार्क	-9362
▁बाँच्ने	-9363
▁बाँडेको	-9364
▁बाँड्नु	-9365
▁बुइकसँग	-9366
▁बेचविखन	-9367
▁बेरसम्म	-9368
▁बोकाहरू	-9369
▁बोलकबोल	-9370
▁ब्यवधान	-9371
▁ब्यारेल	-9372
▁ब्रिजमा	-9373
▁भनिसकेर	-9374
▁भन्छिन्	-9375
▁भन्दैछु	-9376
▁भन्दैछौ	-9377
▁भरपाइको	-9378
▁भरिएकोछ	-9379
▁भरेकोमा	-9380
▁भर्नाको	-9381
▁भर्नेमा	-9382
▁भाँडामा	-9383
▁भारतसँग	-9384
▁भारतसित	-9385
▁भिन्नता	-9386
▁भूल्छन्	-9387
▁भोजनहरू	-9388
▁भ्रमणमा	-9389
▁मध्यरात	-9390
▁मनोरञ्ज	-9391
▁मन्दीको	-9392
▁ममाथिको	-9393
▁मर्यादा	-9394
▁मारिन्छ	-9395
▁मार्गमा	-9396
▁मार्नको	-9397
▁मीकासित	-9398
▁मुडीजले	-9399
पूछ	-9400
ुःख	-9401
क्सन	-9402
खतना	-9403
दुःख	-9404
भतथ०	-9405
▁पीप	-9406
▁बगि	-9407
आबद्ध	-9408
कियाह	-9409
क्सना	-9410
क्समा	-9411
क्सेल	-9412
दाहरण	-9413
दुःखी	-9414
नमपाइ	-9415
र्यौट	-9416
लेक्स	-9417
ाउँछन	-9418
ुतिका	-9419
ेताले	-9420
▁आजभो	-9421
▁चर्म	-9422
▁जमीन	-9423
▁टुहु	-9424
▁पीसी	-9425
▁रायल	-9426
▁सहास	-9427
दकियाह	-9428
धिसहरू	-9429
बाभतथ०	-9430
याहबाट	-9431
्रिनेट	-9432
्र्यौट	-9433
▁गृहको	-9434
▁पढ्ने	-9435
▁फलोस्	-9436
▁बगिरह	-9437
▁भद्रा	-9438
▁भर्जि	-9439
▁मैदान	-9440
▁लग्ने	-9441
▁लिएमा	-9442
▁संघीय	-9443
▁सभाको	-9444
क्सनसँग	-9445
खतनाहरू	-9446
यधिसहरू	-9447
वर्तमान	-9448
्याउँछन	-9449
▁PMRawB	-9450
▁अक्सना	-9451
▁आजभोलि	-9452
▁आजसम्म	-9453
▁उठाएका	-9454
▁एकैजना	-9455
▁एलेक्स	-9456
▁कन्नेह	-9457
▁गराउँछ	-9458
▁गरिएमा	-9459
▁गाग्री	-9460
▁चढाउँछ	-9461
▁टुहुरा	-9462
▁तर्कको	-9463
▁नेताले	-9464
▁पीपलको	-9465
▁भाग्ने	-9466
▁लगाउँछ	-9467
▁सभामुख	-9468
▁सुन्छौ	-9469
▁सोधपूछ	-9470
क्रेताले	-9471
च्याउँछन	-9472
ेट्रिनेट	-9473
्रेक्सेल	-9474
▁कबाभतथ०	-9475
▁चाहेनन्	-9476
▁चुनिएको	-9477
▁जिनमपाइ	-9478
▁ट्रेडमा	-9479
▁फलभित्र	-9480
▁भर्जिनी	-9481
▁मुनासिब	-9482
▁मुल्यमा	-9483
▁मौकाबाट	-9484
▁मौज्दात	-9485
▁म्याकगो	-9486
▁यरीहोको	-9487
▁यशैयाले	-9488
▁येतेरको	-9489
▁योर्कमा	-9490
▁रक्षकका	-9491
▁रजस्वला	-9492
▁रथहरूको	-9493
▁रहनुपर्	-9494
▁रहबामका	-9495
▁राखिनेछ	-9496
▁रिङ्गीङ	-9497
▁रिलोडिङ	-9498
▁रोयटर्स	-9499
ठालो	-9500
ोल्ट	-9501
▁मनन	-9502
▁१२५	-9503
▁१२७	-9504
ढारमा	-9505
तारमा	-9506
लाइने	-9507
ित्ता	-9508
ित्ति	-9509
▁गिबो	-9510
▁गिरा	-9511
▁गिर्	-9512
▁डालो	-9513
▁बटार	-9514
▁भित्	-9515
▁भिरि	-9516
▁मनाऊ	-9517
▁यित्	-9518
▁हमोर	-9519
▁१२७१	-9520
ठालोले	-9521
तारहरू	-9522
द्धाका	-9523
भित्ता	-9524
योपयोग	-9525
लाइएको	-9526
हरूलाइ	-9527
▁अगावै	-9528
▁कम्ति	-9529
▁गिबोन	-9530
▁मिलाइ	-9531
म्बोल्ट	-9532
योपयोगी	-9533
शक्तिको	-9534
ित्तिकै	-9535
▁ओढारमा	-9536
▁करारमा	-9537
▁कारबाई	-9538
▁खेलबाट	-9539
▁गिरावट	-9540
▁गिर्दो	-9541
▁झापाका	-9542
▁डालोमा	-9543
▁बटारेर	-9544
▁यित्मा	-9545
▁वैकल्प	-9546
▁हृदयमा	-9547
कडभित्ता	-9548
ध्यात्मक	-9549
भष्ििबलअ	-9550
लाइएकोमा	-9551
वर्गीकृत	-9552
▁अत्यचार	-9553
▁कम्तिमा	-9554
▁छन्हामी	-9555
▁डोलाइने	-9556
▁फिरऊनका	-9557
▁यूसुफकी	-9558
▁रूबेनको	-9559
▁रोटीहरू	-9560
▁लगाउनको	-9561
▁लडनेछन्	-9562
▁लहराहरू	-9563
▁लागेकाम	-9564
▁लाबानले	-9565
▁लुकाउने	-9566
▁लुकाएकी	-9567
▁लेखापढी	-9568
▁लेवीलाई	-9569
▁वाञ्छित	-9570
▁वायुयान	-9571
▁विनासले	-9572
▁विपत्ति	-9573
▁विमालेख	-9574
▁विवादका	-9575
▁विवाहको	-9576
▁विश्लेष	-9577
▁वीरगञ्ज	-9578
▁वीरगन्ज	-9579
▁व्यवहार	-9580
▁शब्दांश	-9581
▁शम्मैका	-9582
▁शर्तहरू	-9583
▁शव्दकोष	-9584
▁शासकहरू	-9585
▁शिविरबा	-9586
▁शुरूवात	-9587
▁शुल्कको	-9588
▁शैलीबाट	-9589
▁सकिंदैन	-9590
▁सकियोस्	-9591
▁सक्तिनँ	-9592
▁सक्दैनौ	-9593
▁सङ्केतन	-9594
▁सजाउँनु	-9595
▁सडनेछन्	-9596
▁सबभन्दा	-9597
▁समभुजीय	-9598
▁समातियो	-9599
IRS	-9600
टिभ	-9601
टिश	-9602
टिस	-9603
यिन	-9604
िनँ	-9605
टियन	-9606
टोकल	-9607
पााा	-9608
प्पी	-9609
मिश्	-9610
शाशि	-9611
शिमा	-9612
शिल्	-9613
ाटिन	-9614
ुसमा	-9615
ुसूच	-9616
▁ओपी	-9617
टिपमा	-9618
न्टिन	-9619
पपााा	-9620
मिश्क	-9621
योतका	-9622
लेटिभ	-9623
शाशिघ	-9624
शिलिक	-9625
ारपात	-9626
ुसूची	-9627
▁कयिन	-9628
▁जोशि	-9629
▁तर्स	-9630
▁सोध्	-9631
उपग्रह	-9632
डोदेखि	-9633
न्दिनँ	-9634
प्पीका	-9635
र्याकल	-9636
शिमारु	-9637
शिल्ले	-9638
ेटिटिस	-9639
▁खुलाइ	-9640
▁फोर्स	-9641
▁बनाएँ	-9642
▁वाक्य	-9643
▁हेबेर	-9644
KDEDIRS	-9645
जिप्टको	-9646
मुलेटिभ	-9647
रायोतका	-9648
शाशिघ्र	-9649
होरोदको	-9650
▁जोशिलो	-9651
▁झारपात	-9652
▁झिक्ने	-9653
▁दमिश्क	-9654
▁पोटेटो	-9655
▁स्तरका	-9656
र्मिटियन	-9657
लिप्पीका	-9658
शिल्लेमो	-9659
ुमुलेटिभ	-9660
▁इशिमारु	-9661
▁उपकरणको	-9662
▁ओपीरबाट	-9663
▁ओर्याकल	-9664
▁क्रुसमा	-9665
▁ग्राफिक	-9666
▁नभएकोमा	-9667
▁पपपपााा	-9668
▁परेकोले	-9669
▁पानीलाई	-9670
▁पेटिटिस	-9671
▁ब्रिटिश	-9672
▁मध्यस्थ	-9673
▁मिशिलिक	-9674
▁योग्यको	-9675
▁ल्याटिन	-9676
▁समानहरू	-9677
▁समिलहरु	-9678
▁सम्बद्ध	-9679
▁सम्वद्ध	-9680
▁सम्वन्ध	-9681
▁सराप्ने	-9682
▁सर्भरको	-9683
▁सहकार्य	-9684
▁साइटबाट	-9685
▁सादोकका	-9686
▁साधनबाट	-9687
▁सामुहिक	-9688
▁साविकको	-9689
▁साविकमा	-9690
▁सिंहासन	-9691
▁सिजरिया	-9692
▁सिमेण्ट	-9693
▁सिमोन्ज	-9694
▁सियोनको	-9695
▁सिलासले	-9696
▁सींङहरू	-9697
▁सुनिन्छ	-9698
▁सुरूङ्ग	-9699
१२५	-9700
धवार	-9701
सेभर	-9702
सेले	-9703
ाईको	-9704
िमोट	-9705
ूमका	-9706
१२५८	-9707
▁पछी	-9708
▁बजे	-9709
▁१५१	-9710
उडियो	-9711
द्वरा	-9712
नामका	-9713
प्राड	-9714
बाबेल	-9715
बिहान	-9716
बीयात	-9717
लूमका	-9718
ेकाबी	-9719
▁धोका	-9720
▁बढाई	-9721
▁बोसे	-9722
▁भेटे	-9723
▁रोगी	-9724
▁वीणा	-9725
▁शूहा	-9726
▁ाईको	-9727
▁२०२४	-9728
टापन्न	-9729
बुधवार	-9730
विपन्न	-9731
▁अल्टा	-9732
▁गल्ने	-9733
▁पाहुँ	-9734
▁बजेको	-9735
▁भेट्ट	-9736
▁यहोशा	-9737
▁रिमोट	-9738
▁साँवा	-9739
कटापन्न	-9740
बीयातार	-9741
लाउडियो	-9742
ल्लूमका	-9743
ान्सेले	-9744
▁आँखाको	-9745
▁उपसमूह	-9746
▁दाबीका	-9747
▁दिनहुँ	-9748
▁देख्यौ	-9749
▁पशुहरु	-9750
▁पशुहरू	-9751
▁पानीका	-9752
▁भेटाउन	-9753
▁भोजनमा	-9754
▁रेकाबी	-9755
▁सामुन्	-9756
बाबेललाई	-9757
▁अल्टायर	-9758
▁गल्तिको	-9759
▁चढाउँदा	-9760
▁चर्चाको	-9761
▁जन्मेको	-9762
▁पाहुँना	-9763
▁भेटीहरू	-9764
▁रोगीहरु	-9765
▁शूहालाई	-9766
▁सूचकांक	-9767
▁सूतीबाट	-9768
▁सेटिङयो	-9769
▁सेवकहरू	-9770
▁सोच्दछौ	-9771
▁स्पष्‍ट	-9772
▁स्वयंको	-9773
▁हद्लेका	-9774
▁हलेटबाट	-9775
▁हागारले	-9776
▁हाडनाता	-9777
▁हानिकार	-9778
▁हारूनले	-9779
▁हिंडेको	-9780
▁हिसाबले	-9781
▁हीरामका	-9782
▁हीरामको	-9783
▁हेब्रोन	-9784
▁िएयष्लत	-9785
iteminlis	-9786
आउँदासम्म	-9787
ईन्सटलेशन	-9788
कर्नीलियस	-9789
क्काहरुमा	-9790
क्तवृत्ति	-9791
क्षेत्रको	-9792
क्षेत्रीय	-9793
क्ष्लतभिि	-9794
ग्दोलदेखि	-9795
ङ्गीहरूको	-9796
छोरीहरूको	-9797
ज्रेलीबाट	-9798
तिनीहरूका	-9799
ion	-9800
tion	-9801
बिधि	-9802
बिाट	-9803
ption	-9804
▁सँगठ	-9805
▁स्टक	-9806
▁२०१६	-9807
option	-9808
जीनामा	-9809
नजामती	-9810
बिरुवा	-9811
लवस्तु	-9812
साम्ने	-9813
▁छविमा	-9814
▁दूतले	-9815
▁प्रोस	-9816
▁बन्नु	-9817
▁रोक्क	-9818
▁सङ्कट	-9819
▁आकासको	-9820
▁कमबिाट	-9821
▁घटनामा	-9822
▁छविहरू	-9823
▁जान्छु	-9824
▁दण्डवत	-9825
▁दिनेछौ	-9826
▁पपअपका	-9827
▁वास्तव	-9828
▁सहीतको	-9829
▁सिकाउँ	-9830
▁स्ट्री	-9831
▁स्तरमा	-9832
optional	-9833
जीनामाले	-9834
पिलवस्तु	-9835
मध्येबाट	-9836
वस्तुहरू	-9837
▁ग्रिडको	-9838
▁चाहनेछौ	-9839
▁ननजामती	-9840
▁निकासको	-9841
▁पाइलटका	-9842
▁पाठकलाई	-9843
▁प्रोम्प	-9844
▁प्रोसेस	-9845
▁रोक्नको	-9846
▁रोक्नेछ	-9847
▁शब्दहरू	-9848
▁सँगठनको	-9849
▁संख्याः	-9850
▁सिकाएको	-9851
▁सूचीसँग	-9852
▁स्ट्रीट	-9853
तिनीहरूले	-9854
तिप्राप्त	-9855
त्मकरुपमा	-9856
थाकुन्जेल	-9857
दारुकताका	-9858
धिराज्यको	-9859
नुहुनेछैन	-9860
न्द्राकार	-9861
पुस्तकहरु	-9862
प्राज्ञिक	-9863
फेरेन्सिङ	-9864
फ्टिनेन्ट	-9865
बन्धात्मक	-9866
बालिकाहरू	-9867
माइन्डरका	-9868
यपत्रदाता	-9869
याँसम्मको	-9870
र्गौलाहरू	-9871
र्याइयोस्	-9872
लामार्फत्	-9873
विद्हरुले	-9874
संस्थालाई	-9875
समुदायलाई	-9876
सार्वजनिक	-9877
स्किमिड्ट	-9878
स्टनलगायत	-9879
स्वतन्त्र	-9880
ििििधधधधक	-9881
्यकर्मीले	-9882
्याचुरेसन	-9883
्यान्डर्ड	-9884
्यामश्वेत	-9885
्युटोरियल	-9886
्रेसहोल्ड	-9887
‍टेम्बरमा	-9888
▁IOBuffer	-9889
▁PMRawEnd	-9890
▁अधिग्रहण	-9891
▁अध्ययनरत	-9892
▁अध्यादेश	-9893
▁अनुमोदित	-9894
▁अनुरोधमा	-9895
▁अन्डरस्क	-9896
▁अन्तिममा	-9897
▁अपनाइएको	-9898
▁अपराधहरू	-9899
आव्	-9900
यकर	-9901
हेड	-9902
गारि	-9903
चबुझ	-9904
नियत	-9905
लियत	-9906
वरका	-9907
▁आखि	-9908
▁आयत	-9909
▁उठ्	-9910
▁भईआ	-9911
अन्तग	-9912
आव्जा	-9913
ुलियत	-9914
▁आयकर	-9915
▁ढुकी	-9916
▁ढुस्	-9917
▁बिहे	-9918
▁शारि	-9919
कल्पमा	-9920
डिदिनु	-9921
तिमीले	-9922
दिइएको	-9923
नियतले	-9924
हेडरमा	-9925
▁आयतीय	-9926
▁उठाउन	-9927
▁बग्ने	-9928
▁बन्धन	-9929
▁लाइन्	-9930
▁संगीत	-9931
▁हानेर	-9932
▁होइन्	-9933
अन्तगृत	-9934
पट्टिको	-9935
▁आखिरमा	-9936
▁चूपचाप	-9937
▁ढुस्सी	-9938
▁निश्चि	-9939
▁बिगारि	-9940
▁भईआएको	-9941
▁भएथ्यो	-9942
▁लाइन्स	-9943
▁शावरका	-9944
▁सजायका	-9945
▁सजायको	-9946
सञ्झ्याल	-9947
▁अगुवाको	-9948
▁काठमाडो	-9949
▁धुवाँको	-9950
▁पक्षलाई	-9951
▁प्रभुले	-9952
▁बुझेनन्	-9953
▁भईरहेको	-9954
▁भत्ताको	-9955
▁महिलाका	-9956
▁महिलाले	-9957
▁मातहतका	-9958
▁मुआव्जा	-9959
▁शारिरीक	-9960
▁सक्थ्यो	-9961
▁सहुलियत	-9962
▁साँपहरू	-9963
इस्राएलका	-9964
▁अब्राहाम	-9965
▁अभिग्रहण	-9966
▁अभियोगका	-9967
▁अभियोगमा	-9968
▁अभिलेखको	-9969
▁अभ्यासमा	-9970
▁अय्यूबका	-9971
▁अलुम्नाइ	-9972
▁अल्फयसको	-9973
▁अवतारहरू	-9974
▁अहीतूबका	-9975
▁आइपुगेका	-9976
▁आइपुग्को	-9977
▁आइमाईलाई	-9978
▁आउनुभएको	-9979
▁आधिकारिक	-9980
▁आफन्तहरू	-9981
▁आफूभन्दा	-9982
▁आयोडिनको	-9983
▁आवागमनमा	-9984
▁आश्रयस्थ	-9985
▁इजिप्टको	-9986
▁इन्गर्सल	-9987
▁उत्तीर्ण	-9988
▁उत्पत्ति	-9989
▁उत्पादका	-9990
▁उदाहरणको	-9991
▁उद्दाहरण	-9992
▁उनीहरूकै	-9993
▁उभ्याएको	-9994
▁एकीकरणको	-9995
▁एप्रैमले	-9996
▁एबीयातार	-9997
▁एलीएजरले	-9998
▁औद्योगीक	-9999
१२६	-10000
▁ta	-10001
द्दढ	-10002
▁tag	-10003
▁एफ्	-10004
▁खोप	-10005
▁भुई	-10006
▁भुत	-10007
▁भुव	-10008
चित्य	-10009
िएमले	-10010
▁अराब	-10011
▁अस्प	-10012
▁आउँछ	-10013
▁इन्स	-10014
▁कपडा	-10015
▁क्यू	-10016
▁खोलो	-10017
▁टेवा	-10018
▁बताऊ	-10019
▁भुईँ	-10020
▁भुवँ	-10021
▁मालस	-10022
पादनको	-10023
प्तिको	-10024
बिएमले	-10025
योजकले	-10026
ाइरेनि	-10027
▁अस्ति	-10028
▁आउँछु	-10029
▁आउँथे	-10030
▁कृपाद	-10031
▁क्याफ	-10032
▁क्यूब	-10033
▁खोपेर	-10034
▁घद्दढ	-10035
▁पोष्ट	-10036
▁बाँके	-10037
▁बाँसु	-10038
▁भरेमा	-10039
▁भूलमा	-10040
▁विराट	-10041
▁स्पिक	-10042
तिनीहरू	-10043
त्ताहरू	-10044
▁अराबको	-10045
▁अस्त्र	-10046
▁आउँछन्	-10047
▁आहाबको	-10048
▁इन्कार	-10049
▁औचित्य	-10050
▁कृपादृ	-10051
▁कृषिमा	-10052
▁क्याफे	-10053
▁जेसुकै	-10054
▁ध्वनिअ	-10055
▁पक्षमा	-10056
▁पुगेका	-10057
▁प्रोक्	-10058
▁बताउने	-10059
▁बोलाउन	-10060
▁भत्काउ	-10061
▁भुईँमा	-10062
▁भुतप्र	-10063
▁भुवँरी	-10064
▁मागिन्	-10065
उन्टेन्ट	-10066
च्छेदनको	-10067
टामार्का	-10068
ाइरेनिमा	-10069
▁अस्पष्ट	-10070
▁करोडबाट	-10071
▁क्यूबिक	-10072
▁बाँसुरी	-10073
▁मालसमान	-10074
▁वारेण्ट	-10075
▁अस्तित्व	-10076
▁आईबिएमले	-10077
▁कचौराहरू	-10078
▁कप्तानले	-10079
▁कमाराहरू	-10080
▁कम्मरबाट	-10081
▁कर्मीहरू	-10082
▁कागजपत्र	-10083
▁काठमाडों	-10084
▁कार्बाइड	-10085
▁कार्यहउप	-10086
▁कालोपत्र	-10087
▁किल्लाको	-10088
▁कुकर्ममा	-10089
▁कोर्टरको	-10090
▁क्याट्रो	-10091
▁क्याप्सन	-10092
▁खनाउनेछु	-10093
▁खाँदैनन्	-10094
▁खाम्बाको	-10095
▁खुट्टाले	-10096
▁खुलेकोमा	-10097
▁गराइँदैछ	-10098
▁गराउनुका	-10099
३१०	-10100
▁्गा	-10101
▁१९३	-10102
इनेको	-10103
नोमका	-10104
रुवात	-10105
सरुवा	-10106
▁छानो	-10107
▁टापु	-10108
▁नवयु	-10109
▁पृथक	-10110
▁बावज	-10111
▁युले	-10112
▁सङ्घ	-10113
▁१९३६	-10114
म्बकीय	-10115
▁अत्या	-10116
▁अमाले	-10117
▁उद्यम	-10118
▁खेतको	-10119
▁घट्यो	-10120
▁दलिदि	-10121
▁दिईने	-10122
▁मिलान	-10123
▁लत्या	-10124
▁सोर्स	-10125
जिनोमका	-10126
राइदिनु	-10127
्नुभएको	-10128
▁आँखाका	-10129
▁घट्योः	-10130
▁छविबाट	-10131
▁छानेको	-10132
▁छोरीले	-10133
▁नवयुवा	-10134
▁बावजूत	-10135
▁मोडहरू	-10136
▁विरुवा	-10137
▁सङ्घीय	-10138
▁सातवटा	-10139
▁सेनाको	-10140
▁्गार्ह	-10141
वृत्तिमा	-10142
▁अमालेकी	-10143
▁औजारहरु	-10144
▁छोरीलाई	-10145
▁टापुतिर	-10146
▁दिलाउँछ	-10147
▁नरोकिने	-10148
▁परीक्षक	-10149
▁पारिदिए	-10150
▁पूर्वाव	-10151
▁भन्नुमा	-10152
▁वाइनेको	-10153
▁शुरुवात	-10154
▁हारूनको	-10155
▁आत्माबाट	-10156
▁खालीस्था	-10157
▁खेतहरूमा	-10158
▁गर्दिनें	-10159
▁गल्तिहरू	-10160
▁गल्लीलाई	-10161
▁गृहपृष्ठ	-10162
▁गेर्शोनी	-10163
▁गोठालोले	-10164
▁ग्याँसको	-10165
▁घुमाइएको	-10166
▁घृणादेखि	-10167
▁चयनात्मक	-10168
▁चराहरूले	-10169
▁चार्टर्ड	-10170
▁चाहन्छौं	-10171
▁चाहानामा	-10172
▁चाहान्छु	-10173
▁चाहेकोले	-10174
▁चिकित्सक	-10175
▁चित्रकार	-10176
▁चिहानहरू	-10177
▁चुम्बकीय	-10178
▁छक्कापञ्	-10179
▁छाडिदिनु	-10180
▁छाप्रोको	-10181
▁छुट्टियो	-10182
▁छुट्याएँ	-10183
▁जनकपुरमा	-10184
▁जनगणनामा	-10185
▁जन्माउँछ	-10186
▁जमानतबाट	-10187
▁जमीनदेखि	-10188
▁जर्मप्ला	-10189
▁जवाफदेही	-10190
▁जाडोदेखि	-10191
▁जापानीले	-10192
▁जिन्सीमा	-10193
▁जोनाथनले	-10194
▁ज्ञानबाट	-10195
▁ज्ञानलाई	-10196
▁झुण्डयाइ	-10197
▁झुण्डिएर	-10198
▁झूटहरूमा	-10199
वचन	-10200
ुचन	-10201
ठाला	-10202
ण्टा	-10203
▁औषध	-10204
▁गाऊ	-10205
▁गाह	-10206
▁घट्	-10207
▁छौँ	-10208
▁दफन	-10209
▁धुप	-10210
▁पिओ	-10211
घण्टा	-10212
भाषित	-10213
वाहित	-10214
▁उपाए	-10215
▁कण्ट	-10216
▁गाडा	-10217
▁गाडि	-10218
▁घट्छ	-10219
▁जलाओ	-10220
▁जेठा	-10221
▁जौको	-10222
▁देवम	-10223
▁धुपौ	-10224
▁पिडा	-10225
▁मिठा	-10226
▁मेटल	-10227
▁समुद	-10228
लग्नता	-10229
▁अनधिक	-10230
▁उपाधि	-10231
▁चुनें	-10232
▁जलाओस	-10233
▁धान्न	-10234
▁पालले	-10235
▁पिउनु	-10236
▁माग्न	-10237
▁मेटाइ	-10238
▁सकेन्	-10239
सम्पर्क	-10240
▁एकतर्फ	-10241
▁औषधालय	-10242
▁गाह्रो	-10243
▁गोठाला	-10244
▁झुट्टा	-10245
▁तालतिर	-10246
▁थोमाले	-10247
▁धुपौरो	-10248
▁परिचित	-10249
▁पावलको	-10250
▁मागेका	-10251
▁स्वरुप	-10252
खास्तम्भ	-10253
गगगगतततत	-10254
परिभाषित	-10255
▁अनधिकृत	-10256
▁उपाधिको	-10257
▁कण्ट्रो	-10258
▁गाडिदिए	-10259
▁देवमूर्	-10260
▁धातुबाट	-10261
▁निस्कास	-10262
▁न्यायिक	-10263
▁फर्किएर	-10264
▁रहबामले	-10265
▁सङ्कुचन	-10266
▁समुद्री	-10267
▁हूशैलाई	-10268
▁अविवाहित	-10269
▁कण्ट्रोल	-10270
▁झ्यालबाट	-10271
▁टाढासम्म	-10272
▁ट्याबलाई	-10273
▁ठाउँसारी	-10274
▁डिस्कबाट	-10275
▁डुङ्गामा	-10276
▁ढुङ्गामा	-10277
▁तत्कालको	-10278
▁तथ्याबाट	-10279
▁तथ्याहरु	-10280
▁तान्नुहो	-10281
▁तामारसँग	-10282
▁तिर्साको	-10283
▁तीतोपनले	-10284
▁तुरुन्तै	-10285
▁तेजपातले	-10286
▁तोकेकोमा	-10287
▁त्यसैगरी	-10288
▁त्रिभुवन	-10289
▁दक्षताको	-10290
▁दर्तावाल	-10291
▁दस्तुरको	-10292
▁दाज्यूको	-10293
▁दायाँतिर	-10294
▁दिनुहुने	-10295
▁दुर्घटना	-10296
▁दुष्टटले	-10297
▁देखाइएको	-10298
▁देखाउँछु	-10299
fre	-10300
ोबो	-10301
▁ओठ	-10302
free	-10303
नोबो	-10304
बोत्	-10305
▁इपो	-10306
▁ओहि	-10307
▁वुक	-10308
▁११६	-10309
▁२३३	-10310
डइदिए	-10311
दिएमा	-10312
बलिमा	-10313
वितरण	-10314
▁इपोस	-10315
▁उदास	-10316
▁डुबा	-10317
▁दैलो	-10318
▁नबोल	-10319
▁पदमा	-10320
▁भइन्	-10321
▁मधेस	-10322
▁शैया	-10323
▁११००	-10324
ISOISO	-10325
ँडइदिए	-10326
हिल्यै	-10327
ोबोतको	-10328
▁अञ्चल	-10329
▁ओहियो	-10330
▁मूर्त	-10331
▁मूर्र	-10332
▁रंगशा	-10333
▁ल्याइ	-10334
▁वैद्य	-10335
▁हटेमा	-10336
कहिल्यै	-10337
नोबोबाट	-10338
बोत्चान	-10339
▁ऋणपत्र	-10340
▁कतिवटा	-10341
▁घुसाउन	-10342
▁डोर्या	-10343
▁दैलोमा	-10344
▁नदिएमा	-10345
▁निजमती	-10346
▁बीजहरू	-10347
▁बोल्दछ	-10348
▁मधेसमा	-10349
▁मनोरञ्	-10350
▁रोगहरू	-10351
▁ल्यायो	-10352
▁वर्गका	-10353
▁सार्दा	-10354
▁सुनबाट	-10355
क्तबलिमा	-10356
क्रमणिका	-10357
▁ओठहरूले	-10358
▁ओहियोका	-10359
▁कतिसम्म	-10360
▁डुबाएको	-10361
▁दूरीलाई	-10362
▁नीतिहरु	-10363
▁ल्याइदि	-10364
▁शासकलाई	-10365
▁शुल्कले	-10366
▁स्रोतमा	-10367
▁अनुसन्धा	-10368
▁उदाहरणका	-10369
▁ऋणपत्रको	-10370
▁चुँडइदिए	-10371
▁दुष्टहरु	-10372
▁देखाउँदछ	-10373
▁देखाउनको	-10374
▁देखिन्छभ	-10375
▁देखिन्छम	-10376
▁देवदारको	-10377
▁द्धिविधा	-10378
▁धैर्यशील	-10379
▁नजिकैबाट	-10380
▁नर्सिङ्ग	-10381
▁नवीकरणीय	-10382
▁नामदर्ता	-10383
▁निरपेक्ष	-10384
▁निर्माता	-10385
▁निवारणको	-10386
▁निश्‍चित	-10387
▁नेटस्केप	-10388
▁पखेटाहरू	-10389
▁पत्नीसँग	-10390
▁पत्नीहरू	-10391
▁परिवारका	-10392
▁परिवेशका	-10393
▁पशुहरूको	-10394
▁पाउँनेछौ	-10395
▁पाएकोछौं	-10396
▁पाथीमुनि	-10397
▁पारामिटर	-10398
▁पारेकोले	-10399
गृह	-10400
पिं	-10401
मेज	-10402
▁Ct	-10403
▁८०	-10404
▁८९	-10405
ँचाइ	-10406
न्सर	-10407
▁Ctr	-10408
▁अफि	-10409
▁इपि	-10410
▁नपि	-10411
▁नमू	-10412
▁वृह	-10413
▁हसर	-10414
RESTR	-10415
ऋक्ष्	-10416
पिंया	-10417
मिनेट	-10418
राएमा	-10419
र्मेस	-10420
लोचना	-10421
सवारी	-10422
स्कोप	-10423
ितगृह	-10424
▁Ctrl	-10425
▁अफिस	-10426
▁एवम्	-10427
▁किपि	-10428
▁गोरु	-10429
▁चुना	-10430
▁पाइप	-10431
▁बेरी	-10432
▁भिज्	-10433
RESTRI	-10434
चिनीको	-10435
फानीको	-10436
र्मेसी	-10437
▁उच्‍च	-10438
▁काठको	-10439
▁गोमेज	-10440
▁ज्यथा	-10441
▁महलमा	-10442
▁याचना	-10443
▁यिनमा	-10444
▁वृहत्	-10445
ऋक्ष्त्	-10446
शास्त्र	-10447
▁आउनुको	-10448
▁आलोचना	-10449
▁काठहरू	-10450
▁गोरुगा	-10451
▁चिनीको	-10452
▁नजिकमा	-10453
▁नपाओस्	-10454
▁नपिउनु	-10455
▁नियाली	-10456
▁पेशामा	-10457
▁सिँचाइ	-10458
RESTRICT	-10459
ऋक्ष्त्भ	-10460
यरद्वारा	-10461
▁अंहकारी	-10462
▁उच्‍चमा	-10463
▁उठाउँछु	-10464
▁ज्यथाको	-10465
▁नगराएमा	-10466
▁नमूनाले	-10467
▁पत्नीको	-10468
▁प्रेमको	-10469
▁बनाउँदै	-10470
▁भिज्छन्	-10471
▁रूपिंया	-10472
▁ल्याउने	-10473
▁शत्रुको	-10474
▁श्रीमती	-10475
▁हरितगृह	-10476
ऋक्ष्त्भ्	-10477
▁कागजातमा	-10478
▁किसिमबाट	-10479
▁क्यान्सर	-10480
▁गोरुगाडा	-10481
▁त्यतिबाट	-10482
▁दोहोरोपन	-10483
▁निर्णयले	-10484
▁पर्वतहरू	-10485
▁पिछडिएका	-10486
▁पिछडिएको	-10487
▁पिलातसले	-10488
▁पुरस्कार	-10489
▁पुरूषहरू	-10490
▁पूँजीकोष	-10491
▁पूर्वतिर	-10492
▁पैठारीमा	-10493
▁पोषाकहरू	-10494
▁पोष्टहरु	-10495
▁प्रतिदिन	-10496
▁प्रदूषित	-10497
▁प्रदेशमा	-10498
▁प्रर्दशन	-10499
ँभो	-10500
जसो	-10501
जिर	-10502
वेषण	-10503
स्सो	-10504
▁ररर	-10505
ँभोका	-10506
जम्मा	-10507
टवारी	-10508
प्रोप	-10509
रिदिए	-10510
ारोबा	-10511
▁अनला	-10512
▁दायर	-10513
▁पासो	-10514
▁प्र्	-10515
▁बारु	-10516
▁मोटो	-10517
जातबाट	-10518
▁अतिथि	-10519
▁अतिसु	-10520
▁अवरोध	-10521
▁ट्रेक	-10522
▁नोडका	-10523
▁प्र्र	-10524
▁बारब्	-10525
▁बारुद	-10526
▁बाह्र	-10527
▁मतिका	-10528
▁ररररण	-10529
▁विभाज	-10530
▁विलम्	-10531
▁हाजिर	-10532
ग्दर्शन	-10533
यजातबाट	-10534
▁अनलाइन	-10535
▁उँभोका	-10536
▁छोडदिन	-10537
▁दिइएका	-10538
▁यारोबा	-10539
▁ररररण्	-10540
▁रहनेछु	-10541
▁विलम्व	-10542
▁श्रीमा	-10543
▁सास्सो	-10544
पोनेन्शल	-10545
प्रोपराई	-10546
▁अतिक्ति	-10547
▁अन्वेषण	-10548
▁उपकरणले	-10549
▁छोडदिनँ	-10550
▁टुक्राए	-10551
▁धेरैजसो	-10552
▁प्र्रति	-10553
▁बारब्बा	-10554
▁बोलाउनु	-10555
▁मारिदिए	-10556
▁रोटीलाई	-10557
▁ल्याएका	-10558
▁समयमापन	-10559
प्रोपराईट	-10560
▁अनुमानको	-10561
▁अनुमानमा	-10562
▁अनुरुपका	-10563
▁आइमाईसँग	-10564
▁आज्ञापाल	-10565
▁कारणचाहि	-10566
▁निर्देशक	-10567
▁निस्कनका	-10568
▁प्रचलनमा	-10569
▁प्रवाहका	-10570
▁प्रशिद्ध	-10571
▁प्रापकका	-10572
▁प्राप्ति	-10573
▁प्रेमबाट	-10574
▁प्रोक्सी	-10575
▁प्रोसेसर	-10576
▁फछ्र्यौट	-10577
▁फर्किनेछ	-10578
▁फलस्वरुप	-10579
▁फार्मेसी	-10580
▁फिरऊनलाई	-10581
▁फिलाडेल्	-10582
▁फिल्टरका	-10583
▁फिल्टरको	-10584
▁फ्लोरियो	-10585
▁बगबडीलाई	-10586
▁बजाउँछन्	-10587
▁बटुल्यौं	-10588
▁बढाउनुका	-10589
▁बढिरहेको	-10590
▁बनाउनेछु	-10591
▁बनायाहका	-10592
▁बनायाहको	-10593
▁बराबरीको	-10594
▁बर्लिनमा	-10595
▁बसिरहेका	-10596
▁बहनगर्ने	-10597
▁बहुविश्व	-10598
▁बाँडफाँड	-10599
▁९५	-10600
चामा	-10601
पताल	-10602
प्टो	-10603
मदका	-10604
वापत	-10605
▁अजि	-10606
▁खपत	-10607
▁रेख	-10608
▁सीङ	-10609
चार्ड	-10610
पतर्फ	-10611
भोगमा	-10612
▁अजिब	-10613
▁खेता	-10614
▁चाचा	-10615
▁तहमा	-10616
▁न्यू	-10617
▁रिसा	-10618
▁सीडी	-10619
▁सीदो	-10620
▁सीधा	-10621
मासाही	-10622
ल्मदका	-10623
स्पताल	-10624
▁जंङ्ग	-10625
▁फर्कन	-10626
अस्पताल	-10627
उपभोगमा	-10628
एकभन्दा	-10629
्रिप्टो	-10630
▁खरिदले	-10631
▁खेताला	-10632
▁चारजना	-10633
▁जनालाई	-10634
▁प्राचा	-10635
▁बजारले	-10636
▁भत्काए	-10637
▁रेखदेख	-10638
▁सम्मले	-10639
▁सीङबाट	-10640
▁हजारौं	-10641
▁होइनन्	-10642
▁गरेवापत	-10643
▁नाउँहरू	-10644
▁नीतिसँग	-10645
▁प्राथिम	-10646
▁माकालाई	-10647
▁रिचार्ड	-10648
▁रिसाएको	-10649
▁सम्झिनु	-10650
▁सहयोगको	-10651
▁सीदोनका	-10652
▁सूचीबाट	-10653
▁अश्शूरमा	-10654
▁आइपुग्नु	-10655
▁किल्मदका	-10656
▁क्रिप्टो	-10657
▁क्षमताका	-10658
▁जंङ्गलमा	-10659
▁त्रुटिको	-10660
▁दामासाही	-10661
▁दृष्टिगत	-10662
▁पर्यटकीय	-10663
▁प्रभावको	-10664
▁प्राथिमक	-10665
▁बाँधिएका	-10666
▁बाइन्डिङ	-10667
▁बाटाहरको	-10668
▁बादलमाथि	-10669
▁बित्तिकै	-10670
▁बिन्दुमा	-10671
▁बिर्सियौ	-10672
▁बुद्धिको	-10673
▁बुद्धिले	-10674
▁बेहेरेको	-10675
▁ब्याख्या	-10676
▁भण्डारको	-10677
▁भण्डारमा	-10678
▁भद्राक्ष	-10679
▁भविष्यको	-10680
▁भाँचिदिए	-10681
▁भिडियोमा	-10682
▁भित्रैको	-10683
▁भुतप्रेत	-10684
▁भौगर्भिक	-10685
▁मनोरञ्जन	-10686
▁मन्दिरका	-10687
▁मरायोतका	-10688
▁मरारीबाट	-10689
▁मर्यादित	-10690
▁महानगरको	-10691
▁महिलाबाट	-10692
▁महिलाहरु	-10693
▁माटोमाथि	-10694
▁माध्यमको	-10695
▁माध्यमिक	-10696
▁मालिकलाई	-10697
▁मित्रहरू	-10698
▁मिलाइनेछ	-10699
टहो	-10700
परक	-10701
यहो	-10702
ाधी	-10703
‍यौ	-10704
▁',	-10705
▁'/	-10706
जुदा	-10707
टहोल	-10708
न्डन	-10709
न्डै	-10710
यकले	-10711
यौरो	-10712
रोधी	-10713
ाधीन	-10714
▁','	-10715
▁आधी	-10716
▁जसो	-10717
▁भयौ	-10718
▁रङभ	-10719
mmand	-10720
ँउँछु	-10721
क्यान	-10722
छ्यान	-10723
ठयौरो	-10724
यहोया	-10725
लाकले	-10726
होर्य	-10727
ाउन्ड	-10728
▁जसका	-10729
▁पायौ	-10730
▁रुकु	-10731
▁रुजु	-10732
▁संभव	-10733
ommand	-10734
चायकले	-10735
ञ्जहरु	-10736
परिवार	-10737
पाउन्ड	-10738
स्थलको	-10739
हतियार	-10740
▁अक्षर	-10741
▁कमारो	-10742
▁कागजा	-10743
▁छोडनु	-10744
▁छोडने	-10745
▁ज्यान	-10746
▁झन्डै	-10747
▁तेलको	-10748
▁दलेको	-10749
▁प्यान	-10750
▁भन्थे	-10751
▁भाँडा	-10752
▁भ्यान	-10753
▁मरेकी	-10754
▁म्यान	-10755
▁रङभेद	-10756
▁रुकुम	-10757
▁लन्डन	-10758
▁सलहको	-10759
command	-10760
दिनुहुन	-10761
यहोयादा	-10762
▁ओछ्यान	-10763
▁गर्‍यौ	-10764
▁छोडेको	-10765
▁जनाउनु	-10766
▁जान्ने	-10767
▁पारिको	-10768
▁भन्‍ने	-10769
▁मौजुदा	-10770
▁लठयौरो	-10771
▁विरोधी	-10772
▁शिटहोल	-10773
▁सूचीको	-10774
▁छोडिएका	-10775
▁दोहोर्य	-10776
▁वनस्पति	-10777
▁वर्णहरू	-10778
▁स्क्यान	-10779
▁हुलाकले	-10780
न्किरहन्छ	-10781
र्थस्थलको	-10782
ाइरेक्टिङ	-10783
▁कागजातको	-10784
▁घरपरिवार	-10785
▁छोडनुभयो	-10786
▁पुञ्जहरु	-10787
▁प्यानलको	-10788
▁बढाउनलाई	-10789
▁भरिपूर्ण	-10790
▁भेट्टाउन	-10791
▁मिलापत्र	-10792
▁मुडीजबाट	-10793
▁मूर्तिको	-10794
▁मृत्युमा	-10795
▁मेरिडियन	-10796
▁मेलबलिको	-10797
▁म्याङ्गल	-10798
▁म्याट्रि	-10799
घटन	-10800
सय्	-10801
▁ओड	-10802
केही	-10803
तबार	-10804
त्वा	-10805
ूचाए	-10806
ेतिक	-10807
त्वको	-10808
मोसका	-10809
ोस्टन	-10810
्यासर	-10811
▁CHAR	-10812
▁अतिश	-10813
▁छाडा	-10814
▁छानि	-10815
▁छायो	-10816
▁पाठा	-10817
▁याँई	-10818
▁शिशु	-10819
ंकेतिक	-10820
आर्थिक	-10821
कृतिले	-10822
डिदियो	-10823
तत्वको	-10824
बोस्टन	-10825
मिसहरू	-10826
ोगत्वा	-10827
▁आउँछौ	-10828
▁टुक्र	-10829
▁नलगाऊ	-10830
▁पाठको	-10831
▁बाँधे	-10832
▁बिघटन	-10833
▁भन्छौ	-10834
▁रूचाए	-10835
▁व्यहो	-10836
▁सामने	-10837
तोगत्वा	-10838
▁अतिशयो	-10839
▁आइतबार	-10840
▁आमोसका	-10841
▁ओडारमा	-10842
▁ड्यासर	-10843
▁पाठलाई	-10844
▁पाठाको	-10845
▁हजारती	-10846
▁आकृतिले	-10847
▁चाँदीको	-10848
▁छानिएका	-10849
▁दोषीलाई	-10850
▁निकायका	-10851
▁भाषाहरू	-10852
▁रबोस्टन	-10853
▁छोडिदियो	-10854
▁प्रकाशमा	-10855
▁यशाशिघ्र	-10856
▁यहोयाकाम	-10857
▁याकूवलाई	-10858
▁याशूबबाट	-10859
▁येशूसंगै	-10860
▁योगदानमा	-10861
▁योद्धाका	-10862
▁योशब्याह	-10863
▁रकममध्ये	-10864
▁ररररण्ण्	-10865
▁रहोबोतको	-10866
▁राखिदिनु	-10867
▁राखेकोले	-10868
▁राख्नलाई	-10869
▁राजाकहाँ	-10870
▁राज्यलाई	-10871
▁रुखहरूको	-10872
▁रुचाइएका	-10873
▁रूखहरूको	-10874
▁रेखामुनि	-10875
▁रोक्नेछु	-10876
▁लगाइएकोे	-10877
▁लाइब्रेर	-10878
▁लाभभन्दा	-10879
▁लिडियाले	-10880
▁लिनेतर्फ	-10881
▁वंशहरूले	-10882
▁वरिपरिको	-10883
▁वस्त्रको	-10884
▁वार्ताको	-10885
▁वास्तवमै	-10886
▁विकल्पमा	-10887
▁विकल्पले	-10888
▁विदेशबाट	-10889
▁विनिमयको	-10890
▁विनिमयमा	-10891
▁विनियोजन	-10892
▁विमानलाई	-10893
▁विवाहिता	-10894
▁विश्लेषण	-10895
▁विषयमाथि	-10896
▁विसङ्धति	-10897
▁विसतारमा	-10898
▁विस्फोटक	-10899
▁ऊँ	-10900
ाँउन	-10901
ेदार	-10902
▁PID	-10903
▁आइज	-10904
▁दृढ	-10905
▁भेद	-10906
तेदार	-10907
नीतिक	-10908
बामको	-10909
म्बमा	-10910
म्बास	-10911
संगले	-10912
▁ढुसी	-10913
▁भागी	-10914
▁लम्ब	-10915
▁लाउन	-10916
▁सकभर	-10917
▁हाल्	-10918
म्बासी	-10919
ष्टमको	-10920
▁अगस्ट	-10921
▁ऊँटको	-10922
▁क्रिय	-10923
▁दृढसं	-10924
▁पछिका	-10925
▁पापको	-10926
▁भागको	-10927
▁भाग्न	-10928
किरहेका	-10929
चिरहेका	-10930
राबामको	-10931
विम्बमा	-10932
्रेक्टर	-10933
▁अबियाह	-10934
▁अरूलाई	-10935
▁आयोगका	-10936
▁उदेश्य	-10937
▁ठाँउका	-10938
▁दिशामा	-10939
▁नोकरको	-10940
▁पक्षका	-10941
▁बचाँउन	-10942
▁बाटोले	-10943
▁मोशाका	-10944
▁लेखाको	-10945
▁स्वावल	-10946
कुम्बासी	-10947
ट्रेक्टर	-10948
लाहरूबाट	-10949
▁आयोगसँग	-10950
▁उहाँसंग	-10951
▁किन्छन्	-10952
▁कुलबाटः	-10953
▁चिहानको	-10954
▁ढोकाबाट	-10955
▁नातेदार	-10956
▁पछिल्ला	-10957
▁पाइनवेब	-10958
▁मिश्रका	-10959
▁मिश्रकी	-10960
▁मिश्रमा	-10961
▁विविधता	-10962
▁हाल्नेछ	-10963
▁अरूहरूको	-10964
▁चीजहरूका	-10965
▁दृढसंकल्	-10966
▁नागरिकता	-10967
▁प्रसंगले	-10968
▁भयग्रस्त	-10969
▁भागहरूको	-10970
▁यरूशलेमा	-10971
▁राजनीतिक	-10972
▁लम्बिएको	-10973
▁लानेतर्फ	-10974
▁वृद्धिका	-10975
▁वृद्धिदर	-10976
▁व्यावहार	-10977
▁शर्मालाई	-10978
▁शहरहरुका	-10979
▁शान्तिको	-10980
▁शिमशोनको	-10981
▁शीर्षकको	-10982
▁श्रीमान्	-10983
▁श्रेस्ता	-10984
▁श्रोतबाट	-10985
▁संख्यामा	-10986
▁संग्रालय	-10987
▁संघर्षरत	-10988
▁संयोजकले	-10989
▁संसूचकको	-10990
▁सजिलैसित	-10991
▁सञ्चारका	-10992
▁सञ्‍चिति	-10993
▁सडकहरुको	-10994
▁सभापतिको	-10995
▁सभामुखले	-10996
▁समस्याका	-10997
▁समाजसेवी	-10998
▁समातियोय	-10999
टहल	-11000
ूबर	-11001
ूबल	-11002
▁७०	-11003
▁७८	-11004
अस्व	-11005
खनन्	-11006
द्रव	-11007
स्टर	-11008
िज्य	-11009
ूटपा	-11010
ूडले	-11011
ोरने	-11012
ोशका	-11013
▁अलग	-11014
▁गलग	-11015
▁घोर	-11016
किङ्ग	-11017
च्छिक	-11018
णिज्य	-11019
नाउनु	-11020
राउनु	-11021
समक्ष	-11022
समचार	-11023
समयमा	-11024
ूटपाथ	-11025
▁अभिक	-11026
▁आगोझ	-11027
▁जबकि	-11028
▁डेनि	-11029
▁तूबल	-11030
▁बचतः	-11031
▁बज्य	-11032
▁युटि	-11033
क्टूबर	-11034
प्ताको	-11035
यरूशले	-11036
ेच्छिक	-11037
▁कनानी	-11038
▁खोरने	-11039
▁डेनिस	-11040
▁बचतले	-11041
▁बज्यै	-11042
▁लडेको	-11043
▁लाउनु	-11044
▁विषयब	-11045
अस्वच्छ	-11046
यरूशलेम	-11047
ूटपाथमा	-11048
▁आगोझैं	-11049
▁गरिदेऊ	-11050
▁गरूडले	-11051
▁गलगाँड	-11052
▁जनताको	-11053
▁टाडोमा	-11054
▁परोशका	-11055
▁प्यारो	-11056
▁प्रशित	-11057
▁बचतबाट	-11058
▁बैंकमा	-11059
▁माताको	-11060
▁माथिको	-11061
▁मास्टर	-11062
▁युटिलि	-11063
स्त्रामा	-11064
▁अक्टूबर	-11065
▁उत्खनन्	-11066
▁काठमाडौ	-11067
▁डोराउनु	-11068
▁देवदारू	-11069
▁बानाउनु	-11070
▁बैकिङ्ग	-11071
▁यहूदाले	-11072
▁लुटिएको	-11073
▁वाणिज्य	-11074
▁विषयलाई	-11075
▁सुसमचार	-11076
▁हप्ताको	-11077
▁अनुुसूची	-11078
▁अभिकर्ता	-11079
▁उद्धरणका	-11080
▁जसद्वारा	-11081
▁प्रमुखले	-11082
▁प्रशितले	-11083
▁फूटपाथमा	-11084
▁बिक्रीमा	-11085
▁बृद्धिमा	-11086
▁युटिलिटी	-11087
▁लेख्दैछु	-11088
▁समयसमयमा	-11089
▁समूहगतले	-11090
▁सम्झन्छौ	-11091
▁सम्पतिको	-11092
▁सम्पदाको	-11093
▁सम्मानित	-11094
▁सम्मिलित	-11095
▁सम्वन्धी	-11096
▁सरसफाईमा	-11097
▁सरायाहका	-11098
▁सवारीबाट	-11099
अबको	-11100
आरएल	-11101
मकरण	-11102
ेरेद	-11103
्विन	-11104
▁अपु	-11105
▁गाए	-11106
▁चूर	-11107
▁ढंग	-11108
▁थाम	-11109
▁नपु	-11110
कीशले	-11111
धार्न	-11112
र्नजी	-11113
▁अद्व	-11114
▁अपुत	-11115
▁आँधि	-11116
▁आवेद	-11117
▁छर्न	-11118
▁छवटा	-11119
▁भर्न	-11120
▁२०४६	-11121
ँन्दैन	-11122
नामकरण	-11123
नैपर्छ	-11124
पवित्र	-11125
मुनाको	-11126
हरीहरू	-11127
▁अनन्य	-11128
▁आवेदक	-11129
▁कोर्न	-11130
▁ट्विन	-11131
▁थपियो	-11132
▁थामिए	-11133
▁थाहाँ	-11134
▁पृष्ट	-11135
▁प्याड	-11136
▁मेरेद	-11137
▁रुपैं	-11138
त्तान्त	-11139
र्गतर्फ	-11140
▁आकीशले	-11141
▁कसुरको	-11142
▁घोडामा	-11143
▁डराउनु	-11144
▁थपिएको	-11145
▁दिनेको	-11146
▁यात्रु	-11147
▁यूआरएल	-11148
▁शलोमीत	-11149
टुहरीहरू	-11150
बमोजिमको	-11151
म्मानुएल	-11152
र्नजीवित	-11153
▁अपुताली	-11154
▁आँधिहरु	-11155
▁नमुनाको	-11156
▁प्रशस्त	-11157
▁वितरणमा	-11158
▁वेश्याव	-11159
▁सुधार्न	-11160
▁सुन्दरी	-11161
▁हेरिएको	-11162
सससस्स्स्	-11163
▁अद्वितिय	-11164
▁अनुरूपको	-11165
▁उनीहरूको	-11166
▁मेरेदलाई	-11167
▁सस्थाकोे	-11168
▁सहभागीको	-11169
▁सहायतावि	-11170
▁सांकेतिक	-11171
▁सामानहरु	-11172
▁साराङ्गी	-11173
▁सिकाउँछु	-11174
▁सिकाउँछौ	-11175
▁सिक्काको	-11176
▁सिक्कामा	-11177
▁सीमानामा	-11178
▁सुधारबाट	-11179
▁सुन्दैहु	-11180
▁स्तम्भमा	-11181
▁स्त्रीले	-11182
▁स्थानबाट	-11183
▁स्थानसँग	-11184
▁स्थानहरू	-11185
▁स्थितिको	-11186
▁स्मृतिमा	-11187
▁स्याटेला	-11188
▁स्यालहरू	-11189
▁स्वर्गकी	-11190
▁स्वर्गको	-11191
▁हटाउनेछु	-11192
▁हनानीलाई	-11193
▁हम्बोल्ट	-11194
▁हस्तचालक	-11195
▁हानिकारक	-11196
▁हिसावबाट	-11197
▁हीरामलाई	-11198
▁हुनसक्ने	-11199
बुत	-11200
सके	-11201
उभचत	-11202
ठमाड	-11203
फ्रि	-11204
बुला	-11205
भासक	-11206
रूणा	-11207
ष्ठी	-11208
्रिट	-11209
▁एशो	-11210
▁बडि	-11211
▁मसक	-11212
▁रचि	-11213
उभचतथ	-11214
एलिया	-11215
धारणा	-11216
निश्च	-11217
म्बबब	-11218
लिएका	-11219
ष्ठ्व	-11220
सकलाई	-11221
हरुके	-11222
्याएर	-11223
▁एशोस	-11224
▁खोजि	-11225
▁पश्च	-11226
▁पाएँ	-11227
▁रचिब	-11228
▁सबुत	-11229
▁हाते	-11230
▁हिडि	-11231
कर्याह	-11232
काठमाड	-11233
ठ्याएर	-11234
निश्चय	-11235
भासकता	-11236
म्भलाई	-11237
यउभचतथ	-11238
राम्रा	-11239
रूणाले	-11240
ष्ठ्वख	-11241
सकेपछि	-11242
स्कारण	-11243
हरुकेा	-11244
्रिटका	-11245
▁काष्ठ	-11246
▁ग्राप	-11247
▁ग्राफ	-11248
▁दिँदा	-11249
▁पश्चा	-11250
▁पारित	-11251
▁फैलाऊ	-11252
▁भरिदि	-11253
▁मुखले	-11254
▁सर्बे	-11255
▁हातले	-11256
थ्रेसको	-11257
म्म्बबब	-11258
सासकलाई	-11259
▁एशोसिए	-11260
▁खोजिरे	-11261
▁गर्नसक	-11262
▁गानीको	-11263
▁गोष्ठी	-11264
▁दाऊदकी	-11265
▁नेबुला	-11266
▁पारियो	-11267
▁मसकहरू	-11268
▁रचिबस्	-11269
▁रिसाएर	-11270
काठमाडौं	-11271
पुर्खाको	-11272
▁अन्तरगत	-11273
▁अवधारणा	-11274
▁एशोसिएश	-11275
▁करूणाले	-11276
▁खोजिरेह	-11277
▁चित्रमा	-11278
▁जकर्याह	-11279
▁पश्चात्	-11280
▁फैलिएका	-11281
▁बोअजलाई	-11282
▁भेडालाई	-11283
मोथ्रेसको	-11284
स्तम्भलाई	-11285
▁एचयउभचतथ	-11286
▁दाऊदमाथि	-11287
▁दुईभन्दा	-11288
▁देखाउन्न	-11289
▁नदेखिएमा	-11290
▁प्राणलाई	-11291
▁प्राविधि	-11292
▁बडिरहेको	-11293
▁भरिदिनको	-11294
▁मुठ्याएर	-11295
▁राष्ठ्वख	-11296
▁हुनहुन्छ	-11297
▁हुनेछिन्	-11298
▁होर्मामा	-11299
ँदो	-11300
▁६२	-11301
इल्य	-11302
टामो	-11303
ट्टै	-11304
दाऊद	-11305
मोले	-11306
‍लेख	-11307
▁शाह	-11308
▁११८	-11309
▁१९९	-11310
मोलेक	-11311
ाउँदो	-11312
▁उकमा	-11313
▁जबरद	-11314
▁धुवा	-11315
▁बस्छ	-11316
▁लुर्	-11317
▁१९९०	-11318
ग्रँदो	-11319
चाहिदो	-11320
टामोटी	-11321
ट्टीमा	-11322
ल्यतको	-11323
हाउँदो	-11324
▁अरूले	-11325
▁जीउने	-11326
▁पइल्य	-11327
▁बस्छु	-11328
▁बस्दै	-11329
▁मनाही	-11330
▁रोएको	-11331
▁वरदान	-11332
टीभन्दा	-11333
दाताबाट	-11334
मोलेकेत	-11335
लिरहेको	-11336
ाइरहेको	-11337
▁छिट्टै	-11338
▁टिम्बर	-11339
▁तिरेको	-11340
▁नाप्ने	-11341
▁पाललाई	-11342
▁बस्नका	-11343
▁मभन्दा	-11344
▁लुर्कन	-11345
▁शाहदेव	-11346
▁सल्यान	-11347
न्टभन्दा	-11348
▁उल्‍लेख	-11349
▁गर्दैनौ	-11350
▁नचाहिदो	-11351
▁समूहहरू	-11352
▁सोभन्दा	-11353
मोलेकेतका	-11354
▁गोल्यतको	-11355
▁चलिरहेको	-11356
▁जबरदस्ती	-11357
▁नाबोतलाई	-11358
▁पाराबोला	-11359
▁बस्दैथिए	-11360
▁बिग्रँदो	-11361
▁मृत्युको	-11362
▁मोटामोटी	-11363
▁रकमभन्दा	-11364
▁समूहहरूल	-11365
▁सुहाउँदो	-11366
▁होस्टनाम	-11367
अन्तर्गतका	-11368
उजुरीकर्ता	-11369
क्यारेक्टर	-11370
गुर्नुहोस्	-11371
चन्द्राकार	-11372
च्भनगबितयच	-11373
जिनोमकार्ड	-11374
डब्लुडब्लु	-11375
डाइरेक्टिङ	-11376
थ्यकर्मीले	-11377
निर्देशकले	-11378
परमप्रभुको	-11379
बन्न्न्न्ध	-11380
मानिसहरूले	-11381
यहूदीहरूको	-11382
र्ताजगीलाई	-11383
वासीहरूबाट	-11384
विद्यालयको	-11385
विद्यालयमा	-11386
व्यक्तिलाई	-11387
शक्तवृत्ति	-11388
सापानीसम्म	-11389
स्ट्रिङहरू	-11390
ााननननीीीी	-11391
ाााददददशशश	-11392
ियाकलापहरू	-11393
ीहरूद्वारा	-11394
ेन्स्गार्ड	-11395
्रग्राहालय	-11396
▁अतिसुचालक	-11397
▁अनुकूलनका	-11398
▁अनुग्रहमा	-11399
वीन	-11400
जीवी	-11401
यरले	-11402
स्वी	-11403
▁पठा	-11404
▁बीम	-11405
▁मेघ	-11406
खामुख	-11407
जुलाई	-11408
ड्बडी	-11409
तमाथि	-11410
▁कुपन	-11411
▁जनाई	-11412
▁जानै	-11413
▁पीएस	-11414
▁भइरह	-11415
▁मेमो	-11416
विाजको	-11417
व्यस्त	-11418
िकार्ड	-11419
▁ओप्रा	-11420
▁चालको	-11421
▁जाँचप	-11422
▁जाँचव	-11423
▁ढुकेर	-11424
▁दक्षि	-11425
▁पठायो	-11426
▁परिषद	-11427
▁बलिका	-11428
▁बालको	-11429
▁मोर्द	-11430
▁शुन्य	-11431
▁सामिल	-11432
जीवीहरु	-11433
ल्दैनन्	-11434
▁असक्षम	-11435
▁गड्बडी	-11436
▁छानवीन	-11437
▁जाँचपड	-11438
▁जाँचमा	-11439
▁जाँचवु	-11440
▁जाँच्न	-11441
▁जानबाट	-11442
▁दक्षिण	-11443
▁द्धारा	-11444
▁पूर्वी	-11445
▁बीमकको	-11446
▁बोलेका	-11447
▁भइरहयो	-11448
▁भन्नेव	-11449
▁मोर्दक	-11450
▁रोगसँग	-11451
▁सन्निक	-11452
▁सामदान	-11453
व्यस्तता	-11454
▁आफूसितै	-11455
▁उमारेका	-11456
▁खर्चहरु	-11457
▁जमीनबाट	-11458
▁जाँचबाट	-11459
▁जाँचवुझ	-11460
▁तेजस्वी	-11461
▁भिकार्ड	-11462
▁मुखामुख	-11463
▁मूल्यवा	-11464
▁सन्निकट	-11465
▁सामदानम	-11466
▁आयोजनामा	-11467
▁उहाँमाथि	-11468
▁जाँचपड्त	-11469
▁तिमीमाथि	-11470
▁दर्ताबाट	-11471
▁राजनैतिक	-11472
▁विवरणहरू	-11473
▁विवरणिका	-11474
▁शिक्षाका	-11475
▁सर्तमाथि	-11476
▁अधिकृतलाई	-11477
▁अनुपस्थित	-11478
▁अनुशासनको	-11479
▁अन्धकारमा	-11480
▁अपर्याप्त	-11481
▁अमेरिकाको	-11482
▁अवस्थाबाट	-11483
▁अवस्थाहरू	-11484
▁अवार्डबाट	-11485
▁असरहरुलाई	-11486
▁असुरक्षित	-11487
▁अहिलेसम्म	-11488
▁आइपुग्कोछ	-11489
▁आउनेहरूमा	-11490
▁आखेटोपहार	-11491
▁आज्ञापालन	-11492
▁आपूर्तिको	-11493
▁आयोजनाबाट	-11494
▁इतिहासबाट	-11495
▁इतिहासहरू	-11496
▁इपिफानीको	-11497
▁इमान्दारी	-11498
▁इम्मानुएल	-11499
ँछौ	-11500
जत०	-11501
,...	-11502
ंशिक	-11503
एसाव	-11504
कसरी	-11505
पसार	-11506
मासि	-11507
ुसको	-11508
▁चिठ	-11509
▁ताश	-11510
,...)	-11511
नानका	-11512
ल्पना	-11513
ष्टिस	-11514
सक्नु	-11515
हरुकै	-11516
्नजत०	-11517
▁आनेर	-11518
▁गुप्	-11519
▁गुफा	-11520
▁गुरु	-11521
▁गुरू	-11522
▁नगदी	-11523
▁नगरी	-11524
▁मस्ट	-11525
▁लेखे	-11526
▁सबूद	-11527
गरक्षक	-11528
ण्डनका	-11529
पर्कमा	-11530
ष्नजत०	-11531
▁अनौठो	-11532
▁आंशिक	-11533
▁करलाई	-11534
▁घरबाट	-11535
▁चेतना	-11536
▁तान्द	-11537
▁तैनात	-11538
▁पर्या	-11539
▁पाहाड	-11540
▁पुच्छ	-11541
▁मरेको	-11542
▁लिनका	-11543
▁सैतीस	-11544
निहरुकै	-11545
नीहरुले	-11546
मासिष्ट	-11547
सारपसार	-11548
हानानका	-11549
िकल्पना	-11550
्ष्नजत०	-11551
▁गुफामै	-11552
▁चरचुरू	-11553
▁चिठीमा	-11554
▁जनाएका	-11555
▁तान्दै	-11556
▁दंङ्गा	-11557
▁नसक्नु	-11558
▁नाघ्ने	-11559
▁पुच्छर	-11560
▁फारसका	-11561
▁समष्टि	-11562
▁हुनाको	-11563
▁कराउँदै	-11564
▁गुप्तिक	-11565
▁घरहरुमा	-11566
▁दिएकोले	-11567
▁पक्षीले	-11568
▁पेष्टिस	-11569
▁बालश्रम	-11570
▁बिरुद्ध	-11571
▁लण्डनका	-11572
▁अंगरक्षक	-11573
▁अय्यूबको	-11574
▁ओसारपसार	-11575
▁च्ष्नजत०	-11576
▁दंङ्गामा	-11577
▁पर्यावरण	-11578
▁प्रविधिक	-11579
▁फर्काउँछ	-11580
▁बनिन्छन्	-11581
▁बाँडफाँट	-11582
▁ल्याऊँछौ	-11583
▁उज्यालोको	-11584
▁उत्तरतर्फ	-11585
▁उत्तरदायी	-11586
▁उनीहरुलाई	-11587
▁उपसमूहहरु	-11588
▁एक्सप्रेस	-11589
▁औषधिहरुको	-11590
▁कम्पनीहरू	-11591
▁कराइरहेको	-11592
▁करोडभन्दा	-11593
▁कसूरदारको	-11594
▁काइन्डनेस	-11595
▁कागजातलाई	-11596
▁कागजातहरू	-11597
▁काठमाडौमा	-11598
▁कामदारहरू	-11599
ain	-11600
lain	-11601
गेकी	-11602
ड्मि	-11603
पक्क	-11604
िताए	-11605
▁जरै	-11606
llain	-11607
त्तिक	-11608
म्पको	-11609
▁अबिए	-11610
▁उठाऊ	-11611
▁कमाई	-11612
▁करका	-11613
▁जोड्	-11614
▁ठाने	-11615
▁लगाई	-11616
illain	-11617
औद्योग	-11618
कारिता	-11619
क्त्ति	-11620
र्षिको	-11621
▁अबिएज	-11622
▁एड्मि	-11623
▁कुलको	-11624
▁पाम्प	-11625
▁बिताए	-11626
▁मदेखि	-11627
▁मातहत	-11628
▁लगायो	-11629
▁विरोध	-11630
▁सत्ति	-11631
▁साम्प	-11632
uillain	-11633
धिभित्र	-11634
भित्रका	-11635
स्तरबाट	-11636
▁आयोजित	-11637
▁काट्ने	-11638
▁चलाउने	-11639
▁जरैसँग	-11640
▁ठानेमा	-11641
▁पम्पको	-11642
▁पार्दै	-11643
▁पार्यो	-11644
▁बनिएको	-11645
▁मन्दता	-11646
▁विज्ञा	-11647
Guillain	-11648
औद्योगिक	-11649
भित्रबाट	-11650
मेटियोस्	-11651
▁अबिएजरे	-11652
▁देवताले	-11653
▁परिपक्क	-11654
▁प्रज्ञा	-11655
▁भिटामिन	-11656
▁मातहतमा	-11657
▁व्याण्ड	-11658
▁शहरदेखि	-11659
▁सत्तिनँ	-11660
▁एड्मिनले	-11661
▁त्योगेकी	-11662
▁पार्नलाई	-11663
▁वार्षिको	-11664
▁विज्ञापन	-11665
▁समयभित्र	-11666
▁साँढेबाट	-11667
▁उत्पादनले	-11668
▁कारणचाहिं	-11669
▁कारणहरुका	-11670
▁कारबाहीका	-11671
▁कारवाहीका	-11672
▁कारवाहीमा	-11673
▁कारीगरहरू	-11674
▁कार्यतर्फ	-11675
▁कार्यनीति	-11676
▁कार्यबिधि	-11677
▁कालदेखिनै	-11678
▁किताबखाना	-11679
▁किल्लाहरू	-11680
▁किसमिसहरू	-11681
▁कीर्तिमान	-11682
▁कुञ्जीबाट	-11683
▁क्यान्टिन	-11684
▁क्रूसतर्फ	-11685
▁क्लाउडियो	-11686
▁खनिजभित्र	-11687
▁खर्चभन्दा	-11688
▁खस्दासम्म	-11689
▁खुट्टाहरू	-11690
▁खेलाडीहरू	-11691
▁गरियोउच्च	-11692
▁गरियोस्््	-11693
▁गरिरहँदैन	-11694
▁गरिसकेपछि	-11695
▁गर्नसक्ने	-11696
▁गर्नुभएमा	-11697
▁गर्नुहुने	-11698
▁गर्नेतर्फ	-11699
गगगग	-11700
जनका	-11701
बच्च	-11702
बैंक	-11703
र्तक	-11704
▁अंक	-11705
▁जीउ	-11706
▁फिट	-11707
▁भजन	-11708
▁लगभ	-11709
▁लगि	-11710
▁लगे	-11711
कूकले	-11712
नेभने	-11713
बातको	-11714
िमकको	-11715
▁कृष्	-11716
▁गल्फ	-11717
▁जीजा	-11718
▁ज्यो	-11719
▁डोभर	-11720
▁बारे	-11721
▁लगभग	-11722
▁लगाइ	-11723
▁हिरो	-11724
इजिप्ट	-11725
बकूकले	-11726
भिजनका	-11727
्रोतको	-11728
▁कृपाल	-11729
▁जाँदै	-11730
▁पार्व	-11731
▁रङहरू	-11732
▁रातको	-11733
▁लग्यो	-11734
गगगगठठठ	-11735
जनहरूले	-11736
▁अपमानि	-11737
▁अपूर्ण	-11738
▁आधारभु	-11739
▁उपशाखा	-11740
▁काम्यो	-11741
▁कृपालु	-11742
▁क्यारे	-11743
▁गल्फले	-11744
▁जानेछु	-11745
▁ज्योति	-11746
▁डोभरले	-11747
▁नबातको	-11748
▁निकासा	-11749
▁बिमकको	-11750
▁भन्यौं	-11751
▁लगिन्छ	-11752
▁समयपछि	-11753
▁स्वामी	-11754
▁स्वास्	-11755
इजिप्टमा	-11756
बच्चाहरू	-11757
स्थानहरू	-11758
▁अपमानित	-11759
▁आधारभुत	-11760
▁आधारहरू	-11761
▁किनेभने	-11762
▁ज्योतिष	-11763
▁ट्रान्स	-11764
▁दिशातिर	-11765
▁निपूर्ण	-11766
▁पाउँनेछ	-11767
▁पूजालाई	-11768
▁रानीलाई	-11769
▁विवादको	-11770
▁स्रोतको	-11771
▁स्वाभाव	-11772
▁स्वार्थ	-11773
▁हबकूकले	-11774
▁गरेकाछन्	-11775
▁ज्योतिषी	-11776
▁ट्रान्सफ	-11777
▁पार्वत्य	-11778
▁प्रवर्तक	-11779
▁सूचनालाई	-11780
▁सूचनाहरु	-11781
▁स्थानलाई	-11782
▁स्वामीको	-11783
▁अभिलेखकृत	-11784
▁अह्राउँछौ	-11785
▁आधारयुक्त	-11786
▁उक्लन्छन्	-11787
▁गाउँहरूमा	-11788
▁गुणस्तरमा	-11789
▁गुप्तिकृत	-11790
▁गुप्तीकरण	-11791
▁गोरूहरूमा	-11792
▁ग्राहकबाट	-11793
▁घण्टासम्म	-11794
▁चिट्ठीहरु	-11795
▁चिन्तालाई	-11796
▁छोराहरूका	-11797
▁जग्गावाला	-11798
▁जनगणनाबाट	-11799
कन्ट	-11800
ङ्गो	-11801
न्टि	-11802
फिया	-11803
बापत	-11804
▁खुद	-11805
▁खुब	-11806
▁पोप	-11807
▁भाई	-11808
▁भाव	-11809
अन्दा	-11810
ङ्गदा	-11811
छारको	-11812
तपूरा	-11813
न्टिओ	-11814
न्याई	-11815
न्याह	-11816
भाग्य	-11817
भारको	-11818
यामिक	-11819
रहीन्	-11820
ियामा	-11821
ुटिया	-11822
▁अभिन	-11823
▁खुरा	-11824
▁नहोऊ	-11825
▁पिरा	-11826
▁पिरो	-11827
▁भयाव	-11828
▁शाहर	-11829
अन्दाज	-11830
केसम्म	-11831
न्टिओक	-11832
भिचारी	-11833
रमार्क	-11834
विचारी	-11835
शियामा	-11836
स्कृति	-11837
▁अभिनय	-11838
▁केन्ट	-11839
▁खुराक	-11840
▁पास्क	-11841
▁भयावह	-11842
▁मोन्ट	-11843
▁साङ्ग	-11844
▁सितार	-11845
ंस्कृति	-11846
कन्टाइल	-11847
ङ्गदानि	-11848
न्दाबाट	-11849
न्याहका	-11850
भाग्यवश	-11851
यर्मिया	-11852
▁आयामिक	-11853
▁खन्याई	-11854
▁खुटिया	-11855
▁पाउँनु	-11856
▁पास्कल	-11857
▁पिरामि	-11858
▁पिरोलि	-11859
▁पीरहरू	-11860
▁बाङ्गो	-11861
▁शाक्ति	-11862
▁शासकको	-11863
▁सोबापत	-11864
▁स्वरकी	-11865
▁ेजनाको	-11866
ंस्कृतिक	-11867
म्दानीमा	-11868
ल्केसम्म	-11869
हरूहरूमा	-11870
ाटरमार्क	-11871
▁एन्टिओक	-11872
▁चालिनेछ	-11873
▁दर्जाको	-11874
▁नविचारी	-11875
▁नेगेवमा	-11876
▁पठाइएको	-11877
▁पिरामिड	-11878
▁पुछारको	-11879
▁फैसलाले	-11880
▁बनाउदैछ	-11881
▁भावकारी	-11882
▁संभारको	-11883
▁सकिन्दा	-11884
ान्टिटीको	-11885
ुल्केसम्म	-11886
▁अभियुक्त	-11887
▁अर्कासित	-11888
▁कुञ्जीमा	-11889
▁चन्दाबाट	-11890
▁रङ्गदानि	-11891
▁लडिरहीन्	-11892
▁सार्नुको	-11893
▁स्वतपूरा	-11894
▁हिंड्छन्	-11895
झुल्केसम्म	-11896
▁आम्दानीमा	-11897
▁कर्महरूमा	-11898
▁जनस्तरबाट	-11899
नून	-11900
प्ल	-11901
सीह	-11902
चिनो	-11903
छैठौ	-11904
दैंछ	-11905
न्टी	-11906
लङ्ग	-11907
लासी	-11908
ल्टर	-11909
हासी	-11910
▁थपी	-11911
▁नून	-11912
▁सप्	-11913
ंक्षी	-11914
कानून	-11915
ङ्गार	-11916
म्साइ	-11917
▁कङ्‍	-11918
▁गएका	-11919
▁चम्क	-11920
▁छोटी	-11921
▁भरसक	-11922
▁मलखा	-11923
▁मसीह	-11924
▁महसु	-11925
▁रिबे	-11926
▁रोल्	-11927
▁ससान	-11928
र्लङ्ग	-11929
विनलाई	-11930
▁आमाकी	-11931
▁दफाको	-11932
▁नाङ्ग	-11933
▁फोहरा	-11934
▁बल्टर	-11935
▁बिवाह	-11936
▁मलखाद	-11937
▁महसुस	-11938
▁विचार	-11939
▁सहासी	-11940
▁स्प्ल	-11941
कांक्षी	-11942
कानूनका	-11943
ङ्गारिक	-11944
ल्कियाह	-11945
▁अवधिका	-11946
▁इम्साइ	-11947
▁त्यँही	-11948
▁नाङ्गै	-11949
▁प्राणि	-11950
▁लागि२०	-11951
▁विलासी	-11952
▁शीम्रो	-11953
▁सप्लाई	-11954
▁हुदैंछ	-11955
कर्तालाई	-11956
ाकांक्षी	-11957
ेरविनलाई	-11958
▁कङ्‍ग्र	-11959
▁चम्केको	-11960
▁छर्लङ्ग	-11961
▁राखेपछि	-11962
▁लागि२०६	-11963
▁शीम्रोन	-11964
ल्कियाहका	-11965
▁निहुराएर	-11966
▁पहिल्याई	-11967
▁मैनाथपुर	-11968
▁लागि२०६४	-11969
▁शीर्षकका	-11970
तान्नुहोस्	-11971
▁जलाईदिनेछ	-11972
▁जायजातबाट	-11973
▁जुत्ताहरू	-11974
▁जोडदिइएको	-11975
▁झर्नुहोस्	-11976
▁टिप्पणीका	-11977
▁टुक्राहरू	-11978
▁टेट्रिनेट	-11979
▁टेलिस्कोप	-11980
▁ट्रयाकहरू	-11981
▁ट्रान्सफर	-11982
▁ठाउँहरुमा	-11983
▁ठेगानाहरू	-11984
▁ड्रेक्सेल	-11985
▁तत्वहरूको	-11986
▁तालिकाबाट	-11987
▁तिर्खाएका	-11988
▁तुल्याउने	-11989
▁त्यतिबाटै	-11990
▁त्यसपक्षि	-11991
▁त्यस्तैमा	-11992
▁त्याग्यौं	-11993
▁त्योभन्दा	-11994
▁दफाबमोजिम	-11995
▁दम्पतिहरु	-11996
▁दाजूहरूका	-11997
▁दाज्यूसित	-11998
▁दासहरूलाई	-11999
MAP	-12000
▁४१	-12001
▁४५	-12002
▁४८	-12003
नदेख	-12004
ेसिम	-12005
▁अप्	-12006
▁जनच	-12007
▁फेस	-12008
▁११०	-12009
नकारी	-12010
भधयचप	-12011
योचित	-12012
र्नेट	-12013
र्फान	-12014
विरको	-12015
हिरको	-12016
ूदबाट	-12017
▁IMAP	-12018
▁जनता	-12019
▁टेडो	-12020
▁२००१	-12021
कारीगर	-12022
नमारको	-12023
प्रकाश	-12024
स्तकमा	-12025
हरुमाझ	-12026
▁असरको	-12027
▁जनलाई	-12028
▁तस्वी	-12029
▁थापना	-12030
▁पाठ्य	-12031
▁रेसिम	-12032
▁शिरको	-12033
▁सहमती	-12034
जानकारी	-12035
यंन्त्र	-12036
▁अनुचित	-12037
▁अन्तवा	-12038
▁कर्मको	-12039
▁कर्मेल	-12040
▁तस्वीर	-12041
▁बारेको	-12042
▁मितिको	-12043
▁लूदबाट	-12044
▁शरीरको	-12045
कारीगरले	-12046
▁अन्तरको	-12047
▁कर्महरू	-12048
▁छोड्दैछ	-12049
▁जनचेतना	-12050
▁दाउराको	-12051
▁बाहिरको	-12052
▁मनपर्ने	-12053
▁यहोयादा	-12054
▁शिविरको	-12055
▁शैतानको	-12056
▁सदस्यता	-12057
▁स्किलमन	-12058
▁हुँदैनौ	-12059
कार्यलयमा	-12060
▁कम्पनीको	-12061
▁कर्मेलको	-12062
▁तस्विरमा	-12063
▁नभएतापनि	-12064
▁परिभाषाः	-12065
▁पस्नुभयो	-12066
▁पुस्तकमा	-12067
▁भान्सेले	-12068
▁स्थायीरू	-12069
पोर्टहरूले	-12070
▁असन्तुष्ट	-12071
▁कुराहरुमा	-12072
▁खोलाहरूको	-12073
▁दिग्दर्शन	-12074
▁दिनसम्मको	-12075
▁दिनीहरुले	-12076
▁दिनुहुदैन	-12077
▁दूतहरूछन्	-12078
▁दृष्टावलि	-12079
▁देखिरहेका	-12080
▁देख्नुभयो	-12081
▁देख्नेछन्	-12082
▁देवदारूका	-12083
▁नजरअन्दाज	-12084
▁नमेटियोस्	-12085
▁नरसिंङ्गा	-12086
▁नागरिकसँग	-12087
▁निक्षेपित	-12088
▁नित्तान्त	-12089
▁नियमहरूमा	-12090
▁नियापोलिस	-12091
▁निर्देशित	-12092
▁निवेदकलाई	-12093
▁निश्क्रिय	-12094
▁निश्चिन्त	-12095
▁निष्काशित	-12096
▁निष्क्रिय	-12097
▁निसर्गबाट	-12098
▁निस्तारको	-12099
नोन	-12100
नोे	-12101
परे	-12102
बाद	-12103
बाब	-12104
वुल	-12105
ष्ग	-12106
ुलर	-12107
ेबा	-12108
▁६१	-12109
जुली	-12110
नियल	-12111
ब्बल	-12112
मष्ग	-12113
रदार	-12114
विष्	-12115
हुनु	-12116
हुरी	-12117
ोबाब	-12118
▁झट्	-12119
▁भइन	-12120
क्टका	-12121
जाबाद	-12122
भमष्ग	-12123
भावित	-12124
लेक्ट	-12125
हुनेछ	-12126
ाटोमा	-12127
िकुलर	-12128
▁ऊसित	-12129
▁एलीम	-12130
▁गतिव	-12131
▁चुचु	-12132
▁जडित	-12133
▁जबूल	-12134
▁ज्ञा	-12135
▁बचाउ	-12136
▁लायक	-12137
▁वाइन	-12138
▁शेबा	-12139
ःभमष्ग	-12140
क्टकाऊ	-12141
टुहुरी	-12142
हुनुदि	-12143
▁आईपरे	-12144
▁आफनोे	-12145
▁आविष्	-12146
▁चाडको	-12147
▁जबूलू	-12148
▁थिईन्	-12149
▁दिनुछ	-12150
▁नदिनु	-12151
▁पाठयो	-12152
▁लेवुल	-12153
▁शोबाब	-12154
▁हब्बल	-12155
▁िझमरु	-12156
त्ताकमा	-12157
▁अम्नोन	-12158
▁इलेक्ट	-12159
▁एलीमेक	-12160
▁गतिवर्	-12161
▁चुचुरा	-12162
▁ज्ञानी	-12163
▁झट्कास	-12164
▁दानियल	-12165
▁दिनुमा	-12166
▁बिजुली	-12167
▁मारियौ	-12168
▁साटोमा	-12169
▁हुँनेछ	-12170
▁िझमरुक	-12171
सम्भावित	-12172
▁उपदफाको	-12173
▁कसुरदार	-12174
▁कारणबाट	-12175
▁कारणहरू	-12176
▁गतिवर्ध	-12177
▁चाहिएको	-12178
▁जान्छन्	-12179
▁टक्टकाऊ	-12180
▁परीक्षा	-12181
▁मेटिएका	-12182
▁रहेकोले	-12183
▁लाइनहरु	-12184
▁अत्ताकमा	-12185
▁आविष्कार	-12186
▁एलीमेकका	-12187
▁ऐनद्वारा	-12188
▁कुहुनुदि	-12189
▁क्याम्पस	-12190
▁गतिवर्धक	-12191
▁जबूलूनको	-12192
▁झट्कासँग	-12193
▁तीद्वारा	-12194
▁प्रोटोकल	-12195
▁म्याक्रो	-12196
▁यहोशूलाई	-12197
▁स्वर्गमा	-12198
▁चुचुराहरु	-12199
वधा	-12200
।")	-12201
ववरण	-12202
ष्ठु	-12203
▁कूश	-12204
▁माट	-12205
▁सदो	-12206
कारबा	-12207
लम्बन	-12208
वधानी	-12209
▁मस्य	-12210
▁राजक	-12211
▁समाल	-12212
कारबाई	-12213
ष्टर्ड	-12214
ष्ठुरी	-12215
्वारका	-12216
▁दरबार	-12217
▁दानमा	-12218
▁दोषित	-12219
▁भित्त	-12220
▁मध्यम	-12221
▁मस्यौ	-12222
▁माटसु	-12223
▁रोपेन	-12224
▁वववरण	-12225
फिल्डमा	-12226
▁MOREAU	-12227
▁उपसचिव	-12228
▁कथासार	-12229
▁तोकिनु	-12230
▁देख्ने	-12231
▁बनाउदा	-12232
▁भित्ते	-12233
▁भूमिको	-12234
▁माटसुओ	-12235
▁मिलाएर	-12236
▁राजकिय	-12237
▁रामामा	-12238
▁रोक्ने	-12239
▁रोपेनौ	-12240
▁विकासह	-12241
▁विषयको	-12242
▁सदोमका	-12243
▁समान्य	-12244
▁सामर्थ	-12245
▁अवलम्बन	-12246
▁आदेशहरू	-12247
▁बढाबढको	-12248
▁बाहेकको	-12249
▁मस्यौदा	-12250
▁माकाबाट	-12251
▁राज्यले	-12252
▁वर्षाले	-12253
▁सदस्यले	-12254
▁सावधानी	-12255
▁चौंडाईको	-12256
▁निष्ठुरी	-12257
▁भएकोलागि	-12258
▁माटसुओका	-12259
▁विकासहमा	-12260
▁वैकल्पिक	-12261
▁सञ्जालमा	-12262
▁सामर्थ्य	-12263
▁हारूनलाई	-12264
बाटफिल्डमा	-12265
▁एकद्वारका	-12266
▁कामकारबाई	-12267
▁झट्कासँगै	-12268
▁निर्माणको	-12269
▁निर्माणमा	-12270
▁निस्सालाई	-12271
▁नेपालगञ्ज	-12272
▁न्यायोचित	-12273
▁न्यूनीकरण	-12274
▁पक्षहरुले	-12275
▁पग्लन्छन्	-12276
▁पछ्याइएको	-12277
▁पछ्याउँदै	-12278
▁पञ्चायतमा	-12279
▁पदार्थहरु	-12280
▁पब्लिककोे	-12281
▁परराष्ट्र	-12282
▁परिचयपत्र	-12283
▁परिपूर्ति	-12284
▁परियोजनाह	-12285
▁परिवारहरू	-12286
▁परिषद्कोे	-12287
▁परिषद््ले	-12288
▁परीक्षाको	-12289
▁पर्खालहरू	-12290
▁पशुहरूलाई	-12291
▁पाउनेछैनौ	-12292
▁पापहरूबाट	-12293
▁पारिनेछन्	-12294
▁पारिपट्टि	-12295
▁पार्नेछन्	-12296
▁पार्नेथिए	-12297
▁पुननामकरण	-12298
▁पुरूषगामी	-12299
थर	-12300
रब	-12301
७३	-12302
देर	-12303
धेर	-12304
िगत	-12305
ैनै	-12306
▁झन	-12307
▁झे	-12308
▁ढक	-12309
▁३१	-12310
उछन्	-12311
एलले	-12312
गतमा	-12313
जाले	-12314
त्तर	-12315
यरको	-12316
लाका	-12317
शाएल	-12318
शाला	-12319
सारा	-12320
▁अरब	-12321
▁मोआ	-12322
▁३००	-12323
ग्छन्	-12324
निकको	-12325
न्िगत	-12326
बाउनु	-12327
म्छन्	-12328
हत्तर	-12329
▁कागत	-12330
▁जुनि	-12331
▁ढकनी	-12332
▁भनेः	-12333
▁मदान	-12334
▁मर्छ	-12335
▁सकुँ	-12336
▁सफाइ	-12337
▁स्पु	-12338
▁२०२६	-12339
▁२०३०	-12340
राजाले	-12341
वेयरको	-12342
ारीसित	-12343
▁आगतमा	-12344
▁इदलाह	-12345
▁जम्मै	-12346
▁जुधेर	-12347
▁देखाऊ	-12348
▁धाउनु	-12349
▁नहुनु	-12350
▁फैलाउ	-12351
▁बिरोध	-12352
▁मलाका	-12353
▁मोआबी	-12354
▁यससित	-12355
▁लादेर	-12356
▁सय्या	-12357
याँउछन्	-12358
▁कोटीको	-12359
▁जुनिको	-12360
▁ढकनीले	-12361
▁दबाउनु	-12362
▁देशबाट	-12363
▁धेरैनै	-12364
▁मात्रै	-12365
▁मीशाएल	-12366
▁योएलले	-12367
धिकरणलाई	-12368
्टवेयरको	-12369
▁आदेशलाई	-12370
▁काम्छन्	-12371
▁छोरासित	-12372
▁जोड्नेछ	-12373
▁पचहत्तर	-12374
▁फैलाउला	-12375
▁माग्छन्	-12376
▁मात्रमा	-12377
▁लगानीमा	-12378
▁लानेछन्	-12379
▁सय्याको	-12380
▁सूचनाद्	-12381
▁सेनापति	-12382
▁स्पुलिङ	-12383
अतिवृष्टि	-12384
शियारीसित	-12385
▁कुञ्जीका	-12386
▁खोल्नाले	-12387
▁दोषाएनन्	-12388
▁विकासलाई	-12389
▁व्यन्िगत	-12390
▁सम्झाउनु	-12391
▁दरखास्तमा	-12392
▁दुःखहरूले	-12393
▁पुर्याएका	-12394
▁पूर्वादेश	-12395
▁पृथ्वीभरि	-12396
▁प्याकेजको	-12397
▁प्रक्षेपण	-12398
▁प्रतिकृया	-12399
कीन	-12400
ठ्ठ	-12401
पुण	-12402
मकी	-12403
रकी	-12404
सेट	-12405
ेलि	-12406
एलकी	-12407
जाकी	-12408
दण्ड	-12409
शतका	-12410
सुला	-12411
िमेट	-12412
▁जगा	-12413
▁डेढ	-12414
▁मिश	-12415
▁याओ	-12416
▁२५५	-12417
कीरकी	-12418
गरेको	-12419
ण्डकी	-12420
ियसले	-12421
ेलिक्	-12422
▁काकी	-12423
▁कीरा	-12424
▁जगाई	-12425
▁जाली	-12426
▁बेरो	-12427
▁मिनि	-12428
▁यकीन	-12429
▁याओब	-12430
▁सकेट	-12431
▁सेती	-12432
▁स्रे	-12433
▁२०४१	-12434
ङ्गबाट	-12435
ल्दैन्	-12436
▁असहाय	-12437
▁जिज्ञ	-12438
▁जेम्स	-12439
▁नामकी	-12440
▁निपुण	-12441
▁प्रचा	-12442
▁बेरोत	-12443
▁लाठ्ठ	-12444
▁सहर्ष	-12445
ध्यान्ह	-12446
ष्टिमेट	-12447
▁गण्डकी	-12448
▁चूजाकी	-12449
▁जनताका	-12450
▁फेलिक्	-12451
▁मिश्री	-12452
▁सक्दथे	-12453
ज्ञहरूको	-12454
▁जिज्ञास	-12455
▁ढङ्गबाट	-12456
▁पर्नेमा	-12457
▁भोल्युम	-12458
▁महालेखा	-12459
▁माकीरकी	-12460
▁याओबलाई	-12461
▁यान्त्र	-12462
▁योरामको	-12463
▁राजदण्ड	-12464
▁हृदयबाट	-12465
▁अब्रामकी	-12466
▁इष्टिमेट	-12467
▁घुसाइनेछ	-12468
▁जिज्ञासु	-12469
▁तुरून्तै	-12470
▁धैर्यलाई	-12471
▁पुरूषसित	-12472
▁मध्यान्ह	-12473
▁मिल्दैन्	-12474
▁स्रेस्ता	-12475
▁अम्मीएलकी	-12476
▁गालीलदेखि	-12477
▁दृष्टिकोण	-12478
▁प्रतिफलको	-12479
▁प्रतिबद्ध	-12480
▁प्रतिसेयर	-12481
▁प्रत्याभू	-12482
▁प्रभावलाई	-12483
▁प्रभावहीन	-12484
▁प्रमुखहरू	-12485
▁प्रयासलाई	-12486
▁प्रयोगगरी	-12487
▁प्रविधिकै	-12488
▁प्रविधिको	-12489
▁प्रविधिगत	-12490
▁प्रवृतिका	-12491
▁प्रशासनको	-12492
▁प्रसारणको	-12493
▁प्राचार्य	-12494
▁प्राणीहरु	-12495
▁प्राणीहरू	-12496
▁प्रापकबाट	-12497
▁प्रापकलाई	-12498
▁प्रारम्भः	-12499
उभल	-12500
टस्	-12501
देन	-12502
लोन	-12503
वदे	-12504
सेन	-12505
सेफ	-12506
ेनस	-12507
▁तो	-12508
उभलम	-12509
केनस	-12510
च्ची	-12511
ण्डी	-12512
देखा	-12513
बाकस	-12514
रातो	-12515
सहाय	-12516
हारे	-12517
होइन	-12518
ेनका	-12519
ेनौं	-12520
▁उसै	-12521
▁पुत	-12522
▁भूत	-12523
▁भेन	-12524
▁हेभ	-12525
▁११२	-12526
उभलमष	-12527
च्चीस	-12528
मानका	-12529
समर्थ	-12530
िल्ला	-12531
ुद्धि	-12532
▁एलोन	-12533
▁जिवा	-12534
▁तोडा	-12535
▁पदेन	-12536
▁परेन	-12537
▁पुनब	-12538
▁फुटा	-12539
▁हुनू	-12540
▁२०६७	-12541
वदेनमा	-12542
सहायता	-12543
हउभलमष	-12544
ोस्टस्	-12545
▁गोर्ड	-12546
▁चहारे	-12547
▁जिवाण	-12548
▁जोसेफ	-12549
▁नामका	-12550
▁पुतली	-12551
▁पुननि	-12552
▁फुटाए	-12553
▁बस्ती	-12554
▁बिसेन	-12555
▁यात्र	-12556
▁योङ्क	-12557
▁लागेन	-12558
केनस्यक	-12559
ज्दैछन्	-12560
द्नुसार	-12561
समर्थित	-12562
ोजिल्ला	-12563
्हउभलमष	-12564
▁कपडाको	-12565
▁कृषिको	-12566
▁जिवाणु	-12567
▁धुलोले	-12568
▁नामसँग	-12569
▁पच्चीस	-12570
▁पुननिर	-12571
▁पुनप्र	-12572
▁पुनबचत	-12573
▁वुद्धि	-12574
▁हुण्डी	-12575
कोणमितीय	-12576
▁अनुक्रम	-12577
▁कोठाहरू	-12578
▁गोर्डेन	-12579
▁घोस्टस्	-12580
▁थालिएको	-12581
▁देखाउँछ	-12582
▁देखेनौं	-12583
▁निस्कने	-12584
▁पर्ख्यो	-12585
▁पुनदेखा	-12586
▁बनाउनको	-12587
▁येशूसित	-12588
▁योङ्कर्	-12589
▁वर्षलाई	-12590
▁हामानका	-12591
▁हेभेनका	-12592
▁जाँचबाकस	-12593
▁तद्नुसार	-12594
▁भूतहरूले	-12595
▁भ्हउभलमष	-12596
▁मोजिल्ला	-12597
▁यात्रामा	-12598
▁सिदकियाह	-12599
!!	-12600
IP	-12601
अझ	-12602
oIP	-12603
शान	-12604
ुला	-12605
ौडी	-12606
दिदी	-12607
वाहक	-12608
▁अँग	-12609
▁खाऊ	-12610
▁जडी	-12611
▁भरा	-12612
▁सहज	-12613
क्ष्म	-12614
ग्नेछ	-12615
पूर्क	-12616
राशान	-12617
ष्ममा	-12618
सिफिक	-12619
ेशूले	-12620
▁जडीव	-12621
▁ठुला	-12622
▁पौडी	-12623
▁सभाघ	-12624
▁२०५३	-12625
येशूले	-12626
▁अँगार	-12627
▁भर्या	-12628
▁लडिन्	-12629
▁सभाघर	-12630
राशानमा	-12631
सिफिकले	-12632
ारहरुको	-12633
▁जडीवुट	-12634
▁तथ्याक	-12635
▁पहिलोप	-12636
▁पूरानो	-12637
▁फाइलका	-12638
▁भराउने	-12639
▁भर्याङ	-12640
▁मार्नु	-12641
▁मेरोमा	-12642
▁रेडियन	-12643
▁शर्तमा	-12644
▁सुम्बा	-12645
गारहरुको	-12646
्रीष्ममा	-12647
▁असक्ष्म	-12648
▁गरिएकोे	-12649
▁गाडाहरू	-12650
▁जडीवुटी	-12651
▁ठुलाछन्	-12652
▁दृश्यमा	-12653
▁नहुनुको	-12654
▁पुग्नेछ	-12655
▁राज्यमा	-12656
▁समितिका	-12657
▁सार्नका	-12658
▁किस्ताको	-12659
▁भर्याङमा	-12660
▁योजनालाई	-12661
▁सक्नेछन्	-12662
▁समितिबाट	-12663
▁सुसहायता	-12664
ोजगारहरुको	-12665
्यासिफिकले	-12666
▁खेज्दैछन्	-12667
▁ग्रीष्ममा	-12668
▁जन्माउँछे	-12669
▁परिचालनको	-12670
▁पहिलोपल्ट	-12671
▁पुननिरन्त	-12672
▁पुनप्रयास	-12673
▁प्रकृतिको	-12674
▁प्रोम्प्ट	-12675
▁फर्किरहनु	-12676
▁फर्नान्डो	-12677
▁फाँटहरूका	-12678
▁फाइलहरुको	-12679
▁फाइलहरूका	-12680
▁फोल्डरलाई	-12681
▁फ्रेडेरिक	-12682
▁बताउनुभयो	-12683
▁बलिदानहरू	-12684
▁बहुभुजसँग	-12685
▁बाकसभित्र	-12686
▁बाटाहरुको	-12687
▁बालीहरुको	-12688
▁बिर्सिएका	-12689
▁बेखतनाहरू	-12690
▁बेरेक्याह	-12691
▁बेलबुट्टा	-12692
▁बेह्रिएको	-12693
▁बोराशानमा	-12694
▁ब्याकइन्ड	-12695
▁ब्राउजरका	-12696
▁भइरहेकाछौ	-12697
▁भएकाहरूका	-12698
▁भत्काएनन्	-12699
BM	-12700
अम	-12701
तह	-12702
तहट	-12703
फुट	-12704
बिन	-12705
बुँ	-12706
िकन	-12707
ुको	-12708
ण्णा	-12709
दयमा	-12710
नोअम	-12711
मेरो	-12712
ृद्ध	-12713
ौतहट	-12714
ौद्ध	-12715
▁XBM	-12716
▁इज्	-12717
▁जुट	-12718
▁झन्	-12719
▁बैं	-12720
▁लेऊ	-12721
▁सोल	-12722
उँदैन	-12723
तेजित	-12724
बुँदे	-12725
यानले	-12726
र्नले	-12727
स्ताङ	-12728
ेशुको	-12729
▁आयमा	-12730
▁कञ्च	-12731
▁खेलफ	-12732
▁पाउन	-12733
▁सड्ढ	-12734
▁१९५०	-12735
क्वायर	-12736
फुटरको	-12737
भर्नले	-12738
हरूमाझ	-12739
ौद्धिक	-12740
्रदयमा	-12741
▁अपमान	-12742
▁अहीमा	-12743
▁इज्जत	-12744
▁कल्ने	-12745
▁गरिकन	-12746
▁बृद्ध	-12747
▁रौतहट	-12748
▁लगियो	-12749
▁संस्थ	-12750
▁सुनले	-12751
ईदिन्थे	-12752
तपाईंले	-12753
ाउनुभयो	-12754
▁अहीमास	-12755
▁कल्नेह	-12756
▁छानबिन	-12757
▁डाटावे	-12758
▁नपाउने	-12759
▁पुस्ता	-12760
▁बनाउँन	-12761
▁बैंजनी	-12762
▁येशुको	-12763
▁वास्ता	-12764
▁शहरहरु	-12765
▁संचालन	-12766
▁संस्थ्	-12767
▁सड्ढलन	-12768
▁सरकारइ	-12769
▁सरकारल	-12770
▁स्वस्थ	-12771
गाउनुभयो	-12772
ाउँनेछन्	-12773
▁अहीनोअम	-12774
▁खेलफेला	-12775
▁जुटाउने	-12776
▁मुस्ताङ	-12777
▁वौद्धिक	-12778
▁सन्तुलन	-12779
▁समर्थित	-12780
▁सरकारवा	-12781
▁ह्रदयमा	-12782
▁अभियानले	-12783
▁उत्तेजित	-12784
▁उदाउँदैन	-12785
▁उहाँसंगै	-12786
▁कारीगरले	-12787
▁पाइलटलाई	-12788
▁बटनहरुको	-12789
▁लाबानलाई	-12790
▁संस्थ्ान	-12791
▁सप्ताहको	-12792
▁स्क्वायर	-12793
▁स्वस्थको	-12794
▁गरिनुपर्छ	-12795
▁डाटावेसमा	-12796
▁भगाउनुभयो	-12797
▁भर्नुपर्छ	-12798
▁भाइबुहारी	-12799
ौन	-12800
छिन्	-12801
ठाउँ	-12802
डाईं	-12803
भांश	-12804
यतको	-12805
र्दछ	-12806
ूनमा	-12807
्रौन	-12808
▁उछि	-12809
▁बोन	-12810
नमानि	-12811
▁उनमा	-12812
▁उसँग	-12813
▁जाऔं	-12814
▁जिका	-12815
▁पदको	-12816
▁पीढा	-12817
▁पुछि	-12818
▁बोको	-12819
▁बोनस	-12820
▁विवे	-12821
क्रमको	-12822
राम्रो	-12823
लाभांश	-12824
िम्रौन	-12825
▁अर्का	-12826
▁पालका	-12827
▁योसँग	-12828
▁लडाईं	-12829
▁सर्वे	-12830
▁सोसँग	-12831
सिम्रौन	-12832
▁उनमाथि	-12833
▁कित्ता	-12834
▁कोर्दछ	-12835
▁निजलाइ	-12836
▁नेकोको	-12837
▁नेटबुक	-12838
▁मनमानि	-12839
▁मिर्मि	-12840
▁विक्रम	-12841
देवताहरू	-12842
▁उछिनेको	-12843
▁कानूनमा	-12844
▁कुरासँग	-12845
▁भैसकेका	-12846
▁विवेचना	-12847
▁स्किप्ट	-12848
▁उखाल्नका	-12849
▁उपक्रमको	-12850
▁ट्युववेल	-12851
▁पाउँछिन्	-12852
▁पुछिदिनु	-12853
▁प्लगइनमा	-12854
▁मिर्मिरे	-12855
▁लडाईंबाट	-12856
▁सभापतिले	-12857
▁कुराहरुको	-12858
▁चट्टानबाट	-12859
▁जान्नेछन्	-12860
▁पञ्चायतको	-12861
▁पहिचायकले	-12862
▁भाग्दैछन्	-12863
▁भारतसँगको	-12864
▁भित्ताहरू	-12865
▁भेक्टरसँग	-12866
▁भोकाउनेछौ	-12867
▁मण्डलीहरू	-12868
▁मशिल्लेमो	-12869
▁महाराजाको	-12870
▁महाराजाधि	-12871
▁महोत्सवको	-12872
▁मागिरहेको	-12873
▁माध्यमहरू	-12874
▁मानिनेछैन	-12875
▁मार्गतर्फ	-12876
▁मालिककहाँ	-12877
▁मिटरभन्दा	-12878
▁मिल्दैनन्	-12879
▁मिश्रवासी	-12880
▁मुद्दालाई	-12881
▁मूल्यवान्	-12882
▁मृगौलाहरू	-12883
▁मृत्युबाट	-12884
▁मृत्युसित	-12885
▁मोर्दकैले	-12886
▁मौजदातबाट	-12887
▁मौजदातलाई	-12888
▁यरूशलेमले	-12889
▁यर्मियाको	-12890
▁यर्मियाले	-12891
▁यहूदियाका	-12892
▁यहूदियाको	-12893
▁यहोयादाले	-12894
▁यातायातको	-12895
▁यात्रुहरु	-12896
▁यान्त्रिक	-12897
▁यिप्तहलाई	-12898
▁युवाहरूको	-12899
मं	-12900
४८	-12901
चौं	-12902
तीक	-12903
फरक	-12904
ब्ज	-12905
मंड	-12906
रेड	-12907
सब्	-12908
ीकी	-12909
एन्ट	-12910
कियो	-12911
ख्रा	-12912
दीकी	-12913
मंडल	-12914
र्गम	-12915
▁अदू	-12916
▁अवस	-12917
▁घरह	-12918
▁दाग	-12919
▁बिच	-12920
▁बिध	-12921
▁मिद	-12922
▁रुम	-12923
▁रूट	-12924
▁१०७	-12925
एन्टे	-12926
चस्तर	-12927
छिन्न	-12928
डमाथि	-12929
तन्तु	-12930
ब्जाउ	-12931
मीनमा	-12932
मोरेड	-12933
सब्जी	-12934
▁उठ्न	-12935
▁गुगल	-12936
▁ट्री	-12937
▁धैरे	-12938
▁बढ्न	-12939
▁बिला	-12940
▁बिहा	-12941
▁मोदी	-12942
▁राखि	-12943
▁साझा	-12944
ख्राको	-12945
जमीनमा	-12946
तीकहरू	-12947
मंडलीय	-12948
▁अदूम्	-12949
▁उत्था	-12950
▁कसलाई	-12951
▁ग्रान	-12952
▁छाडेर	-12953
▁डरलको	-12954
▁पर्छः	-12955
▁पाचौं	-12956
▁बिचमा	-12957
▁बिधवा	-12958
▁विलिन	-12959
▁सकेका	-12960
▁सुसम्	-12961
एन्टेना	-12962
र्थकियो	-12963
र्यकारी	-12964
▁अङ्कको	-12965
▁अवसरमा	-12966
▁आफूसँग	-12967
▁उचस्तर	-12968
▁उत्थान	-12969
▁उब्जाउ	-12970
▁कसूरमा	-12971
▁ट्रीमा	-12972
▁दागहरु	-12973
▁दुर्गम	-12974
▁नामहरू	-12975
▁पारेका	-12976
▁बिहानी	-12977
▁राखिदि	-12978
▁शब्दको	-12979
▁स्पेयर	-12980
डमाथिबाट	-12981
ूहन्नाले	-12982
▁अदूम्मी	-12983
▁अन्नहरू	-12984
▁एसावलाई	-12985
▁जब्दीकी	-12986
▁जोडनीको	-12987
▁तिमीसित	-12988
▁पशुजन्य	-12989
▁बिलामले	-12990
▁बैड्ढको	-12991
▁मिद्यान	-12992
▁र्थकियो	-12993
▁सेवालाई	-12994
यूहन्नाले	-12995
▁अदूम्मीम	-12996
▁आर्मोरेड	-12997
▁उठाउँछन्	-12998
▁उद्योगमा	-12999
ईदै	-13000
थरु	-13001
रुण	-13002
्रु	-13003
‍++	-13004
▁"%	-13005
▁GT	-13006
▁ुत	-13007
त्रो	-13008
थरुम	-13009
न्नत	-13010
रक्त	-13011
वादक	-13012
िक्त	-13013
ेशमी	-13014
्रुण	-13015
‍‍++	-13016
▁GTK	-13017
▁उनि	-13018
▁सदै	-13019
▁३६५	-13020
गर्थे	-13021
म्वित	-13022
लापमा	-13023
ोग्रा	-13024
▁असम्	-13025
▁काका	-13026
▁कुल्	-13027
▁दुबै	-13028
▁वरुण	-13029
▁सदैव	-13030
▁हुदै	-13031
ानुसार	-13032
ोग्राफ	-13033
▁ऊन्नत	-13034
▁कुल्च	-13035
▁दियौं	-13036
▁पुलमा	-13037
▁भ्रुण	-13038
▁मान्न	-13039
▁मुकरर	-13040
▁मेजमा	-13041
▁रेन्ज	-13042
▁रेशमी	-13043
▁सुनका	-13044
बिम्वित	-13045
लापमाथि	-13046
▁अधिक्त	-13047
▁असम्भव	-13048
▁एप्लेट	-13049
▁चिन्ता	-13050
▁द्रव्य	-13051
▁पर्नेः	-13052
▁पात्रो	-13053
▁बाथरुम	-13054
▁रकमसँग	-13055
▁विरक्त	-13056
न्दर्भिक	-13057
▁अधिक्तम	-13058
▁गराउँदै	-13059
▁लुकाएका	-13060
▁संसारका	-13061
▁हटाउनको	-13062
वादकहरूको	-13063
▁अटोग्राफ	-13064
▁अभिषिक्त	-13065
▁ऐतिहासिक	-13066
▁कुल्चिमि	-13067
▁खारेजीका	-13068
▁गरिरहन्छ	-13069
▁जीवजन्तु	-13070
▁दिनहरुमा	-13071
▁परेकोछन्	-13072
▁रुमलिएको	-13073
▁सकुञ्जेल	-13074
छोरीहरूलाई	-13075
▁iteminlis	-13076
▁अनपेक्षित	-13077
▁उनिहरुलाई	-13078
▁एप्लेटलाई	-13079
▁चिन्ताबाट	-13080
▁जनसम्पर्क	-13081
▁पक्षहरुमा	-13082
▁पिसीहरूको	-13083
▁प्रतीकहरू	-13084
▁फेलिक्सले	-13085
▁बैंकहरुको	-13086
▁यूफ्रेटिस	-13087
▁यूहन्नामा	-13088
▁योगदानलाई	-13089
▁योग्यताको	-13090
▁योजनामाथि	-13091
▁योराबामको	-13092
▁योशियाहको	-13093
▁योशियाहले	-13094
▁योहानानका	-13095
▁रक्तबलिमा	-13096
▁रजस्वलाको	-13097
▁रहनुपर्दा	-13098
▁रहनुहुनेछ	-13099
लह	-13100
०६	-13101
ड्न	-13102
थोक	-13103
मिइ	-13104
लहै	-13105
हेक	-13106
जाँच	-13107
ड्रि	-13108
ताउन	-13109
दाएर	-13110
नापी	-13111
नायु	-13112
निला	-13113
पाँच	-13114
ेशेक	-13115
▁अँफ	-13116
▁असी	-13117
▁कोठ	-13118
▁जमि	-13119
▁जेल	-13120
▁डेक	-13121
▁फूल	-13122
▁सकौ	-13123
▁हाउ	-13124
एड्रि	-13125
छाहरू	-13126
त्रका	-13127
धिदैन	-13128
मेशेक	-13129
स्ताउ	-13130
िर्ता	-13131
ेलबाट	-13132
▁एपर्	-13133
▁जग्ग	-13134
▁माँग	-13135
▁लगती	-13136
▁सकला	-13137
थोकहरू	-13138
नायुमा	-13139
पेटामा	-13140
लाकलाई	-13141
ोडिएको	-13142
▁एदीएल	-13143
▁एपर्च	-13144
▁गर्जन	-13145
▁जङ्गल	-13146
▁जामिइ	-13147
▁जेलमा	-13148
▁तताउन	-13149
▁तेलले	-13150
▁पाठमा	-13151
▁फूलको	-13152
▁मनिला	-13153
▁याउनु	-13154
▁लदाएर	-13155
▁वाहेक	-13156
▁संघले	-13157
▁हिड्न	-13158
एड्रियन	-13159
छोडिएको	-13160
पाँचवटा	-13161
▁अँफैले	-13162
▁अस्ताउ	-13163
▁आफ्नोे	-13164
▁एपर्चर	-13165
▁कोठामा	-13166
▁जग्गमा	-13167
▁जमिनको	-13168
▁त्यससं	-13169
▁निम्ना	-13170
▁बलिसित	-13171
▁बलिहरू	-13172
▁विकासः	-13173
▁सोध्ने	-13174
ज्रेलबाट	-13175
▁चपेटामा	-13176
▁जिउँछन्	-13177
▁जेष्ठता	-13178
▁झिकिएका	-13179
▁नापजाँच	-13180
▁बाछाहरू	-13181
▁भत्काउन	-13182
▁लाग्नेछ	-13183
▁ल्याओस्	-13184
▁सोधिदैन	-13185
▁हिसाबमा	-13186
धिकारवाला	-13187
भावग्रस्त	-13188
▁त्यससंय्	-13189
▁निम्नानु	-13190
▁बनायाहले	-13191
▁बालाकलाई	-13192
▁संरचनाको	-13193
▁स्नायुमा	-13194
अभावग्रस्त	-13195
यिज्रेलबाट	-13196
▁अस्ताउनेछ	-13197
▁आश्रयस्थल	-13198
▁कतिथोकहरू	-13199
wa	-13200
owa	-13201
इले	-13202
रोई	-13203
सूच	-13204
ाइम	-13205
ियन	-13206
ूरो	-13207
▁ठग	-13208
▁ढल	-13209
howa	-13210
एलमा	-13211
पाइल	-13212
यनता	-13213
लीला	-13214
सायन	-13215
ाँदी	-13216
ालमि	-13217
▁मुछ	-13218
▁१७८	-13219
howas	-13220
किएको	-13221
चाँदी	-13222
धारमा	-13223
ध्ययन	-13224
नामले	-13225
न्ट्स	-13226
रोईमा	-13227
सूचित	-13228
ेशियन	-13229
▁कामै	-13230
▁खन्य	-13231
▁छाला	-13232
▁नलिन	-13233
▁मुर्	-13234
whowas	-13235
अध्ययन	-13236
एमएलमा	-13237
केशियन	-13238
लीलाले	-13239
ालमिया	-13240
्रान्त	-13241
▁कन्सो	-13242
▁छुइनँ	-13243
▁मुर्ख	-13244
▁रसायन	-13245
▁व्यवह	-13246
▁श्राप	-13247
▁सान्त	-13248
▁whowas	-13249
▁नेपालज	-13250
▁प्राइम	-13251
▁बाइट्स	-13252
▁मुछेको	-13253
▁मोरङ्ग	-13254
▁याईरको	-13255
▁व्यूरो	-13256
▁सजिएको	-13257
टीएमएलमा	-13258
▁अभियनता	-13259
▁उपनामले	-13260
▁ककेशियन	-13261
▁कम्पाइल	-13262
▁डराँउथे	-13263
▁ढाकिएको	-13264
▁दलीलाले	-13265
▁देखिदैन	-13266
▁निधारमा	-13267
▁प्रयोगग	-13268
▁प्रयोगश	-13269
▁बअध्ययन	-13270
▁बेचिएको	-13271
▁मातहतको	-13272
▁लुकाएको	-13273
▁विदाइले	-13274
▁सान्त्व	-13275
चटीएमएलमा	-13276
▁उप्रान्त	-13277
▁कन्सोलमा	-13278
▁क्षेत्रह	-13279
▁खन्याउनु	-13280
▁गोश्वारा	-13281
▁परिरहेको	-13282
▁ज्यामितिय	-13283
▁पइल्याउने	-13284
▁पर्यटनबाट	-13285
▁प्रयोगगरि	-13286
▁राखिदिंदा	-13287
▁राख्नेछन्	-13288
▁राजकुमारी	-13289
▁राजगुठीका	-13290
▁राजविाजको	-13291
▁राम्रोसँग	-13292
▁राष्ट्रको	-13293
▁राष्ट्रमा	-13294
▁रुपरेखाको	-13295
▁रुपैयाँका	-13296
▁रुपैयाँले	-13297
▁रोक्किएका	-13298
▁रोगग्रस्त	-13299
सीन	-13300
ासो	-13301
))))	-13302
त्यो	-13303
रून्	-13304
सकको	-13305
ाइलि	-13306
ालीस	-13307
ृप्त	-13308
्क्स	-13309
▁TRA	-13310
▁फड्	-13311
▁शिन	-13312
▁संं	-13313
▁सफा	-13314
▁समन	-13315
र्षमा	-13316
सक्षम	-13317
सीनता	-13318
ाइलिज	-13319
▁कराए	-13320
▁चासो	-13321
▁जुरू	-13322
▁नाफा	-13323
▁फड्क	-13324
▁समनव	-13325
▁सुनी	-13326
▁१९८६	-13327
त्यहाँ	-13328
मीसकको	-13329
▁इकलले	-13330
▁गालील	-13331
▁चालीस	-13332
▁तृप्त	-13333
▁समनवय	-13334
▁सम्बन	-13335
ईहरुलाई	-13336
मरोदकले	-13337
्राइलिज	-13338
▁button	-13339
▁उमारेर	-13340
▁कुलेखा	-13341
▁चुसाएर	-13342
▁छोड्दा	-13343
▁तोक्दा	-13344
▁दिनहरू	-13345
▁नगरून्	-13346
▁फड्केर	-13347
▁बर्षमा	-13348
▁रूपैया	-13349
▁लिइएको	-13350
▁सम्बनध	-13351
ड्राइलिज	-13352
्याल्क्स	-13353
▁किबोर्ड	-13354
▁कुरालाई	-13355
▁दमीसकको	-13356
▁फरिसीले	-13357
▁बर्न्हा	-13358
▁बाटोबाट	-13359
▁शिनारको	-13360
▁संंस्था	-13361
▁समयमानै	-13362
▁सम्बनध्	-13363
काईहरुलाई	-13364
क्याल्क्स	-13365
▁उदासीनता	-13366
▁कुलेखानी	-13367
▁क्यामेरा	-13368
▁जुरूक्कै	-13369
▁पत्नीसित	-13370
▁प्रहरीको	-13371
▁बर्न्हाम	-13372
▁रूखहरूमा	-13373
▁खाम्बाहरू	-13374
▁भिडियोहरू	-13375
▁रोजगारीमा	-13376
▁रोयटर्सका	-13377
▁लक्ष्यहरू	-13378
▁लगतबमोजिम	-13379
▁लागिपरेकै	-13380
▁लागिरहेको	-13381
▁लागेकामहि	-13382
▁लाठ्ठीहरू	-13383
▁लुकिरहेका	-13384
▁लेखिएदेखि	-13385
▁लोग्नेलाई	-13386
▁ल्याउँछन्	-13387
▁वंशहरूलाई	-13388
▁वर्गहरूको	-13389
▁वर्षभन्दा	-13390
▁वर्षहरूमा	-13391
▁वाइनहरूले	-13392
▁वाटरमार्क	-13393
▁वातावरणमा	-13394
▁वायुयानका	-13395
▁वायुयानको	-13396
▁वायुयानमा	-13397
▁विकल्पहरू	-13398
▁विजार्डमा	-13399
आँग	-13400
साप	-13401
८२३	-13402
▁घि	-13403
▁चट	-13404
▁डक	-13405
▁डट	-13406
कारछ	-13407
ध्यौ	-13408
यमथ०	-13409
रणका	-13410
रिनु	-13411
रिलो	-13412
▁अदन	-13413
▁आसा	-13414
▁छोए	-13415
▁तला	-13416
▁बरि	-13417
▁भूँ	-13418
▁सके	-13419
▁सान	-13420
जसलाई	-13421
डाहरु	-13422
नेपाल	-13423
साकार	-13424
▁चटान	-13425
▁तलास	-13426
▁तोके	-13427
▁नासा	-13428
▁भूँइ	-13429
आँगनको	-13430
प्रत्य	-13431
लियाले	-13432
ाजनाको	-13433
्ययमथ०	-13434
▁अग्रा	-13435
▁कस्तो	-13436
▁दरिलो	-13437
▁भतिजो	-13438
▁रहोस्	-13439
▁राप्त	-13440
▁लिङ्क	-13441
रद्वारा	-13442
राहरुको	-13443
ल्यासाप	-13444
साकारको	-13445
ीहरूसित	-13446
▁आकर्षक	-13447
▁गुमाएर	-13448
▁चटानले	-13449
▁जहाजको	-13450
▁धागोको	-13451
▁बेकारछ	-13452
▁भूँइमा	-13453
▁राप्ती	-13454
▁सकेनौं	-13455
▁सार्ने	-13456
▁सोध्यौ	-13457
प्रत्येक	-13458
▁असाध्यै	-13459
▁द्ययमथ०	-13460
▁परिपत्र	-13461
▁समन्वित	-13462
क्षहरुलाई	-13463
र्कुञ्जेल	-13464
स्साकारको	-13465
▁अड्डाहरु	-13466
▁एल्यासाप	-13467
▁कार्डहरू	-13468
▁ढुकुरलाई	-13469
▁तौलियाले	-13470
▁देख्नेछौ	-13471
▁निहुरिनु	-13472
▁बरिरहेका	-13473
▁बाख्राको	-13474
▁माध्यमले	-13475
▁योाजनाको	-13476
कक्षहरुलाई	-13477
फर्कुञ्जेल	-13478
्रोरद्वारा	-13479
▁गोराहरुको	-13480
▁घिउकुमारी	-13481
▁तिनिहरुकै	-13482
▁निजहरुसँग	-13483
▁पत्रिकामा	-13484
▁पर्यटनसँग	-13485
▁विजार्डले	-13486
▁विधुवाहरू	-13487
▁विभाजकहरू	-13488
▁विवरणसमेत	-13489
▁विविधताको	-13490
▁विशेषीकृत	-13491
▁विषयबस्तु	-13492
▁विषयवस्तु	-13493
▁विस्तारको	-13494
▁वीरेन्द्र	-13495
▁वेदीहरूको	-13496
▁व्यक्त्ति	-13497
▁व्यवस्थाः	-13498
▁व्यवहारमा	-13499
▁T	-13500
उटा	-13501
▁TC	-13502
एउटा	-13503
बबाट	-13504
मर्थ	-13505
र्थि	-13506
सर्थ	-13507
ेश्व	-13508
▁तीर	-13509
▁बाण	-13510
▁होस	-13511
जनाले	-13512
र्डले	-13513
▁एल्ब	-13514
▁क्षय	-13515
▁डराए	-13516
▁नेता	-13517
▁बन्न	-13518
▁बाजा	-13519
▁बान्	-13520
▁बुने	-13521
▁मलमा	-13522
क्षामा	-13523
▁एल्बम	-13524
▁क्षमा	-13525
▁चल्नु	-13526
▁तसर्थ	-13527
▁द्वित	-13528
▁नेताः	-13529
▁फुटेर	-13530
▁बनावट	-13531
▁महलको	-13532
▁मोनाश	-13533
▁सर्ला	-13534
▁सुक्छ	-13535
र्थिलाई	-13536
हरुबबाट	-13537
ेश्वसंग	-13538
▁असमर्थ	-13539
▁क्षत्र	-13540
▁गराएको	-13541
▁छोडदैन	-13542
▁जित्ने	-13543
▁दिईनेछ	-13544
▁बाटेको	-13545
▁बान्की	-13546
▁बिग्री	-13547
▁मातेको	-13548
▁सुनौला	-13549
▁अत्यन्त	-13550
▁कक्षामा	-13551
▁गर्नुका	-13552
▁गर्नुको	-13553
▁तिमीसंग	-13554
▁द्वितीय	-13555
▁बसेकाछौ	-13556
▁बाजाहरू	-13557
▁भक्तपुर	-13558
▁मानिसकी	-13559
▁वर्णनमा	-13560
▁शब्दकोश	-13561
▁सर्लाही	-13562
▁साँप्रा	-13563
भष्ििबलअभ	-13564
▁कपटपूर्ण	-13565
▁काउन्सिल	-13566
▁क्षत्रमा	-13567
▁छोडदैनस्	-13568
▁जर्मनीको	-13569
▁टेलिफोनी	-13570
▁तिर्सामा	-13571
▁दुइजनाले	-13572
▁बाणहरूले	-13573
▁भागहरुमा	-13574
▁महिलालाई	-13575
भष्ििबलअभ०	-13576
▁अब्रामलाई	-13577
▁गर्नकसैको	-13578
▁देशव्यापी	-13579
▁निपूर्णता	-13580
▁मन्त्रीले	-13581
▁व्यापारमा	-13582
▁शकन्याहका	-13583
▁शमूएलसंगै	-13584
▁शहरहरूलाई	-13585
▁शहरूहरूमा	-13586
▁शान्तिसित	-13587
▁शासनकालमा	-13588
▁शाहदेवबाट	-13589
▁शिक्षकहरु	-13590
▁शिक्षासम्	-13591
▁शुरूहुनेछ	-13592
▁शेरविनलाई	-13593
▁श्रमिकहरु	-13594
▁षड्यन्त्र	-13595
▁संंस्थाले	-13596
▁संविधानले	-13597
▁संवैधानिक	-13598
▁संस्करणका	-13599
४४	-13600
TRL	-13601
कित	-13602
ख्छ	-13603
गाफ	-13604
▁टी	-13605
टोसी	-13606
भ्रो	-13607
वादन	-13608
हनको	-13609
▁CPU	-13610
▁आयम	-13611
▁एजे	-13612
▁जोर	-13613
▁थलो	-13614
▁पखा	-13615
▁होः	-13616
चिन्ह	-13617
दानको	-13618
र्यदन	-13619
ष्ठरो	-13620
सुन्द	-13621
िमिति	-13622
ेश्रो	-13623
ोर्नु	-13624
्रामक	-13625
्रोता	-13626
▁CTRL	-13627
▁चकित	-13628
▁डोमे	-13629
▁त्रो	-13630
▁थिएः	-13631
▁बायो	-13632
▁मग्न	-13633
▁सकिन	-13634
▁सुलभ	-13635
अनुचित	-13636
चोर्नु	-13637
रणनीति	-13638
वर्गमा	-13639
ष्ठरोग	-13640
सुन्दर	-13641
▁आयमिक	-13642
▁उन्मू	-13643
▁एभ्रो	-13644
▁खाँदै	-13645
▁गफगाफ	-13646
▁गरिको	-13647
▁जनाको	-13648
▁त्रोआ	-13649
▁थलोमै	-13650
▁पखाले	-13651
▁मानको	-13652
▁र्यदन	-13653
▁हजारौ	-13654
▁अनेकौं	-13655
▁आकाशका	-13656
▁उन्मूख	-13657
▁एजेण्ट	-13658
▁कुलपति	-13659
▁तेश्रो	-13660
▁त्रोआस	-13661
▁पखालें	-13662
▁पर्खें	-13663
▁पोटोसी	-13664
▁बोहनको	-13665
▁मेट्ने	-13666
▁लुट्नु	-13667
▁श्रोता	-13668
▁सक्रिन	-13669
▁सर्नेछ	-13670
त्रिशुली	-13671
▁अन्तरिम	-13672
▁अभिवादन	-13673
▁अर्साको	-13674
▁आक्रामक	-13675
▁जब्दीएल	-13676
▁डोमेनमा	-13677
▁तपाईंमा	-13678
▁नाकाबाट	-13679
▁न्यायको	-13680
▁परिमिति	-13681
▁पाउलोको	-13682
▁रत्नहरू	-13683
▁शैतानले	-13684
▁कम्पनीका	-13685
▁कुष्ठरोग	-13686
▁निचोर्नु	-13687
▁पुजाहारी	-13688
▁योगदानको	-13689
▁हाटाइएको	-13690
समितिहरूको	-13691
▁चट्टानलाई	-13692
▁छोरीहरूले	-13693
▁फुकाल्छन्	-13694
▁बिन्दुहरू	-13695
▁संस्थाननै	-13696
▁सक्नुपर्छ	-13697
▁सगरमाथाको	-13698
▁सङ्कक्रमण	-13699
२००	-13700
▁८१	-13701
पेका	-13702
बजार	-13703
भारी	-13704
ल्चि	-13705
वेदी	-13706
ाएमा	-13707
▁असं	-13708
▁कोक	-13709
▁कोप	-13710
▁बिन	-13711
ारीको	-13712
ोखिनु	-13713
▁उभिए	-13714
▁केटा	-13715
▁छपाई	-13716
▁टुहर	-13717
▁नाता	-13718
▁पायो	-13719
▁स्री	-13720
प्रदेश	-13721
बजारमा	-13722
संसदको	-13723
▁अन्या	-13724
▁आभारी	-13725
▁उज्जी	-13726
▁उत्सा	-13727
▁उपनाम	-13728
▁कोपरा	-13729
▁खपेका	-13730
▁टुहरा	-13731
▁देखिए	-13732
▁देखेर	-13733
▁नातान	-13734
▁सक्यो	-13735
▁ारीको	-13736
तिहरूको	-13737
▁उत्साह	-13738
▁खोजतला	-13739
▁खोज्दछ	-13740
▁चोखिनु	-13741
▁जहाजमा	-13742
▁जिम्रा	-13743
▁तपाईले	-13744
▁दुष्ट्	-13745
▁बिषयमा	-13746
▁रगतबाट	-13747
▁हराएमा	-13748
िििितततत	-13749
▁एस्तरले	-13750
▁खोजतलास	-13751
▁जिम्रान	-13752
▁त्यसबाट	-13753
▁पर्दामा	-13754
▁बदलिएको	-13755
▁सर्वनाश	-13756
▁सोच्यौं	-13757
▁अन्यायमा	-13758
▁ग्राफिकल	-13759
▁जिम्रीले	-13760
▁ट्यागनाम	-13761
▁देशहरूका	-13762
▁बगिरह्यो	-13763
▁मानिससँग	-13764
▁मूर्खलाई	-13765
▁विकाससँग	-13766
▁शहरहरूको	-13767
▁स्तुतिका	-13768
▁अध्ययनहरु	-13769
▁उठाउनेहरू	-13770
▁कपिलवस्तु	-13771
▁परिकल्पना	-13772
▁वातावरणको	-13773
▁सङ्केतहरू	-13774
▁सङ्ख्याको	-13775
▁सङ्ख्यामा	-13776
▁सङ्लग्नता	-13777
▁सत्यताहरू	-13778
▁सदुपयोगका	-13779
▁सन्तानबाट	-13780
▁सन्देशहरू	-13781
▁समझदारीको	-13782
▁समझदारीले	-13783
▁समयोपयोगी	-13784
▁समष्टिपमा	-13785
▁समस्यालाई	-13786
▁समायोजनको	-13787
▁सम्झन्छन्	-13788
▁सम्पर्कमा	-13789
▁सम्पादकका	-13790
▁सम्बनध्मा	-13791
▁सम्बन्धको	-13792
▁सरकारवादी	-13793
▁सर्बोउच्च	-13794
▁सर्भेयरले	-13795
▁साइप्रसको	-13796
▁साइरेनिमा	-13797
▁साझेदारको	-13798
▁साझेदारले	-13799
GP	-13800
ेा	-13801
PGP	-13802
▁(%	-13803
▁UR	-13804
▁ेर	-13805
▁५क	-13806
nPGP	-13807
ँगुर	-13808
थियो	-13809
न्ना	-13810
भुल्	-13811
लियो	-13812
्तार	-13813
▁URL	-13814
▁आवज	-13815
▁धनु	-13816
▁हाय	-13817
अन्ना	-13818
क्षान	-13819
ङ्कति	-13820
दानले	-13821
पिएको	-13822
फ्तार	-13823
▁URLs	-13824
▁एन्ड	-13825
▁केरा	-13826
▁जलाइ	-13827
▁थम्ब	-13828
▁पसलः	-13829
▁भएकी	-13830
▁हानी	-13831
▁हाले	-13832
▁आवजमा	-13833
▁घरपाल	-13834
▁चढाएर	-13835
▁जोगीन	-13836
▁नभुल्	-13837
▁भएकोे	-13838
▁भन्ला	-13839
▁वस्नु	-13840
▁विराम	-13841
▁स्लाइ	-13842
▁हरुको	-13843
ँगुरहरू	-13844
कककाााो	-13845
नियुक्त	-13846
▁अभिन्न	-13847
▁आमालाई	-13848
▁कतिजना	-13849
▁जीविका	-13850
▁थम्बने	-13851
▁दीनहीन	-13852
▁नहुनेः	-13853
▁पङ्कति	-13854
▁बचाउँन	-13855
▁भन्लान	-13856
▁मुखिया	-13857
▁शुरूमा	-13858
▁स्लाइड	-13859
कककाााोे	-13860
▁OpenPGP	-13861
▁अध्यापन	-13862
▁क्रोसमा	-13863
▁चक्रलाई	-13864
▁देखाउदै	-13865
▁धेरैलाई	-13866
▁धैर्यले	-13867
▁प्रतिको	-13868
▁प्लोटका	-13869
▁फर्कनको	-13870
▁भइरहन्छ	-13871
▁योअन्ना	-13872
▁योक्षान	-13873
▁हल्लियो	-13874
▁हूरामले	-13875
द्दनराममा	-13876
▁अर्पिएको	-13877
▁गइरहेकेा	-13878
▁गिरफ्तार	-13879
▁घरपालुवा	-13880
▁जान्नेछौ	-13881
▁थम्बनेल्	-13882
▁पतिहरूको	-13883
▁बोसोसितै	-13884
▁योजनाहरू	-13885
आयोजनाहबाट	-13886
▁चेतावनीयो	-13887
▁छोरीहरूको	-13888
▁जलाइनेछन्	-13889
▁त्यसैमाथि	-13890
▁थम्बनेल्स	-13891
▁निर्यातमा	-13892
▁पर्नेथियो	-13893
▁बनाउनेलाई	-13894
▁साधनहरुको	-13895
▁साधनहरूका	-13896
▁सान्त्वना	-13897
▁सापेक्षित	-13898
▁साप्ताहिक	-13899
HI	-13900
HIF	-13901
ज्म	-13902
यही	-13903
राज	-13904
ारै	-13905
ूजी	-13906
HIFT	-13907
उहाँ	-13908
हीको	-13909
▁0..	-13910
▁UID	-13911
▁आँख	-13912
▁कमि	-13913
▁करः	-13914
▁कही	-13915
▁गयौ	-13916
▁बचा	-13917
▁स्फ	-13918
▁हदद	-13919
ेललाई	-13920
▁आफना	-13921
▁बचाऊ	-13922
▁महास	-13923
▁सारै	-13924
▁स्फट	-13925
उहाँले	-13926
स्थामा	-13927
▁SHIFT	-13928
▁गाँजा	-13929
▁तहहरू	-13930
▁नियोग	-13931
▁भन्नै	-13932
▁समाते	-13933
▁साबित	-13934
▁साराई	-13935
थ्रुक्क	-13936
▁आकारको	-13937
▁आवाधिक	-13938
▁कमिबाट	-13939
▁किन्नु	-13940
▁चाडपर्	-13941
▁तत्काल	-13942
▁बचाऊको	-13943
▁बताउदै	-13944
▁बाइन्ड	-13945
▁महासन्	-13946
▁मोआबका	-13947
▁मोहीको	-13948
▁रेललाई	-13949
▁विदाको	-13950
▁स्फटिक	-13951
प्नुहोस्	-13952
बृद्धिले	-13953
▁अवधिलाई	-13954
▁असाधारण	-13955
▁गर्नेले	-13956
▁चाडपर्व	-13957
▁लोकसेवा	-13958
▁वित्तको	-13959
▁आँखहरूले	-13960
▁उन्नतांश	-13961
▁छोट्याउन	-13962
▁निष्कर्ष	-13963
▁प्लगइनका	-13964
▁भन्नेछन्	-13965
▁महासन्धि	-13966
▁मिश्रभरी	-13967
▁यथार्थता	-13968
▁विपक्षमा	-13969
▁विस्तारक	-13970
▁शिमशोनले	-13971
▁साराईलाई	-13972
▁थप्नुहोस्	-13973
▁निजीरुपमा	-13974
▁निथ्रुक्क	-13975
▁भर्नुहोस्	-13976
▁सामदानमथि	-13977
▁सामरियामा	-13978
▁साहूहरूको	-13979
▁सिंहासनमा	-13980
▁सिमोन्जले	-13981
▁सिर्जनशील	-13982
▁सीमान्तका	-13983
▁सीमाभन्दा	-13984
▁सुरक्षाका	-13985
▁सुरक्षाको	-13986
▁सुरक्षामा	-13987
▁सुलेमानका	-13988
▁सुविधाबाट	-13989
▁सुविधाहरू	-13990
▁सुसम्पन्न	-13991
▁सूँगुरहरू	-13992
▁सूचकांकले	-13993
▁सोध्नुभयो	-13994
▁स्क्रीनिङ	-13995
▁स्ट्रिटका	-13996
▁स्त्रीसित	-13997
▁स्थलहरूको	-13998
▁स्थापनाका	-13999
६९	-14000
केट	-14001
जने	-14002
ैन्	-14003
७१२	-14004
७६९	-14005
▁“”	-14006
कष्ट	-14007
प्नु	-14008
प्पा	-14009
ष्टी	-14010
ाँदो	-14011
ाइको	-14012
ृष्ट	-14013
५७१२	-14014
▁खाइ	-14015
▁गात	-14016
▁योआ	-14017
▁साओ	-14018
▁सास	-14019
▁सुई	-14020
▁सुख	-14021
▁सुच	-14022
▁१३२	-14023
दृष्ट	-14024
योगमा	-14025
▁उमेर	-14026
▁छैनन	-14027
▁छैन्	-14028
▁थाम्	-14029
▁दशौं	-14030
▁पकेट	-14031
▁वादी	-14032
▁शिमा	-14033
▁सासू	-14034
▁सुखी	-14035
▁सुची	-14036
▁सुल्	-14037
▁२०१९	-14038
मुद्दा	-14039
्रामको	-14040
▁घरतिर	-14041
▁ताँदो	-14042
▁थाम्न	-14043
▁पुलको	-14044
▁ब्रिट	-14045
▁भरपाई	-14046
▁युक्त	-14047
▁रंगको	-14048
▁लुम्ब	-14049
▁व्याज	-14050
▁सुल्झ	-14051
सहयोगमा	-14052
▁कार्यल	-14053
▁कुरुवा	-14054
▁खाइपाई	-14055
▁गर्जने	-14056
▁झुप्पा	-14057
▁टाइम्स	-14058
▁थाप्नु	-14059
▁दिशाको	-14060
▁धकेल्न	-14061
▁यिशबाक	-14062
▁योआशले	-14063
▁लुम्बि	-14064
▁सम्मति	-14065
▁सृष्टी	-14066
▁आमाबाबु	-14067
▁औपचारिक	-14068
▁कार्यलय	-14069
▁निस्केर	-14070
▁पर्दछन्	-14071
▁प्रशासक	-14072
▁प्रश्‍न	-14073
▁बाहेकका	-14074
▁ब्रिटेन	-14075
▁मानकसँग	-14076
▁मानेनन्	-14077
▁रोजाइको	-14078
▁संसाधान	-14079
▁कमजोरबाट	-14080
▁कार्यबाट	-14081
▁ताँदोहरू	-14082
▁पारिदिएँ	-14083
▁यन्त्रले	-14084
▁यसकारणले	-14085
▁लुम्बिनी	-14086
▁समुद्रका	-14087
▁सम्मतिले	-14088
▁ह्रासलाई	-14089
▁आयोजनाहरु	-14090
▁निर्दृष्ट	-14091
▁परिवारहरु	-14092
▁पार्नुभयो	-14093
▁बुझ्दैनन्	-14094
▁विश्रामको	-14095
▁सामरियाका	-14096
▁सुल्झाउने	-14097
▁स्याटेलाइ	-14098
▁स्वावलम्ब	-14099
Fin	-14100
ंजा	-14101
ओया	-14102
दया	-14103
बजि	-14104
याक	-14105
सरी	-14106
ाएँ	-14107
▁AS	-14108
Find	-14109
आओया	-14110
जसरी	-14111
जहरू	-14112
मिले	-14113
▁ASC	-14114
▁SSL	-14115
▁ईशो	-14116
▁नाट	-14117
▁पान	-14118
▁लघु	-14119
▁संह	-14120
FindO	-14121
ंजाएर	-14122
बुनोट	-14123
याकूब	-14124
र्ममा	-14125
र्ल्ड	-14126
▁ASCI	-14127
▁SSLv	-14128
▁आवरण	-14129
▁ईशोद	-14130
▁एकता	-14131
▁तहका	-14132
▁तैले	-14133
▁बढाउ	-14134
▁मनाइ	-14135
▁संका	-14136
FindOK	-14137
आओयागी	-14138
ढोकामा	-14139
नुभएमा	-14140
▁ASCII	-14141
▁अपनाइ	-14142
▁नाट्य	-14143
▁पाउनु	-14144
▁प्रजा	-14145
▁प्रया	-14146
▁यसअघि	-14147
▁यसप्र	-14148
▁र्बजि	-14149
▁संकाय	-14150
▁सिकनु	-14151
▁सूर्य	-14152
लेहरूले	-14153
▁कोकाको	-14154
▁चिन्नु	-14155
▁दोसीमा	-14156
▁लिइयोस	-14157
▁वर्ल्ड	-14158
▁शर्ममा	-14159
▁शैलीमा	-14160
▁संहिता	-14161
▁हामिले	-14162
हामारीको	-14163
▁पठाइएका	-14164
▁फिंजाएर	-14165
▁फ्रेमका	-14166
▁बढाउनमा	-14167
▁बोलाउने	-14168
▁भननुभयो	-14169
▁मनाइनेछ	-14170
▁वर्षाको	-14171
▁अग्रजहरू	-14172
▁अनुरुपको	-14173
▁गर्नेछौं	-14174
▁छुट्टाएँ	-14175
▁नेपाललाई	-14176
▁प्रयाप्त	-14177
▁प्रस्थान	-14178
▁यसप्रकार	-14179
▁राखिदिएँ	-14180
▁सङ्केतको	-14181
▁ह्याकुलो	-14182
▁देखिनेछन्	-14183
▁पालेहरूले	-14184
▁प्रविधिका	-14185
▁मिश्रमाथि	-14186
▁स्वेच्छिक	-14187
▁हर्मिटियन	-14188
▁हाइपरबोला	-14189
▁हाइबर्नेट	-14190
▁हाटबजारमा	-14191
▁हाडहरूलाई	-14192
▁हातहतियार	-14193
▁हामीमध्ये	-14194
▁हिच्किचाइ	-14195
▁हिडिरहेका	-14196
▁हुनुपर्ने	-14197
▁हेक्टरबाट	-14198
▁हेर्नुभयो	-14199
▁5	-14200
वत्	-14201
▁De	-14202
चन्छ	-14203
जोको	-14204
झन्छ	-14205
त्ने	-14206
नावट	-14207
▁Del	-14208
▁बिट	-14209
▁मिग	-14210
▁Dele	-14211
▁टुक्	-14212
▁तहगत	-14213
▁दाजु	-14214
▁दिपा	-14215
▁नम्र	-14216
▁निल्	-14217
▁फाइट	-14218
▁मानस	-14219
▁राजम	-14220
▁वैशा	-14221
▁शिला	-14222
भतजष्अ	-14223
म्चन्छ	-14224
▁आकाशे	-14225
▁चल्ने	-14226
▁टुक्व	-14227
▁दिपाय	-14228
▁पर्यो	-14229
▁पाउन्	-14230
▁मान्छ	-14231
▁राजमह	-14232
▁वनावट	-14233
▁वैशाख	-14234
▁संवत्	-14235
भतजष्अक	-14236
▁Delete	-14237
▁अग्रसर	-14238
▁गर्नेी	-14239
▁जतिलाई	-14240
▁पदावली	-14241
▁भन्नेछ	-14242
▁मान्छे	-14243
▁मिगौला	-14244
▁रिसाइज	-14245
▁सुत्ने	-14246
▁हिजोको	-14247
भतजष्अक०	-14248
ाहरूसंगै	-14249
▁आधारनाम	-14250
▁कारखाना	-14251
▁टुक्विए	-14252
▁ताररहित	-14253
▁योआबलाई	-14254
▁लगाएनौं	-14255
▁लडाँईमा	-14256
▁सन्झन्छ	-14257
▁सुनिनेछ	-14258
▁हिंड्दा	-14259
नमानाङ्कन	-14260
▁खुम्चन्छ	-14261
▁गराइदिनु	-14262
▁गर्नेछैन	-14263
▁दिपायलमा	-14264
▁बर्णाबास	-14265
▁भेंडाहरू	-14266
▁राजमहलको	-14267
स्तरवृद्धि	-14268
▁कारखानाका	-14269
▁किल्लालाई	-14270
▁केटीहरूले	-14271
▁गराईनेछन्	-14272
▁डेस्कटपको	-14273
▁निल्नेछन्	-14274
▁यिनीहरुको	-14275
▁रजिष्टर्ड	-14276
▁हैसियतबाट	-14277
▁्गार्हस्थ	-14278
ंस्थथथथाााा	-14279
इम्मानुएलको	-14280
ऋक्ष्त्भ्क्	-14281
केन्द्रीकृत	-14282
ग्गेदोलीमका	-14283
च्भनगबितयचथ	-14284
धचन्द्राकार	-14285
न्यायधिसहरू	-14286
प्यासिफिकले	-14287
प्रयोगकर्ता	-14288
प्‍टेम्बरमा	-14289
बिन्दुहरूको	-14290
म्मोलेकेतका	-14291
यात्मकरुपमा	-14292
रहेकाहरूलाई	-14293
र्मिनलहरुको	-14294
विन्दुभित्र	-14295
सामान्यतामा	-14296
स्थानान्तरण	-14297
▁PMRawBegin	-14298
▁अगमवाणीहरू	-14299
ic	-14300
३२	-14301
nic	-14302
कन्	-14303
झमा	-14304
फिट	-14305
▁फट	-14306
उँसो	-14307
कन्फ	-14308
पाना	-14309
होस्	-14310
ैंटो	-14311
▁ओएस	-14312
▁नया	-14313
▁फले	-14314
▁ममा	-14315
▁यता	-14316
कन्फी	-14317
नहोस्	-14318
मिश्र	-14319
मुख्य	-14320
▁कसरि	-14321
▁दुइव	-14322
▁नसोच	-14323
▁फटाउ	-14324
▁राता	-14325
▁रूनु	-14326
कन्फीग	-14327
ेक्षित	-14328
▁कसैको	-14329
▁घैंटो	-14330
▁पाउँछ	-14331
▁मर्का	-14332
▁महाबी	-14333
▁माझमा	-14334
▁रहेमा	-14335
▁KexiDB	-14336
▁अर्फान	-14337
▁एउटाको	-14338
▁केहीमा	-14339
▁जहाजका	-14340
▁ज्यादा	-14341
▁दिउँसो	-14342
▁दुइवटी	-14343
▁दोस्रा	-14344
▁नरहेको	-14345
▁नलिईकन	-14346
▁भारतीय	-14347
▁भूलहरू	-14348
▁सामानह	-14349
▁हटाइने	-14350
▁ओएसडीको	-14351
▁खोजिएको	-14352
▁छेऊदेखि	-14353
▁जरासँगै	-14354
▁थ्रेडमा	-14355
▁नपढिएका	-14356
▁बनाइएका	-14357
▁साझेदार	-14358
▁स्थानका	-14359
▁उपेक्षित	-14360
▁कामहरूको	-14361
▁चिन्दिनँ	-14362
▁बदनियतले	-14363
▁शैलीपाना	-14364
▁२००६स्था	-14365
▁अजर्याहका	-14366
▁तिमीहरूकै	-14367
▁परिवारबाट	-14368
▁पापीहरूको	-14369
▁बोल्नुभयो	-14370
▁यरूशलेमका	-14371
▁सम्झनहोस्	-14372
▁हामीहरूले	-14373
▁ाकलापमाथि	-14374
▁अग्राधिकार	-14375
▁अतिशयोक्ति	-14376
▁अत्यावश्यक	-14377
▁अधिकारीबाट	-14378
▁अधिकारीहरू	-14379
▁अनुग्रहबाट	-14380
▁अनुरोधपत्र	-14381
▁अनुवाददेखि	-14382
▁अन्तरहरूमा	-14383
▁अन्तवार्ता	-14384
▁अन्तसम्ममा	-14385
▁अन्तस्कारण	-14386
▁अन्तिमसम्म	-14387
▁अपनाइएकोमा	-14388
▁अपनाइनेछन्	-14389
▁अबीमेलेकले	-14390
▁अभावग्रस्त	-14391
▁अभिमुखीकरण	-14392
▁अम्मीजाबाद	-14393
▁अवच्छेदनको	-14394
▁अवधिसम्मको	-14395
▁अविच्छिन्न	-14396
▁अश्तारोतको	-14397
▁अस्पतालहरु	-14398
▁आईमाईहरूनै	-14399
Al	-14400
Sc	-14401
bw	-14402
ir	-14403
Alp	-14404
Scl	-14405
vir	-14406
एले	-14407
११क	-14408
▁(0	-14409
▁दौ	-14410
▁५७	-14411
Alph	-14412
TScl	-14413
भक्त	-14414
लहरू	-14415
लाइम	-14416
लोफा	-14417
वानी	-14418
ृहरु	-14419
▁(0.	-14420
▁कमच	-14421
▁दौड	-14422
▁बहस	-14423
▁भएन	-14424
▁९१५	-14425
1-12)	-14426
Alpha	-14427
एलबाट	-14428
यृहरु	-14429
रार्य	-14430
र्डको	-14431
लोफाद	-14432
ाउहरु	-14433
ारिएर	-14434
▁ऋणका	-14435
▁कठ्ठ	-14436
▁गाँठ	-14437
▁नरोक	-14438
▁निदा	-14439
▁बसेर	-14440
▁यापन	-14441
▁रहेर	-14442
▁लाटा	-14443
▁२०३६	-14444
:1-12)	-14445
ाइवानी	-14446
ोर्डको	-14447
▁STScl	-14448
▁एकसाथ	-14449
▁दिओस्	-14450
▁दौडनु	-14451
▁नगरदे	-14452
▁निदाऊ	-14453
▁म्याप	-14454
▁सम्ला	-14455
▁स्थित	-14456
रार्यको	-14457
लोफादकी	-14458
▁कान्छा	-14459
▁घाउहरु	-14460
▁जन्मने	-14461
▁भुल्नु	-14462
▁भोग्यौ	-14463
▁मूलभूत	-14464
▁विभक्त	-14465
▁शाखामा	-14466
▁हेरेको	-14467
virginie	-14468
▁अनगन्ति	-14469
▁उत्साही	-14470
▁कायृहरु	-14471
▁कैदीहरू	-14472
▁जेएमएले	-14473
▁ताइवानी	-14474
▁पार्दैछ	-14475
▁प्रगतिः	-14476
▁राम्रोछ	-14477
▁वोर्डको	-14478
▁साहित्य	-14479
▁अनुरुपमा	-14480
▁काउन्सील	-14481
▁ट्याबहरु	-14482
▁डोर्याउन	-14483
▁तरार्यको	-14484
▁प्रथमवाट	-14485
▁प्रेषकले	-14486
▁भोलिपल्ट	-14487
▁ल्याउनका	-14488
▁सलोफादकी	-14489
▁स्थानहरु	-14490
▁कठ्ठासम्म	-14491
▁काउन्सीलङ	-14492
▁चाहँन्दैन	-14493
▁बजारहरुको	-14494
▁रूपरेखाको	-14495
▁विदाभन्दा	-14496
▁स्तरयुक्त	-14497
▁हत्तारिएर	-14498
ह्यान्डलहरू	-14499
्भ	-14500
०९	-14501
िकि	-14502
्भच	-14503
४०९	-14504
▁।”	-14505
दस्य	-14506
माली	-14507
स्ते	-14508
िकिर	-14509
▁एनि	-14510
▁एमा	-14511
▁खाट	-14512
▁गौच	-14513
▁८४१	-14514
कोपको	-14515
सदस्य	-14516
▁अवलो	-14517
▁अस्त	-14518
▁आफैँ	-14519
▁एमाक	-14520
▁गौचर	-14521
▁तर्क	-14522
▁त्भच	-14523
▁पर्‍	-14524
▁होमर	-14525
▁२०५९	-14526
▁२०६५	-14527
क्नदेऊ	-14528
▁अंशको	-14529
▁जिकिर	-14530
▁प्रसव	-14531
▁मारें	-14532
▁यरीको	-14533
▁लिनको	-14534
▁स्पुल	-14535
▁७५०००	-14536
समूहलाई	-14537
▁अवलोकन	-14538
▁उच्चतम	-14539
▁एनिमेट	-14540
▁छोराले	-14541
▁पद्धति	-14542
▁पर्‍यो	-14543
▁बैठकका	-14544
▁मानिनु	-14545
▁रमाइला	-14546
▁सफासित	-14547
▁सम्झने	-14548
▁हिमाली	-14549
▁अंगतर्फ	-14550
▁आदिबारे	-14551
▁काटिएको	-14552
▁कानुनमा	-14553
▁खाटमुनि	-14554
▁खुलाएको	-14555
▁टेलिफोन	-14556
▁तुरहीको	-14557
▁पत्नीले	-14558
▁बैङ्कले	-14559
▁सियोनमा	-14560
अनुप्रयोग	-14561
तीनपुस्ते	-14562
परिवत्र्य	-14563
▁कुञ्जीनै	-14564
▁ढाक्नदेऊ	-14565
▁प्रकोपको	-14566
▁प्राप्ता	-14567
▁माउन्टेन	-14568
▁व्यवसायि	-14569
▁अल्पकालिन	-14570
▁कुर्सीहरू	-14571
▁जनसमूहलाई	-14572
▁व्यवसायिध	-14573
क्युरिटिजमा	-14574
▁आदानप्रदान	-14575
▁आदेशानुसार	-14576
▁आधुनिकीकरण	-14577
▁आपुर्तिहरू	-14578
▁आपूर्तिबाट	-14579
▁आयस्रोतलाई	-14580
▁आयुर्वेदको	-14581
▁आवाससुविधा	-14582
▁इकाईहरुलाई	-14583
▁इन्गर्सलका	-14584
▁इन्टरफेसमा	-14585
▁इमेलद्वारा	-14586
▁इश्माएललाई	-14587
▁इस्साकारको	-14588
▁उच्चस्तरको	-14589
▁उत्पादनशील	-14590
▁उद्भिदमाथि	-14591
▁उपकरणहरुको	-14592
▁उपदेशहरूको	-14593
▁ऋणसम्बन्धी	-14594
▁एलीसापानका	-14595
▁एशोसिएशनको	-14596
▁कञ्चनजङ्घा	-14597
▁कर्तव्यसँग	-14598
▁कहातीहरूको	-14599
dm	-14600
दम	-14601
।–	-14602
३५	-14603
६ग	-14604
एनौ	-14605
खेर	-14606
राद	-14607
▁खू	-14608
▁सए	-14609
▁३३	-14610
कांश	-14611
बाली	-14612
▁xdm	-14613
▁आपै	-14614
▁कदम	-14615
▁खेर	-14616
▁चर्	-14617
▁नील	-14618
▁बित	-14619
▁भुं	-14620
▁सएछ	-14621
जस्तै	-14622
वाह्य	-14623
▁आराद	-14624
▁उलाई	-14625
▁कुना	-14626
▁खूबै	-14627
▁पखाल	-14628
▁भुंइ	-14629
▁वापत	-14630
▁ाउने	-14631
▁२०४२	-14632
अर्स्ट	-14633
▁अङ्गह	-14634
▁गबाली	-14635
▁गिम्प	-14636
▁घुमेर	-14637
▁जानेर	-14638
▁पूज्न	-14639
▁बनायौ	-14640
▁बिहीन	-14641
▁याहाँ	-14642
▁हाम्र	-14643
क्नेछन्	-14644
▁डराएनौ	-14645
▁पिताको	-14646
▁लाइनमा	-14647
▁समेतको	-14648
▁हटाएको	-14649
अर्स्टले	-14650
कृतिमूलक	-14651
लाहरुलाई	-14652
विश्वासी	-14653
▁अगाडिको	-14654
▁अधिकांश	-14655
▁तालिमको	-14656
▁निकुन्ज	-14657
▁पखालोस्	-14658
▁भोकाउनु	-14659
▁हाकिमले	-14660
विटनामहरु	-14661
स्तिहाडले	-14662
▁गबालीहरू	-14663
▁चर्नेछन्	-14664
▁ज्वालाको	-14665
▁निकायसँग	-14666
▁विश्वस्त	-14667
क्ष्लतभििभ	-14668
▁अर्कोतर्फ	-14669
▁अर्घबलिको	-14670
▁आइपुगेकोछ	-14671
▁उनीहरूलाई	-14672
▁गरिरह्रयो	-14673
▁बोक्नेछन्	-14674
▁महिनादेखि	-14675
▁मानिसकहाँ	-14676
▁मुक्तिनाथ	-14677
▁वितरणतर्फ	-14678
▁सम्पादनमा	-14679
▁साधनहरूको	-14680
क्ष्लतभििभअ	-14681
▁कागजातहरुः	-14682
▁काटामार्का	-14683
▁कारणनविनतम	-14684
▁कार्ययोजना	-14685
▁कार्यहरूका	-14686
▁कार्यालयले	-14687
▁किलोमिटरका	-14688
▁किसानहरूले	-14689
▁कुर्नुहोस्	-14690
▁कुलसमूहहरू	-14691
▁कृपादृष्टि	-14692
▁केन्द्रहरु	-14693
▁क्याम्पबेल	-14694
▁क्याम्पसले	-14695
▁क्रमानुसार	-14696
▁क्लिपबोर्ड	-14697
▁क्षेत्रहरु	-14698
▁खरिदअधिकार	-14699
.-	-14700
pr	-14701
तँ	-14702
तब	-14703
वो	-14704
pre	-14705
कवो	-14706
ताए	-14707
थाथ	-14708
यता	-14709
१४६	-14710
▁६३	-14711
जहाँ	-14712
▁काढ	-14713
▁केश	-14714
▁धुन	-14715
▁भएँ	-14716
▁मेश	-14717
▁लाज	-14718
▁वका	-14719
▁११४	-14720
यताकै	-14721
विकास	-14722
▁आजकल	-14723
▁सताए	-14724
▁सिफर	-14725
▁८१४६	-14726
नेकोछु	-14727
बद्धता	-14728
▁अधिरो	-14729
▁काढेर	-14730
▁काथाथ	-14731
▁पुज्न	-14732
▁बीउको	-14733
▁मेशिन	-14734
▁यसर्य	-14735
▁वकालत	-14736
▁सघनता	-14737
▁समग्र	-14738
तोकिएको	-14739
▁जल्दैन	-14740
▁नसकेका	-14741
▁पार्छु	-14742
▁बजाउने	-14743
▁बञ्चित	-14744
▁बोक्रा	-14745
▁यिनलाई	-14746
▁लेवीको	-14747
▁सकिएको	-14748
▁सूचकको	-14749
▁अधिरोहण	-14750
▁एलीशामा	-14751
▁खानेछन्	-14752
▁खोलिएको	-14753
▁गराउँछौ	-14754
▁गर्नबाट	-14755
▁त्यस्मा	-14756
▁बाह्यको	-14757
▁बैङ्कमा	-14758
▁मानिन्छ	-14759
▁मीकालाई	-14760
▁मेशिनरी	-14761
▁हालसम्म	-14762
केन्द्रमा	-14763
दायित्वको	-14764
▁अनुभवकवो	-14765
▁कुटनैतिक	-14766
▁निवस्त्र	-14767
▁प्रबन्धक	-14768
▁भाइहरुले	-14769
▁मेटाइलाई	-14770
▁विधवाहरू	-14771
▁शक्तिबाट	-14772
▁सुनेकोछु	-14773
▁अनुरोधलाई	-14774
▁एलीशामाले	-14775
▁केन्द्रका	-14776
▁प्रमुखबाट	-14777
▁प्रशासनिक	-14778
▁मध्यमस्तर	-14779
▁वर्षयताकै	-14780
▁विषयहरूमा	-14781
▁संकेन्द्र	-14782
▁सचिवालयमा	-14783
▁सहयोगीहरू	-14784
▁स्ट्रिङका	-14785
क्विटीभन्दा	-14786
▁अरामीहरूले	-14787
▁खामेसम्मको	-14788
▁खेलाउनेहरू	-14789
▁खोजिरेहछन्	-14790
▁गइसकेकाछन्	-14791
▁गरिदिनुहुन	-14792
▁गरियोस््््	-14793
▁गर्नुहुन्न	-14794
▁गर्नेछैनन्	-14795
▁गोश्वारामा	-14796
▁ग्यारेन्टी	-14797
▁ग्रेडियन्ट	-14798
▁घटाउनुहोस्	-14799
)-	-14800
२६	-14801
३०	-14802
छैन	-14803
पाम	-14804
शेम	-14805
ालई	-14806
िङ्	-14807
ेमी	-14808
▁छः	-14809
▁लल	-14810
लाली	-14811
▁काख	-14812
▁खोल	-14813
▁जाल	-14814
▁बोआ	-14815
▁भएः	-14816
▁माघ	-14817
▁विन	-14818
न्शेम	-14819
ालहरू	-14820
▁काला	-14821
▁गर्व	-14822
▁धरौट	-14823
▁बोआज	-14824
▁भूडी	-14825
▁माका	-14826
▁मामा	-14827
▁ललित	-14828
▁लागी	-14829
▁लाले	-14830
▁वारे	-14831
▁सकौं	-14832
▁२०२८	-14833
▁२०४७	-14834
म्बरको	-14835
ेमीलाई	-14836
▁अनिका	-14837
▁आगामी	-14838
▁काखमा	-14839
▁गुणको	-14840
▁घाँटी	-14841
▁जोडले	-14842
▁ध्वंस	-14843
▁निहुर	-14844
▁स्पाम	-14845
eywords	-14846
न्शेमेश	-14847
▁उदाहरू	-14848
▁एकहजार	-14849
▁कहातका	-14850
▁कैलाली	-14851
▁खातामा	-14852
▁गर्नुस	-14853
▁छालहरू	-14854
▁त्यलाई	-14855
▁पुराना	-14856
▁राजालई	-14857
▁लाग्यो	-14858
▁वरिष्ठ	-14859
▁साधनमा	-14860
▁सेटिङ्	-14861
▁हुंदैन	-14862
Keywords	-14863
▁अचम्मका	-14864
▁उदाहरूण	-14865
▁उपयोगको	-14866
▁गराउनेछ	-14867
▁तपाईँका	-14868
▁तेईसवटा	-14869
▁नम्बरको	-14870
▁निहुरिए	-14871
▁पल्लाले	-14872
▁पारिनेछ	-14873
▁राख्दछु	-14874
▁ललितपुर	-14875
▁शक्तिले	-14876
▁सुरक्षण	-14877
▁हिंड्नु	-14878
▁अनिकालले	-14879
▁एन्शेमेश	-14880
▁बटनहरूमा	-14881
▁यूसुफलाई	-14882
▁लिनुदिनु	-14883
▁सामाग्री	-14884
▁आदेशहरूको	-14885
▁गैरकानुनी	-14886
▁पत्रहरूको	-14887
▁प्रेमीलाई	-14888
▁सडकद्वारा	-14889
▁चक्काहरुमा	-14890
▁चक्रेटोलाई	-14891
▁चारैतिरबाट	-14892
▁चिच्याउँछन	-14893
▁चिम्पाञ्जी	-14894
▁चेलाहरूसंग	-14895
▁चेलाहरूसित	-14896
▁छक्कापञ्जा	-14897
▁छान्नुहोस्	-14898
▁छैनकहिल्यै	-14899
,0	-14900
चे	-14901
[...]
