[PAD]	0
[EOS]	0
[UNK]	0
[SOS]	0
[MASK]	0
▁t	-0
he	-1
▁a	-2
▁the	-3
in	-4
▁o	-5
er	-6
on	-7
▁s	-8
re	-9
▁of	-10
nd	-11
▁w	-12
at	-13
▁p	-14
en	-15
▁b	-16
or	-17
▁f	-18
▁c	-19
▁to	-20
it	-21
ed	-22
is	-23
al	-24
es	-25
ou	-26
▁m	-27
ion	-28
▁in	-29
▁and	-30
ing	-31
an	-32
▁d	-33
il	-34
▁h	-35
ro	-36
ar	-37
ic	-38
ent	-39
le	-40
ct	-41
▁be	-42
▁T	-43
▁th	-44
as	-45
▁n	-46
ve	-47
▁re	-48
▁l	-49
om	-50
▁y	-51
ation	-52
▁e	-53
▁S	-54
st	-55
▁I	-56
ut	-57
se	-58
▁for	-59
▁g	-60
▁you	-61
ill	-62
▁or	-63
ment	-64
ot	-65
im	-66
▁A	-67
▁The	-68
ur	-69
ay	-70
id	-71
all	-72
ow	-73
▁sh	-74
ol	-75
et	-76
▁C	-77
▁pro	-78
ers	-79
am	-80
▁an	-81
her	-82
ce	-83
ri	-84
▁u	-85
od	-86
▁will	-87
ad	-88
▁is	-89
▁on	-90
ver	-91
▁con	-92
ch	-93
ith	-94
ll	-95
▁as	-96
▁(	-97
▁shall	-98
▁wh	-99
ir	-100
op	-101
▁that	-102
▁it	-103
▁su	-104
if	-105
ction	-106
▁with	-107
..	-108
▁G	-109
ain	-110
▁P	-111
ec	-112
▁M	-113
▁by	-114
▁he	-115
▁D	-116
ist	-117
ab	-118
ul	-119
▁N	-120
▁not	-121
ig	-122
em	-123
▁com	-124
ate	-125
▁ha	-126
ak	-127
ge	-128
▁B	-129
pp	-130
rom	-131
ter	-132
ant	-133
ep	-134
▁st	-135
and	-136
ess	-137
▁from	-138
▁L	-139
iv	-140
th	-141
ity	-142
ore	-143
▁H	-144
est	-145
nt	-146
▁"	-147
▁J	-148
ra	-149
▁me	-150
ord	-151
ive	-152
res	-153
el	-154
▁R	-155
ect	-156
▁any	-157
▁E	-158
ru	-159
ah	-160
ly	-161
ther	-162
ub	-163
▁this	-164
▁F	-165
▁are	-166
▁k	-167
▁ex	-168
ac	-169
▁Y	-170
qu	-171
ice	-172
▁se	-173
▁your	-174
▁per	-175
ies	-176
ort	-177
ame	-178
▁de	-179
▁all	-180
▁have	-181
ld	-182
▁W	-183
▁v	-184
▁his	-185
ht	-186
os	-187
us	-188
red	-189
▁has	-190
▁was	-191
su	-192
▁who	-193
▁do	-194
ard	-195
▁him	-196
te	-197
ans	-198
art	-199
▁sa	-200
erson	-201
pl	-202
un	-203
▁O	-204
▁al	-205
▁they	-206
ry	-207
du	-208
▁le	-209
our	-210
▁pl	-211
age	-212
▁other	-213
▁such	-214
rib	-215
rou	-216
vel	-217
▁pe	-218
ount	-219
▁them	-220
▁app	-221
ial	-222
nder	-223
▁at	-224
▁sp	-225
▁1	-226
erv	-227
▁may	-228
um	-229
ade	-230
mit	-231
▁peop	-232
ud	-233
ear	-234
▁off	-235
pt	-236
▁ch	-237
▁im	-238
ile	-239
▁go	-240
▁people	-241
▁(1	-242
ail	-243
▁In	-244
epal	-245
▁man	-246
▁Nepal	-247
▁there	-248
▁person	-249
ew	-250
▁pur	-251
ould	-252
lic	-253
able	-254
ance	-255
▁wor	-256
▁under	-257
gr	-258
ake	-259
▁am	-260
low	-261
▁up	-262
▁te	-263
eh	-264
old	-265
....	-266
▁God	-267
▁cont	-268
ary	-269
▁Sub	-270
▁whe	-271
one	-272
ure	-273
vid	-274
▁Th	-275
ated	-276
ff	-277
oc	-278
▁2	-279
ust	-280
▁He	-281
▁made	-282
ime	-283
▁ad	-284
ok	-285
ong	-286
▁res	-287
au	-288
iz	-289
▁(1)	-290
velop	-291
per	-292
▁Se	-293
port	-294
cc	-295
▁one	-296
▁out	-297
▁my	-298
▁we	-299
vern	-300
▁said	-301
ine	-302
ere	-303
ire	-304
."	-305
fore	-306
ap	-307
ip	-308
▁U	-309
ose	-310
ings	-311
▁Lord	-312
▁comp	-313
▁r	-314
ign	-315
ome	-316
▁inc	-317
ase	-318
ous	-319
▁ag	-320
▁int	-321
ollow	-322
▁serv	-323
ject	-324
▁pres	-325
ber	-326
ult	-327
ven	-328
▁Ch	-329
▁They	-330
▁were	-331
▁pursu	-332
▁follow	-333
vernment	-334
00	-335
ays	-336
ost	-337
▁Act	-338
velopment	-339
for	-340
▁en	-341
ition	-342
▁land	-343
ich	-344
ted	-345
▁pursuant	-346
ahw	-347
▁sub	-348
ahweh	-349
▁Yahweh	-350
ib	-351
▁if	-352
▁their	-353
▁so	-354
▁tr	-355
ause	-356
lect	-357
▁You	-358
▁been	-359
▁time	-360
▁work	-361
oy	-362
ght	-363
ild	-364
gram	-365
▁us	-366
ution	-367
ied	-368
ric	-369
▁To	-370
ight	-371
▁son	-372
▁which	-373
▁dis	-374
ag	-375
ned	-376
ast	-377
fer	-378
▁year	-379
▁If	-380
▁li	-381
ater	-382
very	-383
▁but	-384
ities	-385
▁Is	-386
gh	-387
end	-388
ind	-389
ren	-390
▁bec	-391
▁into	-392
so	-393
▁K	-394
crib	-395
form	-396
▁Go	-397
ision	-398
▁program	-399
▁j	-400
ace	-401
ens	-402
ish	-403
out	-404
own	-405
mitte	-406
▁Pro	-407
▁acc	-408
▁part	-409
ack	-410
▁Com	-411
▁also	-412
mittee	-413
are	-414
▁ne	-415
▁ob	-416
fter	-417
▁can	-418
▁reg	-419
▁inst	-420
▁make	-421
cribed	-422
ie	-423
ue	-424
hed	-425
iod	-426
▁cl	-427
▁em	-428
ating	-429
ations	-430
▁before	-431
▁had	-432
▁comm	-433
anc	-434
▁lo	-435
rael	-436
▁pri	-437
▁This	-438
▁again	-439
▁Israel	-440
▁Government	-441
aw	-442
▁ab	-443
▁form	-444
der	-445
▁pre	-446
▁period	-447
▁development	-448
ty	-449
ach	-450
ide	-451
ors	-452
ree	-453
sel	-454
ploy	-455
rule	-456
▁her	-457
▁inv	-458
ally	-459
▁set	-460
inist	-461
▁conc	-462
▁spec	-463
urn	-464
▁no	-465
ange	-466
▁should	-467
▁prescribed	-468
ph	-469
int	-470
▁It	-471
ific	-472
▁imp	-473
▁cons	-474
▁file	-475
▁Section	-476
▁programm	-477
ke	-478
ath	-479
▁De	-480
▁kn	-481
▁qu	-482
ving	-483
▁But	-484
▁nec	-485
▁means	-486
▁these	-487
ational	-488
▁necess	-489
▁ar	-490
▁tw	-491
tain	-492
▁ent	-493
▁its	-494
▁rel	-495
▁give	-496
▁inter	-497
▁provid	-498
▁dec	-499
▁king	-500
▁where	-501
ory	-502
▁(2	-503
▁20	-504
▁add	-505
▁bod	-506
▁des	-507
▁det	-508
▁exp	-509
▁giv	-510
▁Then	-511
▁fore	-512
▁more	-513
▁over	-514
▁produ	-515
itution	-516
▁concer	-517
pe	-518
ved	-519
ener	-520
▁col	-521
ified	-522
▁oper	-523
▁requ	-524
▁when	-525
unction	-526
▁applic	-527
▁employ	-528
ave	-529
row	-530
und	-531
▁fe	-532
▁pr	-533
▁new	-534
▁sec	-535
ember	-536
▁must	-537
▁rece	-538
ferred	-539
▁order	-540
▁service	-541
▁following	-542
abl	-543
ood	-544
▁Pl	-545
▁So	-546
ical	-547
▁Con	-548
▁day	-549
ather	-550
rough	-551
ublic	-552
▁come	-553
▁name	-554
▁offic	-555
ia	-556
get	-557
uth	-558
▁sc	-559
▁fil	-560
▁law	-561
▁men	-562
▁rec	-563
uring	-564
▁after	-565
▁those	-566
........	-567
▁through	-568
ne	-569
▁-	-570
ise	-571
ite	-572
▁ro	-573
ence	-574
ower	-575
▁For	-576
▁act	-577
▁say	-578
ority	-579
▁know	-580
ang	-581
way	-582
▁bl	-583
▁ev	-584
sion	-585
ished	-586
▁down	-587
▁things	-588
▁because	-589
▁project	-590
▁concerned	-591
▁necessary	-592
ee	-593
wn	-594
ank	-595
hes	-596
oss	-597
▁As	-598
▁Bo	-599
▁ri	-600
ense	-601
self	-602
▁(2)	-603
▁est	-604
aking	-605
ility	-606
▁what	-607
▁amount	-608
▁against	-609
ark	-610
▁An	-611
stru	-612
▁cur	-613
▁did	-614
▁rem	-615
thing	-616
▁case	-617
▁child	-618
▁every	-619
▁trans	-620
section	-621
▁function	-622
ix	-623
▁3	-624
ails	-625
ered	-626
▁way	-627
ments	-628
▁back	-629
▁like	-630
▁than	-631
▁count	-632
▁water	-633
▁Committee	-634
ft	-635
gy	-636
nc	-637
▁19	-638
▁Re	-639
▁Un	-640
▁sy	-641
oint	-642
onom	-643
pect	-644
▁car	-645
▁good	-646
▁place	-647
▁'	-648
erm	-649
igh	-650
ink	-651
orp	-652
ove	-653
pen	-654
▁Sh	-655
▁Wh	-656
irst	-657
ning	-658
ound	-659
▁Whe	-660
▁body	-661
▁days	-662
▁submit	-663
▁referred	-664
▁application	-665
act	-666
ife	-667
ouse	-668
ules	-669
▁don	-670
▁eff	-671
▁fin	-672
▁let	-673
▁she	-674
▁came	-675
▁prop	-676
▁same	-677
▁want	-678
▁went	-679
▁comple	-680
cu	-681
ass	-682
chn	-683
oth	-684
▁Am	-685
▁Ex	-686
▁bo	-687
ourt	-688
vail	-689
▁two	-690
ative	-691
▁dist	-692
▁happ	-693
▁plan	-694
▁appro	-695
▁given	-696
▁right	-697
▁years	-698
▁within	-699
...	-700
alu	-701
lud	-702
ves	-703
▁Le	-704
▁un	-705
▁wr	-706
cent	-707
ired	-708
reas	-709
▁Jud	-710
▁num	-711
ained	-712
irect	-713
orpor	-714
round	-715
▁does	-716
▁foreign	-717
air	-718
ari	-719
ert	-720
ret	-721
▁bu	-722
▁fl	-723
ices	-724
ived	-725
ness	-726
read	-727
ress	-728
rict	-729
stem	-730
▁met	-731
▁wom	-732
stand	-733
▁docu	-734
▁hand	-735
▁only	-736
▁take	-737
vision	-738
▁Minist	-739
▁br	-740
avid	-741
ounc	-742
ting	-743
ures	-744
▁bro	-745
▁get	-746
▁ins	-747
▁lic	-748
▁loc	-749
▁pol	-750
▁use	-751
▁Plan	-752
▁away	-753
▁dest	-754
▁each	-755
▁even	-756
▁issu	-757
ention	-758
ission	-759
lected	-760
▁Board	-761
▁There	-762
▁establ	-763
▁father	-764
▁percent	-765
ck	-766
ey	-767
vi	-768
▁5	-769
▁V	-770
ual	-771
ute	-772
▁gr	-773
▁Jer	-774
▁Jes	-775
▁Not	-776
▁Off	-777
▁see	-778
▁proc	-779
aining	-780
▁David	-781
▁import	-782
▁number	-783
▁public	-784
▁system	-785
▁children	-786
az	-787
ob	-788
▁:	-789
▁Z	-790
ash	-791
ces	-792
gan	-793
its	-794
▁Sc	-795
aken	-796
▁bas	-797
▁mon	-798
conom	-799
eting	-800
▁auth	-801
▁date	-802
▁list	-803
▁post	-804
ouncil	-805
▁Rules	-806
▁about	-807
▁first	-808
▁invest	-809
▁country	-810
▁institution	-811
).	-812
xt	-813
hip	-814
ick	-815
ond	-816
ons	-817
▁En	-818
▁Ru	-819
ible	-820
▁gre	-821
▁mot	-822
▁sin	-823
▁life	-824
▁mess	-825
▁sect	-826
▁tell	-827
▁then	-828
eneral	-829
lement	-830
▁allow	-831
▁techn	-832
▁while	-833
agement	-834
▁specified	-835
▁programmes	-836
▁Development	-837
ell	-838
ful	-839
hem	-840
iah	-841
iel	-842
ull	-843
▁No	-844
▁co	-845
▁ru	-846
▁ve	-847
ates	-848
oses	-849
ular	-850
▁And	-851
▁ass	-852
▁dep	-853
▁fam	-854
▁mat	-855
▁sons	-856
person	-857
▁Jesus	-858
▁offer	-859
ability	-860
mission	-861
▁accord	-862
▁contin	-863
▁having	-864
▁includ	-865
▁command	-866
formation	-867
▁anything	-868
ts	-869
ble	-870
nal	-871
ner	-872
ple	-873
▁Ad	-874
▁Ph	-875
ants	-876
ives	-877
rent	-878
roup	-879
ters	-880
ural	-881
▁ret	-882
ature	-883
▁open	-884
▁sent	-885
▁supp	-886
▁used	-887
▁secur	-888
▁contro	-889
▁econom	-890
▁notice	-891
airperson	-892
▁production	-893
cy	-894
▁St	-895
▁dr	-896
▁ra	-897
alth	-898
dust	-899
ever	-900
gypt	-901
ield	-902
ient	-903
ines	-904
ites	-905
ords	-906
▁hel	-907
▁now	-908
▁ser	-909
alled	-910
ption	-911
▁cent	-912
▁kill	-913
▁line	-914
▁says	-915
▁wind	-916
illion	-917
ration	-918
▁Egypt	-919
▁Judah	-920
▁among	-921
▁house	-922
▁power	-923
▁during	-924
▁indust	-925
▁resour	-926
▁Council	-927
▁decision	-928
▁employee	-929
▁implement	-930
▁programme	-931
▁government	-932
og	-933
▁4	-934
▁“	-935
dom	-936
ize	-937
not	-938
roy	-939
▁Ab	-940
ared	-941
ivil	-942
ward	-943
▁Sec	-944
▁cap	-945
▁ear	-946
▁own	-947
▁put	-948
▁spe	-949
▁main	-950
▁mark	-951
▁show	-952
▁trib	-953
cation	-954
▁Court	-955
▁level	-956
▁organ	-957
artment	-958
endment	-959
▁Member	-960
▁office	-961
▁constru	-962
▁destroy	-963
▁details	-964
▁license	-965
▁without	-966
▁Ministry	-967
▁management	-968
),	-969
li	-970
mb	-971
▁8	-972
,00	-973
any	-974
ger	-975
ily	-976
les	-977
ock	-978
ases	-979
ceed	-980
ried	-981
unic	-982
▁rep	-983
▁brou	-984
▁city	-985
▁just	-986
▁very	-987
ancial	-988
▁found	-989
▁month	-990
ilities	-991
ountain	-992
▁priest	-993
▁report	-994
▁sector	-995
▁brought	-996
▁perform	-997
▁provide	-998
▁committee	-999
arm	-1000
ced	-1001
led	-1002
ool	-1003
ror	-1004
▁ed	-1005
alem	-1006
ract	-1007
▁bel	-1008
▁bet	-1009
▁bus	-1010
▁def	-1011
▁dif	-1012
▁dut	-1013
▁ind	-1014
▁our	-1015
owers	-1016
▁Chap	-1017
▁Rule	-1018
▁area	-1019
▁prof	-1020
▁purp	-1021
ension	-1022
usalem	-1023
▁These	-1024
▁While	-1025
▁being	-1026
ination	-1027
ulation	-1028
▁consid	-1029
▁making	-1030
▁proper	-1031
▁mention	-1032
ification	-1033
▁document	-1034
▁Jerusalem	-1035
▁provision	-1036
▁information	-1037
up	-1038
▁7	-1039
ief	-1040
irc	-1041
itt	-1042
▁Tr	-1043
,000	-1044
aces	-1045
ages	-1046
dule	-1047
ials	-1048
ized	-1049
ries	-1050
tion	-1051
▁All	-1052
▁cre	-1053
▁enc	-1054
▁fac	-1055
▁saw	-1056
icult	-1057
ident	-1058
lease	-1059
▁Dist	-1060
▁book	-1061
▁cond	-1062
▁disc	-1063
▁gold	-1064
▁head	-1065
▁help	-1066
▁many	-1067
▁reas	-1068
▁some	-1069
hedule	-1070
▁exist	-1071
▁stand	-1072
▁taken	-1073
▁three	-1074
▁would	-1075
▁direct	-1076
▁happen	-1077
▁partic	-1078
▁region	-1079
▁regist	-1080
▁window	-1081
standing	-1082
▁Chapter	-1083
▁brother	-1084
▁control	-1085
▁current	-1086
▁meeting	-1087
▁mountain	-1088
▁security	-1089
▁selected	-1090
▁services	-1091
▁authority	-1092
▁contained	-1093
▁investment	-1094
ax	-1095
eal	-1096
ify	-1097
itu	-1098
tal	-1099
the	-1100
ype	-1101
▁ca	-1102
▁vi	-1103
heck	-1104
ntil	-1105
outh	-1106
vate	-1107
▁how	-1108
▁mod	-1109
▁pun	-1110
iness	-1111
ivers	-1112
older	-1113
▁(1),	-1114
▁enem	-1115
▁full	-1116
▁live	-1117
▁long	-1118
▁poss	-1119
▁sold	-1120
▁stat	-1121
▁thir	-1122
▁took	-1123
ferent	-1124
resent	-1125
▁Could	-1126
▁activ	-1127
▁civil	-1128
▁could	-1129
▁drink	-1130
▁force	-1131
▁image	-1132
▁point	-1133
▁start	-1134
lection	-1135
▁around	-1136
▁change	-1137
▁effect	-1138
▁object	-1139
▁result	-1140
iversity	-1141
vailable	-1142
▁increas	-1143
▁message	-1144
▁respect	-1145
stitution	-1146
▁projects	-1147
▁received	-1148
▁required	-1149
▁according	-1150
▁condition	-1151
▁different	-1152
▁financial	-1153
▁resources	-1154
we	-1155
The	-1156
als	-1157
aul	-1158
emb	-1159
idd	-1160
orn	-1161
uch	-1162
▁Ar	-1163
▁At	-1164
▁We	-1165
▁ac	-1166
akes	-1167
ills	-1168
ship	-1169
with	-1170
▁(19	-1171
▁App	-1172
▁Dep	-1173
▁Now	-1174
▁One	-1175
▁end	-1176
▁min	-1177
▁nor	-1178
▁tre	-1179
▁tru	-1180
▁val	-1181
other	-1182
▁Some	-1183
▁cert	-1184
▁conf	-1185
▁deem	-1186
▁look	-1187
▁meas	-1188
▁qual	-1189
▁sign	-1190
gether	-1191
▁After	-1192
▁Moses	-1193
▁areas	-1194
▁chang	-1195
▁field	-1196
▁files	-1197
▁great	-1198
▁local	-1199
▁never	-1200
▁polic	-1201
▁until	-1202
▁women	-1203
▁Office	-1204
▁become	-1205
▁prophe	-1206
ribution	-1207
▁addition	-1208
▁business	-1209
▁national	-1210
▁available	-1211
▁functions	-1212
.'	-1213
.1	-1214
:-	-1215
ys	-1216
ars	-1217
edi	-1218
gin	-1219
oly	-1220
ron	-1221
▁Cl	-1222
▁Or	-1223
▁gu	-1224
▁sk	-1225
duct	-1226
hing	-1227
icle	-1228
oney	-1229
vent	-1230
▁She	-1231
▁run	-1232
rying	-1233
▁bank	-1234
▁here	-1235
▁lead	-1236
▁send	-1237
embers	-1238
illage	-1239
minist	-1240
▁along	-1241
▁group	-1242
▁mater	-1243
▁speak	-1244
▁total	-1245
▁called	-1246
▁places	-1247
▁reason	-1248
▁server	-1249
aluation	-1250
▁Notwith	-1251
▁another	-1252
▁himself	-1253
▁million	-1254
▁officer	-1255
▁persons	-1256
▁District	-1257
▁certific	-1258
▁interest	-1259
▁provided	-1260
▁relating	-1261
▁together	-1262
▁submitted	-1263
▁transport	-1264
▁Department	-1265
▁University	-1266
▁activities	-1267
▁construction	-1268
▁Notwithstanding	-1269
ai	-1270
▁9	-1271
ees	-1272
isc	-1273
ral	-1274
raw	-1275
sum	-1276
▁Im	-1277
▁Sp	-1278
▁sm	-1279
aint	-1280
arge	-1281
ipal	-1282
osed	-1283
uted	-1284
ways	-1285
▁Reg	-1286
▁equ	-1287
▁hea	-1288
▁key	-1289
▁str	-1290
▁veh	-1291
ailed	-1292
emple	-1293
▁Serv	-1294
▁When	-1295
▁both	-1296
▁didn	-1297
▁done	-1298
▁evil	-1299
▁fire	-1300
▁fund	-1301
▁grow	-1302
▁hard	-1303
▁left	-1304
▁need	-1305
▁pass	-1306
▁term	-1307
▁town	-1308
▁vari	-1309
ession	-1310
retary	-1311
▁basis	-1312
▁bring	-1313
▁build	-1314
▁enter	-1315
gricult	-1316
▁Corpor	-1317
▁Provid	-1318
▁cannot	-1319
▁health	-1320
▁obtain	-1321
▁General	-1322
▁conduct	-1323
▁organiz	-1324
▁private	-1325
▁Schedule	-1326
▁economic	-1327
▁training	-1328
▁completed	-1329
▁operation	-1330
▁established	-1331
aj	-1332
of	-1333
sw	-1334
alk	-1335
din	-1336
erc	-1337
ici	-1338
iry	-1339
lon	-1340
omm	-1341
opy	-1342
rig	-1343
ubl	-1344
▁Jo	-1345
▁wa	-1346
atch	-1347
azet	-1348
eous	-1349
imit	-1350
ween	-1351
▁Ind	-1352
▁aut	-1353
▁god	-1354
▁pay	-1355
ready	-1356
venue	-1357
▁Fund	-1358
▁Name	-1359
▁cost	-1360
▁exec	-1361
▁find	-1362
▁hold	-1363
▁inqu	-1364
▁resp	-1365
▁rest	-1366
▁told	-1367
▁turn	-1368
▁view	-1369
▁well	-1370
ersion	-1371
ousand	-1372
▁agree	-1373
▁gener	-1374
▁share	-1375
▁state	-1376
lectric	-1377
uration	-1378
▁appear	-1379
▁corpor	-1380
▁family	-1381
▁format	-1382
▁manner	-1383
▁policy	-1384
▁company	-1385
▁continu	-1386
▁priests	-1387
▁proceed	-1388
▁purpose	-1389
▁worship	-1390
▁Provided	-1391
▁mentioned	-1392
▁certificate	-1393
?"	-1394
▁&	-1395
aby	-1396
aid	-1397
ale	-1398
eep	-1399
▁er	-1400
▁fr	-1401
▁sl	-1402
hold	-1403
ison	-1404
iver	-1405
ough	-1406
play	-1407
tend	-1408
used	-1409
▁Edu	-1410
▁Loc	-1411
▁Man	-1412
▁ask	-1413
▁bur	-1414
▁eat	-1415
▁edu	-1416
▁lab	-1417
▁pop	-1418
ances	-1419
ected	-1420
iving	-1421
oseph	-1422
rease	-1423
ustom	-1424
▁Date	-1425
▁answ	-1426
▁circ	-1427
▁five	-1428
▁gave	-1429
▁high	-1430
▁laws	-1431
▁love	-1432
▁prom	-1433
▁publ	-1434
▁read	-1435
▁situ	-1436
▁stud	-1437
▁text	-1438
▁type	-1439
inated	-1440
▁earth	-1441
▁goods	-1442
▁heard	-1443
▁leave	-1444
▁might	-1445
▁words	-1446
▁Joseph	-1447
▁Select	-1448
▁assist	-1449
▁determ	-1450
▁intern	-1451
▁killed	-1452
▁powers	-1453
▁Village	-1454
▁already	-1455
▁between	-1456
▁enemies	-1457
▁section	-1458
▁special	-1459
▁various	-1460
▁district	-1461
▁official	-1462
▁establish	-1463
▁including	-1464
▁therefore	-1465
▁conditions	-1466
▁Chairperson	-1467
▁Corporation	-1468
bo	-1469
io	-1470
me	-1471
sp	-1472
▁6	-1473
amp	-1474
ets	-1475
hib	-1476
leg	-1477
man	-1478
ork	-1479
rop	-1480
tar	-1481
val	-1482
▁1.	-1483
▁My	-1484
▁Tw	-1485
▁gl	-1486
ames	-1487
arch	-1488
cept	-1489
ieve	-1490
imum	-1491
ined	-1492
lick	-1493
medi	-1494
reng	-1495
ruct	-1496
tern	-1497
▁Any	-1498
▁Can	-1499
▁Let	-1500
▁Rep	-1501
▁Use	-1502
▁adv	-1503
▁air	-1504
▁ann	-1505
▁arm	-1506
▁att	-1507
▁dau	-1508
▁dri	-1509
▁fal	-1510
▁inf	-1511
▁opp	-1512
▁war	-1513
ately	-1514
chool	-1515
iting	-1516
range	-1517
▁Bank	-1518
▁That	-1519
▁fact	-1520
▁keep	-1521
▁prep	-1522
▁rate	-1523
▁rule	-1524
▁sett	-1525
▁spok	-1526
▁stop	-1527
▁test	-1528
▁upon	-1529
▁wall	-1530
urance	-1531
▁Chief	-1532
▁blood	-1533
▁capac	-1534
▁cases	-1535
▁cause	-1536
▁forth	-1537
▁least	-1538
▁money	-1539
▁soldi	-1540
▁tribe	-1541
▁using	-1542
▁value	-1543
▁works	-1544
eration	-1545
vailing	-1546
▁Clause	-1547
▁action	-1548
▁always	-1549
▁duties	-1550
▁issued	-1551
▁punish	-1552
▁return	-1553
unicipal	-1554
▁account	-1555
▁matters	-1556
▁process	-1557
▁require	-1558
▁respons	-1559
▁subject	-1560
▁amendment	-1561
▁materials	-1562
▁represent	-1563
▁technical	-1564
▁facilities	-1565
▁prevailing	-1566
▁international	-1567
................	-1568
DE	-1569
▁$	-1570
▁%	-1571
▁.	-1572
arl	-1573
eds	-1574
ely	-1575
ept	-1576
gis	-1577
hod	-1578
osh	-1579
rif	-1580
▁10	-1581
▁11	-1582
▁Te	-1583
▁el	-1584
ards	-1585
atic	-1586
ault	-1587
gisl	-1588
ised	-1589
ital	-1590
ited	-1591
itle	-1592
mand	-1593
orre	-1594
orts	-1595
osen	-1596
pees	-1597
▁199	-1598
▁Jeh	-1599
▁dat	-1600
▁fif	-1601
▁fix	-1602
▁occ	-1603
▁pot	-1604
▁ren	-1605
▁ten	-1606
acher	-1607
ering	-1608
▁Cont	-1609
▁copy	-1610
▁exam	-1611
▁fine	-1612
▁hous	-1613
▁last	-1614
▁load	-1615
▁loss	-1616
▁near	-1617
▁seen	-1618
▁true	-1619
▁wine	-1620
abylon	-1621
ommend	-1622
orrect	-1623
undred	-1624
▁Local	-1625
▁Offic	-1626
▁check	-1627
▁coord	-1628
▁false	-1629
▁heart	-1630
▁issue	-1631
▁makes	-1632
▁manag	-1633
▁still	-1634
▁thing	-1635
▁third	-1636
dinance	-1637
▁Regist	-1638
▁bodies	-1639
▁chosen	-1640
▁commit	-1641
▁consum	-1642
▁formed	-1643
▁income	-1644
▁member	-1645
▁method	-1646
▁opened	-1647
▁school	-1648
▁undert	-1649
irection	-1650
▁address	-1651
▁general	-1652
▁inquiry	-1653
▁present	-1654
▁version	-1655
▁continue	-1656
▁electric	-1657
▁happened	-1658
▁property	-1659
▁employees	-1660
▁everything	-1661
▁particular	-1662
▁population	-1663
▁distribution	-1664
-1	-1665
by	-1666
▁i	-1667
ara	-1668
day	-1669
gal	-1670
hab	-1671
ipt	-1672
irm	-1673
oci	-1674
ody	-1675
ogy	-1676
rep	-1677
she	-1678
uel	-1679
umb	-1680
▁(3	-1681
▁--	-1682
▁50	-1683
▁Em	-1684
▁Er	-1685
▁Me	-1686
▁On	-1687
▁Pr	-1688
▁ph	-1689
▁ut	-1690
acob	-1691
ares	-1692
blem	-1693
empt	-1694
ency	-1695
here	-1696
ides	-1697
igin	-1698
ires	-1699
plan	-1700
rial	-1701
umst	-1702
view	-1703
▁...	-1704
▁205	-1705
▁206	-1706
▁Add	-1707
▁Ass	-1708
▁Col	-1709
▁Det	-1710
▁Eli	-1711
▁His	-1712
▁New	-1713
▁Sol	-1714
▁cle	-1715
▁cry	-1716
▁cub	-1717
▁cut	-1718
▁dam	-1719
▁dem	-1720
▁ext	-1721
▁hon	-1722
▁obs	-1723
▁sac	-1724
▁wis	-1725
aring	-1726
arlia	-1727
endit	-1728
ology	-1729
orrow	-1730
▁Body	-1731
▁able	-1732
▁adop	-1733
▁clot	-1734
▁cult	-1735
▁draw	-1736
▁else	-1737
▁fall	-1738
▁item	-1739
▁kept	-1740
▁liqu	-1741
▁page	-1742
▁sell	-1743
▁side	-1744
▁word	-1745
▁youn	-1746
entral	-1747
struct	-1748
▁Error	-1749
▁Jacob	-1750
▁altar	-1751
▁comes	-1752
▁compl	-1753
▁court	-1754
▁error	-1755
▁exped	-1756
▁grain	-1757
▁impro	-1758
▁limit	-1759
▁motor	-1760
▁plans	-1761
▁print	-1762
▁woman	-1763
▁wrong	-1764
▁Direct	-1765
▁Please	-1766
▁Public	-1767
▁coming	-1768
▁cubits	-1769
▁design	-1770
▁discus	-1771
▁folder	-1772
▁heaven	-1773
▁origin	-1774
▁strong	-1775
▁Program	-1776
▁Service	-1777
▁Whether	-1778
▁carried	-1779
▁collect	-1780
▁develop	-1781
▁forever	-1782
▁install	-1783
▁product	-1784
▁related	-1785
▁request	-1786
▁vehicle	-1787
arliament	-1788
▁administ	-1789
▁agricult	-1790
▁brothers	-1791
▁capacity	-1792
▁existing	-1793
▁increase	-1794
▁possible	-1795
▁soldiers	-1796
▁Amendment	-1797
▁Education	-1798
▁Municipal	-1799
▁Ordinance	-1800
▁Provision	-1801
▁Secretary	-1802
▁Therefore	-1803
▁agreement	-1804
▁corporate	-1805
▁destroyed	-1806
▁direction	-1807
▁documents	-1808
▁education	-1809
▁important	-1810
▁increased	-1811
▁insurance	-1812
▁offerings	-1813
▁recommend	-1814
▁responsib	-1815
▁employment	-1816
▁evaluation	-1817
▁provisions	-1818
!"	-1819
,"	-1820
.,	-1821
We	-1822
Wh	-1823
eb	-1824
gg	-1825
ss	-1826
ug	-1827
You	-1828
aim	-1829
app	-1830
ask	-1831
ift	-1832
let	-1833
oin	-1834
omp	-1835
unt	-1836
urb	-1837
yri	-1838
▁12	-1839
▁3.	-1840
▁Al	-1841
▁By	-1842
▁Ob	-1843
▁hy	-1844
▁mo	-1845
▁vo	-1846
amed	-1847
apan	-1848
arly	-1849
ator	-1850
ayer	-1851
ched	-1852
enty	-1853
epar	-1854
ince	-1855
itiz	-1856
itor	-1857
lish	-1858
omet	-1859
rypt	-1860
uman	-1861
vert	-1862
ying	-1863
▁204	-1864
▁Acc	-1865
▁Cre	-1866
▁Dis	-1867
▁How	-1868
▁KDE	-1869
▁Rec	-1870
▁Who	-1871
▁aff	-1872
▁del	-1873
▁dru	-1874
▁old	-1875
▁ref	-1876
▁sem	-1877
▁upd	-1878
aster	-1879
aying	-1880
ccess	-1881
ghter	-1882
icles	-1883
iding	-1884
iscal	-1885
ither	-1886
itten	-1887
ocial	-1888
ource	-1889
urned	-1890
▁(2),	-1891
▁From	-1892
▁King	-1893
▁Show	-1894
▁Ward	-1895
▁anim	-1896
▁bear	-1897
▁farm	-1898
▁fees	-1899
▁food	-1900
▁free	-1901
▁gods	-1902
▁init	-1903
▁most	-1904
▁much	-1905
▁mult	-1906
▁road	-1907
▁suff	-1908
▁tour	-1909
▁valu	-1910
▁whom	-1911
▁wild	-1912
action	-1913
azette	-1914
▁Their	-1915
▁bless	-1916
▁death	-1917
▁doing	-1918
▁fight	-1919
▁grant	-1920
▁invol	-1921
▁light	-1922
▁lived	-1923
▁renew	-1924
▁seven	-1925
▁small	-1926
▁table	-1927
▁think	-1928
▁towns	-1929
▁world	-1930
▁youth	-1931
etition	-1932
igation	-1933
rengthe	-1934
tection	-1935
urement	-1936
▁Temple	-1937
▁config	-1938
▁deemed	-1939
▁export	-1940
▁fiscal	-1941
▁ground	-1942
▁growth	-1943
▁houses	-1944
▁immedi	-1945
▁mother	-1946
▁reform	-1947
▁rights	-1948
▁sacrif	-1949
▁saying	-1950
▁weight	-1951
▁Babylon	-1952
▁Gazette	-1953
▁Officer	-1954
▁changed	-1955
▁consist	-1956
▁display	-1957
▁members	-1958
▁problem	-1959
▁receipt	-1960
▁regular	-1961
▁revenue	-1962
▁support	-1963
▁teacher	-1964
gislature	-1965
planation	-1966
▁National	-1967
▁approved	-1968
▁building	-1969
▁circumst	-1970
▁everyone	-1971
▁planning	-1972
▁priority	-1973
▁followers	-1974
▁providing	-1975
▁selection	-1976
▁situation	-1977
▁statement	-1978
▁additional	-1979
▁industrial	-1980
▁electricity	-1981
▁Municipality	-1982
▁agricultural	-1983
3.	-1984
ek	-1985
ls	-1986
oh	-1987
pr	-1988
to	-1989
▁/	-1990
den	-1991
els	-1992
ese	-1993
ian	-1994
ier	-1995
ilt	-1996
ipl	-1997
ols	-1998
ook	-1999
oot	-2000
ope	-2001
osp	-2002
ote	-2003
put	-2004
rar	-2005
sed	-2006
ulf	-2007
vir	-2008
▁(4	-2009
▁5.	-2010
▁Do	-2011
▁GN	-2012
▁Mo	-2013
▁ir	-2014
▁la	-2015
▁po	-2016
▁sw	-2017
ased	-2018
erve	-2019
hent	-2020
ival	-2021
leep	-2022
ones	-2023
ored	-2024
raph	-2025
roll	-2026
semb	-2027
side	-2028
sure	-2029
urve	-2030
▁198	-2031
▁Don	-2032
▁Sam	-2033
▁Set	-2034
▁Ter	-2035
▁Two	-2036
▁bre	-2037
▁cer	-2038
▁div	-2039
▁non	-2040
▁sal	-2041
▁san	-2042
▁sil	-2043
▁sou	-2044
▁tra	-2045
▁vis	-2046
▁wit	-2047
▁yet	-2048
araoh	-2049
arget	-2050
iddle	-2051
ilist	-2052
ittle	-2053
ourth	-2054
rible	-2055
udget	-2056
urred	-2057
venth	-2058
where	-2059
▁(199	-2060
▁Open	-2061
▁Save	-2062
▁Will	-2063
▁burn	-2064
▁butt	-2065
▁care	-2066
▁clim	-2067
▁dead	-2068
▁exch	-2069
▁fear	-2070
▁flow	-2071
▁furn	-2072
▁inte	-2073
▁kind	-2074
▁susp	-2075
eering	-2076
iction	-2077
itting	-2078
selves	-2079
ternal	-2080
▁Other	-2081
▁anger	-2082
▁carry	-2083
▁conne	-2084
▁depos	-2085
▁estim	-2086
▁event	-2087
▁fixed	-2088
▁ident	-2089
▁legal	-2090
▁names	-2091
▁price	-2092
▁schem	-2093
▁separ	-2094
▁spoke	-2095
▁throw	-2096
▁wants	-2097
▁young	-2098
elating	-2099
▁Assyri	-2100
▁Unable	-2101
▁annual	-2102
▁anyone	-2103
▁appeal	-2104
▁author	-2105
▁caused	-2106
▁centre	-2107
▁cities	-2108
▁create	-2109
▁cultiv	-2110
▁custom	-2111
▁damage	-2112
▁failed	-2113
▁giving	-2114
▁letter	-2115
▁little	-2116
▁longer	-2117
▁matter	-2118
▁middle	-2119
▁really	-2120
▁record	-2121
▁second	-2122
▁tribes	-2123
▁values	-2124
encement	-2125
hibition	-2126
▁Pharaoh	-2127
▁Philist	-2128
▁allowed	-2129
▁arrange	-2130
▁clothes	-2131
▁economy	-2132
▁follows	-2133
▁kingdom	-2134
▁pension	-2135
▁prophet	-2136
▁servant	-2137
▁started	-2138
▁success	-2139
▁witness	-2140
▁written	-2141
▁Director	-2142
▁answered	-2143
▁carrying	-2144
▁contract	-2145
▁daughter	-2146
▁exchange	-2147
▁expendit	-2148
▁internal	-2149
▁maintain	-2150
▁particip	-2151
▁prophets	-2152
▁register	-2153
▁teachers	-2154
▁thousand	-2155
Parliament	-2156
▁allowance	-2157
▁effective	-2158
▁liability	-2159
▁operating	-2160
▁published	-2161
▁Provisions	-2162
▁assistance	-2163
▁connection	-2164
▁discussion	-2165
▁permission	-2166
▁understand	-2167
▁Legislature	-2168
▁immediately	-2169
▁implemented	-2170
▁performance	-2171
▁Constitution	-2172
▁organization	-2173
▁configuration	-2174
▁consideration	-2175
5.	-2176
7)	-2177
AR	-2178
Ch	-2179
IN	-2180
ds	-2181
ef	-2182
go	-2183
mm	-2184
zz	-2185
▁0	-2186
▁z	-2187
alf	-2188
ann	-2189
aph	-2190
aut	-2191
bor	-2192
cri	-2193
ham	-2194
han	-2195
hen	-2196
inc	-2197
ism	-2198
oad	-2199
pes	-2200
ten	-2201
umn	-2202
▁28	-2203
▁7.	-2204
▁Ac	-2205
▁Rs	-2206
▁Sw	-2207
▁ap	-2208
▁ey	-2209
▁id	-2210
aith	-2211
aled	-2212
ancy	-2213
aron	-2214
eter	-2215
iliz	-2216
imil	-2217
ious	-2218
leph	-2219
less	-2220
olog	-2221
omon	-2222
raft	-2223
ream	-2224
reen	-2225
rodu	-2226
ross	-2227
ured	-2228
▁100	-2229
▁201	-2230
▁Beh	-2231
▁Dec	-2232
▁Exp	-2233
▁Jew	-2234
▁Mat	-2235
▁May	-2236
▁Per	-2237
▁Rem	-2238
▁Six	-2239
▁Son	-2240
▁age	-2241
▁aud	-2242
▁bes	-2243
▁bow	-2244
▁den	-2245
▁due	-2246
▁enh	-2247
▁fut	-2248
▁jud	-2249
▁led	-2250
▁maj	-2251
▁mar	-2252
▁mid	-2253
▁nom	-2254
▁par	-2255
▁raw	-2256
▁rob	-2257
▁rul	-2258
▁saf	-2259
▁sat	-2260
▁tem	-2261
▁ter	-2262
▁tim	-2263
▁try	-2264
▁vol	-2265
ariat	-2266
ecial	-2267
ience	-2268
ighth	-2269
inate	-2270
itive	-2271
mandu	-2272
rency	-2273
spect	-2274
stant	-2275
ulate	-2276
viron	-2277
▁Comm	-2278
▁Five	-2279
▁Holy	-2280
▁Sign	-2281
▁With	-2282
▁army	-2283
▁conv	-2284
▁cour	-2285
▁dele	-2286
▁duty	-2287
▁fell	-2288
▁gone	-2289
▁held	-2290
▁holy	-2291
▁mean	-2292
▁next	-2293
▁obey	-2294
▁repl	-2295
▁song	-2296
▁sure	-2297
▁talk	-2298
▁tool	-2299
ansion	-2300
ential	-2301
hentic	-2302
icians	-2303
icient	-2304
manent	-2305
ointed	-2306
omatic	-2307
sembly	-2308
ulfill	-2309
vement	-2310
▁Aaron	-2311
▁Check	-2312
▁India	-2313
▁Japan	-2314
▁South	-2315
▁Trans	-2316
▁above	-2317
▁asked	-2318
▁belie	-2319
▁citiz	-2320
▁class	-2321
▁deems	-2322
▁exper	-2323
▁frame	-2324
▁glory	-2325
▁heads	-2326
▁honor	-2327
▁idols	-2328
▁indic	-2329
▁irrig	-2330
▁known	-2331
▁north	-2332
▁prior	-2333
▁sleep	-2334
▁somet	-2335
▁stood	-2336
▁study	-2337
▁title	-2338
▁trade	-2339
▁truth	-2340
▁whole	-2341
itation	-2342
olution	-2343
ruction	-2344
▁Appeal	-2345
▁Father	-2346
▁Import	-2347
▁Powers	-2348
▁access	-2349
▁became	-2350
▁budget	-2351
▁column	-2352
▁extend	-2353
▁future	-2354
▁golden	-2355
▁govern	-2356
▁listen	-2357
▁market	-2358
▁metric	-2359
▁motion	-2360
▁myself	-2361
▁option	-2362
▁proced	-2363
▁remove	-2364
▁review	-2365
▁served	-2366
▁social	-2367
▁status	-2368
▁supply	-2369
▁target	-2370
▁thirty	-2371
▁worked	-2372
athmandu	-2373
ensation	-2374
ervation	-2375
retariat	-2376
▁Meeting	-2377
▁Members	-2378
▁Solomon	-2379
▁Special	-2380
▁appoint	-2381
▁attempt	-2382
▁certain	-2383
▁changes	-2384
▁efforts	-2385
▁happens	-2386
▁hundred	-2387
▁introdu	-2388
▁leaders	-2389
▁manager	-2390
▁nations	-2391
▁nothing	-2392
▁operate	-2393
▁receive	-2394
▁specify	-2395
▁whether	-2396
unication	-2397
vironment	-2398
▁Assembly	-2399
▁Function	-2400
▁Minister	-2401
▁complete	-2402
▁expected	-2403
▁industry	-2404
▁licensee	-2405
▁obtained	-2406
▁offering	-2407
▁original	-2408
▁prepared	-2409
▁proceeds	-2410
▁regional	-2411
▁relation	-2412
▁remember	-2413
▁restruct	-2414
▁settings	-2415
▁Registrar	-2416
▁complaint	-2417
▁currently	-2418
▁estimated	-2419
▁expansion	-2420
▁necessity	-2421
▁nominated	-2422
▁permanent	-2423
▁receiving	-2424
▁something	-2425
▁Commission	-2426
▁accordance	-2427
▁considered	-2428
▁expedition	-2429
▁increasing	-2430
▁industries	-2431
▁profession	-2432
▁protection	-2433
▁punishment	-2434
▁technology	-2435
▁Philistines	-2436
▁chairperson	-2437
▁compensation	-2438
▁organizations	-2439
▁mountaineering	-2440
".	-2441
10	-2442
5,	-2443
6,	-2444
Th	-2445
eg	-2446
ex	-2447
ik	-2448
nk	-2449
sh	-2450
tc	-2451
▁)	-2452
▁x	-2453
att	-2454
elf	-2455
elt	-2456
enc	-2457
eng	-2458
ety	-2459
eur	-2460
fra	-2461
hel	-2462
ict	-2463
iff	-2464
iqu	-2465
jah	-2466
key	-2467
law	-2468
oks	-2469
pec	-2470
pri	-2471
pur	-2472
ues	-2473
uly	-2474
use	-2475
▁$1	-2476
▁13	-2477
▁15	-2478
▁25	-2479
▁Ag	-2480
▁Be	-2481
▁UR	-2482
aily	-2483
angu	-2484
aves	-2485
ggle	-2486
ided	-2487
irty	-2488
lies	-2489
line	-2490
ocks	-2491
omes	-2492
perv	-2493
pped	-2494
race	-2495
rary	-2496
ript	-2497
rist	-2498
teen	-2499
ugin	-2500
work	-2501
▁196	-2502
▁Art	-2503
▁Aut	-2504
▁Ben	-2505
▁Dut	-2506
▁Eng	-2507
▁Fif	-2508
▁Inc	-2509
▁Lev	-2510
▁Lic	-2511
▁Mah	-2512
▁Min	-2513
▁Pri	-2514
▁Res	-2515
▁ach	-2516
▁bad	-2517
▁bar	-2518
▁beh	-2519
▁deb	-2520
▁die	-2521
▁eas	-2522
▁eng	-2523
▁etc	-2524
▁fat	-2525
▁got	-2526
▁hig	-2527
▁hyd	-2528
▁joy	-2529
▁lin	-2530
▁max	-2531
▁med	-2532
▁neg	-2533
▁reb	-2534
▁sea	-2535
▁six	-2536
▁tax	-2537
▁why	-2538
ables	-2539
emiah	-2540
ences	-2541
enses	-2542
ially	-2543
idden	-2544
istic	-2545
itled	-2546
itors	-2547
ledge	-2548
orest	-2549
ortun	-2550
power	-2551
raham	-2552
raise	-2553
right	-2554
urvey	-2555
verse	-2556
▁(1).	-2557
▁Cana	-2558
▁Form	-2559
▁Inst	-2560
▁Levi	-2561
▁Paul	-2562
▁Saul	-2563
▁cast	-2564
▁coll	-2565
▁cred	-2566
▁crop	-2567
▁data	-2568
▁ever	-2569
▁evid	-2570
▁expl	-2571
▁firm	-2572
▁hist	-2573
▁hope	-2574
▁laun	-2575
▁less	-2576
▁news	-2577
▁paid	-2578
▁past	-2579
▁path	-2580
▁port	-2581
▁pric	-2582
▁real	-2583
▁room	-2584
▁sand	-2585
▁save	-2586
▁seek	-2587
▁sing	-2588
▁size	-2589
▁stay	-2590
▁stri	-2591
▁subs	-2592
▁task	-2593
▁wood	-2594
▁zone	-2595
ancing	-2596
ercial	-2597
ighbor	-2598
reneur	-2599
ribute	-2600
rypted	-2601
tained	-2602
ysical	-2603
▁Click	-2604
▁Enter	-2605
▁Inter	-2606
▁Peter	-2607
▁Terai	-2608
▁Where	-2609
▁begin	-2610
▁burnt	-2611
▁claim	-2612
▁click	-2613
▁color	-2614
▁encod	-2615
▁entry	-2616
▁exerc	-2617
▁expir	-2618
▁fails	-2619
▁faith	-2620
▁fifty	-2621
▁forms	-2622
▁hands	-2623
▁human	-2624
▁kings	-2625
▁labor	-2626
▁mouth	-2627
▁party	-2628
▁peace	-2629
▁plant	-2630
▁quant	-2631
▁rural	-2632
▁since	-2633
▁teach	-2634
▁theme	-2635
▁voice	-2636
▁write	-2637
hemical	-2638
idation	-2639
ructure	-2640
▁Change	-2641
▁Create	-2642
▁Employ	-2643
▁Enable	-2644
▁Failed	-2645
▁Rupees	-2646
▁active	-2647
▁associ	-2648
▁button	-2649
▁compet	-2650
▁descri	-2651
▁entrep	-2652
▁exists	-2653
▁hidden	-2654
▁itself	-2655
▁living	-2656
▁master	-2657
▁months	-2658
▁nation	-2659
▁others	-2660
▁police	-2661
▁profit	-2662
▁propos	-2663
▁search	-2664
▁spread	-2665
▁superv	-2666
▁temple	-2667
▁trying	-2668
▁turned	-2669
▁twenty	-2670
▁youths	-2671
cational	-2672
imilarly	-2673
▁Account	-2674
▁Assyria	-2675
▁Details	-2676
▁However	-2677
▁Levites	-2678
▁License	-2679
▁Seventh	-2680
▁adopted	-2681
▁correct	-2682
▁created	-2683
▁default	-2684
▁driving	-2685
▁fathers	-2686
▁flowers	-2687
▁initial	-2688
▁maximum	-2689
▁offered	-2690
▁opening	-2691
▁outside	-2692
▁payment	-2693
▁records	-2694
▁schools	-2695
▁setting	-2696
▁thereof	-2697
▁updated	-2698
▁working	-2699
▁writing	-2700
▁........	-2701
▁Administ	-2702
▁Thousand	-2703
▁appropri	-2704
▁approval	-2705
▁donation	-2706
▁included	-2707
▁messages	-2708
▁neighbor	-2709
▁opportun	-2710
▁programs	-2711
▁proposed	-2712
▁punished	-2713
▁purposes	-2714
▁separate	-2715
▁servants	-2716
▁standard	-2717
▁therefor	-2718
▁yourself	-2719
▁Functions	-2720
▁Kathmandu	-2721
▁appointed	-2722
▁commanded	-2723
▁construct	-2724
▁elsewhere	-2725
▁governors	-2726
▁potential	-2727
▁strengthe	-2728
▁commercial	-2729
▁completion	-2730
▁concerning	-2731
▁cultivated	-2732
▁determined	-2733
▁expiration	-2734
▁generation	-2735
▁objectives	-2736
▁reasonable	-2737
▁registered	-2738
▁undertaken	-2739
▁Explanation	-2740
▁Prohibition	-2741
▁procurement	-2742
▁entrepreneur	-2743
▁installation	-2744
▁circumstances	-2745
▁qualification	-2746
▁representative	-2747
!'	-2748
(1	-2749
-9	-2750
.2	-2751
AN	-2752
Go	-2753
ME	-2754
Sh	-2755
bs	-2756
de	-2757
gs	-2758
kt	-2759
nu	-2760
oe	-2761
tt	-2762
xy	-2763
ze	-2764
abb	-2765
apt	-2766
cap	-2767
ems	-2768
ery	-2769
esh	-2770
eth	-2771
ges	-2772
gun	-2773
hap	-2774
ior	-2775
isd	-2776
isf	-2777
iss	-2778
jam	-2779
ley	-2780
nel	-2781
ode	-2782
ots	-2783
oun	-2784
pty	-2785
rag	-2786
rie	-2787
seh	-2788
thy	-2789
ump	-2790
ung	-2791
yle	-2792
▁Co	-2793
▁Dh	-2794
▁Ge	-2795
▁Gl	-2796
▁Of	-2797
▁Pe	-2798
▁Up	-2799
▁Us	-2800
▁cr	-2801
▁es	-2802
▁ic	-2803
▁ow	-2804
▁ty	-2805
abor	-2806
aced	-2807
acts	-2808
adem	-2809
ains	-2810
aker	-2811
athe	-2812
born	-2813
cend	-2814
cing	-2815
ecut	-2816
enef	-2817
ents	-2818
ions	-2819
irit	-2820
ises	-2821
iven	-2822
ktop	-2823
lier	-2824
ling	-2825
olic	-2826
oper	-2827
over	-2828
rast	-2829
text	-2830
uses	-2831
utes	-2832
vior	-2833
ware	-2834
▁(4)	-2835
▁11,	-2836
▁Are	-2837
▁Asa	-2838
▁Bec	-2839
▁Bir	-2840
▁Dam	-2841
▁Dat	-2842
▁Def	-2843
▁Eph	-2844
▁Fil	-2845
▁Get	-2846
▁Isa	-2847
▁Law	-2848
▁URL	-2849
▁Zer	-2850
▁art	-2851
▁bid	-2852
▁box	-2853
▁cal	-2854
▁ele	-2855
▁far	-2856
▁fon	-2857
▁fru	-2858
▁fur	-2859
▁low	-2860
▁mag	-2861
▁mem	-2862
▁mer	-2863
▁net	-2864
▁pan	-2865
▁pip	-2866
▁sen	-2867
▁sky	-2868
▁too	-2869
▁top	-2870
▁tow	-2871
▁wid	-2872
ading	-2873
aints	-2874
anded	-2875
aphat	-2876
asseh	-2877
athan	-2878
atory	-2879
eared	-2880
ended	-2881
erved	-2882
fraid	-2883
fting	-2884
gress	-2885
habit	-2886
ialog	-2887
icial	-2888
icked	-2889
ining	-2890
ought	-2891
owner	-2892
plate	-2893
stitu	-2894
sured	-2895
ually	-2896
urban	-2897
urisd	-2898
▁1990	-2899
▁2049	-2900
▁Auth	-2901
▁Full	-2902
▁Good	-2903
▁Jews	-2904
▁Joab	-2905
▁Land	-2906
▁Moab	-2907
▁Most	-2908
▁Move	-2909
▁Send	-2910
▁Tent	-2911
▁Tour	-2912
▁Your	-2913
▁acqu	-2914
▁airc	-2915
▁beat	-2916
▁born	-2917
▁call	-2918
▁conn	-2919
▁deny	-2920
▁disp	-2921
▁eyes	-2922
▁fill	-2923
▁fold	-2924
▁half	-2925
▁hect	-2926
▁hour	-2927
▁jour	-2928
▁loan	-2929
▁lost	-2930
▁mind	-2931
▁move	-2932
▁ones	-2933
▁poor	-2934
▁prob	-2935
▁prot	-2936
▁rain	-2937
▁summ	-2938
▁team	-2939
▁tied	-2940
▁upgr	-2941
▁user	-2942
▁vine	-2943
▁wait	-2944
▁wife	-2945
anches	-2946
arters	-2947
atives	-2948
ection	-2949
estern	-2950
ishing	-2951
legate	-2952
ractor	-2953
rative	-2954
search	-2955
ustoms	-2956
▁Child	-2957
▁Deleg	-2958
▁First	-2959
▁Image	-2960
▁Right	-2961
▁River	-2962
▁Short	-2963
▁State	-2964
▁added	-2965
▁apply	-2966
▁based	-2967
▁benef	-2968
▁bread	-2969
▁built	-2970
▁daily	-2971
▁datab	-2972
▁doors	-2973
▁drunk	-2974
▁enemy	-2975
▁evalu	-2976
▁filen	-2977
▁final	-2978
▁flock	-2979
▁forty	-2980
▁fully	-2981
▁gathe	-2982
▁gives	-2983
▁going	-2984
▁happy	-2985
▁knows	-2986
▁langu	-2987
▁large	-2988
▁linen	-2989
▁lives	-2990
▁loans	-2991
▁lying	-2992
▁marks	-2993
▁mouse	-2994
▁night	-2995
▁owner	-2996
▁parts	-2997
▁pract	-2998
▁quick	-2999
▁ready	-3000
▁river	-3001
▁rules	-3002
▁sanct	-3003
▁sheep	-3004
▁sound	-3005
▁style	-3006
▁sword	-3007
▁terms	-3008
▁times	-3009
▁types	-3010
▁watch	-3011
▁withd	-3012
azetted	-3013
ertiliz	-3014
holders	-3015
ibility	-3016
lephone	-3017
osition	-3018
ospital	-3019
▁Academ	-3020
▁Amount	-3021
▁Behold	-3022
▁Benjam	-3023
▁Canaan	-3024
▁Cannot	-3025
▁Christ	-3026
▁Eighth	-3027
▁Elijah	-3028
▁Health	-3029
▁Jehosh	-3030
▁Second	-3031
▁Spirit	-3032
▁Thirty	-3033
▁accept	-3034
▁accomp	-3035
▁affect	-3036
▁afraid	-3037
▁answer	-3038
▁beside	-3039
▁better	-3040
▁charge	-3041
▁comput	-3042
▁course	-3043
▁depart	-3044
▁either	-3045
▁except	-3046
▁feared	-3047
▁framed	-3048
▁integr	-3049
▁looked	-3050
▁needed	-3051
▁passed	-3052
▁plugin	-3053
▁prices	-3054
▁promot	-3055
▁proved	-3056
▁regard	-3057
▁render	-3058
▁rupees	-3059
▁scheme	-3060
▁screen	-3061
▁slaves	-3062
▁source	-3063
▁subord	-3064
▁taking	-3065
▁tender	-3066
▁toward	-3067
▁wicked	-3068
▁wisdom	-3069
cendants	-3070
igration	-3071
ological	-3072
stituent	-3073
▁Abraham	-3074
▁Address	-3075
▁Because	-3076
▁Project	-3077
▁Whoever	-3078
▁achieve	-3079
▁amounts	-3080
▁approve	-3081
▁believe	-3082
▁billion	-3083
▁capital	-3084
▁consent	-3085
▁consult	-3086
▁context	-3087
▁curtain	-3088
▁discipl	-3089
▁enterpr	-3090
▁granted	-3091
▁greater	-3092
▁infrast	-3093
▁inhabit	-3094
▁letters	-3095
▁markets	-3096
▁measure	-3097
▁planned	-3098
▁produce	-3099
▁quality	-3100
▁replace	-3101
▁sectors	-3102
▁thereby	-3103
▁workers	-3104
struction	-3105
▁Manasseh	-3106
▁Services	-3107
▁Training	-3108
▁aircraft	-3109
▁appeared	-3110
▁currency	-3111
▁delegate	-3112
▁director	-3113
▁drinking	-3114
▁entitled	-3115
▁executed	-3116
▁followed	-3117
▁gathered	-3118
▁location	-3119
▁manpower	-3120
▁measures	-3121
▁occurred	-3122
▁progress	-3123
▁resident	-3124
▁resource	-3125
▁terrible	-3126
▁vehicles	-3127
ifications	-3128
omatically	-3129
▁Authority	-3130
▁Programme	-3131
▁Signature	-3132
▁applicant	-3133
▁collected	-3134
▁committed	-3135
▁continued	-3136
▁directory	-3137
▁extension	-3138
▁installed	-3139
▁knowledge	-3140
▁landowner	-3141
▁officials	-3142
▁righteous	-3143
▁telephone	-3144
urisdiction	-3145
▁Contractor	-3146
▁Delegation	-3147
▁Israelites	-3148
▁collecting	-3149
▁designated	-3150
▁disability	-3151
▁irrigation	-3152
▁sacrifices	-3153
▁securities	-3154
▁themselves	-3155
▁Constituent	-3156
▁Institution	-3157
▁Jehoshaphat	-3158
▁appropriate	-3159
▁descendants	-3160
▁description	-3161
▁environment	-3162
▁examination	-3163
▁expenditure	-3164
▁liquidation	-3165
▁subordinate	-3166
▁transaction	-3167
▁transferred	-3168
▁commencement	-3169
▁conservation	-3170
▁institutions	-3171
▁participation	-3172
▁restructuring	-3173
▁Administration	-3174
▁administration	-3175
▁implementation	-3176
▁recommendation	-3177
-6	-3178
.4	-3179
/8	-3180
/9	-3181
02	-3182
1,	-3183
1.	-3184
2,	-3185
4.	-3186
53	-3187
7,	-3188
8,	-3189
IS	-3190
IT	-3191
If	-3192
In	-3193
It	-3194
MP	-3195
My	-3196
NE	-3197
OD	-3198
cl	-3199
hn	-3200
ii	-3201
ks	-3202
rs	-3203
ua	-3204
.'"	-3205
But	-3206
OME	-3207
Off	-3208
Reg	-3209
aff	-3210
ams	-3211
ani	-3212
aro	-3213
arp	-3214
ati	-3215
ats	-3216
box	-3217
cut	-3218
ead	-3219
eeb	-3220
ern	-3221
gor	-3222
hur	-3223
ini	-3224
ins	-3225
joy	-3226
ken	-3227
lee	-3228
noc	-3229
oam	-3230
ofs	-3231
oil	-3232
ony	-3233
orm	-3234
oud	-3235
phr	-3236
pro	-3237
ray	-3238
reb	-3239
reg	-3240
rew	-3241
set	-3242
uda	-3243
ule	-3244
ury	-3245
ush	-3246
▁16	-3247
▁24	-3248
▁29	-3249
▁33	-3250
▁8.	-3251
▁Bu	-3252
▁El	-3253
▁Eu	-3254
▁GI	-3255
▁Ha	-3256
▁IN	-3257
▁au	-3258
▁ce	-3259
▁ge	-3260
▁ib	-3261
▁op	-3262
▁“”	-3263
This	-3264
adne	-3265
aged	-3266
alid	-3267
arks	-3268
ayat	-3269
dist	-3270
ears	-3271
fort	-3272
ians	-3273
iced	-3274
imal	-3275
imei	-3276
imin	-3277
imod	-3278
ists	-3279
ithm	-3280
itud	-3281
laws	-3282
list	-3283
most	-3284
omen	-3285
orns	-3286
pher	-3287
raim	-3288
reme	-3289
terf	-3290
unal	-3291
vile	-3292
zzar	-3293
▁(3)	-3294
▁202	-3295
▁Att	-3296
▁Aud	-3297
▁Bye	-3298
▁Fin	-3299
▁GNU	-3300
▁GOD	-3301
▁Heb	-3302
▁Hor	-3303
▁Ins	-3304
▁Jan	-3305
▁Key	-3306
▁Lib	-3307
▁Mak	-3308
▁Mal	-3309
▁Mer	-3310
▁Mis	-3311
▁Neb	-3312
▁Spe	-3313
▁Sup	-3314
▁Tre	-3315
▁Yet	-3316
▁bal	-3317
▁big	-3318
▁boy	-3319
▁cor	-3320
▁dev	-3321
▁dom	-3322
▁exc	-3323
▁few	-3324
▁flu	-3325
▁gar	-3326
▁hit	-3327
▁hot	-3328
▁hur	-3329
▁ign	-3330
▁iod	-3331
▁lam	-3332
▁lat	-3333
▁lay	-3334
▁lib	-3335
▁mix	-3336
▁mob	-3337
▁obl	-3338
▁oil	-3339
▁org	-3340
▁pat	-3341
▁pix	-3342
▁sad	-3343
▁sha	-3344
▁spr	-3345
▁tab	-3346
▁tie	-3347
▁ton	-3348
▁utf	-3349
▁won	-3350
abled	-3351
anied	-3352
arden	-3353
arent	-3354
arily	-3355
attle	-3356
cribe	-3357
ekiah	-3358
estic	-3359
etary	-3360
etric	-3361
force	-3362
group	-3363
herit	-3364
ields	-3365
ilies	-3366
imary	-3367
imeon	-3368
itute	-3369
ively	-3370
lisha	-3371
ordan	-3372
oured	-3373
point	-3374
rison	-3375
umble	-3376
vious	-3377
▁Data	-3378
▁Edom	-3379
▁John	-3380
▁Many	-3381
▁News	-3382
▁Oreb	-3383
▁Pash	-3384
▁Pres	-3385
▁Rast	-3386
▁Sabb	-3387
▁Sort	-3388
▁Trib	-3389
▁Type	-3390
▁Work	-3391
▁Zeeb	-3392
▁Zion	-3393
▁amaz	-3394
▁bull	-3395
▁camp	-3396
▁capt	-3397
▁code	-3398
▁dark	-3399
▁debt	-3400
▁decl	-3401
▁defe	-3402
▁died	-3403
▁dise	-3404
▁door	-3405
▁duly	-3406
▁dust	-3407
▁feed	-3408
▁felt	-3409
▁fest	-3410
▁film	-3411
▁gift	-3412
▁heav	-3413
▁home	-3414
▁laid	-3415
▁lamp	-3416
▁mach	-3417
▁none	-3418
▁pack	-3419
▁phot	-3420
▁pure	-3421
▁rail	-3422
▁redu	-3423
▁rele	-3424
▁rich	-3425
▁sack	-3426
▁seed	-3427
▁semi	-3428
▁ship	-3429
▁sins	-3430
▁soul	-3431
▁step	-3432
▁tomb	-3433
▁trig	-3434
▁vict	-3435
▁viol	-3436
▁walk	-3437
▁ways	-3438
ailing	-3439
aneous	-3440
atures	-3441
elfare	-3442
ellate	-3443
elling	-3444
erness	-3445
ership	-3446
ftware	-3447
ghters	-3448
ground	-3449
iation	-3450
imodal	-3451
ipment	-3452
itable	-3453
mitted	-3454
ording	-3455
pherds	-3456
though	-3457
urrent	-3458
▁Books	-3459
▁Civil	-3460
▁GNOME	-3461
▁Group	-3462
▁Isaac	-3463
▁Judge	-3464
▁Mills	-3465
▁Power	-3466
▁Press	-3467
▁Seeds	-3468
▁Since	-3469
▁Techn	-3470
▁Title	-3471
▁Under	-3472
▁Union	-3473
▁algor	-3474
▁arrow	-3475
▁audio	-3476
▁banks	-3477
▁beaut	-3478
▁black	-3479
▁board	-3480
▁bookm	-3481
▁broad	-3482
▁chief	-3483
▁clear	-3484
▁close	-3485
▁cloth	-3486
▁cover	-3487
▁cried	-3488
▁doesn	-3489
▁enjoy	-3490
▁equal	-3491
▁espec	-3492
▁fifth	-3493
▁filed	-3494
▁grace	-3495
▁hydro	-3496
▁index	-3497
▁innoc	-3498
▁input	-3499
▁insol	-3500
▁inspe	-3501
▁later	-3502
▁lines	-3503
▁metal	-3504
▁minor	-3505
▁moved	-3506
▁named	-3507
▁owned	-3508
▁param	-3509
▁posts	-3510
▁press	-3511
▁princ	-3512
▁proxy	-3513
▁reign	-3514
▁ruled	-3515
▁semin	-3516
▁short	-3517
▁shown	-3518
▁skill	-3519
▁spoil	-3520
▁staff	-3521
▁stone	-3522
▁stopp	-3523
▁takes	-3524
▁today	-3525
▁tower	-3526
▁treas	-3527
▁treat	-3528
▁trees	-3529
▁tremb	-3530
▁trend	-3531
▁users	-3532
▁white	-3533
aintiff	-3534
aration	-3535
ceeding	-3536
ecutive	-3537
isation	-3538
ivalent	-3539
iveness	-3540
ization	-3541
ossible	-3542
ributed	-3543
taining	-3544
uchadne	-3545
▁During	-3546
▁Duties	-3547
▁Elisha	-3548
▁Export	-3549
▁Filter	-3550
▁Forest	-3551
▁Format	-3552
▁Fourth	-3553
▁Indust	-3554
▁Jordan	-3555
▁Nathan	-3556
▁Object	-3557
▁Proced	-3558
▁Remove	-3559
▁Script	-3560
▁Shimei	-3561
▁Simeon	-3562
▁across	-3563
▁animal	-3564
▁aspect	-3565
▁assess	-3566
▁backup	-3567
▁behind	-3568
▁belong	-3569
▁broken	-3570
▁clause	-3571
▁colors	-3572
▁commun	-3573
▁depend	-3574
▁desire	-3575
▁dialog	-3576
▁earned	-3577
▁execut	-3578
▁extent	-3579
▁famine	-3580
▁fields	-3581
▁filter	-3582
▁flight	-3583
▁forced	-3584
▁fourth	-3585
▁gained	-3586
▁groups	-3587
▁higher	-3588
▁labour	-3589
▁memory	-3590
▁minist	-3591
▁orient	-3592
▁permit	-3593
▁please	-3594
▁points	-3595
▁praise	-3596
▁prison	-3597
▁remain	-3598
▁safety	-3599
▁saints	-3600
▁satisf	-3601
▁saving	-3602
▁scroll	-3603
▁settle	-3604
▁shares	-3605
▁silver	-3606
▁single	-3607
▁sinned	-3608
▁sorrow	-3609
▁speaks	-3610
▁spoken	-3611
▁sports	-3612
▁though	-3613
▁travel	-3614
▁unable	-3615
▁vision	-3616
▁volunt	-3617
▁wanted	-3618
▁wishes	-3619
▁worker	-3620
Relating	-3621
ructures	-3622
▁Academy	-3623
▁Article	-3624
▁Command	-3625
▁Customs	-3626
▁Display	-3627
▁English	-3628
▁Ephraim	-3629
▁Fifteen	-3630
▁Hundred	-3631
▁Sabbath	-3632
▁Sitting	-3633
▁Supreme	-3634
▁Tourism	-3635
▁airport	-3636
▁animals	-3637
▁autonom	-3638
▁central	-3639
▁climate	-3640
▁comfort	-3641
▁commits	-3642
▁council	-3643
▁decreas	-3644
▁deliver	-3645
▁deposit	-3646
▁entered	-3647
▁farmers	-3648
▁forward	-3649
▁fulfill	-3650
▁further	-3651
▁inherit	-3652
▁invalid	-3653
▁liquors	-3654
▁minimum	-3655
▁neither	-3656
▁network	-3657
▁offense	-3658
▁offices	-3659
▁prevent	-3660
▁recover	-3661
▁reports	-3662
▁results	-3663
▁returns	-3664
▁running	-3665
▁sending	-3666
▁someone	-3667
▁targets	-3668
▁telling	-3669
▁whoever	-3670
onometric	-3671
▁Agricult	-3672
▁Benjamin	-3673
▁Jeremiah	-3674
▁Judicial	-3675
▁Nepalese	-3676
▁Relating	-3677
▁accounts	-3678
▁believes	-3679
▁branches	-3680
▁chemical	-3681
▁citizens	-3682
▁creation	-3683
▁directly	-3684
▁duration	-3685
▁encoding	-3686
▁external	-3687
▁families	-3688
▁fertiliz	-3689
▁gazetted	-3690
▁hectares	-3691
▁involved	-3692
▁language	-3693
▁majority	-3694
▁officers	-3695
▁operated	-3696
▁operator	-3697
▁petition	-3698
▁pressure	-3699
▁problems	-3700
▁proposal	-3701
▁prospect	-3702
▁requires	-3703
▁research	-3704
▁situated	-3705
▁speaking	-3706
▁supervis	-3707
▁withdraw	-3708
▁Similarly	-3709
▁algorithm	-3710
▁apartment	-3711
▁authentic	-3712
▁beginning	-3713
▁conferred	-3714
▁daughters	-3715
▁decentral	-3716
▁determine	-3717
▁developed	-3718
▁encrypted	-3719
▁enhancing	-3720
▁equipment	-3721
▁exceeding	-3722
▁household	-3723
▁measuring	-3724
▁objective	-3725
▁obtaining	-3726
▁personnel	-3727
▁producing	-3728
▁qualified	-3729
▁requested	-3730
▁shepherds	-3731
▁signature	-3732
▁standards	-3733
▁valuation	-3734
uchadnezzar	-3735
▁Collection	-3736
▁Scriptures	-3737
▁appearance	-3738
▁continuing	-3739
▁equivalent	-3740
▁especially	-3741
▁inspection	-3742
▁introduced	-3743
▁mentioning	-3744
▁multimodal	-3745
▁obligation	-3746
▁performing	-3747
▁practition	-3748
▁procedures	-3749
▁submission	-3750
▁successful	-3751
▁sufficient	-3752
▁throughout	-3753
▁wilderness	-3754
▁accompanied	-3755
▁appointment	-3756
▁arrangement	-3757
▁competitive	-3758
▁enterprises	-3759
▁improvement	-3760
▁inhabitants	-3761
▁permanently	-3762
▁proceedings	-3763
▁publication	-3764
▁requirement	-3765
▁secretariat	-3766
▁undertaking	-3767
▁contribution	-3768
▁coordination	-3769
▁jurisdiction	-3770
▁notification	-3771
▁professional	-3772
▁requirements	-3773
▁automatically	-3774
▁communication	-3775
▁establishment	-3776
▁institutional	-3777
▁righteousness	-3778
▁trigonometric	-3779
▁Nebuchadnezzar	-3780
▁administrative	-3781
▁responsibility	-3782
▁transportation	-3783
▁representatives	-3784
0.	-3785
2)	-3786
2.	-3787
25	-3788
35	-3789
6)	-3790
8)	-3791
DP	-3792
ML	-3793
No	-3794
OV	-3795
Os	-3796
UR	-3797
av	-3798
hu	-3799
",	-3800
-2	-3801
0,	-3802
79	-3803
AP	-3804
De	-3805
MG	-3806
PP	-3807
TI	-3808
jo	-3809
mi	-3810
wa	-3811
yn	-3812
yy	-3813
▁,	-3814
.19	-3815
010	-3816
500	-3817
ANT	-3818
Act	-3819
GOs	-3820
ING	-3821
Sec	-3822
Who	-3823
Why	-3824
acc	-3825
ald	-3826
aly	-3827
asc	-3828
cks	-3829
dit	-3830
edu	-3831
edy	-3832
enn	-3833
equ	-3834
fig	-3835
fix	-3836
gry	-3837
hud	-3838
ias	-3839
iet	-3840
ina	-3841
iny	-3842
iri	-3843
irl	-3844
irs	-3845
lus	-3846
men	-3847
mon	-3848
nex	-3849
ocr	-3850
ocu	-3851
ole	-3852
org	-3853
ott	-3854
pet	-3855
pha	-3856
por	-3857
rol	-3858
sal	-3859
sol	-3860
uge	-3861
ume	-3862
upp	-3863
urs	-3864
uta	-3865
wan	-3866
yur	-3867
▁2.	-3868
▁3,	-3869
▁4.	-3870
▁6.	-3871
▁9.	-3872
▁:-	-3873
▁Ba	-3874
▁Es	-3875
▁Ir	-3876
▁Ke	-3877
▁ME	-3878
▁Ty	-3879
▁dw	-3880
▁ll	-3881
▁ur	-3882
Come	-3883
Give	-3884
Lord	-3885
Shre	-3886
What	-3887
When	-3888
abit	-3889
ably	-3890
aded	-3891
aked	-3892
alek	-3893
alit	-3894
alty	-3895
amic	-3896
aper	-3897
aran	-3898
arty	-3899
atio	-3900
bles	-3901
cast	-3902
cell	-3903
cess	-3904
cest	-3905
edia	-3906
elve	-3907
erce	-3908
eren	-3909
eric	-3910
esty	-3911
five	-3912
gunj	-3913
hesi	-3914
ideo	-3915
iful	-3916
iled	-3917
ilty	-3918
inai	-3919
iple	-3920
iter	-3921
ivid	-3922
izon	-3923
kely	-3924
land	-3925
lech	-3926
lied	-3927
llor	-3928
mbol	-3929
ompl	-3930
onge	-3931
onze	-3932
ooth	-3933
orry	-3934
ours	-3935
pose	-3936
rack	-3937
reel	-3938
reet	-3939
rite	-3940
rone	-3941
ront	-3942
roud	-3943
rued	-3944
rupt	-3945
rust	-3946
tely	-3947
uiah	-3948
uick	-3949
umul	-3950
urer	-3951
vere	-3952
vers	-3953
vest	-3954
yond	-3955
▁$15	-3956
▁(7)	-3957
▁12,	-3958
▁195	-3959
▁200	-3960
▁300	-3961
▁400	-3962
▁Ann	-3963
▁Bar	-3964
▁Bas	-3965
▁Bet	-3966
▁Box	-3967
▁Bre	-3968
▁Del	-3969
▁Des	-3970
▁Did	-3971
▁Ent	-3972
▁GDP	-3973
▁Gad	-3974
▁HMG	-3975
▁Ham	-3976
▁Haz	-3977
▁Het	-3978
▁Its	-3979
▁Ken	-3980
▁Log	-3981
▁Maj	-3982
▁Men	-3983
▁Mrs	-3984
▁MyS	-3985
▁Nar	-3986
▁Nor	-3987
▁Num	-3988
▁Old	-3989
▁Reh	-3990
▁See	-3991
▁Sim	-3992
▁Tax	-3993
▁Upd	-3994
▁Vac	-3995
▁Val	-3996
▁Why	-3997
▁ago	-3998
▁aid	-3999
▁arc	-4000
▁ark	-4001
▁asp	-4002
▁bag	-4003
▁beg	-4004
▁bir	-4005
▁bit	-4006
▁bra	-4007
▁bug	-4008
▁buy	-4009
▁cow	-4010
▁cup	-4011
▁der	-4012
▁dry	-4013
▁eld	-4014
▁fee	-4015
▁fem	-4016
▁flo	-4017
▁fun	-4018
▁imm	-4019
▁jet	-4020
▁lad	-4021
▁lie	-4022
▁lim	-4023
▁log	-4024
▁mil	-4025
▁nat	-4026
▁pal	-4027
▁rev	-4028
▁ris	-4029
▁sim	-4030
▁sol	-4031
▁syn	-4032
▁tub	-4033
▁unc	-4034
▁und	-4035
▁vir	-4036
▁win	-4037
Power	-4038
There	-4039
aging	-4040
ainst	-4041
aired	-4042
akpur	-4043
amped	-4044
aniah	-4045
antee	-4046
apers	-4047
armel	-4048
avior	-4049
cloth	-4050
ector	-4051
edium	-4052
endar	-4053
enger	-4054
ength	-4055
erals	-4056
erous	-4057
gging	-4058
going	-4059
ideon	-4060
ifier	-4061
ifies	-4062
igned	-4063
ilize	-4064
inion	-4065
ipped	-4066
itals	-4067
itude	-4068
izing	-4069
limit	-4070
oboam	-4071
olate	-4072
oshua	-4073
otted	-4074
pless	-4075
pping	-4076
rence	-4077
rench	-4078
thern	-4079
using	-4080
▁(195	-4081
▁(196	-4082
▁(3),	-4083
▁1964	-4084
▁1991	-4085
▁2055	-4086
▁2058	-4087
▁Ahab	-4088
▁Ayur	-4089
▁Bang	-4090
▁Come	-4091
▁Copy	-4092
▁Dele	-4093
▁Drop	-4094
▁Edit	-4095
▁GIMP	-4096
▁Give	-4097
▁Glom	-4098
▁High	-4099
▁Home	-4100
▁Just	-4101
▁Left	-4102
▁List	-4103
▁Look	-4104
▁Lumb	-4105
▁Make	-4106
▁Mult	-4107
▁Obed	-4108
▁Park	-4109
▁Post	-4110
▁Requ	-4111
▁Rest	-4112
▁Shec	-4113
▁Shem	-4114
▁Supp	-4115
▁Thus	-4116
▁User	-4117
▁Zone	-4118
▁airf	-4119
▁ange	-4120
▁aren	-4121
▁aver	-4122
▁best	-4123
▁blue	-4124
▁bord	-4125
▁bore	-4126
▁cash	-4127
▁crow	-4128
▁deal	-4129
▁dear	-4130
▁dece	-4131
▁deep	-4132
▁dign	-4133
▁east	-4134
▁exit	-4135
▁feas	-4136
▁flee	-4137
▁fool	-4138
▁foot	-4139
▁four	-4140
▁fuel	-4141
▁gate	-4142
▁glad	-4143
▁glow	-4144
▁grew	-4145
▁guar	-4146
▁harm	-4147
▁hash	-4148
▁hate	-4149
▁hear	-4150
▁hill	-4151
▁hunt	-4152
▁icon	-4153
▁isot	-4154
▁lear	-4155
▁lice	-4156
▁lots	-4157
▁norm	-4158
▁oath	-4159
▁onto	-4160
▁pick	-4161
▁play	-4162
▁plot	-4163
▁pool	-4164
▁pray	-4165
▁prec	-4166
▁prel	-4167
▁prin	-4168
▁rebu	-4169
▁rejo	-4170
▁rise	-4171
▁robe	-4172
▁rock	-4173
▁rose	-4174
▁salt	-4175
▁slow	-4176
▁soci	-4177
▁soon	-4178
▁sour	-4179
▁spot	-4180
▁stra	-4181
▁surn	-4182
▁thus	-4183
▁tong	-4184
▁tons	-4185
▁unit	-4186
▁vect	-4187
▁vill	-4188
▁ving	-4189
▁void	-4190
▁week	-4191
▁womb	-4192
Office	-4193
actory	-4194
adhesi	-4195
antage	-4196
arting	-4197
ateral	-4198
ceeded	-4199
chayat	-4200
ellion	-4201
encies	-4202
ensing	-4203
equate	-4204
formed	-4205
holder	-4206
icious	-4207
ighing	-4208
iquity	-4209
itions	-4210
ituted	-4211
luding	-4212
nalist	-4213
ortion	-4214
ostles	-4215
ounded	-4216
rength	-4217
rument	-4218
ulated	-4219
ynamic	-4220
▁(2010	-4221
▁Abime	-4222
▁Abner	-4223
▁Apply	-4224
▁Color	-4225
▁Dalit	-4226
▁Euphr	-4227
▁Every	-4228
▁Gabit	-4229
▁Hills	-4230
▁Human	-4231
▁Mount	-4232
▁Never	-4233
▁Organ	-4234
▁Place	-4235
▁Polic	-4236
▁Pream	-4237
▁Prime	-4238
▁Secur	-4239
▁Seven	-4240
▁Sinai	-4241
▁Table	-4242
▁Those	-4243
▁Three	-4244
▁Trade	-4245
▁Women	-4246
▁abuse	-4247
▁alpha	-4248
▁angry	-4249
▁ashes	-4250
▁basic	-4251
▁below	-4252
▁books	-4253
▁bowls	-4254
▁break	-4255
▁bulls	-4256
▁cargo	-4257
▁colle	-4258
▁const	-4259
▁crops	-4260
▁cross	-4261
▁disab	-4262
▁disob	-4263
▁distr	-4264
▁dream	-4265
▁dwell	-4266
▁empty	-4267
▁encou	-4268
▁fluid	-4269
▁fonts	-4270
▁fruit	-4271
▁gates	-4272
▁guide	-4273
▁heavy	-4274
▁hills	-4275
▁homes	-4276
▁ibute	-4277
▁imper	-4278
▁judge	-4279
▁lambs	-4280
▁lands	-4281
▁layer	-4282
▁mercy	-4283
▁occup	-4284
▁pages	-4285
▁pipes	-4286
▁proud	-4287
▁quest	-4288
▁raise	-4289
▁range	-4290
▁rates	-4291
▁recon	-4292
▁remun	-4293
▁roads	-4294
▁seeds	-4295
▁serve	-4296
▁shows	-4297
▁signs	-4298
▁sixth	-4299
▁sorry	-4300
▁stars	-4301
▁steps	-4302
▁stick	-4303
▁stock	-4304
▁story	-4305
▁tasks	-4306
▁trust	-4307
▁units	-4308
▁upset	-4309
▁urban	-4310
▁valid	-4311
▁views	-4312
▁visit	-4313
▁waist	-4314
▁walls	-4315
▁waste	-4316
casting	-4317
cestors	-4318
conomic	-4319
ference	-4320
herself	-4321
iciency	-4322
inating	-4323
ocument	-4324
spector	-4325
tenance	-4326
urrence	-4327
▁Amalek	-4328
▁Americ	-4329
▁Bethel	-4330
▁Carmel	-4331
▁Config	-4332
▁Couldn	-4333
▁Gideon	-4334
▁Having	-4335
▁Hebron	-4336
▁Joshua	-4337
▁Nepali	-4338
▁Rastra	-4339
▁Region	-4340
▁Report	-4341
▁Survey	-4342
▁Toggle	-4343
▁Twenty	-4344
▁agency	-4345
▁almost	-4346
▁amazed	-4347
▁attend	-4348
▁battle	-4349
▁beyond	-4350
▁borrow	-4351
▁breast	-4352
▁bronze	-4353
▁burden	-4354
▁conven	-4355
▁couldn	-4356
▁defeat	-4357
▁delete	-4358
▁demand	-4359
▁desert	-4360
▁donkey	-4361
▁elders	-4362
▁enough	-4363
▁entity	-4364
▁experi	-4365
▁faster	-4366
▁female	-4367
▁finish	-4368
▁garden	-4369
▁grains	-4370
▁guilty	-4371
▁healed	-4372
▁hereby	-4373
▁histor	-4374
▁holder	-4375
▁impact	-4376
▁incent	-4377
▁inclus	-4378
▁inoper	-4379
▁intens	-4380
▁intent	-4381
▁interf	-4382
▁journe	-4383
▁levels	-4384
▁loaded	-4385
▁moving	-4386
▁online	-4387
▁output	-4388
▁pixels	-4389
▁prefix	-4390
▁presum	-4391
▁prohib	-4392
▁purple	-4393
▁raised	-4394
▁refuse	-4395
▁retire	-4396
▁retrie	-4397
▁runway	-4398
▁salary	-4399
▁scient	-4400
▁select	-4401
▁series	-4402
▁silent	-4403
▁skills	-4404
▁smooth	-4405
▁sponge	-4406
▁stocks	-4407
▁stones	-4408
▁strike	-4409
▁subsid	-4410
▁summon	-4411
▁surely	-4412
▁survey	-4413
▁symbol	-4414
▁tempor	-4415
▁thorns	-4416
▁throne	-4417
▁upward	-4418
▁useful	-4419
▁volume	-4420
▁wasted	-4421
▁widget	-4422
▁worthy	-4423
Powerful	-4424
ancellor	-4425
lication	-4426
raphical	-4427
▁Arrange	-4428
▁Ayurved	-4429
▁Central	-4430
▁Current	-4431
▁Default	-4432
▁Fulfill	-4433
▁Horizon	-4434
▁Kingdom	-4435
▁Lumbini	-4436
▁Matters	-4437
▁Miscell	-4438
▁Pashhur	-4439
▁Private	-4440
▁Records	-4441
▁Vacancy	-4442
▁Whereas	-4443
▁Zeruiah	-4444
▁accrued	-4445
▁actions	-4446
▁advance	-4447
▁adverse	-4448
▁appears	-4449
▁auction	-4450
▁average	-4451
▁bearers	-4452
▁benefit	-4453
▁butterf	-4454
▁careful	-4455
▁citizen	-4456
▁clearly	-4457
▁columns	-4458
▁confirm	-4459
▁connect	-4460
▁convers	-4461
▁decided	-4462
▁desires	-4463
▁desktop	-4464
▁earthqu	-4465
▁enhance	-4466
▁eternal	-4467
▁filters	-4468
▁folders	-4469
▁growing	-4470
▁highway	-4471
▁history	-4472
▁holding	-4473
▁improve	-4474
▁include	-4475
▁individ	-4476
▁inspect	-4477
▁instead	-4478
▁insured	-4479
▁issuing	-4480
▁justice	-4481
▁limited	-4482
▁loading	-4483
▁machine	-4484
▁meaning	-4485
▁natural	-4486
▁objects	-4487
▁observe	-4488
▁offence	-4489
▁opinion	-4490
▁partner	-4491
▁pattern	-4492
▁peoples	-4493
▁periods	-4494
▁playing	-4495
▁portion	-4496
▁possess	-4497
▁privile	-4498
▁profile	-4499
▁promise	-4500
▁protect	-4501
▁pursued	-4502
▁quickly	-4503
▁reasons	-4504
▁reforms	-4505
▁regions	-4506
▁release	-4507
▁session	-4508
▁showing	-4509
▁springs	-4510
▁statues	-4511
▁statute	-4512
▁strange	-4513
▁studies	-4514
▁surname	-4515
▁talking	-4516
▁therein	-4517
▁thereto	-4518
▁thought	-4519
▁tourism	-4520
▁tourist	-4521
▁trained	-4522
▁weights	-4523
▁welfare	-4524
.........	-4525
umulative	-4526
▁Economic	-4527
▁Employee	-4528
▁Hospital	-4529
▁Janakpur	-4530
▁Physical	-4531
▁Possible	-4532
▁Preamble	-4533
▁Programm	-4534
▁Republic	-4535
▁Required	-4536
▁Sections	-4537
▁Tribunal	-4538
▁adequate	-4539
▁allotted	-4540
▁apostles	-4541
▁backward	-4542
▁believed	-4543
▁captured	-4544
▁collabor	-4545
▁commands	-4546
▁consider	-4547
▁constant	-4548
▁consumer	-4549
▁controll	-4550
▁database	-4551
▁desolate	-4552
▁disabled	-4553
▁diseases	-4554
▁domestic	-4555
▁encamped	-4556
▁evidence	-4557
▁exercise	-4558
▁extended	-4559
▁facility	-4560
▁festival	-4561
▁filename	-4562
▁finished	-4563
▁granting	-4564
▁helpless	-4565
▁identify	-4566
▁imported	-4567
▁includes	-4568
▁incurred	-4569
▁iniquity	-4570
▁innocent	-4571
▁launched	-4572
▁licenses	-4573
▁minerals	-4574
▁monetary	-4575
▁observed	-4576
▁physical	-4577
▁policies	-4578
▁position	-4579
▁previous	-4580
▁printcap	-4581
▁products	-4582
▁properly	-4583
▁quantile	-4584
▁quarters	-4585
▁recorded	-4586
▁remained	-4587
▁repaired	-4588
▁restored	-4589
▁returned	-4590
▁schedule	-4591
▁sectoral	-4592
▁seminars	-4593
▁shoulder	-4594
▁software	-4595
▁specific	-4596
▁standing	-4597
▁stations	-4598
▁statutes	-4599
▁strength	-4600
▁substant	-4601
▁traveled	-4602
▁treasury	-4603
▁villages	-4604
▁weighing	-4605
▁Abimelech	-4606
▁According	-4607
▁Appellate	-4608
▁Authentic	-4609
▁Egyptians	-4610
▁Euphrates	-4611
▁Executive	-4612
▁Financial	-4613
▁Institute	-4614
▁Represent	-4615
▁Strengthe	-4616
▁advantage	-4617
▁airfields	-4618
▁ancestors	-4619
▁beautiful	-4620
▁bookmarks	-4621
▁consumers	-4622
▁creditors	-4623
▁decreased	-4624
▁delivered	-4625
▁deposited	-4626
▁described	-4627
▁detention	-4628
▁directors	-4629
▁disciples	-4630
▁districts	-4631
▁efficient	-4632
▁executing	-4633
▁execution	-4634
▁exercised	-4635
▁expedient	-4636
▁firstborn	-4637
▁furnished	-4638
▁generally	-4639
▁guarantee	-4640
▁incorrect	-4641
▁licensing	-4642
▁migration	-4643
▁panchayat	-4644
▁performed	-4645
▁prescribe	-4646
▁presiding	-4647
▁processes	-4648
▁promotion	-4649
▁questions	-4650
▁rebellion	-4651
▁regarding	-4652
▁relations	-4653
▁sackcloth	-4654
▁satisfied	-4655
▁secretary	-4656
▁structure	-4657
▁suspended	-4658
▁trembling	-4659
▁worshiped	-4660
Chairperson	-4661
▁Amalekites	-4662
▁attempting	-4663
▁authorized	-4664
▁autonomous	-4665
▁capability	-4666
▁collateral	-4667
▁collection	-4668
▁completely	-4669
▁containing	-4670
▁contribute	-4671
▁developing	-4672
▁generating	-4673
▁identified	-4674
▁imperative	-4675
▁instrument	-4676
▁integrated	-4677
▁managerial	-4678
▁originally	-4679
▁pertaining	-4680
▁possession	-4681
▁publishing	-4682
▁resolution	-4683
▁sanctified	-4684
▁strengthen	-4685
▁suspension	-4686
▁withdrawal	-4687
▁worshiping	-4688
▁yourselves	-4689
▁Agriculture	-4690
▁Fulfillment	-4691
▁Publication	-4692
▁Secretariat	-4693
▁accordingly	-4694
▁association	-4695
▁competition	-4696
▁connections	-4697
▁destination	-4698
▁destruction	-4699
▁educational	-4700
▁explanation	-4701
▁formulation	-4702
▁functioning	-4703
▁inheritance	-4704
▁instruction	-4705
▁maintaining	-4706
▁maintenance	-4707
▁opportunity	-4708
▁orientation	-4709
▁particulars	-4710
▁technicians	-4711
▁............	-4712
▁Commencement	-4713
▁Notification	-4714
▁circumstance	-4715
▁constitution	-4716
▁corporations	-4717
▁disabilities	-4718
▁establishing	-4719
▁expenditures	-4720
▁practitioner	-4721
▁registration	-4722
▁remuneration	-4723
▁shareholders	-4724
▁Miscellaneous	-4725
▁Strengthening	-4726
▁opportunities	-4727
▁Authentication	-4728
▁trigonometrical	-4729
30	-4730
ID	-4731
SD	-4732
!'"	-4733
-12	-4734
-15	-4735
.10	-4736
.12	-4737
.25	-4738
3.2	-4739
7),	-4740
8).	-4741
:00	-4742
ARR	-4743
Joe	-4744
NES	-4745
TML	-4746
agn	-4747
amt	-4748
eas	-4749
era	-4750
iez	-4751
izp	-4752
lor	-4753
uff	-4754
usb	-4755
▁Ev	-4756
▁KM	-4757
79/8	-4758
:00)	-4759
ANTY	-4760
Prom	-4761
They	-4762
YING	-4763
agar	-4764
ager	-4765
agon	-4766
airs	-4767
amel	-4768
aret	-4769
arsh	-4770
auda	-4771
auty	-4772
awal	-4773
comp	-4774
flow	-4775
haps	-4776
heri	-4777
hood	-4778
isco	-4779
lets	-4780
lide	-4781
life	-4782
load	-4783
lter	-4784
lude	-4785
mber	-4786
ners	-4787
oads	-4788
osis	-4789
phas	-4790
pond	-4791
rint	-4792
rugs	-4793
tars	-4794
ught	-4795
wise	-4796
zill	-4797
zzle	-4798
▁10.	-4799
AS	-4800
)".	-4801
00%	-4802
000	-4803
het	-4804
ils	-4805
ips	-4806
kok	-4807
nuP	-4808
pto	-4809
▁21	-4810
▁23	-4811
▁80	-4812
▁AN	-4813
anah	-4814
apur	-4815
fall	-4816
izes	-4817
just	-4818
nuPG	-4819
oose	-4820
perb	-4821
pert	-4822
▁11.	-4823
▁13,	-4824
▁14.	-4825
▁16,	-4826
▁35,	-4827
▁Adv	-4828
▁Ber	-4829
▁Cha	-4830
▁Dip	-4831
▁Elk	-4832
▁Hez	-4833
▁INB	-4834
▁Job	-4835
▁Kon	-4836
▁LAN	-4837
▁Lab	-4838
▁Lay	-4839
▁OSD	-4840
▁PIN	-4841
▁Web	-4842
▁Zed	-4843
▁ate	-4844
▁awa	-4845
▁cla	-4846
▁dro	-4847
▁emb	-4848
▁eye	-4849
▁htt	-4850
▁ime	-4851
▁map	-4852
▁pit	-4853
▁ran	-4854
▁ric	-4855
▁scr	-4856
▁swe	-4857
▁tap	-4858
▁unf	-4859
▁urg	-4860
▁via	-4861
Every	-4862
Print	-4863
ached	-4864
acted	-4865
actly	-4866
agues	-4867
amech	-4868
anced	-4869
annah	-4870
annel	-4871
appro	-4872
ardon	-4873
arnal	-4874
aroth	-4875
ascus	-4876
ashub	-4877
atter	-4878
ayani	-4879
based	-4880
board	-4881
chron	-4882
dered	-4883
enced	-4884
enous	-4885
ercul	-4886
essel	-4887
ethle	-4888
ffect	-4889
habil	-4890
idian	-4891
iezer	-4892
ifted	-4893
imony	-4894
imron	-4895
irits	-4896
irsty	-4897
ising	-4898
itess	-4899
,3	-4900
UT	-4901
acy	-4902
bal	-4903
ker	-4904
urk	-4905
▁39	-4906
▁8,	-4907
▁lt	-4908
/92.	-4909
Your	-4910
aven	-4911
elta	-4912
emon	-4913
fold	-4914
orum	-4915
ptly	-4916
▁Deb	-4917
▁Jum	-4918
▁Sud	-4919
▁tit	-4920
▁wik	-4921
aemon	-4922
arlet	-4923
gment	-4924
iable	-4925
isory	-4926
iture	-4927
ivery	-4928
ivest	-4929
izpah	-4930
level	-4931
mihud	-4932
nized	-4933
omegr	-4934
onent	-4935
orted	-4936
osite	-4937
ouble	-4938
ounce	-4939
payer	-4940
quare	-4941
ricks	-4942
ricul	-4943
riend	-4944
rigin	-4945
route	-4946
slide	-4947
stain	-4948
uched	-4949
udent	-4950
ugget	-4951
ullet	-4952
urely	-4953
ursed	-4954
utual	-4955
verty	-4956
vince	-4957
write	-4958
zilla	-4959
▁(3).	-4960
▁(4),	-4961
▁1984	-4962
▁2015	-4963
▁2053	-4964
▁2062	-4965
▁2064	-4966
▁Aram	-4967
▁Area	-4968
▁Baal	-4969
▁Bire	-4970
▁Book	-4971
▁Both	-4972
▁Cert	-4973
▁Chit	-4974
▁Corp	-4975
▁Dang	-4976
▁Dean	-4977
▁Dece	-4978
▁Disc	-4979
▁Each	-4980
▁Esht	-4981
▁Even	-4982
▁Fade	-4983
▁Four	-4984
▁HTML	-4985
▁Happ	-4986
▁Here	-4987
▁Hous	-4988
▁Jeho	-4989
▁Jehu	-4990
▁Joel	-4991
▁Jour	-4992
▁July	-4993
▁Keil	-4994
▁LAND	-4995
▁Lamt	-4996
▁Libn	-4997
▁Load	-4998
▁MENE	-4999
Ag	-5000
FF	-5001
oa	-5002
tk	-5003
100	-5004
ali	-5005
apl	-5006
osi	-5007
tun	-5008
▁30	-5009
▁CO	-5010
▁vC	-5011
aplu	-5012
comm	-5013
full	-5014
idge	-5015
orty	-5016
ourn	-5017
plic	-5018
plos	-5019
▁500	-5020
▁COP	-5021
▁Gos	-5022
▁Nib	-5023
▁Out	-5024
▁Roy	-5025
▁Wid	-5026
▁bos	-5027
▁cru	-5028
▁pen	-5029
▁sex	-5030
▁usu	-5031
▁ven	-5032
▁web	-5033
acing	-5034
antly	-5035
aries	-5036
eturn	-5037
fully	-5038
izure	-5039
plant	-5040
▁(197	-5041
▁Decl	-5042
▁Diff	-5043
▁Fore	-5044
▁Hold	-5045
▁INBO	-5046
▁Much	-5047
▁Note	-5048
▁Only	-5049
▁Oper	-5050
▁Peop	-5051
▁Phot	-5052
▁Port	-5053
▁Prep	-5054
▁Rece	-5055
▁Reco	-5056
▁Sets	-5057
▁Sheb	-5058
▁Star	-5059
▁Town	-5060
▁Turn	-5061
▁Tyre	-5062
▁Uday	-5063
▁Upon	-5064
▁WARR	-5065
▁Wall	-5066
▁agre	-5067
▁baby	-5068
▁base	-5069
▁bids	-5070
▁blip	-5071
▁bury	-5072
▁cave	-5073
▁cele	-5074
▁cott	-5075
▁coun	-5076
▁curs	-5077
▁diff	-5078
▁dipl	-5079
▁disb	-5080
▁diss	-5081
▁drag	-5082
▁drug	-5083
▁easy	-5084
▁edit	-5085
▁emer	-5086
▁entr	-5087
▁fail	-5088
▁fast	-5089
▁feel	-5090
▁flag	-5091
▁flat	-5092
▁font	-5093
▁forf	-5094
▁game	-5095
▁goal	-5096
▁hosp	-5097
▁host	-5098
▁http	-5099
,'	-5100
iw	-5101
ps	-5102
tr	-5103
Bah	-5104
Rel	-5105
ael	-5106
asi	-5107
elp	-5108
har	-5109
nda	-5110
oti	-5111
▁90	-5112
▁Bl	-5113
▁Eg	-5114
▁Ek	-5115
▁Ep	-5116
▁Je	-5117
▁LD	-5118
▁Lo	-5119
▁RE	-5120
Bahi	-5121
akim	-5122
alls	-5123
alys	-5124
asth	-5125
city	-5126
ford	-5127
gory	-5128
oked	-5129
olis	-5130
wide	-5131
▁8.3	-5132
▁Ach	-5133
▁Bel	-5134
▁Cau	-5135
▁Est	-5136
▁Han	-5137
▁Hol	-5138
▁Hot	-5139
▁Int	-5140
▁Ren	-5141
▁Tit	-5142
▁hor	-5143
▁ste	-5144
ieved	-5145
ivity	-5146
iwasi	-5147
lford	-5148
ocket	-5149
odity	-5150
▁Eden	-5151
▁Gate	-5152
▁Help	-5153
▁LDAP	-5154
▁Mess	-5155
▁cand	-5156
▁edge	-5157
▁forg	-5158
▁hurt	-5159
▁invi	-5160
▁join	-5161
▁lend	-5162
▁lest	-5163
▁lift	-5164
▁link	-5165
▁loud	-5166
▁mail	-5167
▁male	-5168
▁mand	-5169
▁mass	-5170
▁meat	-5171
▁meet	-5172
▁menu	-5173
▁mini	-5174
▁mode	-5175
▁nurs	-5176
▁pace	-5177
▁phys	-5178
▁prey	-5179
▁pump	-5180
▁quot	-5181
▁rams	-5182
▁repe	-5183
▁runs	-5184
▁sale	-5185
▁self	-5186
▁seni	-5187
▁shad	-5188
▁sick	-5189
▁site	-5190
▁stol	-5191
▁trou	-5192
▁unex	-5193
▁upto	-5194
▁vacc	-5195
▁virt	-5196
▁weak	-5197
▁weap	-5198
▁weep	-5199
6.	-5200
HE	-5201
400	-5202
arg	-5203
mus	-5204
ola	-5205
▁7,	-5206
▁Bh	-5207
▁Fl	-5208
▁ID	-5209
▁NO	-5210
Word	-5211
akot	-5212
aste	-5213
atri	-5214
chan	-5215
icit	-5216
ilit	-5217
oram	-5218
ores	-5219
rate	-5220
urbs	-5221
vant	-5222
▁Bro	-5223
▁Dan	-5224
▁Dri	-5225
▁Mon	-5226
▁Pan	-5227
▁THE	-5228
▁bul	-5229
ajati	-5230
amble	-5231
anate	-5232
arter	-5233
ement	-5234
erate	-5235
ester	-5236
imate	-5237
izard	-5238
party	-5239
quent	-5240
vency	-5241
▁Main	-5242
▁Psal	-5243
▁Term	-5244
▁Wake	-5245
▁York	-5246
▁gain	-5247
▁late	-5248
▁tent	-5249
▁west	-5250
▁wide	-5251
▁wore	-5252
02:00)	-5253
Please	-5254
Second	-5255
Shrest	-5256
abling	-5257
ainage	-5258
ankuta	-5259
annual	-5260
ansing	-5261
arency	-5262
arnali	-5263
arvest	-5264
called	-5265
elines	-5266
engers	-5267
entory	-5268
ersons	-5269
groups	-5270
icular	-5271
idates	-5272
idders	-5273
igence	-5274
ightly	-5275
iously	-5276
issory	-5277
istics	-5278
lecomm	-5279
morrow	-5280
orning	-5281
ounced	-5282
parent	-5283
pected	-5284
petual	-5285
phasis	-5286
raging	-5287
raphic	-5288
reness	-5289
ressed	-5290
ricted	-5291
ricula	-5292
seling	-5293
suming	-5294
tended	-5295
ternet	-5296
umping	-5297
urveys	-5298
▁(1993	-5299
);	-5300
mp	-5301
-10	-5302
Don	-5303
Let	-5304
iec	-5305
met	-5306
och	-5307
ram	-5308
▁Ap	-5309
▁Ca	-5310
▁KP	-5311
abal	-5312
acle	-5313
aiah	-5314
ests	-5315
hand	-5316
hers	-5317
iary	-5318
itch	-5319
ndra	-5320
opes	-5321
rier	-5322
sent	-5323
▁Bag	-5324
▁Pul	-5325
▁Tur	-5326
▁bri	-5327
▁dig	-5328
▁fit	-5329
▁sun	-5330
boell	-5331
chase	-5332
erver	-5333
eters	-5334
ieces	-5335
terly	-5336
▁Back	-5337
▁Bill	-5338
▁Vari	-5339
▁acts	-5340
▁atom	-5341
▁bell	-5342
▁calc	-5343
▁lion	-5344
▁ment	-5345
▁safe	-5346
▁shop	-5347
▁vain	-5348
Member	-5349
atever	-5350
earing	-5351
iphers	-5352
isting	-5353
velope	-5354
venant	-5355
▁Allow	-5356
▁Amend	-5357
▁Analy	-5358
▁Appro	-5359
▁Basic	-5360
▁Bheri	-5361
▁Break	-5362
▁Build	-5363
▁Cance	-5364
▁Cases	-5365
▁Chang	-5366
▁China	-5367
▁Cisco	-5368
▁Close	-5369
▁Count	-5370
▁Delta	-5371
▁Drugs	-5372
▁Empty	-5373
▁Fifty	-5374
▁Forty	-5375
▁Gener	-5376
▁GnuPG	-5377
▁House	-5378
▁INGOs	-5379
▁Irrig	-5380
▁Items	-5381
▁Jerah	-5382
▁Jesse	-5383
▁KWord	-5384
▁Laban	-5385
▁Labor	-5386
▁Mahli	-5387
▁Makir	-5388
▁Match	-5389
▁Mines	-5390
▁Nabal	-5391
▁North	-5392
▁Paulo	-5393
▁Photo	-5394
▁Plans	-5395
▁Plant	-5396
▁Produ	-5397
▁Psalm	-5398
▁Reset	-5399
-5	-5400
86	-5401
99	-5402
As	-5403
kh	-5404
uf	-5405
ww	-5406
Con	-5407
Get	-5408
God	-5409
cel	-5410
eed	-5411
hot	-5412
igr	-5413
sec	-5414
▁17	-5415
▁5,	-5416
▁AO	-5417
▁IS	-5418
▁NE	-5419
▁Sy	-5420
anth	-5421
ilot	-5422
inal	-5423
iote	-5424
onse	-5425
pper	-5426
utin	-5427
▁Cal	-5428
▁NEA	-5429
▁Nah	-5430
▁Tar	-5431
oring	-5432
▁Also	-5433
▁Cent	-5434
▁Free	-5435
▁Keys	-5436
▁Last	-5437
▁Page	-5438
▁Time	-5439
▁rein	-5440
▁soil	-5441
▁uses	-5442
▁vest	-5443
olable	-5444
▁Large	-5445
▁Mayor	-5446
▁Money	-5447
▁Share	-5448
▁Shaul	-5449
▁Shift	-5450
▁Simon	-5451
▁Sixth	-5452
▁Start	-5453
▁Thail	-5454
▁Think	-5455
▁Titan	-5456
▁Track	-5457
▁Trust	-5458
▁Users	-5459
▁Width	-5460
▁Would	-5461
▁Years	-5462
▁adopt	-5463
▁alarm	-5464
▁alter	-5465
▁angel	-5466
▁annum	-5467
▁arise	-5468
▁armed	-5469
▁aside	-5470
▁aspir	-5471
▁bases	-5472
▁begun	-5473
▁bills	-5474
▁blank	-5475
▁bosom	-5476
▁bowed	-5477
▁celeb	-5478
▁cents	-5479
▁chair	-5480
▁climb	-5481
▁cloud	-5482
▁conce	-5483
▁daint	-5484
▁dealt	-5485
▁deput	-5486
▁deter	-5487
▁discr	-5488
▁donor	-5489
▁drank	-5490
▁dried	-5491
▁drive	-5492
▁drugs	-5493
▁early	-5494
▁elect	-5495
▁email	-5496
▁enfor	-5497
▁fares	-5498
▁farms	-5499
16	-5500
18	-5501
87	-5502
EL	-5503
He	-5504
Le	-5505
So	-5506
VE	-5507
kn	-5508
Yes	-5509
ala	-5510
alc	-5511
ban	-5512
bed	-5513
een	-5514
eph	-5515
▁18	-5516
▁77	-5517
▁Ah	-5518
▁ht	-5519
▁nd	-5520
adan	-5521
arok	-5522
ened	-5523
ilee	-5524
▁Sat	-5525
▁Sil	-5526
▁Sun	-5527
▁Yes	-5528
▁che	-5529
▁cou	-5530
▁eph	-5531
▁hom	-5532
▁ide	-5533
▁ill	-5534
▁inj	-5535
▁isn	-5536
▁pow	-5537
▁wat	-5538
banon	-5539
denly	-5540
▁(200	-5541
▁2067	-5542
▁Kate	-5543
▁Vice	-5544
▁desp	-5545
▁fors	-5546
▁hair	-5547
▁role	-5548
▁sens	-5549
▁shed	-5550
icines	-5551
ittite	-5552
lation	-5553
quence	-5554
velous	-5555
▁Ekron	-5556
▁Mouse	-5557
▁began	-5558
▁feast	-5559
▁fills	-5560
▁finds	-5561
▁flame	-5562
▁flash	-5563
▁floor	-5564
▁forfe	-5565
▁front	-5566
▁funds	-5567
▁giver	-5568
▁glass	-5569
▁grand	-5570
▁grown	-5571
▁hides	-5572
▁holds	-5573
▁icons	-5574
▁indig	-5575
▁initi	-5576
▁items	-5577
▁joint	-5578
▁kinds	-5579
▁label	-5580
▁looks	-5581
▁lower	-5582
▁magic	-5583
▁major	-5584
▁marry	-5585
▁meant	-5586
▁midst	-5587
▁mixed	-5588
▁model	-5589
▁mourn	-5590
▁naked	-5591
▁neare	-5592
▁needs	-5593
▁newsp	-5594
▁nonex	-5595
▁ntion	-5596
▁often	-5597
▁older	-5598
▁ordin	-5599
'.	-5600
):	-5601
.)	-5602
4,	-5603
CH	-5604
IG	-5605
OR	-5606
RB	-5607
SE	-5608
TP	-5609
UL	-5610
lt	-5611
na	-5612
ta	-5613
uh	-5614
(1)	-5615
Jan	-5616
Jer	-5617
oli	-5618
uts	-5619
▁av	-5620
▁ox	-5621
atin	-5622
ervo	-5623
gons	-5624
rome	-5625
unge	-5626
▁124	-5627
▁4.1	-5628
▁Oct	-5629
▁arg	-5630
▁avo	-5631
▁bed	-5632
▁cig	-5633
▁deg	-5634
▁fig	-5635
▁gra	-5636
▁mus	-5637
▁suc	-5638
▁tha	-5639
aches	-5640
ashib	-5641
chive	-5642
tyard	-5643
▁Mask	-5644
▁Test	-5645
▁Used	-5646
▁beds	-5647
▁feet	-5648
▁lack	-5649
▁park	-5650
▁rect	-5651
▁remo	-5652
▁risk	-5653
▁wise	-5654
active	-5655
vernor	-5656
▁Abish	-5657
▁Leave	-5658
▁block	-5659
▁hotel	-5660
▁ought	-5661
▁panel	-5662
▁paths	-5663
▁popul	-5664
▁pride	-5665
▁proof	-5666
▁query	-5667
▁quiet	-5668
▁ratio	-5669
▁recog	-5670
▁refer	-5671
▁relig	-5672
▁rings	-5673
▁route	-5674
▁ruler	-5675
▁saved	-5676
▁score	-5677
▁seems	-5678
▁seize	-5679
▁shade	-5680
▁sides	-5681
▁sight	-5682
▁sites	-5683
▁slave	-5684
▁solar	-5685
▁songs	-5686
▁south	-5687
▁store	-5688
▁storm	-5689
▁subst	-5690
▁super	-5691
▁tears	-5692
▁tests	-5693
▁thres	-5694
▁tired	-5695
▁toolt	-5696
▁train	-5697
▁tried	-5698
▁vCard	-5699
28	-5700
8.	-5701
Be	-5702
MD	-5703
do	-5704
bar	-5705
mail	-5706
▁12.	-5707
▁Her	-5708
▁Ten	-5709
ieves	-5710
ishes	-5711
▁File	-5712
▁lies	-5713
▁note	-5714
▁once	-5715
▁owns	-5716
▁rash	-5717
▁(1964	-5718
▁Roads	-5719
▁abund	-5720
▁alloc	-5721
▁honey	-5722
▁resid	-5723
▁shoot	-5724
▁veget	-5725
▁video	-5726
▁wagon	-5727
▁waits	-5728
▁weeds	-5729
▁wheat	-5730
▁worse	-5731
▁yield	-5732
Against	-5733
Babylon	-5734
Related	-5735
Section	-5736
Shresta	-5737
Whoever	-5738
adition	-5739
alities	-5740
ategory	-5741
atories	-5742
boellia	-5743
earlier	-5744
easible	-5745
ensions	-5746
ilitate	-5747
iminary	-5748
iotechn	-5749
isement	-5750
istered	-5751
itoring	-5752
jection	-5753
legraph	-5754
mediary	-5755
mittees	-5756
ologies	-5757
ometric	-5758
oration	-5759
parency	-5760
respond	-5761
ression	-5762
revenue	-5763
riginal	-5764
ropower	-5765
ulletin	-5766
vention	-5767
verting	-5768
▁(1997)	-5769
▁(1998)	-5770
▁1964-6	-5771
▁1979/8	-5772
▁1990/9	-5773
▁20,000	-5774
▁Agency	-5775
▁Amarok	-5776
▁Anyone	-5777
▁Attach	-5778
▁Beauty	-5779
▁Bethle	-5780
▁Damage	-5781
▁Delete	-5782
▁Determ	-5783
▁Except	-5784
▁Explos	-5785
▁Follow	-5786
▁Goshen	-5787
▁Hamath	-5788
▁Hannah	-5789
▁Holder	-5790
▁Ilford	-5791
▁Jashub	-5792
▁Jewish	-5793
▁Keilah	-5794
▁Layout	-5795
▁Making	-5796
▁Matter	-5797
▁Merari	-5798
▁Midian	-5799
▁Number	-5800
▁People	-5801
▁Phaplu	-5802
▁Praise	-5803
▁Ramech	-5804
▁Rector	-5805
▁Resize	-5806
▁Return	-5807
▁Review	-5808
▁Rights	-5809
▁Samuel	-5810
▁Social	-5811
▁Source	-5812
▁Street	-5813
▁Submit	-5814
▁Supply	-5815
▁Switch	-5816
▁Though	-5817
▁Valley	-5818
▁actual	-5819
▁adding	-5820
▁adjust	-5821
▁advers	-5822
▁advert	-5823
▁advice	-5824
▁afflic	-5825
▁agreed	-5826
▁altars	-5827
▁analys	-5828
▁approx	-5829
▁attack	-5830
▁barley	-5831
▁belief	-5832
▁bidder	-5833
▁boiled	-5834
▁border	-5835
▁breath	-5836
▁bricks	-5837
▁brings	-5838
▁burner	-5839
▁causes	-5840
▁choose	-5841
▁closed	-5842
▁common	-5843
▁compar	-5844
▁compat	-5845
▁contra	-5846
▁credit	-5847
▁crimin	-5848
▁crying	-5849
▁cursor	-5850
▁daemon	-5851
▁debtor	-5852
▁defend	-5853
▁derive	-5854
▁detail	-5855
▁dishes	-5856
▁easier	-5857
▁editor	-5858
▁effort	-5859
▁eighth	-5860
▁eleven	-5861
▁enable	-5862
▁ensure	-5863
▁filled	-5864
▁filthy	-5865
▁flutes	-5866
▁friend	-5867
▁fright	-5868
▁fruits	-5869
▁guards	-5870
▁handed	-5871
▁harder	-5872
▁hardly	-5873
▁headqu	-5874
▁hearts	-5875
▁height	-5876
▁helped	-5877
▁hiding	-5878
▁humble	-5879
▁hyperb	-5880
▁images	-5881
▁inform	-5882
▁inside	-5883
▁instig	-5884
▁insult	-5885
▁invite	-5886
▁iodize	-5887
▁island	-5888
▁ladder	-5889
▁lament	-5890
▁launch	-5891
▁layers	-5892
▁leader	-5893
▁legisl	-5894
▁length	-5895
▁liable	-5896
▁lifted	-5897
▁likely	-5898
▁limits	-5899
▁livest	-5900
▁locust	-5901
▁manual	-5902
▁mechan	-5903
▁medium	-5904
▁mining	-5905
▁modern	-5906
▁modify	-5907
▁module	-5908
▁mostly	-5909
▁mutual	-5910
▁native	-5911
▁nature	-5912
▁nearly	-5913
▁nugget	-5914
▁observ	-5915
▁offers	-5916
▁pardon	-5917
▁parent	-5918
▁perish	-5919
▁photos	-5920
▁pieces	-5921
▁placed	-5922
▁plants	-5923
▁player	-5924
▁pomegr	-5925
▁poorer	-5926
▁postal	-5927
▁posted	-5928
▁poured	-5929
▁prince	-5930
▁proofs	-5931
▁proves	-5932
▁rather	-5933
▁recent	-5934
▁redist	-5935
▁refuge	-5936
▁refute	-5937
▁regime	-5938
▁regret	-5939
▁remedy	-5940
▁remind	-5941
▁remote	-5942
▁revive	-5943
▁riches	-5944
▁savior	-5945
▁schema	-5946
▁script	-5947
▁secret	-5948
▁seller	-5949
▁senior	-5950
▁sevent	-5951
▁severe	-5952
▁shadow	-5953
▁shaved	-5954
▁signed	-5955
▁simple	-5956
▁sought	-5957
▁square	-5958
▁stayed	-5959
▁stored	-5960
▁suffer	-5961
▁tables	-5962
▁talked	-5963
▁tenant	-5964
▁toggle	-5965
▁treaty	-5966
▁trends	-5967
▁twelve	-5968
▁twined	-5969
▁unless	-5970
▁vessel	-5971
▁victim	-5972
▁waters	-5973
▁wealth	-5974
▁weapon	-5975
▁yearly	-5976
Document	-5977
Janajati	-5978
Jeremiah	-5979
alculate	-5980
chronize	-5981
electric	-5982
enditure	-5983
iculties	-5984
isations	-5985
reelance	-5986
sections	-5987
▁(02:00)	-5988
▁Abishai	-5989
▁Adiwasi	-5990
▁Ammihud	-5991
▁Amounts	-5992
▁Attempt	-5993
▁Auditor	-5994
▁Bangkok	-5995
▁Believe	-5996
▁COPYING	-5997
▁Changes	-5998
▁Chitwan	-5999
▁Compose	-6000
▁Control	-6001
▁Convert	-6002
▁Desktop	-6003
▁Disable	-6004
▁Driving	-6005
▁Elkanah	-6006
▁Entries	-6007
▁Factory	-6008
▁Foreign	-6009
▁Graphic	-6010
▁Hetauda	-6011
▁Housing	-6012
▁Indones	-6013
▁Install	-6014
▁Interim	-6015
▁Jehoash	-6016
▁Justice	-6017
▁Karnali	-6018
▁Lamtang	-6019
▁Lebanon	-6020
▁Library	-6021
▁Madhesi	-6022
▁Majesty	-6023
▁Message	-6024
▁Million	-6025
▁Minimum	-6026
▁Mission	-6027
▁Mozilla	-6028
▁Nibbles	-6029
▁Perform	-6030
▁Persons	-6031
▁Present	-6032
▁Primary	-6033
▁Reading	-6034
▁Revenue	-6035
▁Shechem	-6036
▁Shemuel	-6037
▁Shimron	-6038
▁Speaker	-6039
▁Student	-6040
▁Subject	-6041
▁Western	-6042
▁accompl	-6043
▁acquire	-6044
▁amended	-6045
▁amongst	-6046
▁archive	-6047
▁arising	-6048
▁article	-6049
▁aspects	-6050
▁auditor	-6051
▁balance	-6052
▁becomes	-6053
▁begging	-6054
▁besides	-6055
▁bidders	-6056
▁blessed	-6057
▁bramble	-6058
▁causing	-6059
▁centers	-6060
▁centres	-6061
▁clauses	-6062
▁clothed	-6063
▁college	-6064
▁concent	-6065
▁contain	-6066
▁content	-6067
▁convert	-6068
▁corrupt	-6069
▁cottage	-6070
▁counted	-6071
▁customs	-6072
▁declare	-6073
▁deficit	-6074
▁deleted	-6075
▁depends	-6076
▁dignity	-6077
▁disable	-6078
▁discrim	-6079
▁disobey	-6080
▁dispute	-6081
▁divided	-6082
▁drawing	-6083
▁dynamic	-6084
▁effects	-6085
▁elected	-6086
▁enacted	-6087
▁enforce	-6088
▁engaged	-6089
▁entries	-6090
▁exactly	-6091
▁examine	-6092
▁execute	-6093
▁experts	-6094
▁factors	-6095
▁factory	-6096
▁falling	-6097
▁farming	-6098
▁feature	-6099
▁furnish	-6100
▁getting	-6101
▁glowing	-6102
▁harvest	-6103
▁headers	-6104
▁hearing	-6105
▁heavens	-6106
▁housing	-6107
▁impacts	-6108
▁imports	-6109
▁imposed	-6110
▁indexed	-6111
▁inquire	-6112
▁integer	-6113
▁interim	-6114
▁inverse	-6115
▁isotope	-6116
▁journey	-6117
▁keeping	-6118
▁leading	-6119
▁library	-6120
▁locally	-6121
▁located	-6122
▁matured	-6123
▁medical	-6124
▁morning	-6125
▁nearest	-6126
▁nursing	-6127
▁offline	-6128
▁ongoing	-6129
▁options	-6130
▁ordered	-6131
▁overall	-6132
▁penalty	-6133
▁poverty	-6134
▁prepare	-6135
▁primary	-6136
▁printed	-6137
▁procure	-6138
▁profits	-6139
▁promote	-6140
▁prophes	-6141
▁rafting	-6142
▁railway	-6143
▁rehabil	-6144
▁renewed	-6145
▁repatri	-6146
▁reserve	-6147
▁reservo	-6148
▁sadness	-6149
▁scarlet	-6150
▁science	-6151
▁scrutin	-6152
▁seeking	-6153
▁shelter	-6154
▁shortly	-6155
▁sitting	-6156
▁society	-6157
▁soldier	-6158
▁sources	-6159
▁spirits	-6160
▁spreads	-6161
▁staying	-6162
▁stopped	-6163
▁stumble	-6164
▁suburbs	-6165
▁summary	-6166
▁surveys	-6167
▁sustain	-6168
▁systems	-6169
▁testify	-6170
▁testing	-6171
▁thereon	-6172
▁touched	-6173
▁towards	-6174
▁turning	-6175
▁unright	-6176
▁upgrade	-6177
▁vectors	-6178
▁victory	-6179
▁viewing	-6180
▁village	-6181
▁visible	-6182
▁waiting	-6183
▁weather	-6184
▁western	-6185
▁wounded	-6186
▁younger	-6187
Therefore	-6188
aditional	-6189
encrypted	-6190
erculosis	-6191
ictionary	-6192
ilization	-6193
imensions	-6194
renchment	-6195
standards	-6196
▁(2010)".	-6197
▁1991/92.	-6198
▁Accounts	-6199
▁Advisory	-6200
▁Although	-6201
▁American	-6202
▁Articles	-6203
▁Behavior	-6204
▁Chemical	-6205
▁Children	-6206
▁Creating	-6207
▁Damascus	-6208
▁Decision	-6209
▁Dhankuta	-6210
▁Egyptian	-6211
▁Eliashib	-6212
▁Governor	-6213
▁Hezekiah	-6214
▁Internet	-6215
▁Japanese	-6216
▁Jeroboam	-6217
▁Kenaniah	-6218
▁Location	-6219
▁Mountain	-6220
▁Narayani	-6221
▁Original	-6222
▁Policies	-6223
▁Recovery	-6224
▁Regional	-6225
▁Selected	-6226
▁Thailand	-6227
▁Updating	-6228
▁WARRANTY	-6229
▁Zedekiah	-6230
▁abortion	-6231
▁accident	-6232
▁adopting	-6233
▁agencies	-6234
▁although	-6235
▁approach	-6236
▁articles	-6237
▁calendar	-6238
▁clothing	-6239
▁commerce	-6240
▁compared	-6241
▁computer	-6242
▁consists	-6243
▁consumed	-6244
▁contacts	-6245
▁contrary	-6246
▁covenant	-6247
▁dainties	-6248
▁darkness	-6249
▁deceased	-6250
▁decrease	-6251
▁delivery	-6252
▁demanded	-6253
▁deterior	-6254
▁dispatch	-6255
▁division	-6256
▁download	-6257
▁drainage	-6258
▁drawings	-6259
▁drifting	-6260
▁enforced	-6261
▁entering	-6262
▁entrance	-6263
▁evaluate	-6264
▁explains	-6265
▁faithful	-6266
▁features	-6267
▁garments	-6268
▁historic	-6269
▁horrible	-6270
▁imprison	-6271
▁incorpor	-6272
▁indirect	-6273
▁infected	-6274
▁intended	-6275
▁investig	-6276
▁issuance	-6277
▁managers	-6278
▁managing	-6279
▁material	-6280
▁maternal	-6281
▁minister	-6282
▁mobilize	-6283
▁modified	-6284
▁modifier	-6285
▁movement	-6286
▁negative	-6287
▁northern	-6288
▁operates	-6289
▁opposite	-6290
▁organize	-6291
▁packages	-6292
▁patterns	-6293
▁periodic	-6294
▁playlist	-6295
▁plotting	-6296
▁powerful	-6297
▁printing	-6298
▁probably	-6299
▁produced	-6300
▁promptly	-6301
▁quantity	-6302
▁realized	-6303
▁receipts	-6304
▁regulate	-6305
▁rejoiced	-6306
▁relative	-6307
▁relevant	-6308
▁reliable	-6309
▁renewing	-6310
▁reserved	-6311
▁residing	-6312
▁response	-6313
▁retained	-6314
▁retrieve	-6315
▁sleeping	-6316
▁slightly	-6317
▁spelling	-6318
▁starting	-6319
▁stopping	-6320
▁straight	-6321
▁students	-6322
▁suffered	-6323
▁suitable	-6324
▁supplied	-6325
▁supplier	-6326
▁supplies	-6327
▁taxpayer	-6328
▁teaching	-6329
▁telecomm	-6330
▁template	-6331
▁terminal	-6332
▁throwing	-6333
▁titlebar	-6334
▁tomorrow	-6335
▁violence	-6336
▁whatever	-6337
▁withhold	-6338
▁wondered	-6339
▁youngest	-6340
Chancellor	-6341
Promissory	-6342
Regulation	-6343
forcements	-6344
plantation	-6345
unications	-6346
▁Afterward	-6347
▁Ayurvedic	-6348
▁Bethlehem	-6349
▁Configure	-6350
▁Construct	-6351
▁Corporate	-6352
▁Decentral	-6353
▁Directors	-6354
▁Employees	-6355
▁Generally	-6356
▁Geometric	-6357
▁Important	-6358
▁Inspector	-6359
▁Insurance	-6360
▁Israelite	-6361
▁Plaintiff	-6362
▁President	-6363
▁Procedure	-6364
▁Ramechhap	-6365
▁Secondary	-6366
▁Statement	-6367
▁Submitted	-6368
▁Technical	-6369
▁admission	-6370
▁announced	-6371
▁assessing	-6372
▁awareness	-6373
▁buildings	-6374
▁certainly	-6375
▁cleansing	-6376
▁clearance	-6377
▁commodity	-6378
▁community	-6379
▁connected	-6380
▁considers	-6381
▁contracts	-6382
▁countries	-6383
▁courtyard	-6384
▁curricula	-6385
▁customers	-6386
▁databases	-6387
▁decisions	-6388
▁economics	-6389
▁evidences	-6390
▁examining	-6391
▁excluding	-6392
▁filenames	-6393
▁fulfilled	-6394
▁graphical	-6395
▁happening	-6396
▁hospitals	-6397
▁inclusive	-6398
▁insolvent	-6399
▁intensity	-6400
▁intention	-6401
▁introduce	-6402
▁inventory	-6403
▁involving	-6404
▁livestock	-6405
▁magicians	-6406
▁mandatory	-6407
▁marvelous	-6408
▁medicines	-6409
▁multitude	-6410
▁otherwise	-6411
▁ownership	-6412
▁partition	-6413
▁passenger	-6414
▁perpetual	-6415
▁plaintiff	-6416
▁presented	-6417
▁principal	-6418
▁principle	-6419
▁privately	-6420
▁privilege	-6421
▁procedure	-6422
▁proposals	-6423
▁prospects	-6424
▁quotation	-6425
▁recovered	-6426
▁reduction	-6427
▁regularly	-6428
▁remaining	-6429
▁rendering	-6430
▁resulting	-6431
▁sacrifice	-6432
▁seniority	-6433
▁sensitive	-6434
▁separated	-6435
▁similarly	-6436
▁subsidies	-6437
▁succeeded	-6438
▁successor	-6439
▁supported	-6440
▁temporary	-6441
▁testimony	-6442
▁thousands	-6443
▁threshing	-6444
▁touristic	-6445
▁transient	-6446
▁treatment	-6447
▁upgrading	-6448
▁voluntary	-6449
▁witnesses	-6450
application	-6451
respondence	-6452
vailability	-6453
▁Background	-6454
▁Canaanites	-6455
▁Conference	-6456
▁Explosives	-6457
▁Holboellia	-6458
▁Horizontal	-6459
▁Industries	-6460
▁Irrigation	-6461
▁Maintained	-6462
▁Management	-6463
▁Objectives	-6464
▁OpenOffice	-6465
▁Parliament	-6466
▁Prescribed	-6467
▁Procedures	-6468
▁Production	-6469
▁Programmes	-6470
▁Protection	-6471
▁Securities	-6472
▁adjustment	-6473
▁alteration	-6474
▁applicable	-6475
▁applicants	-6476
▁associated	-6477
▁background	-6478
▁candidates	-6479
▁collective	-6480
▁conducting	-6481
▁consisting	-6482
▁continuous	-6483
▁controvers	-6484
▁conversion	-6485
▁coordinate	-6486
▁counseling	-6487
▁cumulative	-6488
▁deputation	-6489
▁diplomatic	-6490
▁discipline	-6491
▁earthquake	-6492
▁efficiency	-6493
▁everywhere	-6494
▁facilitate	-6495
▁fertilizer	-6496
▁foreigners	-6497
▁formulated	-6498
▁frightened	-6499
▁hydropower	-6500
▁incentives	-6501
▁indicating	-6502
▁indigenous	-6503
▁individual	-6504
▁infeasible	-6505
▁insolvency	-6506
▁inviolable	-6507
▁journalist	-6508
▁laboratory	-6509
▁leadership	-6510
▁mechanical	-6511
▁monitoring	-6512
▁newspapers	-6513
▁occurrence	-6514
▁operations	-6515
▁parameters	-6516
▁preventive	-6517
▁proceeding	-6518
▁processing	-6519
▁prohibited	-6520
▁recognized	-6521
▁respective	-6522
▁restricted	-6523
▁retirement	-6524
▁sacrificed	-6525
▁sanitation	-6526
▁scientific	-6527
▁specifying	-6528
▁structures	-6529
▁supervisor	-6530
▁terminated	-6531
▁unexpected	-6532
▁vegetables	-6533
iotechnology	-6534
▁Accordingly	-6535
▁Educational	-6536
▁Environment	-6537
▁Expenditure	-6538
▁Information	-6539
▁accountable	-6540
▁breastplate	-6541
▁butterflies	-6542
▁circulation	-6543
▁communities	-6544
▁computation	-6545
▁constituted	-6546
▁constructed	-6547
▁consultancy	-6548
▁consumption	-6549
▁continually	-6550
▁controlling	-6551
▁convenience	-6552
▁coordinated	-6553
▁designation	-6554
▁distributed	-6555
▁effectively	-6556
▁encouraging	-6557
▁enhancement	-6558
▁experiences	-6559
▁feasibility	-6560
▁fertilizers	-6561
▁generations	-6562
▁ideological	-6563
▁immigration	-6564
▁inoperative	-6565
▁investments	-6566
▁involvement	-6567
▁lamentation	-6568
▁legislation	-6569
▁measurement	-6570
▁permissions	-6571
▁pomegranate	-6572
▁preliminary	-6573
▁preparation	-6574
▁presumption	-6575
▁probability	-6576
▁prospecting	-6577
▁provisional	-6578
▁reformation	-6579
▁restoration	-6580
▁restructure	-6581
▁shareholder	-6582
▁substantial	-6583
▁supervision	-6584
▁supervisors	-6585
▁sustainable	-6586
▁synchronize	-6587
▁transparent	-6588
▁unrighteous	-6589
▁voluntarily	-6590
▁Arrangements	-6591
▁Construction	-6592
▁Difficulties	-6593
▁Distribution	-6594
▁Institutions	-6595
▁Registration	-6596
▁Transparency	-6597
▁broadcasting	-6598
▁certificates	-6599
▁commandments	-6600
▁constructing	-6601
▁coordinating	-6602
▁economically	-6603
▁headquarters	-6604
▁instructions	-6605
▁laboratories	-6606
▁organisation	-6607
▁particularly	-6608
▁productivity	-6609
▁redistribute	-6610
▁respectively	-6611
▁retrenchment	-6612
▁strengthened	-6613
▁technologies	-6614
▁transactions	-6615
▁tuberculosis	-6616
▁Determination	-6617
▁advertisement	-6618
▁authenticated	-6619
▁authorization	-6620
▁collaboration	-6621
▁conversations	-6622
▁effectiveness	-6623
▁investigation	-6624
▁modifications	-6625
▁organisations	-6626
▁understanding	-6627
▁Constitutional	-6628
▁Representative	-6629
▁correspondence	-6630
▁discrimination	-6631
▁infrastructure	-6632
▁qualifications	-6633
▁reconstruction	-6634
▁rehabilitation	-6635
▁reinforcements	-6636
▁Transplantation	-6637
▁infrastructures	-6638
,31	-6639
0.6	-6640
125	-6641
188	-6642
2.0	-6643
499	-6644
625	-6645
66.	-6646
AID	-6647
Ask	-6648
CHY	-6649
CUL	-6650
Dev	-6651
EIG	-6652
ELY	-6653
FMD	-6654
FOR	-6655
IFF	-6656
KEL	-6657
MOV	-6658
OSE	-6659
OUT	-6660
PPO	-6661
PPP	-6662
RCH	-6663
RRB	-6664
SED	-6665
TIF	-6666
URP	-6667
gtk	-6668
huv	-6669
tkF	-6670
www	-6671
,315	-6672
-108	-6673
.125	-6674
.250	-6675
1.10	-6676
182,	-6677
2.06	-6678
288,	-6679
400.	-6680
5.19	-6681
8.19	-6682
AIDS	-6683
Amen	-6684
Dean	-6685
EIGH	-6686
EKEL	-6687
FORM	-6688
HOUT	-6689
MOVE	-6690
NESS	-6691
Rule	-6692
UCHY	-6693
URVE	-6694
aldh	-6695
anhu	-6696
bacc	-6697
bbed	-6698
emoa	-6699
-6.	-6700
.4%	-6701
.41	-6702
1.7	-6703
11.	-6704
2/8	-6705
4.7	-6706
453	-6707
537	-6708
57,	-6709
8,6	-6710
Ins	-6711
LIT	-6712
LRB	-6713
UIT	-6714
iii	-6715
mua	-6716
ycl	-6717
,537	-6718
.00%	-6719
/57,	-6720
2/83	-6721
4.75	-6722
453,	-6723
8,66	-6724
ASIS	-6725
ILIT	-6726
arps	-6727
chet	-6728
enni	-6729
greg	-6730
iagn	-6731
irlw	-6732
juta	-6733
know	-6734
mati	-6735
mium	-6736
olks	-6737
oofs	-6738
pocr	-6739
rewd	-6740
rins	-6741
rmen	-6742
rump	-6743
uffs	-6744
ymus	-6745
yyyy	-6746
zhar	-6747
▁$35	-6748
▁():	-6749
▁(6)	-6750
▁0-5	-6751
▁1,3	-6752
▁16.	-6753
▁18,	-6754
▁180	-6755
▁21:	-6756
▁22)	-6757
▁22,	-6758
▁29,	-6759
▁4.4	-6760
▁4.6	-6761
▁57,	-6762
▁628	-6763
▁9.8	-6764
▁916	-6765
▁AND	-6766
▁ANY	-6767
▁Buy	-6768
▁FIG	-6769
▁FMD	-6770
▁FOV	-6771
▁ISO	-6772
▁Jez	-6773
▁Luh	-6774
▁NUL	-6775
▁OFF	-6776
▁POV	-6777
▁WIT	-6778
▁aux	-6779
▁ctr	-6780
▁geo	-6781
▁htm	-6782
▁nav	-6783
,537;	-6784
.00%)	-6785
182,8	-6786
3.625	-6787
6/57,	-6788
74.75	-6789
Armen	-6790
BILIT	-6791
CULAR	-6792
EIGHT	-6793
Media	-6794
Offic	-6795
PPOIS	-6796
Regul	-6797
UTELY	-6798
agiri	-6799
agnat	-6800
agorm	-6801
akali	-6802
alaam	-6803
ammua	-6804
antha	-6805
arpan	-6806
avour	-6807
bacco	-6808
cours	-6809
ecker	-6810
educe	-6811
ephth	-6812
erena	-6813
ezzle	-6814
henna	-6815
htali	-6816
huvan	-6817
icacy	-6818
ikram	-6819
isins	-6820
known	-6821
masth	-6822
month	-6823
odule	-6824
osium	-6825
reats	-6826
riter	-6827
rolog	-6828
roofs	-6829
salom	-6830
secut	-6831
solid	-6832
spray	-6833
stray	-6834
tapur	-6835
ufact	-6836
uplic	-6837
usern	-6838
ushro	-6839
warks	-6840
women	-6841
yclop	-6842
▁$3.2	-6843
▁1,38	-6844
▁1.0.	-6845
▁1247	-6846
▁16,5	-6847
▁17.2	-6848
▁19.4	-6849
▁1953	-6850
▁1959	-6851
▁2021	-6852
▁4.60	-6853
▁400:	-6854
▁41.7	-6855
▁5.02	-6856
▁7000	-6857
▁7100	-6858
▁:(1)	-6859
▁Ahin	-6860
▁Airl	-6861
▁Aphe	-6862
▁Bagl	-6863
▁Beru	-6864
▁Bhri	-6865
▁Carp	-6866
▁Cray	-6867
▁Deli	-6868
▁Doti	-6869
▁Ehud	-6870
▁Elul	-6871
▁Epip	-6872
▁Esau	-6873
▁Feed	-6874
▁Flag	-6875
▁Flee	-6876
▁Genn	-6877
▁Gera	-6878
▁Giri	-6879
▁HotS	-6880
▁Irpe	-6881
▁Jams	-6882
▁Juml	-6883
▁KING	-6884
▁Khot	-6885
▁Kosi	-6886
▁Loew	-6887
▁Logs	-6888
▁Maki	-6889
▁Mush	-6890
▁NULL	-6891
▁Neph	-6892
▁Norw	-6893
▁RIFF	-6894
▁Role	-6895
▁Senn	-6896
▁Shuh	-6897
▁Surk	-6898
▁Trek	-6899
dung	-6900
unga	-6901
▁24,	-6902
▁GIF	-6903
Maker	-6904
gains	-6905
ridge	-6906
ungry	-6907
▁11,7	-6908
▁Trem	-6909
▁Turd	-6910
▁Tych	-6911
▁URLs	-6912
▁USED	-6913
▁Webb	-6914
▁Zina	-6915
▁ails	-6916
▁bags	-6917
▁bidi	-6918
▁ceil	-6919
▁couc	-6920
▁cras	-6921
▁crus	-6922
▁dedu	-6923
▁diet	-6924
▁drew	-6925
▁elev	-6926
▁func	-6927
▁geog	-6928
▁girl	-6929
▁hole	-6930
▁html	-6931
▁huge	-6932
▁husb	-6933
▁huts	-6934
▁kPPP	-6935
▁lady	-6936
▁lamb	-6937
▁larg	-6938
▁limp	-6939
▁lump	-6940
▁lurk	-6941
▁migr	-6942
▁nuts	-6943
▁pixb	-6944
▁push	-6945
▁tabs	-6946
▁tape	-6947
▁tiny	-6948
▁wiki	-6949
.12.19	-6950
3,537;	-6951
30,000	-6952
5,400.	-6953
53,000	-6954
8,666,	-6955
Devigh	-6956
Donald	-6957
ITNESS	-6958
Medium	-6959
RCHANT	-6960
Shreep	-6961
Surely	-6962
URPOSE	-6963
Writer	-6964
afting	-6965
ajgunj	-6966
alilee	-6967
anagar	-6968
anthas	-6969
apolis	-6970
arcity	-6971
arette	-6972
arging	-6973
armony	-6974
assini	-6975
aucity	-6976
avened	-6977
cessed	-6978
comput	-6979
ddenly	-6980
effect	-6981
efiled	-6982
ennium	-6983
enshot	-6984
entils	-6985
handed	-6986
hendra	-6987
hsolid	-6988
iasmus	-6989
ichuda	-6990
igrade	-6991
interf	-6992
ipedia	-6993
istung	-6994
kantha	-6995
lihood	-6996
ocrats	-6997
odrome	-6998
oments	-6999
.22	-7000
.23	-7001
9(1	-7002
Ide	-7003
gnu	-7004
joe	-7005
,"(1	-7006
Very	-7007
adze	-7008
alde	-7009
apti	-7010
coun	-7011
eryl	-7012
esha	-7013
eshi	-7014
ethu	-7015
grie	-7016
ieth	-7017
sett	-7018
ttes	-7019
▁rde	-7020
Ideas	-7021
Shall	-7022
Shoot	-7023
aptiz	-7024
atisf	-7025
bsite	-7026
idges	-7027
issab	-7028
isson	-7029
nadze	-7030
oeing	-7031
▁2.22	-7032
▁69(1	-7033
▁Annu	-7034
▁Capt	-7035
▁Jhap	-7036
▁Mode	-7037
▁Zero	-7038
▁bapt	-7039
▁cows	-7040
▁grie	-7041
▁legs	-7042
▁miss	-7043
,"(100	-7044
.10.23	-7045
aleshi	-7046
apting	-7047
ariots	-7048
arsabb	-7049
intcap	-7050
oisson	-7051
orpati	-7052
orrupt	-7053
overed	-7054
petent	-7055
points	-7056
reesha	-7057
secute	-7058
solite	-7059
solved	-7060
tkFile	-7061
ubborn	-7062
udadan	-7063
uickly	-7064
umling	-7065
vereig	-7066
▁(1960	-7067
▁(1975	-7068
▁(1978	-7069
▁(1986	-7070
▁(2002	-7071
▁(2005	-7072
▁10499	-7073
▁17.2)	-7074
▁1961.	-7075
▁1986)	-7076
▁1992)	-7077
▁1998.	-7078
▁2,315	-7079
▁2002,	-7080
▁2025.	-7081
▁2062:	-7082
▁22.06	-7083
▁28.41	-7084
▁4.60%	-7085
▁5.02)	-7086
▁58.19	-7087
▁Abram	-7088
▁Annul	-7089
▁Arama	-7090
▁Armen	-7091
▁Bangl	-7092
▁Barak	-7093
▁Basel	-7094
▁Bhrik	-7095
▁Birth	-7096
▁Blood	-7097
▁Cauce	-7098
▁Chait	-7099
▁21.	-7100
▁1969	-7101
▁21.9	-7102
▁Duty	-7103
▁KMah	-7104
▁Mini	-7105
▁argu	-7106
▁medc	-7107
▁negl	-7108
▁1969/	-7109
▁Autof	-7110
▁Coast	-7111
▁Danga	-7112
▁Datab	-7113
▁Debug	-7114
▁Defin	-7115
▁Delay	-7116
▁Dipay	-7117
▁Eglon	-7118
▁Enoch	-7119
▁Ephes	-7120
▁Epiph	-7121
▁Estim	-7122
▁Flour	-7123
▁Forms	-7124
▁Front	-7125
▁Geuel	-7126
▁Given	-7127
▁Glade	-7128
▁Goods	-7129
▁Hamme	-7130
▁Hanan	-7131
▁Hanun	-7132
▁Haran	-7133
▁Haven	-7134
▁Hazar	-7135
▁Hazer	-7136
▁Horon	-7137
▁HotSy	-7138
▁Izhar	-7139
▁Jawal	-7140
▁Jeush	-7141
▁Jhapa	-7142
▁Jumla	-7143
▁KMahj	-7144
▁Konqu	-7145
▁Ladan	-7146
▁Latin	-7147
▁Libni	-7148
▁Loans	-7149
▁Loewi	-7150
▁Lopes	-7151
▁Mahar	-7152
▁Methu	-7153
▁Minig	-7154
▁Misra	-7155
▁Multi	-7156
▁Mushi	-7157
▁Nahor	-7158
▁OASIS	-7159
▁Opera	-7160
▁Panel	-7161
▁Prior	-7162
▁Rapti	-7163
▁Ratio	-7164
▁Rehob	-7165
▁Royal	-7166
▁SURVE	-7167
▁Sagar	-7168
▁Satan	-7169
▁Sealy	-7170
▁Sheba	-7171
▁Tanhu	-7172
▁Tarsh	-7173
▁Terms	-7174
▁Treat	-7175
▁Trees	-7176
▁Trekk	-7177
▁Video	-7178
▁Waste	-7179
▁Works	-7180
▁Zerah	-7181
▁argue	-7182
▁auxil	-7183
▁avoid	-7184
▁badly	-7185
▁balaj	-7186
▁balls	-7187
▁beryl	-7188
▁birds	-7189
▁birth	-7190
▁brave	-7191
▁chlor	-7192
▁crash	-7193
▁crowd	-7194
▁crown	-7195
▁crush	-7196
▁debug	-7197
▁devot	-7198
▁digit	-7199
45,	-7200
6,9	-7201
shi	-7202
.110	-7203
145,	-7204
26,9	-7205
dict	-7206
egra	-7207
ikol	-7208
▁$18	-7209
▁150	-7210
▁158	-7211
▁210	-7212
▁Bez	-7213
▁Lik	-7214
▁URI	-7215
▁xds	-7216
,145,	-7217
26,95	-7218
akhel	-7219
artik	-7220
attir	-7221
grace	-7222
hangu	-7223
imshi	-7224
iques	-7225
locks	-7226
shake	-7227
share	-7228
ubkey	-7229
▁"100	-7230
▁Chel	-7231
▁Liqu	-7232
▁batt	-7233
▁pict	-7234
,145,1	-7235
Blocks	-7236
alleng	-7237
encing	-7238
frared	-7239
lawful	-7240
lipped	-7241
pubkey	-7242
rayers	-7243
ruggle	-7244
shakeh	-7245
▁25,00	-7246
▁Agree	-7247
▁Daily	-7248
▁Gomes	-7249
▁Grace	-7250
▁Nikol	-7251
▁docks	-7252
▁embro	-7253
▁ephah	-7254
▁everg	-7255
▁faded	-7256
▁fewer	-7257
▁films	-7258
▁folds	-7259
▁folks	-7260
▁fuels	-7261
▁goats	-7262
▁grams	-7263
▁grape	-7264
▁hairs	-7265
▁harsh	-7266
▁herbs	-7267
▁homog	-7268
▁hoofs	-7269
▁horns	-7270
▁hours	-7271
▁ignor	-7272
▁injur	-7273
▁irreg	-7274
▁links	-7275
▁liter	-7276
▁maker	-7277
▁memor	-7278
▁minds	-7279
▁norms	-7280
▁paper	-7281
▁pests	-7282
▁photo	-7283
▁portr	-7284
▁probe	-7285
▁rainb	-7286
▁rainf	-7287
▁risks	-7288
▁shiny	-7289
▁sixty	-7290
▁solic	-7291
▁solid	-7292
▁stuff	-7293
▁sweet	-7294
▁synag	-7295
▁tenth	-7296
▁tongs	-7297
▁topic	-7298
▁trunk	-7299
ufs	-7300
draft	-7301
kless	-7302
▁2013	-7303
▁Swah	-7304
▁terr	-7305
cience	-7306
imalay	-7307
▁Decor	-7308
▁Exped	-7309
▁Matth	-7310
▁Sonia	-7311
▁Swall	-7312
▁audit	-7313
▁draft	-7314
▁harps	-7315
▁media	-7316
▁talks	-7317
▁templ	-7318
▁uncle	-7319
▁uniqu	-7320
▁unpro	-7321
▁unreg	-7322
▁upper	-7323
▁usual	-7324
▁venue	-7325
▁vineg	-7326
182,800	-7327
26,956,	-7328
63,537;	-7329
Customs	-7330
Develop	-7331
RCHANTA	-7332
ahendra	-7333
ainfall	-7334
aithful	-7335
aktapur	-7336
ameless	-7337
anmasth	-7338
aphtali	-7339
aptizer	-7340
arettes	-7341
arrison	-7342
artered	-7343
asthani	-7344
cessive	-7345
company	-7346
counter	-7347
courses	-7348
disturb	-7349
ditions	-7350
elieves	-7351
ellingt	-7352
emanded	-7353
emplate	-7354
entieth	-7355
eristic	-7356
ernacle	-7357
founded	-7358
iagnose	-7359
ighteen	-7360
imarily	-7361
inverse	-7362
irlwind	-7363
issabib	-7364
iudadan	-7365
mposium	-7366
nership	-7367
ocratic	-7368
olester	-7369
olygons	-7370
omerate	-7371
onathan	-7372
ovember	-7373
pecific	-7374
perties	-7375
quently	-7376
ranagar	-7377
reefold	-7378
requent	-7379
thirsty	-7380
umbling	-7381
ushroom	-7382
verdict	-7383
western	-7384
workers	-7385
▁(1956)	-7386
▁(1960)	-7387
▁(1992)	-7388
▁(1993)	-7389
▁1,384,	-7390
▁11,125	-7391
▁11,500	-7392
▁11,700	-7393
▁1984/8	-7394
▁1990-9	-7395
▁25,002	-7396
▁3,288,	-7397
▁57,400	-7398
▁Achish	-7399
AAR	-7400
Cho	-7401
MIN	-7402
007)	-7403
5.3.	-7404
AARC	-7405
Chal	-7406
DMIN	-7407
Khan	-7408
half	-7409
hanu	-7410
mmak	-7411
▁0.1	-7412
▁15.	-7413
▁PAR	-7414
▁Uzz	-7415
2007)	-7416
Choos	-7417
Khana	-7418
asaph	-7419
autil	-7420
borne	-7421
ephan	-7422
etham	-7423
hanah	-7424
hanil	-7425
hanuj	-7426
sthan	-7427
▁Caes	-7428
▁Swar	-7429
(2007)	-7430
DMINIS	-7431
annels	-7432
arthen	-7433
vsthan	-7434
▁Johan	-7435
▁PARTI	-7436
▁Paran	-7437
▁Princ	-7438
▁SAARC	-7439
▁SaveP	-7440
▁Uzzah	-7441
▁integ	-7442
Chalani	-7443
Chooser	-7444
DMINIST	-7445
autilus	-7446
ephanas	-7447
folders	-7448
mmakers	-7449
udhanil	-7450
▁5.5.3.	-7451
▁Analyz	-7452
▁Anjuta	-7453
▁Annual	-7454
▁Barron	-7455
▁Beriah	-7456
▁Bezier	-7457
▁Bhanuj	-7458
▁Bikram	-7459
▁Bought	-7460
▁Brooks	-7461
▁Budget	-7462
▁Cancel	-7463
▁Caused	-7464
▁Chalde	-7465
▁Chelub	-7466
▁Cyclop	-7467
▁Daniel	-7468
▁Deceit	-7469
▁Design	-7470
▁Dharan	-7471
▁Dhunge	-7472
▁Engage	-7473
▁Eshton	-7474
▁Expire	-7475
▁French	-7476
▁Gennes	-7477
▁Hazarm	-7478
▁Heaven	-7479
▁Hebrew	-7480
▁Income	-7481
▁Intens	-7482
▁Invest	-7483
▁Jephth	-7484
▁Jumper	-7485
▁KPilot	-7486
▁Kartik	-7487
▁Likins	-7488
▁Logite	-7489
▁Luhith	-7490
▁Magnat	-7491
▁Magorm	-7492
▁Malach	-7493
▁Malays	-7494
▁Merger	-7495
▁Mizpah	-7496
▁Module	-7497
▁Monoch	-7498
▁Narang	-7499
foot	-7500
kels	-7501
look	-7502
mosp	-7503
▁Kez	-7504
▁hoe	-7505
Compl	-7506
ierce	-7507
insed	-7508
raphy	-7509
rovir	-7510
ulfil	-7511
▁1986	-7512
▁1987	-7513
▁1989	-7514
▁Saml	-7515
▁Tilt	-7516
▁hook	-7517
▁salv	-7518
ainian	-7519
eserve	-7520
iplied	-7521
ipolis	-7522
ooklet	-7523
rolled	-7524
roller	-7525
▁Input	-7526
▁Samit	-7527
▁Setup	-7528
▁bones	-7529
▁cerem	-7530
▁coins	-7531
▁hooks	-7532
▁sales	-7533
▁shook	-7534
▁souls	-7535
▁stole	-7536
▁swear	-7537
▁sworn	-7538
▁track	-7539
▁traff	-7540
Booklet	-7541
deserve	-7542
epalese	-7543
estival	-7544
footing	-7545
ography	-7546
rainian	-7547
rolling	-7548
roviral	-7549
trolled	-7550
▁1986).	-7551
▁Keziah	-7552
▁Nimshi	-7553
▁Others	-7554
▁Permit	-7555
▁Plugin	-7556
▁Policy	-7557
▁REFORM	-7558
▁REMOVE	-7559
▁Rastri	-7560
▁Reaiah	-7561
▁Reduce	-7562
▁Rename	-7563
▁Rizpah	-7564
▁SURVEY	-7565
▁Samach	-7566
▁Samiti	-7567
▁Samlah	-7568
▁Scores	-7569
▁Scream	-7570
▁Scroll	-7571
▁Sealed	-7572
▁Sector	-7573
▁Shuhah	-7574
▁Signed	-7575
▁Silent	-7576
▁System	-7577
▁Target	-7578
▁Transf	-7579
▁Turkey	-7580
▁Twelve	-7581
▁Verena	-7582
▁Wizard	-7583
▁absent	-7584
▁acquir	-7585
▁agenda	-7586
▁agents	-7587
▁aggrie	-7588
▁allots	-7589
▁artist	-7590
▁asleep	-7591
▁assemb	-7592
▁atmosp	-7593
▁balaju	-7594
▁beauty	-7595
▁blocks	-7596
▁bridge	-7597
▁briers	-7598
▁calcul	-7599
3.4	-7600
bek	-7601
prc	-7602
exem	-7603
irls	-7604
prit	-7605
▁23.	-7606
▁252	-7607
▁28.	-7608
3.4.1	-7609
bekah	-7610
imprc	-7611
prise	-7612
urden	-7613
▁2044	-7614
▁80.6	-7615
▁Drag	-7616
▁Euro	-7617
▁pipe	-7618
source	-7619
ulprit	-7620
▁2063.	-7621
▁33000	-7622
▁Coord	-7623
▁Displ	-7624
▁crows	-7625
▁feels	-7626
▁girls	-7627
▁marty	-7628
▁threw	-7629
aughter	-7630
success	-7631
theless	-7632
▁Animal	-7633
▁Burden	-7634
▁Europe	-7635
▁Length	-7636
▁bearer	-7637
▁calves	-7638
▁cattle	-7639
▁celebr	-7640
▁chased	-7641
▁cheese	-7642
▁choked	-7643
▁cloths	-7644
▁cooper	-7645
▁debent	-7646
▁deduct	-7647
▁degree	-7648
▁devour	-7649
▁disreg	-7650
▁divide	-7651
▁divine	-7652
▁domain	-7653
▁double	-7654
▁duplic	-7655
▁easily	-7656
▁engage	-7657
▁engine	-7658
▁excite	-7659
▁expert	-7660
▁farmer	-7661
▁fatter	-7662
▁fierce	-7663
▁flashc	-7664
▁fluids	-7665
▁foodst	-7666
▁forgot	-7667
▁fulfil	-7668
▁furnis	-7669
▁gender	-7670
▁gimprc	-7671
▁grapes	-7672
▁hasten	-7673
▁helmet	-7674
▁hotels	-7675
▁hungry	-7676
▁hunted	-7677
▁hydrod	-7678
▁hypocr	-7679
▁ignore	-7680
▁implic	-7681
▁indeed	-7682
▁inland	-7683
▁inscri	-7684
▁iodine	-7685
▁judges	-7686
▁latest	-7687
▁laying	-7688
▁lesson	-7689
▁libusb	-7690
▁lights	-7691
▁machin	-7692
▁mobile	-7693
▁models	-7694
▁negoti	-7695
▁nights	-7696
▁normal	-7697
▁nozzle	-7698
▁oldest	-7699
Ass	-7700
IME	-7701
00%,	-7702
aims	-7703
ebai	-7704
ebar	-7705
erug	-7706
ssal	-7707
ugar	-7708
yria	-7709
▁$30	-7710
▁125	-7711
▁3.2	-7712
▁3.7	-7713
▁Alb	-7714
▁Alm	-7715
▁Alt	-7716
▁Aug	-7717
▁Bug	-7718
▁Zeb	-7719
7,500	-7720
Citiz	-7721
inyan	-7722
jebar	-7723
rolet	-7724
▁1258	-7725
▁3.27	-7726
▁3.77	-7727
▁Baim	-7728
▁MIME	-7729
▁Obal	-7730
▁mask	-7731
▁midn	-7732
▁moon	-7733
Assess	-7734
enched	-7735
isapan	-7736
letter	-7737
ssalon	-7738
vrolet	-7739
▁Album	-7740
▁Almod	-7741
▁Bebai	-7742
▁Citiz	-7743
▁Dutch	-7744
▁Kapan	-7745
▁Layer	-7746
▁Separ	-7747
▁Serug	-7748
▁Sugar	-7749
▁Syria	-7750
▁Zebed	-7751
▁heirs	-7752
▁shift	-7753
▁vided	-7754
Citizen	-7755
anjebar	-7756
appoint	-7757
isapani	-7758
letters	-7759
retched	-7760
▁9.00%,	-7761
▁Always	-7762
▁Applet	-7763
▁August	-7764
▁Before	-7765
▁Claims	-7766
▁bigger	-7767
▁decomp	-7768
▁oracle	-7769
▁outbox	-7770
▁papers	-7771
▁parcel	-7772
▁pestic	-7773
▁played	-7774
▁plunge	-7775
▁pocket	-7776
▁poison	-7777
▁prayed	-7778
▁prayer	-7779
▁preset	-7780
▁priced	-7781
▁quaked	-7782
▁quorum	-7783
▁rainfa	-7784
▁recomp	-7785
▁recurs	-7786
▁revied	-7787
▁rinsed	-7788
▁robust	-7789
▁ruling	-7790
▁safely	-7791
▁sealed	-7792
▁sensel	-7793
▁sexual	-7794
▁shoots	-7795
▁spring	-7796
▁stolen	-7797
▁stormy	-7798
▁straps	-7799
-1.	-7800
-17	-7801
hara	-7802
prep	-7803
umbn	-7804
▁--,	-7805
▁50.	-7806
▁Egl	-7807
▁Mex	-7808
▁phr	-7809
blems	-7810
esday	-7811
gency	-7812
ilgal	-7813
pires	-7814
▁2045	-7815
▁2052	-7816
▁2063	-7817
▁2066	-7818
▁Mech	-7819
▁Plug	-7820
▁Solu	-7821
▁Sumb	-7822
▁cuts	-7823
esides	-7824
icides	-7825
nesday	-7826
okhara	-7827
onuses	-7828
repanc	-7829
umbled	-7830
▁(1999	-7831
▁Mechi	-7832
▁Merem	-7833
▁Mexic	-7834
▁Newsw	-7835
▁Renew	-7836
▁Solid	-7837
▁Sumba	-7838
▁clean	-7839
▁utens	-7840
Central	-7841
ircumst	-7842
omorrow	-7843
umbency	-7844
▁50,000	-7845
▁Eglath	-7846
▁Gilgal	-7847
▁Mexico	-7848
▁Pepper	-7849
▁Solukh	-7850
▁demons	-7851
▁phrase	-7852
▁sacred	-7853
▁street	-7854
▁strips	-7855
▁tableN	-7856
▁temper	-7857
▁terrif	-7858
▁thumbn	-7859
▁tithes	-7860
▁titles	-7861
▁towers	-7862
▁traded	-7863
▁trucks	-7864
▁turban	-7865
▁unders	-7866
▁unique	-7867
▁unprof	-7868
▁valley	-7869
▁vector	-7870
▁vested	-7871
▁virgin	-7872
▁wisely	-7873
▁yester	-7874
▁yields	-7875
(2007)".	-7876
Actually	-7877
Armenian	-7878
DMINISTR	-7879
Devighat	-7880
Everyone	-7881
Hospital	-7882
Shreepur	-7883
Tomorrow	-7884
abshakeh	-7885
aldhunga	-7886
aneously	-7887
angerous	-7888
ardnadze	-7889
atistics	-7890
celerate	-7891
cticides	-7892
ednesday	-7893
emocrats	-7894
gazetted	-7895
hevrolet	-7896
iciously	-7897
idelines	-7898
iligence	-7899
KDE	-7900
arla	-7901
oshi	-7902
rify	-7903
▁103	-7904
▁11)	-7905
▁Tek	-7906
▁Tex	-7907
ammon	-7908
atics	-7909
ccosh	-7910
cised	-7911
imely	-7912
rator	-7913
yards	-7914
▁Text	-7915
▁elig	-7916
▁wept	-7917
Before	-7918
igital	-7919
phrase	-7920
raised	-7921
▁Carla	-7922
▁Koshi	-7923
▁Tekoa	-7924
▁Texas	-7925
▁fault	-7926
▁loads	-7927
▁occas	-7928
▁renun	-7929
umcised	-7930
▁10,000	-7931
▁Contin	-7932
▁Screen	-7933
▁Timely	-7934
▁mammon	-7935
▁potent	-7936
▁renunc	-7937
▁tenure	-7938
▁urgent	-7939
demanded	-7940
hematics	-7941
imalayan	-7942
istreats	-7943
itiation	-7944
iudadano	-7945
leavened	-7946
lephants	-7947
licenses	-7948
neapolis	-7949
ociation	-7950
oitation	-7951
otiation	-7952
phipolis	-7953
prepared	-7954
reasurer	-7955
reenshot	-7956
rictions	-7957
ronecker	-7958
secuting	-7959
terprise	-7960
unitions	-7961
username	-7962
ushrooms	-7963
volution	-7964
▁$15,000	-7965
▁$18,000	-7966
▁(1957),	-7967
▁(1958).	-7968
▁(1975).	-7969
▁(1993).	-7970
▁(1999).	-7971
▁(2002).	-7972
▁(2010).	-7973
▁(3.00%)	-7974
▁1,145,1	-7975
▁1,384,4	-7976
▁1974.75	-7977
▁1990/91	-7978
▁300,000	-7979
▁353,000	-7980
▁830,000	-7981
▁Abiezer	-7982
▁Absalom	-7983
▁Analyst	-7984
▁Anhangu	-7985
▁Aramaic	-7986
▁Armenia	-7987
▁Baglung	-7988
▁Banglad	-7989
▁Barsabb	-7990
▁Besides	-7991
▁Caesare	-7992
▁Capture	-7993
▁Cassini	-7994
▁Centers	-7995
▁Ciphers	-7996
▁Collect	-7997
▁Consent	-7998
▁Contact	-7999
MAP	-8000
▁6,	-8001
▁63	-8002
eets	-8003
kets	-8004
meel	-8005
▁1.2	-8006
▁600	-8007
▁63-	-8008
orman	-8009
reets	-8010
space	-8011
▁Camp	-8012
▁IMAP	-8013
▁arms	-8014
▁falc	-8015
▁warr	-8016
erying	-8017
hibits	-8018
▁Banks	-8019
▁Inval	-8020
▁advis	-8021
▁facto	-8022
▁keeps	-8023
▁launc	-8024
▁polio	-8025
▁rival	-8026
▁stops	-8027
ructive	-8028
ternate	-8029
▁Campus	-8030
▁Gorman	-8031
▁Immedi	-8032
▁School	-8033
▁driver	-8034
▁drives	-8035
▁falcon	-8036
▁frames	-8037
▁infant	-8038
▁inflow	-8039
▁loudly	-8040
▁tested	-8041
▁tweets	-8042
berately	-8043
meelites	-8044
vereignt	-8045
▁Correct	-8046
▁Creates	-8047
▁Defense	-8048
▁Deleted	-8049
▁Didymus	-8050
▁Digital	-8051
▁Dipayal	-8052
▁Eliezer	-8053
▁Engaged	-8054
▁FITNESS	-8055
▁Finance	-8056
▁Gateway	-8057
▁Getting	-8058
▁GtkFile	-8059
▁Haleshi	-8060
▁Hammeah	-8061
▁Hananel	-8062
▁Happuch	-8063
▁Hittite	-8064
▁Holding	-8065
▁HotSync	-8066
▁Instead	-8067
▁Insured	-8068
▁Invalid	-8069
▁Johanan	-8070
▁Jorpati	-8071
▁Journal	-8072
▁Khotang	-8073
▁Layouts	-8074
▁Loading	-8075
▁Mailing	-8076
▁Malachi	-8077
▁Manager	-8078
▁Minimal	-8079
▁Moabite	-8080
▁Opening	-8081
▁Organiz	-8082
▁PURPOSE	-8083
▁Perhaps	-8084
▁PlugIns	-8085
▁Poisson	-8086
▁Pokhara	-8087
▁Prepare	-8088
▁Privile	-8089
▁Process	-8090
▁Rebekah	-8091
▁Receipt	-8092
▁Renewal	-8093
▁Reserve	-8094
▁Restart	-8095
▁Royalty	-8096
▁Science	-8097
▁Shammua	-8098
▁Shebuel	-8099
'?"	-8100
boo	-8101
adio	-8102
book	-8103
huri	-8104
ijah	-8105
maid	-8106
ombo	-8107
▁(16	-8108
▁Joi	-8109
▁err	-8110
aison	-8111
alked	-8112
amboo	-8113
asara	-8114
giver	-8115
ommod	-8116
umdin	-8117
▁(7),	-8118
▁Keep	-8119
▁Sale	-8120
▁asks	-8121
▁eats	-8122
▁slid	-8123
▁util	-8124
harpan	-8125
iaison	-8126
ioener	-8127
okhuri	-8128
sasara	-8129
umdini	-8130
vances	-8131
▁Hotel	-8132
▁Joiad	-8133
▁Peace	-8134
▁Radio	-8135
▁Scale	-8136
▁camel	-8137
▁erase	-8138
▁erred	-8139
▁highl	-8140
▁noted	-8141
▁patch	-8142
▁scale	-8143
▁slain	-8144
▁textf	-8145
▁texts	-8146
▁turns	-8147
▁wells	-8148
acebook	-8149
isoners	-8150
minated	-8151
version	-8152
▁$1.125	-8153
▁Abijah	-8154
▁Eduard	-8155
▁Jehiel	-8156
▁Joiada	-8157
▁Update	-8158
▁asking	-8159
▁balked	-8160
▁bamboo	-8161
▁behold	-8162
▁circus	-8163
▁highly	-8164
▁mighty	-8165
▁palace	-8166
▁republ	-8167
▁sleepy	-8168
▁viewed	-8169
aminated	-8170
artridge	-8171
ioenergy	-8172
ommodate	-8173
▁Colombo	-8174
▁Include	-8175
▁Keeping	-8176
▁Liaison	-8177
▁Lumdini	-8178
▁Sheleph	-8179
▁Shelish	-8180
▁Sixteen	-8181
▁Surkhet	-8182
▁Swallow	-8183
▁Tistung	-8184
▁Tourist	-8185
▁Tracker	-8186
▁Trememb	-8187
▁Tsasara	-8188
▁Udaypur	-8189
▁WITHOUT	-8190
▁Welfare	-8191
▁Without	-8192
▁Zebedee	-8193
▁acquain	-8194
▁adviser	-8195
▁afflict	-8196
▁aligned	-8197
▁applied	-8198
▁aspires	-8199
hus	-8200
tai	-8201
▁9,	-8202
▁97	-8203
▁RS	-8204
ahar	-8205
bars	-8206
oise	-8207
otes	-8208
▁87,	-8209
▁97(	-8210
▁Ell	-8211
▁IID	-8212
▁Imp	-8213
▁Nov	-8214
▁cra	-8215
▁guy	-8216
▁lik	-8217
Large	-8218
edars	-8219
iscil	-8220
odgin	-8221
▁Chai	-8222
▁Draw	-8223
▁IIDs	-8224
▁Shev	-8225
▁keyb	-8226
▁sock	-8227
charge	-8228
husias	-8229
iscila	-8230
osting	-8231
quoise	-8232
quotes	-8233
▁Clays	-8234
▁Ellis	-8235
▁Gahar	-8236
▁Ittai	-8237
▁Order	-8238
▁betel	-8239
▁craze	-8240
▁desir	-8241
▁guard	-8242
▁heavi	-8243
▁likew	-8244
▁passw	-8245
▁rises	-8246
▁smash	-8247
Village	-8248
ailways	-8249
essions	-8250
hosting	-8251
husiasm	-8252
ranches	-8253
▁Justus	-8254
▁Server	-8255
▁cedars	-8256
▁equity	-8257
▁lodgin	-8258
▁passes	-8259
▁storeh	-8260
▁string	-8261
branches	-8262
ferences	-8263
urquoise	-8264
▁Conduct	-8265
▁Drawing	-8266
▁Provide	-8267
▁attitud	-8268
▁attract	-8269
▁battles	-8270
▁belongs	-8271
▁bonuses	-8272
▁borders	-8273
▁breadth	-8274
▁bridges	-8275
▁burning	-8276
▁burying	-8277
▁buttons	-8278
▁channel	-8279
▁checked	-8280
▁cleanup	-8281
▁coordin	-8282
▁courier	-8283
▁covered	-8284
▁cowdung	-8285
▁crushed	-8286
▁culprit	-8287
▁culture	-8288
▁curious	-8289
▁damaged	-8290
▁damages	-8291
▁dancing	-8292
▁decides	-8293
▁decimal	-8294
▁decorum	-8295
▁decrypt	-8296
▁delight	-8297
▁delimit	-8298
▁demande	-8299
iy	-8300
7.1	-8301
Rax	-8302
Then	-8303
iyah	-8304
keys	-8305
lept	-8306
ntax	-8307
plus	-8308
then	-8309
▁FOR	-8310
▁Max	-8311
▁NOT	-8312
▁tic	-8313
auled	-8314
thene	-8315
thens	-8316
▁Arab	-8317
▁Atgh	-8318
▁Atom	-8319
▁Gidd	-8320
▁bird	-8321
▁gets	-8322
▁ions	-8323
▁tics	-8324
Raxaul	-8325
akeser	-8326
ealous	-8327
ifying	-8328
iscent	-8329
ythene	-8330
▁Arame	-8331
▁Arrow	-8332
▁cares	-8333
▁coals	-8334
▁endor	-8335
▁flesh	-8336
▁forso	-8337
▁pilot	-8338
▁slept	-8339
7.11.10	-8340
chedule	-8341
htaroth	-8342
vidence	-8343
▁(1964)	-8344
▁Atghor	-8345
▁Athens	-8346
▁Atomic	-8347
▁Giddel	-8348
▁Syntax	-8349
▁cannel	-8350
▁entire	-8351
▁headed	-8352
▁header	-8353
▁locale	-8354
▁mauled	-8355
▁possib	-8356
▁reposs	-8357
▁wouldn	-8358
Schedule	-8359
iniscent	-8360
▁Another	-8361
▁activat	-8362
▁conflic	-8363
▁deputed	-8364
▁derived	-8365
▁devours	-8366
▁differe	-8367
▁digests	-8368
▁discuss	-8369
▁disease	-8370
▁disobed	-8371
▁disturb	-8372
▁donkeys	-8373
▁dropped	-8374
▁drunken	-8375
▁earlier	-8376
▁earthen	-8377
▁empower	-8378
▁enabled	-8379
▁encoded	-8380
▁encoura	-8381
▁encrypt	-8382
▁endorse	-8383
▁evident	-8384
▁example	-8385
▁excited	-8386
▁expires	-8387
▁exposed	-8388
▁failure	-8389
▁falsely	-8390
▁feeding	-8391
▁fifteen	-8392
▁finding	-8393
▁foments	-8394
▁forfeit	-8395
▁forgive	-8396
▁forsake	-8397
▁forsook	-8398
▁freeing	-8399
ida	-8400
upk	-8401
vok	-8402
▁78	-8403
voke	-8404
▁Ash	-8405
▁Meh	-8406
▁hab	-8407
,000.	-8408
1,000	-8409
arger	-8410
fight	-8411
ivory	-8412
mbass	-8413
ultiv	-8414
▁5,00	-8415
▁78.1	-8416
▁Ashd	-8417
▁Horn	-8418
▁Sams	-8419
▁bath	-8420
▁belt	-8421
▁bush	-8422
▁defy	-8423
▁inhe	-8424
▁jell	-8425
▁rush	-8426
21,000	-8427
etween	-8428
liance	-8429
mbassy	-8430
osedly	-8431
placed	-8432
upkath	-8433
▁Blunt	-8434
▁Keren	-8435
▁Mehir	-8436
▁belts	-8437
▁defun	-8438
▁dutie	-8439
▁encro	-8440
▁invit	-8441
▁ivory	-8442
▁waves	-8443
between	-8444
gerated	-8445
ositive	-8446
tension	-8447
upkathi	-8448
▁Adaiah	-8449
▁Ashdod	-8450
▁Samson	-8451
▁condem	-8452
▁larger	-8453
▁manage	-8454
▁preced	-8455
▁profan	-8456
▁showed	-8457
fighting	-8458
iculture	-8459
oundries	-8460
resident	-8461
▁821,000	-8462
▁Embassy	-8463
▁Shemida	-8464
▁confine	-8465
▁defines	-8466
▁defunct	-8467
▁edition	-8468
▁grandch	-8469
▁grounds	-8470
▁healthy	-8471
▁heavier	-8472
▁heavily	-8473
▁hectare	-8474
▁hitting	-8475
▁homogen	-8476
▁honored	-8477
▁honours	-8478
▁humbled	-8479
▁hunting	-8480
▁hurried	-8481
▁hurting	-8482
▁husband	-8483
▁immense	-8484
▁injured	-8485
▁insults	-8486
▁intrins	-8487
▁invited	-8488
▁iodized	-8489
▁jealous	-8490
▁jellies	-8491
▁keybind	-8492
▁kindled	-8493
▁knowled	-8494
▁labored	-8495
▁lenders	-8496
▁lentils	-8497
▁liaison	-8498
▁libarch	-8499
May	-8500
bts	-8501
▁0.	-8502
Edom	-8503
List	-8504
ogue	-8505
omor	-8506
orny	-8507
rine	-8508
size	-8509
▁0.3	-8510
▁Adn	-8511
agarm	-8512
ample	-8513
blend	-8514
isdom	-8515
osing	-8516
oubts	-8517
▁0.39	-8518
▁1-15	-8519
▁2009	-8520
▁Stop	-8521
▁grad	-8522
▁kick	-8523
▁race	-8524
▁raid	-8525
Listen	-8526
chants	-8527
omorra	-8528
orient	-8529
plants	-8530
rouble	-8531
soever	-8532
ulance	-8533
▁About	-8534
▁Adnah	-8535
▁Maliz	-8536
▁ample	-8537
▁award	-8538
▁speec	-8539
▁suppl	-8540
▁winds	-8541
bulance	-8542
omorrah	-8543
ryption	-8544
▁Sagarm	-8545
▁Wisdom	-8546
▁center	-8547
▁client	-8548
▁doubts	-8549
▁endure	-8550
▁inward	-8551
▁owners	-8552
▁reward	-8553
▁sample	-8554
▁spared	-8555
▁speedy	-8556
▁thorny	-8557
blending	-8558
iability	-8559
oriented	-8560
▁Malizia	-8561
▁Trouble	-8562
▁closing	-8563
▁famines	-8564
▁latrine	-8565
▁limping	-8566
▁locusts	-8567
▁lurking	-8568
▁mailbox	-8569
▁mailing	-8570
▁marched	-8571
▁marking	-8572
▁married	-8573
▁marries	-8574
▁martyrs	-8575
▁monthly	-8576
▁musical	-8577
▁namedal	-8578
▁neglect	-8579
▁obvious	-8580
▁package	-8581
▁packets	-8582
▁parents	-8583
▁paucity	-8584
▁payable	-8585
▁perhaps	-8586
▁pervert	-8587
▁picture	-8588
▁pixbufs	-8589
▁plagues	-8590
▁plugins	-8591
▁praised	-8592
▁precise	-8593
▁precond	-8594
▁premium	-8595
▁princes	-8596
▁profane	-8597
▁publish	-8598
▁putting	-8599
GI	-8600
Re	-8601
).2	-8602
ava	-8603
▁14	-8604
▁CS	-8605
▁Ze	-8606
Tell	-8607
asul	-8608
biah	-8609
bond	-8610
dens	-8611
hash	-8612
hema	-8613
ickg	-8614
kick	-8615
leys	-8616
miah	-8617
mond	-8618
onds	-8619
thon	-8620
▁).2	-8621
▁CGI	-8622
▁CSV	-8623
▁Lif	-8624
▁Zic	-8625
▁ome	-8626
edger	-8627
ewell	-8628
ickgt	-8629
plash	-8630
south	-8631
ython	-8632
▁Dear	-8633
▁Film	-8634
▁Gers	-8635
▁Tell	-8636
▁Zeus	-8637
▁bond	-8638
▁cell	-8639
▁cosh	-8640
▁depl	-8641
▁oxen	-8642
▁veil	-8643
▁vend	-8644
ahasul	-8645
ellant	-8646
enship	-8647
itages	-8648
lemiah	-8649
monday	-8650
nickgt	-8651
onders	-8652
splash	-8653
▁Ahava	-8654
▁Deput	-8655
▁Gersh	-8656
▁Noone	-8657
▁Zicri	-8658
▁hates	-8659
▁matri	-8660
▁ponds	-8661
▁postp	-8662
▁seash	-8663
▁tells	-8664
▁topaz	-8665
▁unful	-8666
Mahasul	-8667
Revenue	-8668
usation	-8669
▁Deputy	-8670
▁Ledger	-8671
▁Liftar	-8672
▁Tobiah	-8673
▁deploy	-8674
▁forget	-8675
▁honest	-8676
▁matrix	-8677
▁multip	-8678
▁python	-8679
▁refund	-8680
▁unfulf	-8681
▁vendor	-8682
▁weaken	-8683
▁Authent	-8684
▁Bhrikut	-8685
▁Gershom	-8686
▁Jezreel	-8687
▁Liftarn	-8688
▁Mathema	-8689
▁burdens	-8690
▁cheaper	-8691
▁ksplash	-8692
▁listing	-8693
▁posters	-8694
▁quietly	-8695
▁rainbow	-8696
▁reading	-8697
▁realise	-8698
▁realize	-8699
obo	-8700
oyo	-8701
▁56	-8702
▁nt	-8703
azak	-8704
levi	-8705
obab	-8706
viet	-8707
▁Tes	-8708
▁job	-8709
acoyo	-8710
aract	-8711
azakh	-8712
azine	-8713
isers	-8714
onobo	-8715
▁Jute	-8716
▁Tile	-8717
▁gray	-8718
▁milk	-8719
▁succ	-8720
erting	-8721
lacoyo	-8722
readed	-8723
untary	-8724
▁Tesse	-8725
▁broke	-8726
▁brook	-8727
▁canal	-8728
▁depri	-8729
▁drill	-8730
▁grade	-8731
▁match	-8732
▁tread	-8733
ilisers	-8734
▁1969/7	-8735
▁25,000	-8736
▁Balaam	-8737
▁Bonobo	-8738
▁Cement	-8739
▁Kazakh	-8740
▁Notice	-8741
▁Shobab	-8742
▁Soviet	-8743
▁allevi	-8744
▁assure	-8745
▁handic	-8746
▁handle	-8747
▁issues	-8748
▁seized	-8749
▁thread	-8750
Nepalese	-8751
entioned	-8752
oluntary	-8753
ourished	-8754
▁1969/70	-8755
▁Someone	-8756
▁Tessell	-8757
▁charact	-8758
▁commute	-8759
▁evening	-8760
▁licence	-8761
▁madhesi	-8762
▁rebuild	-8763
▁rebuilt	-8764
▁recalls	-8765
▁rectify	-8766
▁reduced	-8767
▁reflect	-8768
▁relatin	-8769
▁removed	-8770
▁restore	-8771
▁scatter	-8772
▁schemes	-8773
▁segment	-8774
▁selling	-8775
▁settled	-8776
▁seventh	-8777
▁seventy	-8778
▁sharing	-8779
▁shekels	-8780
▁shining	-8781
▁shipped	-8782
▁signing	-8783
▁sinners	-8784
▁skipped	-8785
▁sliders	-8786
▁slipped	-8787
▁smaller	-8788
▁sockets	-8789
▁sparing	-8790
▁stating	-8791
▁statist	-8792
▁stepped	-8793
▁streets	-8794
▁supplal	-8795
▁suspend	-8796
▁tableau	-8797
▁teaches	-8798
▁temples	-8799
41	-8800
For	-8801
▁PR	-8802
-199	-8803
Pass	-8804
cuit	-8805
uice	-8806
▁-41	-8807
▁Amn	-8808
▁Neg	-8809
▁PRI	-8810
▁Put	-8811
▁aer	-8812
▁una	-8813
-1991	-8814
arian	-8815
herah	-8816
ileys	-8817
inear	-8818
luded	-8819
oices	-8820
olves	-8821
otham	-8822
othir	-8823
ounds	-8824
▁Amon	-8825
▁Dari	-8826
▁Exit	-8827
▁Fool	-8828
▁Mass	-8829
▁Read	-8830
▁dont	-8831
▁flip	-8832
▁taps	-8833
LUTELY	-8834
ainees	-8835
garian	-8836
ircuit	-8837
reason	-8838
▁9,000	-8839
▁Amnon	-8840
▁Birat	-8841
▁Bound	-8842
▁Calam	-8843
▁Fools	-8844
▁Joint	-8845
▁Least	-8846
▁Legal	-8847
▁Level	-8848
▁Negus	-8849
▁armor	-8850
▁dirty	-8851
▁hired	-8852
▁juice	-8853
▁miniv	-8854
▁portf	-8855
▁shell	-8856
▁winep	-8857
OLUTELY	-8858
hedules	-8859
ilinear	-8860
▁Darius	-8861
▁Hothir	-8862
▁Jotham	-8863
▁Voices	-8864
▁compan	-8865
▁mounds	-8866
▁outerm	-8867
▁walked	-8868
▁wolves	-8869
Category	-8870
SOLUTELY	-8871
ishments	-8872
lomerate	-8873
terative	-8874
ulgarian	-8875
▁Approve	-8876
▁Asherah	-8877
▁Circuit	-8878
▁Expired	-8879
▁Harmony	-8880
▁desired	-8881
▁distrib	-8882
▁involve	-8883
▁smileys	-8884
▁tenancy	-8885
▁terrors	-8886
▁thirsty	-8887
▁tongues	-8888
▁tooltip	-8889
▁trading	-8890
▁traffic	-8891
▁tribute	-8892
▁trouble	-8893
▁truchet	-8894
▁unclean	-8895
▁undersc	-8896
▁unknown	-8897
▁updates	-8898
▁utility	-8899
ipe	-8900
ixt	-8901
ncl	-8902
you	-8903
▁3)	-8904
▁aw	-8905
ergy	-8906
link	-8907
mixt	-8908
move	-8909
rink	-8910
▁83.	-8911
▁Jok	-8912
▁Rek	-8913
▁Unh	-8914
▁Uns	-8915
▁ant	-8916
AUCHY	-8917
ovele	-8918
retch	-8919
▁Encl	-8920
▁Jokt	-8921
▁Reub	-8922
▁Shap	-8923
▁What	-8924
▁Wipe	-8925
▁anti	-8926
▁empt	-8927
▁rank	-8928
▁remn	-8929
CAUCHY	-8930
gments	-8931
inning	-8932
ovelel	-8933
remove	-8934
rigade	-8935
▁Based	-8936
▁Bench	-8937
▁Drink	-8938
▁Point	-8939
▁Rekem	-8940
▁Shall	-8941
▁Which	-8942
▁awake	-8943
▁carri	-8944
▁emper	-8945
▁sharp	-8946
brigade	-8947
erspect	-8948
mixture	-8949
▁12,500	-8950
▁Joktan	-8951
▁Panach	-8952
▁Reuben	-8953
▁Shapes	-8954
▁Taking	-8955
▁Unhide	-8956
▁energy	-8957
▁famous	-8958
▁physic	-8959
▁thenew	-8960
▁transf	-8961
▁transl	-8962
Agricult	-8963
adership	-8964
ovelelop	-8965
▁Ahinoam	-8966
▁Enables	-8967
▁backend	-8968
▁despise	-8969
▁incense	-8970
▁intense	-8971
▁killing	-8972
▁remnant	-8973
▁stretch	-8974
▁utilize	-8975
▁utterly	-8976
▁vaccine	-8977
▁valleys	-8978
▁verdict	-8979
▁vicious	-8980
▁vinegar	-8981
▁violent	-8982
▁virtual	-8983
▁warning	-8984
▁wearing	-8985
▁website	-8986
▁withdra	-8987
▁wonders	-8988
▁workman	-8989
BSOLUTELY	-8990
Complaint	-8991
DMINISTRA	-8992
Inspector	-8993
Municipal	-8994
adevsthan	-8995
allenging	-8996
anagement	-8997
articular	-8998
asurement	-8999
-4	-9000
AVE	-9001
See	-9002
eon	-9003
iaz	-9004
▁-3	-9005
West	-9006
acia	-9007
aria	-9008
hiaz	-9009
uthD	-9010
▁-32	-9011
▁80-	-9012
▁Ale	-9013
▁Ask	-9014
▁Sel	-9015
4,000	-9016
AuthD	-9017
eshem	-9018
ibeon	-9019
isees	-9020
never	-9021
oodgr	-9022
orage	-9023
ossed	-9024
ovett	-9025
usite	-9026
▁Alex	-9027
▁Asri	-9028
▁Sela	-9029
▁WAVE	-9030
▁Wise	-9031
▁blot	-9032
▁hway	-9033
▁rang	-9034
▁subt	-9035
54,000	-9036
▁Rehum	-9037
▁Thank	-9038
▁blind	-9039
▁menus	-9040
▁uncon	-9041
AuthDir	-9042
arisees	-9043
ebusite	-9044
enthiaz	-9045
mbossed	-9046
▁Asriel	-9047
▁Foodgr	-9048
▁Geshem	-9049
▁Gibeon	-9050
▁Lovett	-9051
▁Remote	-9052
▁Zetham	-9053
▁acacia	-9054
▁aftern	-9055
▁exempt	-9056
▁godown	-9057
▁subtra	-9058
▁tracks	-9059
Embossed	-9060
▁454,000	-9061
▁Alexand	-9062
▁Playing	-9063
▁Samaria	-9064
▁afterno	-9065
▁godowns	-9066
▁knowing	-9067
▁ranging	-9068
▁speaker	-9069
▁storage	-9070
▁treated	-9071
avourable	-9072
awalagiri	-9073
computers	-9074
education	-9075
ellington	-9076
endicular	-9077
essential	-9078
including	-9079
incorrect	-9080
ipulation	-9081
klessness	-9082
knowledge	-9083
missioner	-9084
munitions	-9085
nterprise	-9086
olesterol	-9087
oundation	-9088
processed	-9089
rologists	-9090
secretary	-9091
stretched	-9092
umlingtar	-9093
versioned	-9094
▁(1999).”	-9095
▁1,145,17	-9096
▁1,384,46	-9097
▁1964-65,	-9098
▁1964-65.	-9099
.”	-9100
Feb	-9101
Spe	-9102
peg	-9103
▁52	-9104
▁YA	-9105
Good	-9106
Must	-9107
That	-9108
onia	-9109
serv	-9110
▁1.8	-9111
▁YAH	-9112
▁row	-9113
Speak	-9114
aveth	-9115
ented	-9116
olved	-9117
ubmit	-9118
▁1962	-9119
▁Disp	-9120
▁Enan	-9121
▁Jpeg	-9122
▁Soon	-9123
▁Talk	-9124
▁YAHW	-9125
▁brow	-9126
▁ibed	-9127
▁newl	-9128
▁spat	-9129
▁till	-9130
aiting	-9131
atient	-9132
public	-9133
tified	-9134
▁Silas	-9135
▁YAHWE	-9136
▁brows	-9137
▁degre	-9138
▁foret	-9139
▁minim	-9140
▁newly	-9141
▁prays	-9142
Mustang	-9143
alified	-9144
ardener	-9145
service	-9146
▁YAHWEH	-9147
▁fallen	-9148
▁feasts	-9149
▁gather	-9150
▁potter	-9151
▁secure	-9152
▁sinner	-9153
acedonia	-9154
roughout	-9155
▁Talking	-9156
▁Waiting	-9157
▁baskets	-9158
▁degrees	-9159
▁scented	-9160
▁spatial	-9161
qualified	-9162
▁1979/80,	-9163
▁1979/80.	-9164
▁1984/85.	-9165
▁1990/91,	-9166
▁2043.4.1	-9167
▁5,00,000	-9168
▁863,537;	-9169
▁Academic	-9170
▁Amending	-9171
▁Announce	-9172
▁Anything	-9173
▁Approved	-9174
▁Arameans	-9175
▁Assorted	-9176
▁Assuming	-9177
▁Assyrian	-9178
▁Baptizer	-9179
▁Baseline	-9180
▁Bhrikuti	-9181
▁Birendra	-9182
▁Budhanil	-9183
▁Building	-9184
▁Bulletin	-9185
▁Calamity	-9186
▁Calendar	-9187
▁Canceled	-9188
▁Certific	-9189
▁Chapakot	-9190
▁Chiasmus	-9191
▁Circumst	-9192
▁Commands	-9193
▁Commerce	-9194
▁Constant	-9195
▁Continue	-9196
▁Corrects	-9197
▁Database	-9198
▁Daughter	-9199
▁DV	-9200
ahem	-9201
arth	-9202
home	-9203
path	-9204
phan	-9205
roph	-9206
sory	-9207
▁DVD	-9208
▁Dev	-9209
▁Jov	-9210
▁Mor	-9211
▁Oxy	-9212
▁Ras	-9213
▁Tea	-9214
▁rod	-9215
aterp	-9216
dness	-9217
emory	-9218
grind	-9219
▁(2).	-9220
▁Jova	-9221
▁Oxyg	-9222
▁Path	-9223
▁Rasu	-9224
▁arre	-9225
▁arri	-9226
▁arro	-9227
▁keys	-9228
▁knew	-9229
▁mapp	-9230
▁oint	-9231
▁quin	-9232
▁roas	-9233
Minist	-9234
icroph	-9235
sually	-9236
ulsory	-9237
wdness	-9238
▁Abort	-9239
▁Asaph	-9240
▁Earth	-9241
▁Rural	-9242
▁arrog	-9243
▁impol	-9244
▁multi	-9245
▁quite	-9246
▁smart	-9247
▁steal	-9248
▁twice	-9249
▁twist	-9250
grinder	-9251
ificant	-9252
phanage	-9253
ricular	-9254
▁Memory	-9255
▁Moriah	-9256
▁Oxygen	-9257
▁Rasuwa	-9258
▁arrest	-9259
▁arrive	-9260
▁caterp	-9261
▁consol	-9262
▁conson	-9263
▁quinqu	-9264
▁strang	-9265
Ministry	-9266
ationals	-9267
▁117,500	-9268
▁Menahem	-9269
▁Usually	-9270
▁assault	-9271
▁describ	-9272
▁majesty	-9273
▁mapping	-9274
▁microph	-9275
▁proving	-9276
▁roasted	-9277
▁shouldn	-9278
▁subpath	-9279
▁taxexem	-9280
▁thieves	-9281
▁twining	-9282
▁wherein	-9283
urricular	-9284
xhibition	-9285
▁Declared	-9286
▁Delaying	-9287
▁Detected	-9288
▁Dispatch	-9289
▁Document	-9290
▁Drinking	-9291
▁Electric	-9292
▁Eliasaph	-9293
▁Emphasis	-9294
▁Enclosed	-9295
▁Epiphany	-9296
▁Eshtemoa	-9297
▁European	-9298
▁Evidence	-9299
6(	-9300
:,	-9301
DN	-9302
URI	-9303
anty	-9304
emic	-9305
itty	-9306
reek	-9307
▁96(	-9308
▁MAS	-9309
▁RDN	-9310
▁Zab	-9311
▁lev	-9312
antal	-9313
isors	-9314
ivors	-9315
orses	-9316
perty	-9317
▁Acha	-9318
▁Jiri	-9319
▁Perm	-9320
▁Pous	-9321
▁Unid	-9322
▁Unit	-9323
▁Zabd	-9324
▁club	-9325
▁herd	-9326
▁invo	-9327
▁pret	-9328
▁ride	-9329
▁slot	-9330
aching	-9331
alents	-9332
forest	-9333
idemic	-9334
vivors	-9335
▁2011,	-9336
▁Greek	-9337
▁Poush	-9338
▁Zabdi	-9339
▁brass	-9340
▁clust	-9341
▁cries	-9342
▁flood	-9343
▁fools	-9344
▁monop	-9345
▁reach	-9346
▁thief	-9347
inantal	-9348
otating	-9349
pidemic	-9350
▁Achaia	-9351
▁Actual	-9352
▁filesy	-9353
▁horses	-9354
▁inspec	-9355
▁levied	-9356
▁overse	-9357
▁pretty	-9358
▁shitty	-9359
ployment	-9360
urvivors	-9361
▁Nations	-9362
▁invoice	-9363
▁rations	-9364
▁seminar	-9365
▁talents	-9366
ectations	-9367
▁Exceeded	-9368
▁Existing	-9369
▁Expenses	-9370
▁Facebook	-9371
▁Festival	-9372
▁Forestry	-9373
▁Frontier	-9374
▁Garrison	-9375
▁Gomorrah	-9376
▁Graphics	-9377
▁Hazeroth	-9378
▁Horizont	-9379
▁Inactive	-9380
▁Increase	-9381
▁Interest	-9382
▁Internal	-9383
▁Interval	-9384
▁Jebusite	-9385
▁Jeshanah	-9386
▁Jonathan	-9387
▁KDEPrint	-9388
▁KDevelop	-9389
▁KPresent	-9390
▁Keyboard	-9391
▁Logitech	-9392
▁Magnatun	-9393
▁Mahakali	-9394
▁Mahendra	-9395
▁Malaysia	-9396
▁Managing	-9397
▁Manually	-9398
▁Manufact	-9399
;-	-9400
Now	-9401
vey	-9402
▁LZ	-9403
▁ie	-9404
▁ja	-9405
▁jo	-9406
Face	-9407
atha	-9408
bout	-9409
ipso	-9410
jack	-9411
lace	-9412
nare	-9413
renc	-9414
said	-9415
▁LZW	-9416
▁jas	-9417
▁pie	-9418
About	-9419
enish	-9420
ensor	-9421
igail	-9422
ijack	-9423
inded	-9424
ivine	-9425
olish	-9426
ushed	-9427
▁Chao	-9428
▁Down	-9429
▁Jack	-9430
▁Kant	-9431
▁Over	-9432
▁Pack	-9433
▁cens	-9434
▁curf	-9435
▁fing	-9436
▁ipso	-9437
▁jail	-9438
▁rage	-9439
▁ware	-9440
ildren	-9441
minded	-9442
urpose	-9443
▁Kanti	-9444
▁Trish	-9445
▁accur	-9446
▁brail	-9447
▁javel	-9448
▁piece	-9449
▁sized	-9450
▁snare	-9451
▁space	-9452
▁spare	-9453
▁weeks	-9454
cribing	-9455
imately	-9456
mmittee	-9457
rencies	-9458
veyance	-9459
▁Censor	-9460
▁Divine	-9461
▁Jattir	-9462
▁Nahash	-9463
▁Tychic	-9464
▁censer	-9465
▁curfew	-9466
▁finger	-9467
▁hijack	-9468
▁jasper	-9469
▁joined	-9470
▁plight	-9471
▁pushed	-9472
▁relent	-9473
Printcap	-9474
foresaid	-9475
ipurpose	-9476
▁Abigail	-9477
▁Package	-9478
▁Replace	-9479
▁Trishul	-9480
▁braille	-9481
▁finance	-9482
▁javelin	-9483
▁parties	-9484
ativeness	-9485
rescribed	-9486
▁Ayurveda	-9487
▁Matthias	-9488
▁Meremoth	-9489
▁Methusel	-9490
▁Millions	-9491
▁Mostakim	-9492
▁Naphtali	-9493
▁Numerous	-9494
▁Petition	-9495
▁Planning	-9496
▁Polygons	-9497
▁Printcap	-9498
▁Priority	-9499
IV	-9500
-8,	-9501
876	-9502
anb	-9503
inf	-9504
▁Af	-9505
▁Tu	-9506
east	-9507
info	-9508
last	-9509
opag	-9510
rica	-9511
wood	-9512
▁HIV	-9513
▁Ish	-9514
▁Tux	-9515
Mural	-9516
astes	-9517
indic	-9518
orned	-9519
▁Arna	-9520
▁Glas	-9521
▁Issu	-9522
▁Sanb	-9523
▁Tool	-9524
▁disk	-9525
▁liar	-9526
▁mute	-9527
▁undo	-9528
asters	-9529
chases	-9530
onious	-9531
opagus	-9532
▁(1876	-9533
▁1997)	-9534
▁Glasn	-9535
▁Night	-9536
▁Water	-9537
▁dated	-9538
▁disse	-9539
▁liber	-9540
▁overl	-9541
▁yeast	-9542
allwood	-9543
idental	-9544
▁Africa	-9545
▁Consum	-9546
▁Reform	-9547
▁Sample	-9548
▁butter	-9549
▁closes	-9550
▁tastes	-9551
indicate	-9552
▁Animate	-9553
▁Discard	-9554
▁Sanball	-9555
▁Toolbox	-9556
▁adorned	-9557
▁emerald	-9558
▁liberal	-9559
▁notable	-9560
▁sonable	-9561
▁timeout	-9562
rightness	-9563
▁Glasnost	-9564
▁Hallwood	-9565
▁Issuance	-9566
▁Official	-9567
▁Performs	-9568
▁Priscila	-9569
▁Problems	-9570
▁Property	-9571
▁Railways	-9572
▁Rainfall	-9573
▁Received	-9574
▁Register	-9575
▁Rehoboam	-9576
▁Rehoboth	-9577
▁Reproofs	-9578
▁Sabbaths	-9579
▁Samachar	-9580
▁Security	-9581
▁Software	-9582
▁Speaking	-9583
▁Spinning	-9584
▁Suddenly	-9585
▁Supplies	-9586
▁Surveyor	-9587
▁Tarshish	-9588
▁Template	-9589
▁Transfus	-9590
▁Trekking	-9591
▁Trishuli	-9592
▁Tychicus	-9593
▁Udayapur	-9594
▁Underthe	-9595
▁Unsigned	-9596
▁Variable	-9597
▁Zanjebar	-9598
▁abundant	-9599
JO	-9600
JOE	-9601
aza	-9602
ows	-9603
voy	-9604
▁%(	-9605
ague	-9606
alah	-9607
ello	-9608
lank	-9609
nuff	-9610
sult	-9611
▁Bah	-9612
▁Boy	-9613
▁Cil	-9614
▁Moy	-9615
▁Sus	-9616
▁aga	-9617
▁gun	-9618
Hello	-9619
blank	-9620
grant	-9621
ician	-9622
ildew	-9623
umber	-9624
▁Aiah	-9625
▁Exam	-9626
▁Hele	-9627
▁Host	-9628
▁Rich	-9629
▁Ruth	-9630
▁Susp	-9631
▁Team	-9632
▁boil	-9633
▁ears	-9634
▁lens	-9635
▁sole	-9636
attend	-9637
gement	-9638
number	-9639
verted	-9640
▁Bahur	-9641
▁Boyce	-9642
▁Cause	-9643
▁Cilic	-9644
▁Helek	-9645
▁Moyaz	-9646
▁Plaza	-9647
▁TEKEL	-9648
▁defin	-9649
▁envoy	-9650
▁indec	-9651
▁landl	-9652
▁owing	-9653
▁snuff	-9654
▁sober	-9655
▁subse	-9656
isition	-9657
ivities	-9658
usician	-9659
▁16,502	-9660
▁Graham	-9661
▁Moyazz	-9662
▁Postal	-9663
▁behalf	-9664
▁mildew	-9665
▁plague	-9666
▁sandal	-9667
▁solely	-9668
▁widows	-9669
▁Bahurim	-9670
▁Cilicia	-9671
▁Consult	-9672
▁Gideoni	-9673
▁Jehoram	-9674
▁Rastriy	-9675
▁Richard	-9676
▁Taralah	-9677
▁affects	-9678
▁arccosh	-9679
▁contact	-9680
▁raining	-9681
quisition	-9682
▁Moyazzem	-9683
▁Musician	-9684
▁Rastriya	-9685
▁accurate	-9686
▁acquired	-9687
▁adapting	-9688
▁admitted	-9689
▁affected	-9690
▁analysis	-9691
▁anointed	-9692
▁assaults	-9693
▁assigned	-9694
▁assuming	-9695
▁attained	-9696
▁attempts	-9697
▁attitude	-9698
▁avoiding	-9699
11	-9700
Had	-9701
apu	-9702
map	-9703
see	-9704
▁Uk	-9705
▁Sex	-9706
▁tau	-9707
Hadad	-9708
apuan	-9709
ereal	-9710
itful	-9711
itmap	-9712
ossom	-9713
ostal	-9714
roine	-9715
utral	-9716
vings	-9717
▁Chil	-9718
▁Fire	-9719
▁Seed	-9720
▁deer	-9721
▁powe	-9722
▁rand	-9723
▁resc	-9724
▁spee	-9725
Postal	-9726
ablish	-9727
ressee	-9728
▁Deuel	-9729
▁Entry	-9730
▁James	-9731
▁baker	-9732
▁depre	-9733
▁ephod	-9734
▁outer	-9735
▁shine	-9736
▁stems	-9737
▁Bitmap	-9738
▁Papuan	-9739
▁cereal	-9740
▁deprec	-9741
▁expiry	-9742
▁forest	-9743
▁incand	-9744
▁layout	-9745
▁linear	-9746
▁milest	-9747
▁random	-9748
▁ration	-9749
▁rescue	-9750
▁speech	-9751
▁taught	-9752
retation	-9753
stration	-9754
▁Chilver	-9755
▁blossom	-9756
▁figures	-9757
▁heroine	-9758
▁neutral	-9759
▁provoke	-9760
▁renewal	-9761
▁savings	-9762
portation	-9763
pretation	-9764
vereignty	-9765
▁Industry	-9766
▁allowing	-9767
▁balances	-9768
▁baptized	-9769
▁bargains	-9770
▁behavior	-9771
▁bitterly	-9772
▁booklets	-9773
▁bragging	-9774
▁bringing	-9775
▁buttocks	-9776
▁canoeing	-9777
▁capitals	-9778
▁carriage	-9779
▁category	-9780
▁ceremony	-9781
▁chairman	-9782
▁channels	-9783
▁charging	-9784
▁chariots	-9785
▁checking	-9786
▁chloride	-9787
▁climatic	-9788
▁clusters	-9789
▁cohsolid	-9790
▁comments	-9791
▁complain	-9792
▁complied	-9793
▁conclude	-9794
▁consolid	-9795
▁contains	-9796
▁convened	-9797
▁convince	-9798
▁creating	-9799
ARS	-9800
ffs	-9801
oku	-9802
▁2(	-9803
▁48	-9804
▁JE	-9805
▁Na	-9806
▁Zo	-9807
HARS	-9808
Open	-9809
Used	-9810
agri	-9811
ahab	-9812
ocab	-9813
offs	-9814
ongg	-9815
prob	-9816
uary	-9817
▁483	-9818
▁Aff	-9819
▁JEW	-9820
▁Mib	-9821
▁Tro	-9822
▁ens	-9823
Leave	-9824
PHARS	-9825
alary	-9826
etype	-9827
onggL	-9828
ulary	-9829
under	-9830
▁2056	-9831
▁Butw	-9832
▁Cong	-9833
▁JEWS	-9834
▁Laws	-9835
▁Mary	-9836
▁Naom	-9837
▁Pray	-9838
▁Sick	-9839
▁Thom	-9840
▁Zoar	-9841
▁clay	-9842
▁mime	-9843
▁obta	-9844
▁vary	-9845
arated	-9846
atized	-9847
derful	-9848
enture	-9849
idated	-9850
itated	-9851
oliath	-9852
▁Hagri	-9853
▁Naomi	-9854
▁Praya	-9855
▁Rahab	-9856
▁Troas	-9857
▁brief	-9858
▁evild	-9859
▁hated	-9860
▁impor	-9861
▁moons	-9862
▁sends	-9863
▁shame	-9864
▁vocab	-9865
PHARSIN	-9866
imetype	-9867
onggLib	-9868
parated	-9869
▁Broker	-9870
▁Butwal	-9871
▁Cooper	-9872
▁Ephron	-9873
▁Mibhar	-9874
▁Salary	-9875
▁Sudoku	-9876
▁Thomas	-9877
▁evildo	-9878
▁quiver	-9879
▁scoffs	-9880
▁stated	-9881
ationary	-9882
mimetype	-9883
onderful	-9884
tainment	-9885
training	-9886
▁483,000	-9887
▁Affairs	-9888
▁Goliath	-9889
▁Rafting	-9890
▁carries	-9891
▁leather	-9892
▁venture	-9893
itability	-9894
separated	-9895
▁UPHARSIN	-9896
▁credited	-9897
▁criminal	-9898
▁crossing	-9899
Beh	-9900
Jew	-9901
gio	-9902
▁(5	-9903
Take	-9904
odes	-9905
▁(5)	-9906
▁75.	-9907
▁Inv	-9908
▁Jem	-9909
▁esc	-9910
▁tee	-9911
(....	-9912
ailer	-9913
aning	-9914
eward	-9915
plied	-9916
▁(4).	-9917
▁Gold	-9918
▁Heth	-9919
▁Unsu	-9920
▁Wail	-9921
▁bail	-9922
▁chry	-9923
▁escr	-9924
▁fake	-9925
▁lake	-9926
▁miry	-9927
▁upro	-9928
▁vail	-9929
Behold	-9930
Jewish	-9931
erance	-9932
grance	-9933
ivable	-9934
stands	-9935
▁Elihu	-9936
▁Jemim	-9937
▁Until	-9938
▁Write	-9939
▁nodes	-9940
▁slack	-9941
▁venge	-9942
lerance	-9943
roaning	-9944
uraging	-9945
▁2043.2	-9946
▁Invalu	-9947
▁Unsupp	-9948
▁anized	-9949
▁chance	-9950
▁uproar	-9951
ragrance	-9952
▁Hethlon	-9953
▁Jemimah	-9954
▁KBlocks	-9955
▁century	-9956
▁implied	-9957
▁prayers	-9958
▁steward	-9959
▁underst	-9960
▁Deokhuri	-9961
▁allocate	-9962
▁browsing	-9963
▁cultural	-9964
▁deadness	-9965
▁defeated	-9966
▁deleting	-9967
▁denounce	-9968
▁departed	-9969
▁deprived	-9970
▁descript	-9971
▁destroys	-9972
▁detailed	-9973
▁devotees	-9974
▁devoured	-9975
▁directed	-9976
▁disables	-9977
▁disgrace	-9978
▁disposed	-9979
▁divisors	-9980
▁downward	-9981
▁drilling	-9982
▁dropping	-9983
▁eighteen	-9984
▁election	-9985
▁electron	-9986
▁elements	-9987
▁elevated	-9988
▁eleventh	-9989
▁emperors	-9990
▁emphasis	-9991
▁emptying	-9992
▁encroach	-9993
▁ensuring	-9994
▁envelope	-9995
▁epidemic	-9996
▁expanded	-9997
▁expenses	-9998
▁exported	-9999
Edu	-10000
Put	-10001
dua	-10002
▁1/	-10003
▁MP	-10004
▁OK	-10005
▁OL	-10006
ades	-10007
bour	-10008
down	-10009
four	-10010
unah	-10011
year	-10012
▁Net	-10013
▁OLE	-10014
▁Our	-10015
▁Sum	-10016
▁lea	-10017
acket	-10018
addua	-10019
loris	-10020
▁Near	-10021
▁UNES	-10022
▁bits	-10023
▁chat	-10024
▁lang	-10025
BILITY	-10026
ambour	-10027
ecrypt	-10028
ighter	-10029
leases	-10030
packet	-10031
raunah	-10032
▁Again	-10033
▁Later	-10034
▁Sheol	-10035
▁UNESC	-10036
▁alone	-10037
▁mount	-10038
▁plate	-10039
▁plies	-10040
▁spent	-10041
▁stake	-10042
▁urged	-10043
atchcut	-10044
decrypt	-10045
ecuting	-10046
settled	-10047
xpacket	-10048
▁County	-10049
▁Jaddua	-10050
▁Summit	-10051
▁UNESCO	-10052
▁covers	-10053
▁inject	-10054
▁leaves	-10055
▁reduce	-10056
▁sender	-10057
▁themes	-10058
lorisand	-10059
ommittee	-10060
ructural	-10061
▁Araunah	-10062
▁Carpent	-10063
▁Copying	-10064
▁accused	-10065
▁bearing	-10066
▁confess	-10067
▁couches	-10068
▁facades	-10069
▁fighter	-10070
▁largest	-10071
▁opposed	-10072
▁pleases	-10073
▁tambour	-10074
▁worried	-10075
Committee	-10076
opulation	-10077
▁180,000.	-10078
▁Watchcut	-10079
▁definite	-10080
▁feasible	-10081
▁fileform	-10082
▁filtered	-10083
▁financed	-10084
▁finances	-10085
▁fixation	-10086
▁flashing	-10087
▁followin	-10088
▁foretold	-10089
▁forwards	-10090
▁gardener	-10091
▁generals	-10092
▁goattend	-10093
▁goodness	-10094
▁greenish	-10095
▁handmaid	-10096
▁hardware	-10097
▁holdings	-10098
▁hospital	-10099
wra	-10100
▁Oh	-10101
▁Uz	-10102
Look	-10103
arts	-10104
ette	-10105
etus	-10106
ivos	-10107
oard	-10108
olia	-10109
oshe	-10110
oves	-10111
rete	-10112
rote	-10113
utor	-10114
wrap	-10115
▁38)	-10116
▁Rai	-10117
▁Wor	-10118
▁spl	-10119
Board	-10120
asite	-10121
count	-10122
osive	-10123
▁Abim	-10124
▁Anne	-10125
▁Bott	-10126
▁Game	-10127
▁Inqu	-10128
▁Thir	-10129
▁West	-10130
▁deed	-10131
▁face	-10132
▁hass	-10133
▁lame	-10134
▁oard	-10135
▁rent	-10136
▁sapp	-10137
antast	-10138
fcount	-10139
ifolia	-10140
osheth	-10141
starts	-10142
▁Daman	-10143
▁Hivos	-10144
▁Terah	-10145
▁Third	-10146
▁World	-10147
▁haste	-10148
▁homel	-10149
▁plent	-10150
▁poles	-10151
▁sapph	-10152
▁split	-10153
▁whose	-10154
▁wrote	-10155
arasite	-10156
▁Bottom	-10157
▁Compen	-10158
▁anoint	-10159
▁clicks	-10160
▁drawer	-10161
▁latent	-10162
▁repair	-10163
antastic	-10164
arcation	-10165
▁Abimael	-10166
▁Birgunj	-10167
▁Bosheth	-10168
▁Clement	-10169
▁Inquiry	-10170
▁Norwest	-10171
▁Removes	-10172
▁hassles	-10173
▁impetus	-10174
▁missing	-10175
▁palette	-10176
▁protest	-10177
▁tlacoyo	-10178
repancies	-10179
▁Parasite	-10180
▁Refcount	-10181
▁concrete	-10182
▁confused	-10183
▁homeland	-10184
▁husbands	-10185
▁improper	-10186
▁improved	-10187
▁improves	-10188
▁inactive	-10189
▁incandes	-10190
▁indecent	-10191
▁indicate	-10192
▁informed	-10193
▁inherent	-10194
▁inhibits	-10195
▁initiate	-10196
▁inquired	-10197
▁instance	-10198
▁interval	-10199
1).	-10200
Sub	-10201
ato	-10202
dru	-10203
itc	-10204
-10,	-10205
Vice	-10206
drug	-10207
gola	-10208
inah	-10209
mala	-10210
quet	-10211
ubim	-10212
▁Cle	-10213
▁Fat	-10214
▁Fet	-10215
▁Jub	-10216
▁Rac	-10217
▁Yah	-10218
▁ban	-10219
▁ice	-10220
▁jal	-10221
alice	-10222
arges	-10223
arsed	-10224
itche	-10225
malaf	-10226
sumin	-10227
▁0.25	-10228
▁Abid	-10229
▁Fine	-10230
▁Kore	-10231
▁Mant	-10232
▁cher	-10233
▁drop	-10234
▁exag	-10235
▁seas	-10236
▁seer	-10237
▁sort	-10238
▁Clear	-10239
▁Dinah	-10240
▁Fatal	-10241
▁Fetch	-10242
▁Mante	-10243
▁Trash	-10244
▁inner	-10245
▁intim	-10246
▁lamps	-10247
▁music	-10248
▁perce	-10249
ception	-10250
hearsed	-10251
itchell	-10252
ordless	-10253
▁Abidan	-10254
▁Expert	-10255
▁Korean	-10256
▁Manteo	-10257
▁Maroth	-10258
▁Rachel	-10259
▁criter	-10260
▁deadly	-10261
▁malice	-10262
▁potato	-10263
▁rebuke	-10264
▁united	-10265
Bulletin	-10266
malafide	-10267
▁Charges	-10268
▁Jubilee	-10269
▁Working	-10270
▁assumin	-10271
▁banquet	-10272
▁bumping	-10273
▁capable	-10274
▁compost	-10275
▁exports	-10276
▁kharpan	-10277
▁looking	-10278
▁pergola	-10279
▁removal	-10280
▁Cordless	-10281
▁Displays	-10282
▁Mitchell	-10283
▁cherubim	-10284
▁criteria	-10285
▁inviting	-10286
▁isotopes	-10287
▁journeys	-10288
▁judicial	-10289
▁kingdoms	-10290
▁launcher	-10291
▁lawgiver	-10292
▁learning	-10293
▁lewdness	-10294
▁literacy	-10295
▁magazine	-10296
▁medcines	-10297
▁meetings	-10298
▁memorial	-10299
/6	-10300
Ik	-10301
/65	-10302
elc	-10303
▁27	-10304
▁RM	-10305
▁Sa	-10306
Ikim	-10307
Lest	-10308
Love	-10309
fect	-10310
long	-10311
nome	-10312
phaz	-10313
▁23,	-10314
▁Cry	-10315
▁Cut	-10316
▁Eat	-10317
▁Jet	-10318
▁RMS	-10319
▁Und	-10320
▁unt	-10321
abesh	-10322
acant	-10323
gnome	-10324
olios	-10325
ordic	-10326
otive	-10327
stage	-10328
▁Dest	-10329
▁Undo	-10330
▁dumb	-10331
▁lord	-10332
▁seal	-10333
▁vote	-10334
▁welc	-10335
anying	-10336
import	-10337
motive	-10338
orders	-10339
▁Annex	-10340
▁Major	-10341
▁Saved	-10342
▁Uphaz	-10343
▁WIkim	-10344
▁agent	-10345
▁autod	-10346
▁basin	-10347
▁haven	-10348
▁parad	-10349
▁prime	-10350
▁roars	-10351
▁Action	-10352
▁Ensure	-10353
▁Jabesh	-10354
▁Jether	-10355
▁Nordic	-10356
▁Secure	-10357
▁beaten	-10358
▁floats	-10359
▁parado	-10360
▁partly	-10361
▁remark	-10362
▁untied	-10363
▁vacant	-10364
▁(2005),	-10365
▁1964/65	-10366
▁Borders	-10367
▁Undoing	-10368
▁autodet	-10369
▁cutting	-10370
▁newborn	-10371
▁paradox	-10372
▁perfect	-10373
▁prolong	-10374
▁trusted	-10375
▁welcome	-10376
▁$26,956,	-10377
▁defaults	-10378
▁grouping	-10379
▁leftmost	-10380
▁midnight	-10381
▁ministry	-10382
▁minivans	-10383
▁monopoly	-10384
▁newlines	-10385
▁nonexist	-10386
▁normally	-10387
▁notifies	-10388
▁numerous	-10389
▁observer	-10390
▁occasion	-10391
▁occupant	-10392
▁ointment	-10393
▁ommittee	-10394
▁ordering	-10395
▁ordinary	-10396
▁oriented	-10397
▁overlaid	-10398
▁partners	-10399
bon	-10400
▁Ai	-10401
▁DB	-10402
adis	-10403
band	-10404
dess	-10405
dine	-10406
sind	-10407
▁Hep	-10408
▁Hin	-10409
▁bem	-10410
▁hay	-10411
▁hid	-10412
▁jar	-10413
etors	-10414
oster	-10415
urder	-10416
▁Bell	-10417
▁Find	-10418
▁Foot	-10419
▁Late	-10420
▁adul	-10421
▁noon	-10422
▁roof	-10423
▁tile	-10424
akings	-10425
anadis	-10426
icated	-10427
rooked	-10428
sindex	-10429
▁Hindu	-10430
▁Light	-10431
▁draws	-10432
▁fatal	-10433
▁highe	-10434
▁hilly	-10435
▁miles	-10436
▁ropes	-10437
▁shore	-10438
▁stall	-10439
Vanadis	-10440
acherib	-10441
ormally	-10442
rietors	-10443
▁Hepher	-10444
▁Option	-10445
▁angels	-10446
▁carbon	-10447
▁facult	-10448
▁incase	-10449
▁insign	-10450
▁murder	-10451
edicated	-10452
normally	-10453
▁Galilee	-10454
▁Insurer	-10455
▁adulter	-10456
▁bemused	-10457
▁checker	-10458
▁crooked	-10459
▁dressed	-10460
▁express	-10461
▁faculty	-10462
▁goddess	-10463
▁helping	-10464
▁highest	-10465
▁platter	-10466
▁rooster	-10467
▁seizure	-10468
▁serious	-10469
▁ssindex	-10470
▁Optional	-10471
▁Rotating	-10472
▁Teaching	-10473
▁adultery	-10474
▁captains	-10475
▁deletion	-10476
▁frequent	-10477
▁invested	-10478
▁password	-10479
▁perceive	-10480
▁personal	-10481
▁perspect	-10482
▁populace	-10483
▁positive	-10484
▁possibly	-10485
▁postpone	-10486
▁practise	-10487
▁preached	-10488
▁precious	-10489
▁prelight	-10490
▁presence	-10491
▁preserve	-10492
▁printers	-10493
▁promised	-10494
▁promoter	-10495
▁prophecy	-10496
▁prophesy	-10497
▁provider	-10498
▁province	-10499
,-	-10500
//	-10501
://	-10502
Are	-10503
His	-10504
ape	-10505
yen	-10506
▁$3	-10507
▁),	-10508
▁."	-10509
from	-10510
imed	-10511
left	-10512
omin	-10513
omit	-10514
prom	-10515
pter	-10516
tate	-10517
term	-10518
▁10,	-10519
▁19.	-10520
▁cas	-10521
▁hav	-10522
anted	-10523
enant	-10524
eping	-10525
romit	-10526
▁Amen	-10527
▁Hill	-10528
▁bill	-10529
▁plow	-10530
▁vice	-10531
Tenant	-10532
cepter	-10533
ominic	-10534
plaint	-10535
promot	-10536
▁Arise	-10537
▁Shell	-10538
▁Speak	-10539
▁aimed	-10540
▁forge	-10541
▁havin	-10542
▁overc	-10543
▁prove	-10544
▁shape	-10545
▁simil	-10546
▁strip	-10547
▁vomit	-10548
Contain	-10549
iscated	-10550
▁KMouth	-10551
▁alarms	-10552
▁casual	-10553
▁fellow	-10554
▁gromit	-10555
▁herbal	-10556
▁powder	-10557
▁ranted	-10558
▁repeat	-10559
▁rotate	-10560
▁semest	-10561
▁textbo	-10562
▁underm	-10563
▁waited	-10564
monthday	-10565
ominican	-10566
▁Hearing	-10567
▁Setting	-10568
▁Spacing	-10569
▁carrier	-10570
▁ensured	-10571
▁folding	-10572
▁mplaint	-10573
▁scepter	-10574
▁scoured	-10575
▁similar	-10576
Container	-10577
promotion	-10578
▁Airlines	-10579
▁Jephthah	-10580
▁designed	-10581
▁diagnose	-10582
▁embezzle	-10583
▁measured	-10584
▁mightily	-10585
▁notation	-10586
▁overcame	-10587
▁publicly	-10588
▁quenched	-10589
▁querying	-10590
▁railways	-10591
▁rainfall	-10592
▁reaction	-10593
▁reflects	-10594
▁refunded	-10595
▁regarded	-10596
▁released	-10597
▁relieved	-10598
▁religion	-10599
▁?	-10600
Ben	-10601
aba	-10602
nic	-10603
▁40	-10604
▁DP	-10605
▁Dj	-10606
▁PH	-10607
abas	-10608
firm	-10609
mete	-10610
ulse	-10611
your	-10612
▁203	-10613
▁Bad	-10614
▁DPI	-10615
▁DjV	-10616
▁Nom	-10617
▁PHP	-10618
▁Pay	-10619
▁Tab	-10620
▁War	-10621
▁bye	-10622
▁cop	-10623
▁eth	-10624
▁hem	-10625
David	-10626
illed	-10627
inner	-10628
ister	-10629
nabas	-10630
▁2020	-10631
▁2031	-10632
▁2035	-10633
▁Cell	-10634
▁Dare	-10635
▁Dine	-10636
▁DjVu	-10637
▁Haba	-10638
▁Kick	-10639
▁NGOs	-10640
▁Pers	-10641
▁bone	-10642
▁mine	-10643
▁puts	-10644
▁reve	-10645
▁ring	-10646
▁scab	-10647
▁skin	-10648
▁trap	-10649
▁wire	-10650
kinner	-10651
making	-10652
meteor	-10653
nicity	-10654
▁Nomur	-10655
▁Taber	-10656
▁clist	-10657
▁crack	-10658
▁noise	-10659
▁pulse	-10660
▁sizes	-10661
▁Emails	-10662
▁Nomura	-10663
▁copies	-10664
▁fluent	-10665
▁learnt	-10666
▁sation	-10667
▁sister	-10668
approved	-10669
▁$13.625	-10670
▁Chaitra	-10671
▁Gehenna	-10672
▁Integra	-10673
▁Payment	-10674
▁Persian	-10675
▁Skinner	-10676
▁Taberah	-10677
▁Warning	-10678
▁filling	-10679
▁porting	-10680
▁reveals	-10681
▁Barnabas	-10682
▁bilinear	-10683
▁demolish	-10684
▁efficacy	-10685
▁likewise	-10686
▁repealed	-10687
▁replaced	-10688
▁resolved	-10689
▁retailer	-10690
▁reviewer	-10691
▁roadside	-10692
▁sanction	-10693
▁sapphire	-10694
▁screened	-10695
▁scripted	-10696
▁searcity	-10697
▁seashore	-10698
▁sections	-10699
--	-10700
On	-10701
Sir	-10702
TIO	-10703
Tod	-10704
ops	-10705
zil	-10706
▁(6	-10707
▁Gy	-10708
▁km	-10709
TION	-10710
Wise	-10711
each	-10712
inth	-10713
odom	-10714
oles	-10715
▁30,	-10716
▁Gyi	-10717
▁gif	-10718
▁hin	-10719
▁ony	-10720
▁yes	-10721
Teach	-10722
Today	-10723
Watch	-10724
aving	-10725
enate	-10726
razil	-10727
sized	-10728
ulner	-10729
▁Asia	-10730
▁Sing	-10731
▁Zeal	-10732
▁numb	-10733
▁onyx	-10734
▁roll	-10735
▁swit	-10736
ployee	-10737
wanpur	-10738
▁2049”	-10739
▁Sodom	-10740
▁caste	-10741
▁conic	-10742
▁gifts	-10743
▁holes	-10744
▁loops	-10745
▁ninth	-10746
▁scare	-10747
▁weren	-10748
Current	-10749
mployee	-10750
▁Brazil	-10751
▁Senate	-10752
▁estate	-10753
▁imposs	-10754
▁spaces	-10755
▁titled	-10756
▁vulner	-10757
Employee	-10758
▁Zealand	-10759
▁ZeroCon	-10760
▁ceiling	-10761
▁ciphers	-10762
▁compile	-10763
▁element	-10764
▁fillets	-10765
▁mission	-10766
▁numbers	-10767
▁quicker	-10768
▁usually	-10769
▁weaving	-10770
▁Debugger	-10771
▁Multiple	-10772
▁Remember	-10773
▁ZeroConf	-10774
▁equipped	-10775
▁optional	-10776
▁payments	-10777
▁purchase	-10778
▁railings	-10779
▁securely	-10780
▁sequence	-10781
▁shakeser	-10782
▁shortcut	-10783
▁silenced	-10784
▁skillful	-10785
▁snuffers	-10786
▁southern	-10787
▁speeches	-10788
▁splitter	-10789
▁spoilers	-10790
▁stranger	-10791
▁stronger	-10792
▁struggle	-10793
▁suddenly	-10794
▁superior	-10795
▁sweeping	-10796
▁switched	-10797
▁textfile	-10798
▁thoughts	-10799
',	-10800
lu	-10801
Inc	-10802
eek	-10803
eri	-10804
inu	-10805
olf	-10806
xes	-10807
▁CD	-10808
▁LU	-10809
▁OR	-10810
Ainu	-10811
Year	-10812
amin	-10813
ffal	-10814
ilet	-10815
olan	-10816
▁Win	-10817
▁bin	-10818
▁fro	-10819
▁nay	-10820
ffalo	-10821
igher	-10822
itres	-10823
ivals	-10824
oment	-10825
▁$352	-10826
▁Oath	-10827
▁axes	-10828
▁bare	-10829
▁fish	-10830
▁ince	-10831
▁offe	-10832
▁outl	-10833
▁ward	-10834
Income	-10835
alleri	-10836
likely	-10837
ritten	-10838
▁Ammon	-10839
▁Baash	-10840
▁Dolan	-10841
▁Jones	-10842
▁Trump	-10843
▁comma	-10844
▁opens	-10845
▁polls	-10846
▁spool	-10847
▁1991-9	-10848
▁Baasha	-10849
▁HEIGHT	-10850
▁Hetuda	-10851
▁Higher	-10852
▁Irpeel	-10853
▁binary	-10854
▁claims	-10855
▁detour	-10856
▁litres	-10857
▁moment	-10858
▁outlay	-10859
▁throws	-10860
▁thrust	-10861
▁toilet	-10862
▁unused	-10863
▁widely	-10864
▁Buffalo	-10865
▁Kenites	-10866
▁Salleri	-10867
▁Storing	-10868
▁Written	-10869
▁crashes	-10870
▁encoder	-10871
▁failing	-10872
▁residue	-10873
Kathmandu	-10874
epartment	-10875
racturing	-10876
▁1991-92,	-10877
▁Ammonite	-10878
▁Minigolf	-10879
▁Newsweek	-10880
▁listened	-10881
▁offender	-10882
▁preacher	-10883
▁sentence	-10884
▁stepping	-10885
▁tooltips	-10886
▁tourists	-10887
▁transfer	-10888
▁treading	-10889
▁trembled	-10890
▁tribunal	-10891
▁troubles	-10892
▁truthful	-10893
▁uncultiv	-10894
▁unlawful	-10895
▁unlikely	-10896
▁updating	-10897
▁upgraded	-10898
▁utilized	-10899
')	-10900
FTP	-10901
How	-10902
bid	-10903
chy	-10904
eme	-10905
fed	-10906
may	-10907
uns	-10908
▁('	-10909
▁4,	-10910
▁6)	-10911
▁83	-10912
▁Ax	-10913
buns	-10914
ilst	-10915
mill	-10916
rian	-10917
sper	-10918
tthe	-10919
▁20,	-10920
▁21,	-10921
▁Jah	-10922
▁lot	-10923
▁sur	-10924
erted	-10925
luted	-10926
▁255.	-10927
▁Axis	-10928
▁clip	-10929
▁comb	-10930
▁gFTP	-10931
▁ined	-10932
▁reed	-10933
▁rude	-10934
▁sash	-10935
▁shot	-10936
arized	-10937
bunsen	-10938
mented	-10939
▁Agent	-10940
▁Bread	-10941
▁beast	-10942
▁parse	-10943
▁saves	-10944
▁spite	-10945
▁surre	-10946
sharing	-10947
▁29,000	-10948
▁Adrian	-10949
▁Cauchy	-10950
▁Double	-10951
▁Jahath	-10952
▁combat	-10953
▁studio	-10954
▁whilst	-10955
▁1982/83	-10956
▁Channel	-10957
▁Gittite	-10958
▁embroid	-10959
▁prosper	-10960
provement	-10961
▁Envelope	-10962
▁Horonaim	-10963
▁Inserted	-10964
▁Threaded	-10965
▁curtains	-10966
▁polluted	-10967
▁sexually	-10968
▁stubborn	-10969
▁valuable	-10970
▁variable	-10971
▁versions	-10972
▁visiting	-10973
▁visitors	-10974
▁voidable	-10975
▁warranty	-10976
▁watching	-10977
▁watchman	-10978
▁weakened	-10979
▁whenever	-10980
▁wherever	-10981
▁wildlife	-10982
▁yielding	-10983
ARArmenian	-10984
Assessable	-10985
Department	-10986
Enterprise	-10987
Exhibition	-10988
Management	-10989
Prescribed	-10990
Registered	-10991
ablishment	-10992
alspecific	-10993
articulars	-10994
ascinating	-10995
cumulative	-10996
curricular	-10997
disturbing	-10998
employment	-10999
-8	-11000
3)	-11001
LC	-11002
PE	-11003
(3)	-11004
PEG	-11005
rey	-11006
▁DT	-11007
▁IC	-11008
▁OF	-11009
▁PN	-11010
▁Sm	-11011
rals	-11012
reyj	-11013
rose	-11014
umbu	-11015
▁DTE	-11016
▁ICC	-11017
▁PLC	-11018
▁PNM	-11019
▁Sar	-11020
▁ect	-11021
cured	-11022
earch	-11023
lonia	-11024
reyja	-11025
▁Cost	-11026
▁DTEP	-11027
▁Didn	-11028
▁Fail	-11029
▁JPEG	-11030
▁Line	-11031
▁Rice	-11032
▁Shah	-11033
▁boat	-11034
▁bulb	-11035
▁ctrl	-11036
▁forB	-11037
▁inse	-11038
▁thin	-11039
4.5.19	-11040
▁Sarah	-11041
▁Smith	-11042
▁arose	-11043
▁bevel	-11044
▁extra	-11045
▁merit	-11046
▁sands	-11047
▁shake	-11048
▁stash	-11049
ollonia	-11050
omation	-11051
▁Effect	-11052
▁Freyja	-11053
▁Jacobi	-11054
▁Search	-11055
▁Spread	-11056
▁Swahil	-11057
▁ectres	-11058
▁figure	-11059
▁notify	-11060
▁polite	-11061
▁socket	-11062
▁tongue	-11063
▁uphold	-11064
▁wizard	-11065
purchase	-11066
▁916,000	-11067
▁Almodad	-11068
▁Commons	-11069
▁Failure	-11070
▁Swahili	-11071
▁Trained	-11072
▁climber	-11073
▁consume	-11074
▁jumping	-11075
▁quarter	-11076
▁Sequence	-11077
▁autonomy	-11078
▁drinkers	-11079
▁groaning	-11080
▁identity	-11081
▁meantime	-11082
▁procured	-11083
Government	-11084
enthiazide	-11085
ertilisers	-11086
ertilizers	-11087
ervAuthDir	-11088
government	-11089
gregations	-11090
irectional	-11091
khaldhunga	-11092
onstration	-11093
orestation	-11094
orruptible	-11095
reasonable	-11096
references	-11097
retroviral	-11098
revolution	-11099
At	-11100
NA	-11101
NAC	-11102
ica	-11103
▁-1	-11104
▁34	-11105
▁RG	-11106
▁TB	-11107
▁ls	-11108
None	-11109
RNAC	-11110
hite	-11111
iles	-11112
mall	-11113
onth	-11114
user	-11115
▁Ged	-11116
▁Med	-11117
▁RGB	-11118
▁asc	-11119
▁lag	-11120
▁sum	-11121
Month	-11122
Small	-11123
jects	-11124
white	-11125
▁Done	-11126
▁Noah	-11127
▁Site	-11128
▁perp	-11129
▁pour	-11130
▁worn	-11131
▁Fully	-11132
▁Geder	-11133
▁Moves	-11134
▁ascer	-11135
▁grass	-11136
▁sells	-11137
▁tiles	-11138
▁worth	-11139
handled	-11140
mention	-11141
objects	-11142
▁Centre	-11143
▁Charge	-11144
▁protoc	-11145
▁rubbed	-11146
▁stands	-11147
▁timely	-11148
approval	-11149
▁45,400.	-11150
▁Banking	-11151
▁Medical	-11152
▁alizing	-11153
▁factual	-11154
▁reached	-11155
Secretary	-11156
mentioned	-11157
ssalonica	-11158
▁Simulate	-11159
▁bulwarks	-11160
▁computed	-11161
▁garrison	-11162
▁ineffect	-11163
▁mentally	-11164
▁protocol	-11165
▁resubmit	-11166
▁tubewell	-11167
teratively	-11168
▁$158,666,	-11169
▁.........	-11170
▁1,145,178	-11171
▁1,384,468	-11172
▁2043.2.12	-11173
▁2049(....	-11174
▁2064.5.19	-11175
▁5,00,000/	-11176
▁8,182,800	-11177
▁Admission	-11178
▁Agreement	-11179
▁Americans	-11180
▁Analyzing	-11181
▁Annuities	-11182
▁Annulment	-11183
▁Apollonia	-11184
▁Areopagus	-11185
▁Ashtaroth	-11186
▁Assyrians	-11187
▁Available	-11188
▁Barsabbas	-11189
▁Benjamite	-11190
▁Bhaktapur	-11191
▁Bioenergy	-11192
▁Bulgarian	-11193
▁Certifier	-11194
▁Chaldeans	-11195
▁Chartered	-11196
▁Chevrolet	-11197
▁Chisapani	-11198
▁Collected	-11199
/.	-11200
43	-11201
?'	-11202
.).	-11203
43:	-11204
All	-11205
igo	-11206
ods	-11207
sue	-11208
▁"'	-11209
▁FS	-11210
ales	-11211
gods	-11212
kind	-11213
▁FTP	-11214
▁Pur	-11215
▁anx	-11216
inges	-11217
▁2.4%	-11218
▁Hort	-11219
▁fade	-11220
▁fins	-11221
▁star	-11222
▁upst	-11223
During	-11224
ighted	-11225
▁2016,	-11226
▁Audit	-11227
▁Jakim	-11228
▁Joram	-11229
▁Mouth	-11230
▁beans	-11231
▁flags	-11232
▁pound	-11233
▁prose	-11234
▁risky	-11235
▁thank	-11236
▁vance	-11237
ressors	-11238
▁Indigo	-11239
▁Pursue	-11240
▁Saturn	-11241
▁comply	-11242
▁decree	-11243
▁hinges	-11244
▁scales	-11245
▁virtue	-11246
notation	-11247
▁Bagmati	-11248
▁Restore	-11249
▁SavePir	-11250
▁abiding	-11251
▁flowing	-11252
▁replies	-11253
tionately	-11254
▁$18,000,	-11255
▁1990-91,	-11256
▁Duration	-11257
▁Infrared	-11258
▁Starting	-11259
▁blessing	-11260
▁changing	-11261
▁eligible	-11262
▁entities	-11263
▁exerting	-11264
▁forsaken	-11265
▁injected	-11266
▁judgment	-11267
▁solution	-11268
▁upstairs	-11269
▁Collector	-11270
▁Competent	-11271
▁Currently	-11272
▁Democrats	-11273
▁Detainees	-11274
▁Dominican	-11275
▁Dovelelop	-11276
▁Evolution	-11277
▁Excessive	-11278
▁Executing	-11279
▁Following	-11280
▁Freelance	-11281
▁Himalayan	-11282
▁Implement	-11283
▁Indonesia	-11284
▁Intensive	-11285
▁Interview	-11286
▁Kronecker	-11287
▁Liability	-11288
▁MERCHANTA	-11289
▁Macedonia	-11290
▁Magnatune	-11291
▁Mahanthas	-11292
▁Makwanpur	-11293
▁Malformed	-11294
▁Manichuda	-11295
▁Mentioned	-11296
▁Miniature	-11297
▁Ministers	-11298
▁Nathanael	-11299
DI	-11300
Pl	-11301
HIS	-11302
Mid	-11303
mPl	-11304
▁Br	-11305
▁IO	-11306
▁ON	-11307
▁fm	-11308
▁ov	-11309
▁rs	-11310
...?	-11311
Saul	-11312
THIS	-11313
eror	-11314
irus	-11315
▁(26	-11316
▁29;	-11317
▁CDE	-11318
▁Non	-11319
▁SDI	-11320
▁red	-11321
▁tor	-11322
Virus	-11323
apped	-11324
mPlot	-11325
▁,000	-11326
▁1988	-11327
▁2017	-11328
▁Brit	-11329
▁East	-11330
▁Seir	-11331
▁Walk	-11332
▁coat	-11333
▁lips	-11334
▁peas	-11335
▁perm	-11336
▁tear	-11337
▁tore	-11338
Yahweh	-11339
uching	-11340
▁Debir	-11341
▁Mians	-11342
▁Paper	-11343
▁Sword	-11344
▁catch	-11345
▁guess	-11346
▁zones	-11347
Officer	-11348
▁Adding	-11349
▁Birend	-11350
▁Isaiah	-11351
▁KmPlot	-11352
▁Libnah	-11353
▁ceased	-11354
▁depute	-11355
▁listed	-11356
▁relate	-11357
election	-11358
inations	-11359
▁(1964).	-11360
▁British	-11361
▁claimed	-11362
▁copying	-11363
▁eastern	-11364
▁greatly	-11365
▁opposes	-11366
▁peasant	-11367
▁willing	-11368
Selection	-11369
interfere	-11370
▁Auditors	-11371
▁Caesarea	-11372
▁Miansari	-11373
▁Nautilus	-11374
▁Province	-11375
▁Silently	-11376
▁benefits	-11377
▁fullness	-11378
▁integers	-11379
▁touching	-11380
▁Konqueror	-11381
▁Nepalgunj	-11382
▁Objection	-11383
▁Objective	-11384
▁Officials	-11385
▁Operation	-11386
▁Overwrite	-11387
▁Pashinyan	-11388
▁Performed	-11389
▁Pharisees	-11390
▁Preparing	-11391
▁Principal	-11392
▁Prisoners	-11393
▁Rabshakeh	-11394
▁Recommend	-11395
▁Recording	-11396
▁Reference	-11397
▁Righteous	-11398
▁Sanballat	-11399
%%	-11400
;'	-11401
uw	-11402
"),	-11403
Son	-11404
▁TG	-11405
▁sq	-11406
erer	-11407
ring	-11408
▁'):	-11409
▁116	-11410
▁28,	-11411
▁Nuw	-11412
▁rea	-11413
Cause	-11414
Table	-11415
Where	-11416
rists	-11417
tunes	-11418
▁Call	-11419
▁Dise	-11420
▁Kent	-11421
▁Peor	-11422
▁Seti	-11423
▁Wild	-11424
▁boys	-11425
▁ends	-11426
▁pans	-11427
▁ruby	-11428
▁sees	-11429
▁skip	-11430
▁wasn	-11431
Cursed	-11432
Forest	-11433
health	-11434
illars	-11435
usable	-11436
▁alert	-11437
▁imbal	-11438
▁wives	-11439
ections	-11440
portion	-11441
▁Dialog	-11442
▁Oldest	-11443
▁astray	-11444
▁grants	-11445
▁marked	-11446
▁marker	-11447
▁purify	-11448
▁purity	-11449
▁robbed	-11450
▁visual	-11451
▁Disease	-11452
▁Nuwakot	-11453
▁Outlook	-11454
▁Seizure	-11455
▁christs	-11456
▁defined	-11457
▁despite	-11458
▁palaces	-11459
▁pillars	-11460
▁raisins	-11461
▁utensil	-11462
▁yielded	-11463
▁1956/57,	-11464
▁Attempts	-11465
▁Monetary	-11466
▁Together	-11467
▁bookmark	-11468
▁htsearch	-11469
▁Alexander	-11470
▁Formation	-11471
▁SavePirin	-11472
▁Schedules	-11473
▁Selecting	-11474
▁Separator	-11475
▁Shecaniah	-11476
▁Shelemiah	-11477
▁Solarized	-11478
▁Stephanas	-11479
▁Structure	-11480
▁Survivors	-11481
▁Swasthani	-11482
▁Telegraph	-11483
▁Treasurer	-11484
▁Tribhuvan	-11485
▁Ukrainian	-11486
▁Valuation	-11487
▁Variation	-11488
▁Voluntary	-11489
▁WIkimedia	-11490
▁Wednesday	-11491
▁Wonderful	-11492
▁accepting	-11493
▁acquiring	-11494
▁activists	-11495
▁admixture	-11496
▁advancing	-11497
▁adversary	-11498
▁adversely	-11499
";	-11500
(9	-11501
)2	-11502
,.	-11503
-3	-11504
20	-11505
Md	-11506
fs	-11507
km	-11508
(9)	-11509
1)2	-11510
Ray	-11511
vfs	-11512
▁ot	-11513
...8	-11514
love	-11515
▁50)	-11516
▁720	-11517
▁9:-	-11518
▁Dow	-11519
▁Run	-11520
▁mph	-11521
Those	-11522
illar	-11523
seven	-11524
▁2014	-11525
▁Gedi	-11526
▁Take	-11527
▁goes	-11528
▁mate	-11529
▁pair	-11530
▁pink	-11531
▁sets	-11532
▁skew	-11533
▁urls	-11534
1888).	-11535
▁1955,	-11536
▁Align	-11537
▁Aphek	-11538
▁Dipak	-11539
▁Happy	-11540
▁chose	-11541
▁flour	-11542
▁guilt	-11543
▁rooms	-11544
▁wrath	-11545
manager	-11546
▁Acting	-11547
▁Garden	-11548
▁Invert	-11549
▁Record	-11550
▁constn	-11551
▁covert	-11552
▁cursed	-11553
▁ntione	-11554
▁shrewd	-11555
▁simult	-11556
▁update	-11557
▁Against	-11558
▁Ephesus	-11559
▁Regular	-11560
▁calling	-11561
▁casting	-11562
▁helpful	-11563
▁planted	-11564
▁reaches	-11565
threefold	-11566
▁December	-11567
▁November	-11568
▁approves	-11569
▁checkbox	-11570
▁declined	-11571
▁deducted	-11572
▁enabling	-11573
▁engaging	-11574
▁famished	-11575
▁fighting	-11576
▁ignorant	-11577
▁injuries	-11578
▁kindness	-11579
▁socially	-11580
▁vernment	-11581
▁Foodgrain	-11582
▁addressee	-11583
▁aerodrome	-11584
▁aforesaid	-11585
▁afternoon	-11586
▁aggrieved	-11587
▁aircrafts	-11588
▁alongwith	-11589
▁alternate	-11590
▁amazement	-11591
▁ambulance	-11592
▁analysing	-11593
▁animation	-11594
▁anxiously	-11595
▁appellate	-11596
▁appliance	-11597
▁approving	-11598
▁arguments	-11599
"?	-11600
:.	-11601
dd	-11602
-57	-11603
▁ts	-11604
tune	-11605
▁235	-11606
%.250	-11607
▁116.	-11608
▁Acts	-11609
▁Live	-11610
▁Loss	-11611
▁Made	-11612
▁grid	-11613
▁rode	-11614
▁rods	-11615
native	-11616
▁Birta	-11617
▁Facts	-11618
▁Shows	-11619
▁Stone	-11620
▁Value	-11621
▁dance	-11622
▁fever	-11623
▁meter	-11624
▁tools	-11625
▁weave	-11626
▁Brenda	-11627
▁begins	-11628
▁denied	-11629
▁fought	-11630
▁mental	-11631
▁reload	-11632
▁rename	-11633
▁timber	-11634
▁Country	-11635
▁Reporte	-11636
▁Sharing	-11637
▁defense	-11638
▁garment	-11639
▁hovered	-11640
▁however	-11641
▁ignored	-11642
▁placing	-11643
▁rejoice	-11644
▁tobacco	-11645
▁wishing	-11646
anmasthal	-11647
▁Resource	-11648
▁Shreesha	-11649
▁Terrible	-11650
▁achieved	-11651
▁commence	-11652
▁detained	-11653
▁honestly	-11654
▁impolite	-11655
▁Extension	-11656
▁appellant	-11657
▁aspirated	-11658
▁attempted	-11659
▁attitudes	-11660
▁auctioned	-11661
▁authorize	-11662
▁auxiliary	-11663
▁belonging	-11664
▁benefited	-11665
▁betrayers	-11666
▁blameless	-11667
▁blessings	-11668
▁borrowing	-11669
▁boundries	-11670
▁broadband	-11671
▁butterfly	-11672
▁capacitor	-11673
▁cartridge	-11674
▁certainty	-11675
▁certified	-11676
▁childless	-11677
▁cigarette	-11678
▁ciudadano	-11679
▁clipboard	-11680
▁collector	-11681
▁comforted	-11682
▁commander	-11683
▁commenced	-11684
▁companies	-11685
▁comparing	-11686
▁competent	-11687
▁component	-11688
▁computers	-11689
▁concealed	-11690
▁conceived	-11691
▁concluded	-11692
▁condemned	-11693
▁conducted	-11694
▁confesses	-11695
▁configure	-11696
▁conflicts	-11697
▁conspires	-11698
▁consulate	-11699
▁consulted	-11700
▁container	-11701
▁converted	-11702
▁correctly	-11703
▁dangerous	-11704
▁deceitful	-11705
▁dedicated	-11706
▁defendant	-11707
▁delimiter	-11708
▁departure	-11709
▁dependent	-11710
▁describes	-11711
▁designate	-11712
▁desirable	-11713
▁difficult	-11714
▁dignified	-11715
▁diligence	-11716
▁disabling	-11717
▁disasters	-11718
▁disbursed	-11719
▁discussed	-11720
▁displaced	-11721
▁displayed	-11722
▁disregard	-11723
▁dissatisf	-11724
▁dissolved	-11725
▁disturbed	-11726
▁diversity	-11727
▁divisions	-11728
▁drunkards	-11729
▁duplicate	-11730
▁economist	-11731
▁editorial	-11732
▁electrify	-11733
▁elephants	-11734
▁emergency	-11735
▁empowered	-11736
▁entailing	-11737
▁equitable	-11738
▁essential	-11739
▁estimates	-11740
▁ethnicity	-11741
▁evaluated	-11742
▁evaluates	-11743
▁evergreen	-11744
▁evildoers	-11745
▁exception	-11746
▁exploring	-11747
▁explosive	-11748
▁fantastic	-11749
▁festivals	-11750
▁forgotten	-11751
▁formulate	-11752
▁fortified	-11753
▁forwarded	-11754
▁fragrance	-11755
▁freelance	-11756
▁furiously	-11757
▁furnisher	-11758
▁furniture	-11759
▁governing	-11760
▁gradually	-11761
▁happiness	-11762
▁heritages	-11763
▁hijacking	-11764
▁hyperbola	-11765
▁immediate	-11766
▁imparting	-11767
▁impatient	-11768
▁inMustang	-11769
▁inbetween	-11770
▁incentive	-11771
▁inclusion	-11772
▁increases	-11773
▁indicates	-11774
▁indicator	-11775
▁initiated	-11776
▁innocence	-11777
▁inscribed	-11778
▁instances	-11779
▁institute	-11780
▁insulting	-11781
▁integrity	-11782
▁interests	-11783
▁interface	-11784
▁interfere	-11785
▁interlink	-11786
▁intrinsic	-11787
▁invention	-11788
▁investiga	-11789
▁irregular	-11790
▁irrigated	-11791
▁judgments	-11792
▁justified	-11793
▁knowingly	-11794
▁labourers	-11795
▁landlords	-11796
▁languages	-11797
▁latifolia	-11798
▁listening	-11799
▁locations	-11800
▁machinery	-11801
▁marketing	-11802
▁merchants	-11803
▁messenger	-11804
▁migrating	-11805
▁milestone	-11806
▁miniature	-11807
▁minimized	-11808
▁ministers	-11809
▁mistreats	-11810
▁mountains	-11811
▁multipart	-11812
▁municipal	-11813
▁murderers	-11814
▁mushrooms	-11815
▁northward	-11816
▁nourished	-11817
▁objection	-11818
▁observing	-11819
▁oppressed	-11820
▁ordinance	-11821
▁organized	-11822
▁orphanage	-11823
▁outermost	-11824
▁overdraft	-11825
▁overseers	-11826
▁parameter	-11827
▁paramount	-11828
▁partially	-11829
▁persecute	-11830
▁pertained	-11831
▁pipelines	-11832
▁plenteous	-11833
▁polythene	-11834
▁positions	-11835
▁precedent	-11836
▁preparing	-11837
▁presently	-11838
▁primarily	-11839
▁prisoners	-11840
▁proceeded	-11841
▁processed	-11842
▁procuring	-11843
▁prohibits	-11844
▁projected	-11845
▁promoters	-11846
▁proponent	-11847
▁publishes	-11848
▁purchases	-11849
▁rationals	-11850
▁realistic	-11851
▁reasoning	-11852
▁reception	-11853
▁recording	-11854
▁referrals	-11855
▁reforming	-11856
▁registrar	-11857
▁rehearsed	-11858
▁religious	-11859
▁renewable	-11860
▁repossess	-11861
▁reservoir	-11862
▁residence	-11863
▁respected	-11864
▁restating	-11865
▁retrieved	-11866
▁returning	-11867
▁reviewing	-11868
▁salvation	-11869
▁sanctuary	-11870
▁scattered	-11871
▁scrolling	-11872
▁searching	-11873
▁semesters	-11874
▁senseless	-11875
▁seventeen	-11876
▁signatory	-11877
▁soundness	-11878
▁specifies	-11879
▁stripping	-11880
▁stumbling	-11881
▁subgroups	-11882
▁subscribe	-11883
▁successes	-11884
▁suffering	-11885
▁surrender	-11886
▁symposium	-11887
▁synagogue	-11888
▁tableName	-11889
▁targeting	-11890
▁telegraph	-11891
▁terrified	-11892
▁textbooks	-11893
▁therefrom	-11894
▁tolerance	-11895
▁trainings	-11896
▁transfers	-11897
▁treasures	-11898
▁turquoise	-11899
▁twentieth	-11900
▁undefiled	-11901
▁unhandled	-11902
▁unsettled	-11903
▁unsuccess	-11904
▁usability	-11905
▁variation	-11906
▁velopment	-11907
▁vengeance	-11908
▁vineyards	-11909
▁violation	-11910
▁whirlwind	-11911
▁wikipedia	-11912
▁winepress	-11913
▁withdrawn	-11914
▁yesterday	-11915
...........	-11916
.........86	-11917
Agriculture	-11918
Educational	-11919
Legislature	-11920
Regulations	-11921
ServAuthDir	-11922
chairperson	-11923
electricity	-11924
probability	-11925
▁..........	-11926
▁2027.11.10	-11927
▁2053.10.23	-11928
▁2058.12.19	-11929
▁3,288,453,	-11930
▁5,00,000/-	-11931
▁ABSOLUTELY	-11932
▁ADMINISTRA	-11933
▁Activities	-11934
▁Amendments	-11935
▁Amphipolis	-11936
▁Anhanguera	-11937
▁Attempting	-11938
▁Bangladesh	-11939
▁Beziergons	-11940
▁Boundaries	-11941
▁Breakpoint	-11942
▁Carpenters	-11943
▁Chancellor	-11944
▁Chlorisand	-11945
▁Commanding	-11946
▁Committees	-11947
▁Conditions	-11948
▁Controller	-11949
▁Converting	-11950
▁Decorative	-11951
▁Definition	-11952
▁Dictionary	-11953
▁Dimensions	-11954
▁Disability	-11955
▁Distribute	-11956
▁Employment	-11957
▁Estimating	-11958
▁Evaluation	-11959
▁Expedition	-11960
▁Expression	-11961
▁Foundation	-11962
▁Fracturing	-11963
▁Gennesaret	-11964
▁Geological	-11965
▁Indonesian	-11966
▁Industrial	-11967
▁Initiation	-11968
▁Invaluable	-11969
▁Jashubites	-11970
▁Jawalakhel	-11971
▁Journalist	-11972
▁KPresenter	-11973
▁Leadership	-11974
▁Methuselah	-11975
▁Monochrome	-11976
▁PARTICULAR	-11977
▁Panachayat	-11978
▁Pepperdine	-11979
▁Permission	-11980
▁Philistine	-11981
▁Population	-11982
▁Privileges	-11983
▁Properties	-11984
▁Registered	-11985
▁Restarting	-11986
▁Sagarmatha	-11987
▁Screenshot	-11988
▁Solukhumbu	-11989
▁StarWriter	-11990
▁Statistics	-11991
▁Submission	-11992
▁Suspension	-11993
▁Technology	-11994
▁Throughout	-11995
▁Tumlingtar	-11996
▁Unleavened	-11997
▁Wellington	-11998
▁abnormally	-11999
▁abundantly	-12000
▁accelerate	-12001
▁acceptable	-12002
▁accessible	-12003
▁accusation	-12004
▁acquainted	-12005
▁affliction	-12006
▁agreements	-12007
▁allocation	-12008
▁arrogantly	-12009
▁assemblies	-12010
▁assessable	-12011
▁assessment	-12012
▁atmosphere	-12013
▁attendance	-12014
▁authorizes	-12015
▁autodetect	-12016
▁automation	-12017
▁beforehand	-12018
▁breakpoint	-12019
▁brightness	-12020
▁calculated	-12021
▁capacities	-12022
▁celebrated	-12023
▁centigrade	-12024
▁chrysolite	-12025
▁cigarettes	-12026
▁colleagues	-12027
▁committees	-12028
▁comparable	-12029
▁comparison	-12030
▁compatible	-12031
▁compelling	-12032
▁competence	-12033
▁complaints	-12034
▁completing	-12035
▁compulsory	-12036
▁confirming	-12037
▁conscience	-12038
▁consistent	-12039
▁consonance	-12040
▁consultant	-12041
▁continuity	-12042
▁converting	-12043
▁conveyance	-12044
▁conviction	-12045
▁criminally	-12046
▁cultivable	-12047
▁cultivates	-12048
▁currencies	-12049
▁debentures	-12050
▁decreasing	-12051
▁democratic	-12052
▁department	-12053
▁deployment	-12054
▁depositors	-12055
▁deprecated	-12056
▁destroying	-12057
▁dictionary	-12058
▁dimensions	-12059
▁directives	-12060
▁disappoint	-12061
▁displaying	-12062
▁distortion	-12063
▁divination	-12064
▁educationa	-12065
▁electronic	-12066
▁encryption	-12067
▁engagement	-12068
▁enterprise	-12069
▁enthusiasm	-12070
▁evaluating	-12071
▁excitement	-12072
▁executable	-12073
▁exhibition	-12074
▁experience	-12075
▁explaining	-12076
▁faithfully	-12077
▁fellowship	-12078
▁fileformat	-12079
▁filesystem	-12080
▁filmmakers	-12081
▁flashcards	-12082
▁foodstuffs	-12083
▁forfeiture	-12084
▁fulfilling	-12085
▁furnishing	-12086
▁furthering	-12087
▁grievances	-12088
▁guidelines	-12089
▁habitation	-12090
▁harmonious	-12091
▁helplessly	-12092
▁historical	-12093
▁households	-12094
▁hyperbolic	-12095
▁hypocrites	-12096
▁imbalanced	-12097
▁importance	-12098
▁impossible	-12099
▁incidental	-12100
▁incumbency	-12101
▁indication	-12102
▁indirectly	-12103
▁infections	-12104
▁inhabitant	-12105
▁initiation	-12106
▁instigates	-12107
▁instituted	-12108
▁interfaces	-12109
▁internally	-12110
▁intimation	-12111
▁invitation	-12112
▁lampstands	-12113
▁libarchive	-12114
▁liquidated	-12115
▁livelihood	-12116
▁localities	-12117
▁membership	-12118
▁messengers	-12119
▁microphone	-12120
▁mmissioner	-12121
▁multiplied	-12122
▁nationwide	-12123
▁navigation	-12124
▁negligence	-12125
▁networking	-12126
▁numeration	-12127
▁observance	-12128
▁occupation	-12129
▁oppressors	-12130
▁ordinances	-12131
▁passengers	-12132
▁passphrase	-12133
▁patrolling	-12134
▁personally	-12135
▁pesticides	-12136
▁physically	-12137
▁physicians	-12138
▁portfolios	-12139
▁portraying	-12140
▁possessing	-12141
▁potentials	-12142
▁pressuring	-12143
▁presumably	-12144
▁prevention	-12145
▁priorities	-12146
▁privileges	-12147
▁procedural	-12148
▁productive	-12149
▁profitable	-12150
▁protectors	-12151
▁receivable	-12152
▁recommends	-12153
▁recompense	-12154
▁recovering	-12155
▁recurrence	-12156
▁references	-12157
▁remarkable	-12158
▁remembered	-12159
▁repatriate	-12160
▁repetition	-12161
▁represents	-12162
▁reservoirs	-12163
▁sanctifies	-12164
▁sanctioned	-12165
▁scientists	-12166
▁scrollbars	-12167
▁signatures	-12168
▁soliciting	-12169
▁speciality	-12170
▁standpoint	-12171
▁stationary	-12172
▁statistics	-12173
▁storehouse	-12174
▁subscribed	-12175
▁subsidiary	-12176
▁subsisting	-12177
▁substances	-12178
▁substation	-12179
▁succession	-12180
▁supposedly	-12181
▁suspicious	-12182
▁systematic	-12183
▁tabernacle	-12184
▁techniques	-12185
▁thereunder	-12186
▁thumbnails	-12187
▁undermined	-12188
▁understood	-12189
▁underwrite	-12190
▁unfaithful	-12191
▁university	-12192
▁vocabulary	-12193
▁vulnerable	-12194
▁warfooting	-12195
▁waterborne	-12196
▁whatsoever	-12197
▁wickedness	-12198
............	-12199
BookletMaker	-12200
Municipality	-12201
governmental	-12202
ualification	-12203
▁Accountancy	-12204
▁Acquisition	-12205
▁Application	-12206
▁Arrangement	-12207
▁Association	-12208
▁Autofitting	-12209
▁Carmelitess	-12210
▁Certificate	-12211
▁Cholesterol	-12212
▁Citizenship	-12213
▁Collections	-12214
▁Consumption	-12215
▁Contributed	-12216
▁Declaration	-12217
▁Designation	-12218
▁Destruction	-12219
▁Dhawalagiri	-12220
▁Directorate	-12221
▁Documentary	-12222
▁Electricity	-12223
▁EngageMedia	-12224
▁Examination	-12225
▁Fertilisers	-12226
▁Fertilizers	-12227
▁Governments	-12228
▁Hazarmaveth	-12229
▁Immediately	-12230
▁Improvement	-12231
▁Iteratively	-12232
▁Liquidation	-12233
▁Maharajgunj	-12234
▁Measurement	-12235
▁Minneapolis	-12236
▁Nationality	-12237
▁Okhaldhunga	-12238
▁Particulars	-12239
▁Preferences	-12240
▁Programmeme	-12241
▁Recalculate	-12242
▁Sennacherib	-12243
▁Shareholder	-12244
▁Shelishiyah	-12245
▁Shimronites	-12246
▁Swarupkathi	-12247
▁Technicians	-12248
▁Traditional	-12249
▁Transfusion	-12250
▁Translation	-12251
▁Unencrypted	-12252
▁Unsupported	-12253
▁accommodate	-12254
▁achievement	-12255
▁activatable	-12256
▁adversaries	-12257
▁agriculture	-12258
▁alleviation	-12259
▁ammunitions	-12260
▁approximate	-12261
▁aspirations	-12262
▁blockquotes	-12263
▁calculating	-12264
▁caterpillar	-12265
▁celebration	-12266
▁challenging	-12267
▁circumcised	-12268
▁citizenship	-12269
▁comfortable	-12270
▁commandment	-12271
▁complainant	-12272
▁composition	-12273
▁compression	-12274
▁concentrate	-12275
▁concessions	-12276
▁confinement	-12277
▁confiscated	-12278
▁consolidate	-12279
▁contributed	-12280
▁controllers	-12281
▁controversy	-12282
▁convertible	-12283
▁cooperative	-12284
▁coordinates	-12285
▁corporation	-12286
▁declaration	-12287
▁deliciously	-12288
▁demarcation	-12289
▁departments	-12290
▁descriptive	-12291
▁destructive	-12292
▁determining	-12293
▁disbelieves	-12294
▁disobedient	-12295
▁dispatching	-12296
▁dissolution	-12297
▁distributor	-12298
▁documentary	-12299
▁dumbfounded	-12300
▁dynamically	-12301
▁earthquakes	-12302
▁embroiderer	-12303
▁endorsement	-12304
▁enforcement	-12305
▁engineering	-12306
▁establishes	-12307
▁exaggerated	-12308
▁fascinating	-12309
▁forecasting	-12310
▁formalities	-12311
▁fulfillment	-12312
▁handicapped	-12313
▁highlighted	-12314
▁homogeneous	-12315
▁identifying	-12316
▁incorporate	-12317
▁indications	-12318
▁ineffective	-12319
▁inscription	-12320
▁installment	-12321
▁instigating	-12322
▁integration	-12323
▁intensified	-12324
▁interaction	-12325
▁introducing	-12326
▁investigate	-12327
▁invitations	-12328
▁keybindings	-12329
▁mathematics	-12330
▁meaningless	-12331
▁necessities	-12332
▁negotiation	-12333
▁neighboring	-12334
▁newsletters	-12335
▁nonexistent	-12336
▁observation	-12337
▁obstruction	-12338
▁occupations	-12339
▁operational	-12340
▁outstanding	-12341
▁participate	-12342
▁partnership	-12343
▁persecuting	-12344
▁perspective	-12345
▁photography	-12346
▁populations	-12347
▁possessions	-12348
▁possibility	-12349
▁prescribing	-12350
▁proficiency	-12351
▁prophesying	-12352
▁proprietors	-12353
▁quantifying	-12354
▁recalculate	-12355
▁recommended	-12356
▁reconstruct	-12357
▁recursively	-12358
▁registering	-12359
▁reminiscent	-12360
▁repatriated	-12361
▁republished	-12362
▁residential	-12363
▁resolutions	-12364
▁responsible	-12365
▁scrutinized	-12366
▁sovereignty	-12367
▁statistical	-12368
▁subtraction	-12369
▁suitability	-12370
▁tambourines	-12371
▁temporarily	-12372
▁traditional	-12373
▁translating	-12374
▁translation	-12375
▁transmitted	-12376
▁transported	-12377
▁underscores	-12378
▁unfulfilled	-12379
▁unversioned	-12380
▁utilization	-12381
▁vestigation	-12382
▁withdrawing	-12383
▁2064(2007)".	-12384
▁Agricultural	-12385
▁Availability	-12386
▁Conglomerate	-12387
▁Consultation	-12388
▁Cooperatives	-12389
▁Coordination	-12390
▁Deliberately	-12391
▁Departmental	-12392
▁Horizontally	-12393
▁Horticulture	-12394
▁Installation	-12395
▁Intermediary	-12396
▁Jezreelitess	-12397
▁Jurisdiction	-12398
▁KMahjonggLib	-12399
▁Mahadevsthan	-12400
▁Manufacturer	-12401
▁Multipurpose	-12402
▁Nevertheless	-12403
▁OpenDocument	-12404
▁Shevardnadze	-12405
▁Substitution	-12406
▁Tessellation	-12407
▁Thessalonica	-12408
▁accompanying	-12409
▁accomplished	-12410
▁achievements	-12411
▁applications	-12412
▁arrangements	-12413
▁ascertaining	-12414
▁associations	-12415
▁authenticate	-12416
▁bloodthirsty	-12417
▁complemented	-12418
▁confirmation	-12419
▁contaminated	-12420
▁continuously	-12421
▁conversation	-12422
▁dependencies	-12423
▁developments	-12424
▁disqualified	-12425
▁disseminated	-12426
▁expectations	-12427
▁experiencing	-12428
▁exploitation	-12429
▁faithfulness	-12430
▁geographical	-12431
▁governmental	-12432
▁hydrodynamic	-12433
▁implications	-12434
▁imprisonment	-12435
▁incandescent	-12436
▁incorporated	-12437
▁individually	-12438
▁insecticides	-12439
▁installments	-12440
▁intermediary	-12441
▁irrigational	-12442
▁manipulation	-12443
▁metalworkers	-12444
▁mobilization	-12445
▁modification	-12446
▁namedalready	-12447
▁necessitated	-12448
▁negotiations	-12449
▁neighborhood	-12450
▁nonexecutive	-12451
▁outstretched	-12452
▁participants	-12453
▁participates	-12454
▁placeholders	-12455
▁presentation	-12456
▁preservation	-12457
▁productively	-12458
▁prostitution	-12459
▁publications	-12460
▁quinquennium	-12461
▁recklessness	-12462
▁renunciation	-12463
▁restrictions	-12464
▁satisfactory	-12465
▁scrutinizing	-12466
▁stakeholders	-12467
▁subsequently	-12468
▁systematized	-12469
▁taxexemption	-12470
▁temperatures	-12471
▁transmission	-12472
▁uncontrolled	-12473
▁uncultivated	-12474
▁undertakings	-12475
▁unfavourable	-12476
▁unprofitable	-12477
▁unregistered	-12478
▁vaccinations	-12479
▁watercourses	-12480
meteorological	-12481
▁Automatically	-12482
▁Biotechnology	-12483
▁Birendranagar	-12484
▁Circumstances	-12485
▁Communication	-12486
▁Configuration	-12487
▁Decentralised	-12488
▁Dovelelopment	-12489
▁Environmental	-12490
▁Establishment	-12491
▁Investigation	-12492
▁Jerahmeelites	-12493
▁Magormissabib	-12494
▁Nephrologists	-12495
▁administrator	-12496
▁afforestation	-12497
▁appropriation	-12498
▁approximately	-12499
▁biotechnology	-12500
▁cohsolidating	-12501
▁collaborative	-12502
▁compatibility	-12503
▁concentration	-12504
▁congregations	-12505
▁constructible	-12506
▁constructions	-12507
▁contravention	-12508
▁controlpoints	-12509
▁controversial	-12510
▁decentralised	-12511
▁decomposition	-12512
▁demonstration	-12513
▁deteriorating	-12514
▁deterioration	-12515
▁determinantal	-12516
▁determination	-12517
▁developmental	-12518
▁discrepancies	-12519
▁encouragement	-12520
▁entertainment	-12521
▁entrepreneurs	-12522
▁environmental	-12523
▁grandchildren	-12524
▁implementable	-12525
▁impossibility	-12526
▁incorruptible	-12527
▁insignificant	-12528
▁installations	-12529
▁justification	-12530
▁nationalities	-12531
▁objectionable	-12532
▁perpendicular	-12533
▁personalities	-12534
▁practitioners	-12535
▁preconditions	-12536
▁rectification	-12537
▁strengthening	-12538
▁substantially	-12539
▁technological	-12540
▁............79	-12541
▁35,.........86	-12542
▁ADMINISTRATION	-12543
▁Administrative	-12544
▁Budhanilkantha	-12545
▁Chlorisandamin	-12546
▁Communications	-12547
▁GtkFileChooser	-12548
▁Implementation	-12549
▁Mountaineering	-12550
▁Organizational	-12551
▁Recommendation	-12552
▁Representation	-12553
▁Transportation	-12554
▁Unidirectional	-12555
▁authentication	-12556
▁characteristic	-12557
▁classification	-12558
▁communications	-12559
▁decentralizing	-12560
▁distributional	-12561
▁forBARArmenian	-12562
▁identification	-12563
▁interpretation	-12564
▁responsiveness	-12565
▁simultaneously	-12566
▁specifications	-12567
▁supercomputers	-12568
▁transformation	-12569
▁unavailability	-12570
▁unsuccessfully	-12571
▁Bhanujanmasthal	-12572
▁MERCHANTABILITY	-12573
▁accomplishments	-12574
▁chairpersonship	-12575
▁computationally	-12576
▁dissatisfaction	-12577
▁infrastructural	-12578
▁inoperativeness	-12579
▁propertionately	-12580
▁recommendations	-12581
,38	-12582
,53	-12583
-91	-12584
-92	-12585
/83	-12586
0-9	-12587
1-9	-12588
13.	-12589
2,8	-12590
4.5	-12591
5,4	-12592
53,	-12593
55.	-12594
56)	-12595
58,	-12596
65,	-12597
65.	-12598
66,	-12599
1/9	-12600
4-6	-12601
7,4	-12602
7,5	-12603
7.2	-12604
74.	-12605
8,4	-12606
82,	-12607
9/8	-12608
ARA	-12609
ENE	-12610
HAN	-12611
IGH	-12612
INI	-12613
ITH	-12614
LAR	-12615
OIS	-12616
ORM	-12617
RAN	-12618
RNA	-12619
TIC	-12620
URV	-12621
VEY	-12622
YIN	-12623
buf	-12624
dyn	-12625
eks	-12626
fav	-12627
iki	-12628
mih	-12629
zek	-12630
▁0-	-12631
(100	-12632
,500	-12633
-65,	-12634
/80,	-12635
/91,	-12636
002,	-12637
010)	-12638
10).	-12639
2.12	-12640
3.10	-12641
45,1	-12642
6,95	-12643
88).	-12644
Docu	-12645
HANT	-12646
Hosp	-12647
LITY	-12648
POSE	-12649
Plot	-12650
ULAR	-12651
absh	-12652
ambs	-12653
appy	-12654
asks	-12655
brew	-12656
buel	-12657
clop	-12658
deas	-12659
edek	-12660
efil	-12661
efit	-12662
ehen	-12663
ekah	-12664
eskt	-12665
eurs	-12666
eush	-12667
gels	-12668
hald	-12669
hana	-12670
hoot	-12671
hrol	-12672
humb	-12673
ienc	-12674
ierg	-12675
ikip	-12676
impr	-12677
irds	-12678
isks	-12679
iwas	-12680
khet	-12681
letM	-12682
lunt	-12683
mmon	-12684
ndef	-12685
nels	-12686
nezz	-12687
nken	-12688
noun	-12689
nteg	-12690
oirs	-12691
oiss	-12692
oots	-12693
ormy	-12694
ouls	-12695
owls	-12696
peci	-12697
posi	-12698
pris	-12699
-19	-12700
.2)	-12701
DEP	-12702
Parl	-12703
fely	-12704
oval	-12705
prof	-12706
rats	-12707
rief	-12708
tier	-12709
umbf	-12710
umns	-12711
uphr	-12712
ynam	-12713
ypes	-12714
zier	-12715
▁(3.	-12716
▁0.2	-12717
▁1-1	-12718
▁1.0	-12719
▁104	-12720
▁117	-12721
▁2.4	-12722
▁22.	-12723
▁41.	-12724
▁45,	-12725
▁5.0	-12726
▁8,1	-12727
▁80.	-12728
▁:(1	-12729
▁Beb	-12730
▁GNO	-12731
▁ING	-12732
▁JPE	-12733
▁KIN	-12734
▁Moz	-12735
▁Nik	-12736
▁OAS	-12737
▁Obj	-12738
▁PUR	-12739
▁REF	-12740
▁REM	-12741
▁SUR	-12742
▁Sug	-12743
▁UNE	-12744
▁USE	-12745
▁WAR	-12746
▁WIk	-12747
▁dyn	-12748
▁hyp	-12749
▁kPP	-12750
010).	-12751
02:00	-12752
145,1	-12753
288,4	-12754
5,400	-12755
7,400	-12756
ARSIN	-12757
CHANT	-12758
ILITY	-12759
ITNES	-12760
TICUL	-12761
abern	-12762
accin	-12763
ackcl	-12764
acobi	-12765
ademy	-12766
aimed	-12767
ajgun	-12768
anpur	-12769
ascin	-12770
auses	-12771
bolic	-12772
cards	-12773
ceipt	-12774
chhap	-12775
cious	-12776
cited	-12777
corre	-12778
cript	-12779
cumul	-12780
dayap	-12781
deans	-12782
eased	-12783
efits	-12784
egisl	-12785
emote	-12786
empts	-12787
eomet	-12788
errif	-12789
esian	-12790
espec	-12791
ethel	-12792
fault	-12793
fited	-12794
flies	-12795
hanas	-12796
heese	-12797
htaro	-12798
ictim	-12799
200	-12800
Gad	-12801
ULL	-12802
inb	-12803
▁69	-12804
ahak	-12805
ahme	-12806
ambo	-12807
amps	-12808
eeps	-12809
eleg	-12810
hlon	-12811
iche	-12812
ipbo	-12813
meah	-12814
orks	-12815
orne	-12816
rops	-12817
spap	-12818
wist	-12819
ylon	-12820
acebo	-12821
ailbo	-12822
alley	-12823
apani	-12824
atchc	-12825
aused	-12826
emale	-12827
hibit	-12828
ickly	-12829
idols	-12830
ietly	-12831
ileCh	-12832
incip	-12833
inoam	-12834
iples	-12835
iplom	-12836
iquid	-12837
irgun	-12838
isely	-12839
itleb	-12840
ixels	-12841
joice	-12842
kanth	-12843
kards	-12844
legra	-12845
limin	-12846
lined	-12847
manag	-12848
nickg	-12849
ociet	-12850
oison	-12851
oklet	-12852
ompan	-12853
ompos	-12854
omput	-12855
onaim	-12856
oshap	-12857
otels	-12858
otope	-12859
oudly	-12860
ourag	-12861
quenn	-12862
rapes	-12863
ratic	-12864
repar	-12865
rieve	-12866
rific	-12867
rollb	-12868
sembl	-12869
spici	-12870
ssing	-12871
stuff	-12872
tempt	-12873
terns	-12874
terpr	-12875
thday	-12876
thnic	-12877
ublis	-12878
udhan	-12879
uhith	-12880
umben	-12881
unsen	-12882
unted	-12883
upply	-12884
urkey	-12885
ursue	-12886
versy	-12887
xecut	-12888
zreel	-12889
▁$1.1	-12890
▁$13.	-12891
▁11,5	-12892
▁1956	-12893
▁1961	-12894
▁1982	-12895
▁1992	-12896
▁1997	-12897
▁1998	-12898
▁2,31	-12899
60	-12900
82	-12901
NG	-12902
Ru	-12903
lg	-12904
tS	-12905
tp	-12906
vC	-12907
ws	-12908
Til	-12909
UTE	-12910
aju	-12911
ezz	-12912
log	-12913
nqu	-12914
oof	-12915
oys	-12916
alks	-12917
amat	-12918
araj	-12919
draw	-12920
emot	-12921
ewsw	-12922
heat	-12923
inar	-12924
ofit	-12925
pici	-12926
raff	-12927
risc	-12928
ropp	-12929
stig	-12930
sume	-12931
swer	-12932
utof	-12933
▁,00	-12934
▁Joh	-12935
▁exa	-12936
▁hat	-12937
▁rei	-12938
▁smo	-12939
5,000	-12940
ajest	-12941
aysia	-12942
cipal	-12943
enior	-12944
ercis	-12945
irrig	-12946
lders	-12947
lways	-12948
otees	-12949
ralis	-12950
raliz	-12951
rawal	-12952
ticle	-12953
uberc	-12954
vente	-12955
▁1979	-12956
▁2011	-12957
▁2016	-12958
▁22.0	-12959
▁28.4	-12960
▁3,28	-12961
▁3300	-12962
▁5.5.	-12963
▁8,18	-12964
▁Alth	-12965
▁Assy	-12966
▁Bagm	-12967
▁Bala	-12968
▁Bapt	-12969
▁Benj	-12970
▁Beth	-12971
▁Bhak	-12972
▁Bhan	-12973
▁Birt	-12974
▁Carl	-12975
▁Cycl	-12976
▁Delt	-12977
▁Dhar	-12978
▁Dhun	-12979
▁Docu	-12980
▁Educ	-12981
▁Elih	-12982
▁Elij	-12983
▁Emph	-12984
▁Fulf	-12985
▁GnuP	-12986
▁Hann	-12987
▁Heta	-12988
▁Hosp	-12989
▁Josh	-12990
▁KDEP	-12991
▁KPil	-12992
▁KmPl	-12993
▁Leng	-12994
▁Magn	-12995
▁Makw	-12996
▁Manu	-12997
▁Maro	-12998
▁Mitc	-12999
Ba	-13000
Fu	-13001
Ke	-13002
PA	-13003
Pu	-13004
ST	-13005
md	-13006
.11	-13007
2.1	-13008
3.1	-13009
85.	-13010
Cau	-13011
aal	-13012
anu	-13013
bis	-13014
chh	-13015
cum	-13016
div	-13017
nom	-13018
pac	-13019
ppo	-13020
spe	-13021
▁Cr	-13022
area	-13023
ensu	-13024
ente	-13025
erst	-13026
memb	-13027
nual	-13028
pers	-13029
quak	-13030
veys	-13031
weet	-13032
ysic	-13033
▁Cla	-13034
▁Ord	-13035
▁ful	-13036
▁mig	-13037
ablis	-13038
arron	-13039
autif	-13040
axaul	-13041
dings	-13042
epute	-13043
erent	-13044
helub	-13045
idget	-13046
imals	-13047
inars	-13048
ircra	-13049
kills	-13050
osals	-13051
ppuch	-13052
uchad	-13053
ysing	-13054
▁Assu	-13055
▁Bars	-13056
▁Fron	-13057
▁Mono	-13058
▁Naut	-13059
▁Papu	-13060
▁Parl	-13061
▁Perh	-13062
▁Poly	-13063
▁Rapt	-13064
▁Redu	-13065
▁Rizp	-13066
▁Road	-13067
▁SAAR	-13068
▁Shel	-13069
▁Spac	-13070
▁Swas	-13071
▁Togg	-13072
▁Twel	-13073
▁Zeru	-13074
▁balk	-13075
▁begg	-13076
▁bery	-13077
▁catt	-13078
▁chan	-13079
▁cowd	-13080
▁crim	-13081
▁crit	-13082
▁deli	-13083
▁drun	-13084
▁educ	-13085
▁embe	-13086
▁fier	-13087
▁fron	-13088
▁fulf	-13089
▁grou	-13090
▁guid	-13091
▁hidd	-13092
▁hung	-13093
▁infe	-13094
▁infr	-13095
▁jump	-13096
▁maul	-13097
▁medi	-13098
▁memb	-13099
14	-13100
Cy	-13101
uP	-13102
Wid	-13103
aki	-13104
axe	-13105
bim	-13106
del	-13107
eig	-13108
hst	-13109
kit	-13110
lut	-13111
nty	-13112
sas	-13113
udg	-13114
uss	-13115
▁71	-13116
alil	-13117
alom	-13118
aman	-13119
bent	-13120
etab	-13121
etup	-13122
nver	-13123
reig	-13124
ritt	-13125
thel	-13126
▁Bud	-13127
▁Kos	-13128
▁cov	-13129
,000,	-13130
0,000	-13131
9,000	-13132
ampus	-13133
ctify	-13134
ircus	-13135
marks	-13136
onize	-13137
ontal	-13138
ronec	-13139
sumer	-13140
tione	-13141
ulars	-13142
utens	-13143
▁Circ	-13144
▁Hitt	-13145
▁Init	-13146
▁Trad	-13147
▁midd	-13148
▁mush	-13149
▁noth	-13150
▁nozz	-13151
▁ongo	-13152
▁opin	-13153
▁piec	-13154
▁refu	-13155
▁robb	-13156
▁temp	-13157
▁togg	-13158
▁trun	-13159
▁turb	-13160
▁unkn	-13161
▁usef	-13162
▁webs	-13163
▁whir	-13164
▁writ	-13165
16,000	-13166
79/80.	-13167
Chance	-13168
ITHOUT	-13169
Regist	-13170
abbath	-13171
accine	-13172
ackets	-13173
ailbox	-13174
airman	-13175
ajesty	-13176
alaces	-13177
alwork	-13178
alysis	-13179
amedal	-13180
ameter	-13181
anball	-13182
apanes	-13183
apture	-13184
arator	-13185
argest	-13186
argets	-13187
ashhur	-13188
attern	-13189
attles	-13190
awalag	-13191
aximum	-13192
aylist	-13193
bursed	-13194
caniah	-13195
ccessf	-13196
cealed	-13197
ceased	-13198
cember	-13199
.0	-13200
.?	-13201
nf	-13202
Fer	-13203
axp	-13204
bri	-13205
igi	-13206
lih	-13207
mbl	-13208
orB	-13209
sil	-13210
,002	-13211
4,00	-13212
8,00	-13213
9,00	-13214
ARTI	-13215
arms	-13216
emat	-13217
enis	-13218
essl	-13219
euel	-13220
gins	-13221
lias	-13222
lipp	-13223
mbly	-13224
nger	-13225
pany	-13226
perc	-13227
phip	-13228
rror	-13229
vily	-13230
▁Bou	-13231
▁cot	-13232
▁ina	-13233
▁pes	-13234
▁sli	-13235
Munic	-13236
armer	-13237
armon	-13238
ceeds	-13239
earli	-13240
erive	-13241
erred	-13242
error	-13243
itles	-13244
mbled	-13245
ouldn	-13246
owled	-13247
teger	-13248
tract	-13249
ugust	-13250
vance	-13251
▁Chan	-13252
▁Spec	-13253
▁betr	-13254
▁betw	-13255
▁bron	-13256
▁earl	-13257
▁hund	-13258
▁perc	-13259
ationw	-13260
chools	-13261
ctares	-13262
cuting	-13263
ediate	-13264
efited	-13265
eiture	-13266
elieve	-13267
elight	-13268
eliver	-13269
empted	-13270
endenc	-13271
enging	-13272
ephrol	-13273
epping	-13274
ercise	-13275
erican	-13276
ername	-13277
ervoir	-13278
esktop	-13279
estock	-13280
etwork	-13281
evelop	-13282
ficult	-13283
fields	-13284
figure	-13285
gramme	-13286
haring	-13287
heckbo	-13288
hecker	-13289
hemuel	-13290
hotang	-13291
iazide	-13292
ibbles	-13293
ibrary	-13294
icials	-13295
icture	-13296
ideoni	-13297
ifteen	-13298
igaret	-13299
Gl	-13300
Ox	-13301
Ta	-13302
ku	-13303
lig	-13304
lts	-13305
nol	-13306
oat	-13307
ogs	-13308
stn	-13309
▁pu	-13310
Kart	-13311
alis	-13312
asic	-13313
bner	-13314
cure	-13315
eaut	-13316
ercy	-13317
istu	-13318
onts	-13319
ooks	-13320
otog	-13321
retc	-13322
thir	-13323
uber	-13324
uilt	-13325
wear	-13326
xual	-13327
▁Phy	-13328
▁dim	-13329
00,00	-13330
althy	-13331
asier	-13332
cines	-13333
evert	-13334
imple	-13335
ircum	-13336
ithin	-13337
lared	-13338
licts	-13339
ogies	-13340
ogist	-13341
perts	-13342
phere	-13343
wards	-13344
▁Abie	-13345
▁Abra	-13346
▁Phil	-13347
▁Stat	-13348
▁Step	-13349
▁Stru	-13350
▁Stud	-13351
▁afra	-13352
▁barg	-13353
▁eart	-13354
▁flut	-13355
▁helm	-13356
▁outb	-13357
▁raft	-13358
▁rais	-13359
▁seri	-13360
atters	-13361
ediary	-13362
elites	-13363
ganize	-13364
iature	-13365
ielded	-13366
igests	-13367
iginal	-13368
ilarly	-13369
ileges	-13370
ilized	-13371
ilways	-13372
imatic	-13373
iminal	-13374
indled	-13375
inimum	-13376
inized	-13377
iodize	-13378
ipants	-13379
isfact	-13380
isfied	-13381
isturb	-13382
iterac	-13383
itizen	-13384
ivered	-13385
ixture	-13386
jamite	-13387
joiced	-13388
leaven	-13389
lerate	-13390
lusion	-13391
lusive	-13392
mbling	-13393
menian	-13394
mption	-13395
nacher	-13396
nction	-13397
oading	-13398
ocabul	-13399
0-	-13400
LU	-13401
dl	-13402
mo	-13403
rg	-13404
.3.	-13405
atl	-13406
emn	-13407
ftm	-13408
chem	-13409
emal	-13410
ends	-13411
essf	-13412
fiel	-13413
heme	-13414
hemu	-13415
ixty	-13416
kiah	-13417
oons	-13418
pful	-13419
plin	-13420
tons	-13421
ysis	-13422
▁Eno	-13423
▁Env	-13424
▁Ple	-13425
▁cod	-13426
▁coh	-13427
▁hil	-13428
abite	-13429
awful	-13430
dates	-13431
eated	-13432
ehiel	-13433
emons	-13434
eriah	-13435
gular	-13436
icons	-13437
lehem	-13438
leted	-13439
onday	-13440
oners	-13441
onsiv	-13442
ostly	-13443
rites	-13444
▁Ensu	-13445
▁allo	-13446
▁assa	-13447
▁chem	-13448
▁coal	-13449
▁heir	-13450
▁mani	-13451
▁matu	-13452
▁rupe	-13453
▁sinn	-13454
▁symb	-13455
asting	-13456
dinanc	-13457
ellies	-13458
enefit	-13459
essful	-13460
herent	-13461
igible	-13462
illful	-13463
ipates	-13464
isible	-13465
ithful	-13466
ochrom	-13467
ociety	-13468
ogists	-13469
oiding	-13470
olvent	-13471
ompany	-13472
ondary	-13473
ongues	-13474
orkers	-13475
orking	-13476
ormiss	-13477
orolog	-13478
osited	-13479
ottage	-13480
oughts	-13481
ourism	-13482
ournal	-13483
ourses	-13484
owever	-13485
oyalty	-13486
peaker	-13487
pendit	-13488
perbol	-13489
perior	-13490
pervis	-13491
phants	-13492
played	-13493
porary	-13494
ppoint	-13495
pposes	-13496
prises	-13497
pstand	-13498
ptions	-13499
,7	-13500
hh	-13501
kp	-13502
zi	-13503
5).	-13504
800	-13505
9).	-13506
adz	-13507
but	-13508
cts	-13509
emp	-13510
hal	-13511
lia	-13512
obi	-13513
paz	-13514
tse	-13515
xtb	-13516
xtf	-13517
xts	-13518
▁57	-13519
▁:(	-13520
-65.	-13521
ailw	-13522
ashc	-13523
ashh	-13524
azar	-13525
cute	-13526
eded	-13527
eriv	-13528
fits	-13529
obed	-13530
obil	-13531
ourc	-13532
pute	-13533
rash	-13534
raws	-13535
rgan	-13536
rope	-13537
tary	-13538
tent	-13539
tual	-13540
urls	-13541
▁Arm	-13542
▁Ver	-13543
▁Zan	-13544
▁Zet	-13545
▁doc	-13546
▁hou	-13547
▁mis	-13548
▁sei	-13549
ahash	-13550
alace	-13551
arker	-13552
atute	-13553
etual	-13554
forms	-13555
ganis	-13556
hiped	-13557
ibute	-13558
idual	-13559
inces	-13560
isual	-13561
ndent	-13562
obile	-13563
ruits	-13564
tered	-13565
ubits	-13566
ustif	-13567
▁11,1	-13568
▁Jero	-13569
▁Sche	-13570
▁Scri	-13571
▁Valu	-13572
▁Vide	-13573
▁Vill	-13574
▁arou	-13575
▁dock	-13576
▁flas	-13577
arries	-13578
estate	-13579
iodine	-13580
oilers	-13581
ptured	-13582
raight	-13583
rawing	-13584
raying	-13585
reelit	-13586
reened	-13587
repren	-13588
rializ	-13589
rieved	-13590
rified	-13591
ripted	-13592
rivate	-13593
roduce	-13594
ropped	-13595
shiped	-13596
spects	-13597
stanti	-13598
sumers	-13599
15	-13600
72	-13601
Fle	-13602
aco	-13603
eam	-13604
enD	-13605
hul	-13606
lim	-13607
nti	-13608
orh	-13609
yin	-13610
537;	-13611
Vari	-13612
cked	-13613
cret	-13614
empl	-13615
esol	-13616
iais	-13617
ileg	-13618
inis	-13619
lign	-13620
lock	-13621
tari	-13622
alyst	-13623
anned	-13624
antil	-13625
ariot	-13626
chair	-13627
ecret	-13628
enian	-13629
herds	-13630
hicle	-13631
pread	-13632
retro	-13633
stret	-13634
xious	-13635
▁Sect	-13636
▁Subm	-13637
▁aniz	-13638
▁appo	-13639
▁enab	-13640
▁fert	-13641
▁floc	-13642
▁insc	-13643
▁meth	-13644
▁poli	-13645
▁poly	-13646
apable	-13647
arious	-13648
asures	-13649
change	-13650
ctible	-13651
edness	-13652
edures	-13653
erived	-13654
ertain	-13655
etting	-13656
hecked	-13657
includ	-13658
itness	-13659
itures	-13660
leting	-13661
opting	-13662
otting	-13663
ptures	-13664
strict	-13665
taking	-13666
terday	-13667
terfly	-13668
terval	-13669
thened	-13670
thward	-13671
uditor	-13672
ularly	-13673
ulness	-13674
ulosis	-13675
umbini	-13676
unched	-13677
unicip	-13678
unting	-13679
urbing	-13680
urious	-13681
urried	-13682
ursing	-13683
urting	-13684
usband	-13685
uthDir	-13686
uthent	-13687
uthful	-13688
uwakot	-13689
vilege	-13690
warded	-13691
ximate	-13692
xually	-13693
yrians	-13694
zekiah	-13695
▁$158,	-13696
▁$26,9	-13697
▁(1957	-13698
▁(1958	-13699
34	-13700
TM	-13701
rq	-13702
zu	-13703
4.1	-13704
8.1	-13705
IMP	-13706
Las	-13707
cul	-13708
eog	-13709
iar	-13710
lik	-13711
spr	-13712
assy	-13713
bass	-13714
both	-13715
chni	-13716
clud	-13717
echn	-13718
emar	-13719
hung	-13720
kath	-13721
lass	-13722
oths	-13723
ulpr	-13724
worn	-13725
▁Ama	-13726
▁Ext	-13727
▁Gaz	-13728
▁alt	-13729
▁unh	-13730
▁uni	-13731
▁unl	-13732
▁unp	-13733
alani	-13734
alues	-13735
ansar	-13736
asses	-13737
assin	-13738
chnic	-13739
eform	-13740
emoth	-13741
eroth	-13742
igare	-13743
llies	-13744
ludes	-13745
odify	-13746
pired	-13747
reasu	-13748
rives	-13749
ultan	-13750
ultim	-13751
▁Amal	-13752
▁Exce	-13753
▁Joth	-13754
▁guil	-13755
▁lett	-13756
▁pond	-13757
▁rese	-13758
▁sear	-13759
▁shek	-13760
▁unre	-13761
▁unsu	-13762
actual	-13763
adness	-13764
aluate	-13765
othing	-13766
reases	-13767
rounds	-13768
stuffs	-13769
vailab	-13770
▁(1992	-13771
▁(1997	-13772
▁(1998	-13773
▁1990/	-13774
▁2043.	-13775
▁ADMIN	-13776
▁Abiez	-13777
▁Absal	-13778
▁Afric	-13779
▁Amale	-13780
▁Apple	-13781
▁Athen	-13782
▁Bangk	-13783
▁Beaut	-13784
▁Bhanu	-13785
▁Biote	-13786
▁Boshe	-13787
▁Chair	-13788
▁Chann	-13789
▁Chias	-13790
▁Damas	-13791
▁Dhank	-13792
▁Domin	-13793
▁Eliez	-13794
▁Elish	-13795
▁Enabl	-13796
▁Engag	-13797
▁Freel	-13798
▁Freyj	-13799
67	-13800
DM	-13801
OU	-13802
Ye	-13803
nw	-13804
bet	-13805
cus	-13806
dow	-13807
ete	-13808
eyb	-13809
igu	-13810
rul	-13811
sew	-13812
uar	-13813
unj	-13814
ync	-13815
▁')	-13816
▁ec	-13817
▁wo	-13818
acto	-13819
arab	-13820
atth	-13821
cise	-13822
erms	-13823
etor	-13824
etwe	-13825
ikin	-13826
leat	-13827
nced	-13828
penD	-13829
tact	-13830
▁197	-13831
▁830	-13832
▁Enc	-13833
▁Gab	-13834
▁Reb	-13835
▁Sha	-13836
▁bor	-13837
acter	-13838
actur	-13839
alesh	-13840
alves	-13841
andar	-13842
duard	-13843
ganiz	-13844
gonom	-13845
house	-13846
ighat	-13847
ionar	-13848
irstb	-13849
nning	-13850
oding	-13851
onomy	-13852
oundn	-13853
troll	-13854
xpect	-13855
▁(198	-13856
▁Dire	-13857
▁Eigh	-13858
▁Kron	-13859
▁Prim	-13860
▁Sham	-13861
▁Shar	-13862
▁Shif	-13863
▁Stre	-13864
▁Unen	-13865
▁buil	-13866
▁chil	-13867
▁corp	-13868
▁thes	-13869
anning	-13870
armath	-13871
ctiona	-13872
dinary	-13873
energy	-13874
ermine	-13875
hening	-13876
ighway	-13877
inkers	-13878
onomet	-13879
oundar	-13880
pector	-13881
▁HEIGH	-13882
▁Holbo	-13883
▁Horiz	-13884
▁Inact	-13885
▁Indon	-13886
▁Infra	-13887
▁Insur	-13888
▁Integ	-13889
▁Jehor	-13890
▁Jerus	-13891
▁Kenan	-13892
▁Keybo	-13893
▁MERCH	-13894
▁Mahak	-13895
▁Manag	-13896
▁Manas	-13897
▁Manuf	-13898
▁Misce	-13899
xb	-13900
Gol	-13901
Zee	-13902
aft	-13903
bse	-13904
ceb	-13905
cim	-13906
fts	-13907
ftw	-13908
gat	-13909
lre	-13910
poc	-13911
ppe	-13912
thq	-13913
uin	-13914
wns	-13915
▁HT	-13916
▁SA	-13917
gthe	-13918
heru	-13919
hesy	-13920
icon	-13921
ixte	-13922
mark	-13923
oell	-13924
pone	-13925
rank	-13926
rawn	-13927
rift	-13928
wner	-13929
▁Anh	-13930
▁Anj	-13931
▁Dau	-13932
▁KDe	-13933
▁isl	-13934
adhes	-13935
arket	-13936
ensee	-13937
hesus	-13938
iance	-13939
ithes	-13940
mails	-13941
mense	-13942
nails	-13943
ossib	-13944
othes	-13945
pense	-13946
sumed	-13947
wners	-13948
▁Anal	-13949
▁Anot	-13950
▁Asse	-13951
▁Poss	-13952
▁blam	-13953
▁curi	-13954
▁soft	-13955
anking	-13956
arking	-13957
chment	-13958
essent	-13959
gative	-13960
onstru	-13961
vering	-13962
ything	-13963
▁Gazet	-13964
▁Naray	-13965
▁Numer	-13966
▁OpenD	-13967
▁OpenO	-13968
▁Phara	-13969
▁Prote	-13970
▁REMOV	-13971
▁Rebek	-13972
▁Recal	-13973
▁Repro	-13974
▁Score	-13975
▁Shime	-13976
▁Simil	-13977
▁Sixte	-13978
▁Solom	-13979
▁Surve	-13980
▁Thess	-13981
▁Thous	-13982
▁Treas	-13983
▁Tribh	-13984
▁Unenc	-13985
▁Veren	-13986
▁achie	-13987
▁adapt	-13988
▁adequ	-13989
▁agend	-13990
▁amaze	-13991
▁apost	-13992
▁appli	-13993
▁assoc	-13994
▁attem	-13995
▁attit	-13996
▁avail	-13997
▁backu	-13998
▁backw	-13999
To	-14000
hD	-14001
Bit	-14002
LUT	-14003
Pet	-14004
cin	-14005
cta	-14006
lij	-14007
ney	-14008
nez	-14009
nne	-14010
rab	-14011
rre	-14012
ubm	-14013
anga	-14014
angl	-14015
aren	-14016
elim	-14017
erem	-14018
esia	-14019
gets	-14020
hang	-14021
heep	-14022
hene	-14023
ispl	-14024
ithh	-14025
izia	-14026
mise	-14027
neap	-14028
olom	-14029
ouri	-14030
pise	-14031
sake	-14032
site	-14033
stor	-14034
tled	-14035
urnt	-14036
uthf	-14037
▁Arr	-14038
▁Gra	-14039
▁Nam	-14040
▁bon	-14041
▁eit	-14042
▁ong	-14043
▁roc	-14044
amous	-14045
assed	-14046
ctise	-14047
dence	-14048
herib	-14049
ilway	-14050
mence	-14051
ports	-14052
teres	-14053
uthor	-14054
uties	-14055
veget	-14056
▁Dove	-14057
▁actu	-14058
▁blan	-14059
▁filt	-14060
▁impa	-14061
▁lawg	-14062
▁reck	-14063
▁scri	-14064
anging	-14065
ansfer	-14066
ateway	-14067
ationa	-14068
ermost	-14069
estion	-14070
etails	-14071
icence	-14072
iority	-14073
licens	-14074
lished	-14075
nesses	-14076
olders	-14077
orator	-14078
orized	-14079
owered	-14080
sioner	-14081
ublish	-14082
▁Advis	-14083
▁Gehen	-14084
▁Toget	-14085
▁agenc	-14086
▁betwe	-14087
▁biote	-14088
▁bound	-14089
▁busin	-14090
▁canoe	-14091
▁chann	-14092
▁charg	-14093
▁colum	-14094
▁condu	-14095
▁corre	-14096
▁corru	-14097
▁coven	-14098
▁cumul	-14099
RE	-14100
RR	-14101
4).	-14102
Dal	-14103
aac	-14104
axa	-14105
hep	-14106
hia	-14107
net	-14108
oub	-14109
rpe	-14110
upe	-14111
utc	-14112
veP	-14113
▁91	-14114
▁KD	-14115
▁pa	-14116
bing	-14117
ders	-14118
eave	-14119
eved	-14120
grad	-14121
nabl	-14122
omic	-14123
onou	-14124
peak	-14125
pean	-14126
rape	-14127
rase	-14128
rrow	-14129
terd	-14130
utch	-14131
west	-14132
▁Jur	-14133
▁Pla	-14134
▁Plu	-14135
▁Tem	-14136
▁bam	-14137
▁sho	-14138
crypt	-14139
educt	-14140
energ	-14141
erger	-14142
etabl	-14143
hanan	-14144
itech	-14145
mboss	-14146
mical	-14147
oener	-14148
orpat	-14149
rived	-14150
roper	-14151
roved	-14152
sical	-14153
urved	-14154
vedic	-14155
velou	-14156
ysici	-14157
▁....	-14158
▁2027	-14159
▁Food	-14160
▁Play	-14161
▁feat	-14162
akened	-14163
anical	-14164
establ	-14165
ffered	-14166
member	-14167
orated	-14168
ourist	-14169
phical	-14170
retari	-14171
undant	-14172
▁Condu	-14173
▁Consu	-14174
▁curre	-14175
▁daugh	-14176
▁defic	-14177
▁deleg	-14178
▁democ	-14179
▁denou	-14180
▁devou	-14181
▁divid	-14182
▁donke	-14183
▁drain	-14184
▁dress	-14185
▁drift	-14186
▁earli	-14187
▁eleph	-14188
▁emerg	-14189
▁encry	-14190
▁engag	-14191
▁equit	-14192
▁equiv	-14193
▁exert	-14194
▁exhib	-14195
▁famin	-14196
▁fifte	-14197
▁filmm	-14198
▁freel	-14199
03	-14200
Jh	-14201
SU	-14202
0).	-14203
4,4	-14204
Dam	-14205
Jor	-14206
Sil	-14207
Sor	-14208
adn	-14209
ady	-14210
eok	-14211
ews	-14212
nad	-14213
sub	-14214
uil	-14215
weh	-14216
athi	-14217
athm	-14218
iath	-14219
ivis	-14220
lath	-14221
lory	-14222
ndal	-14223
rath	-14224
rows	-14225
ruck	-14226
ubit	-14227
xist	-14228
▁(20	-14229
▁Deu	-14230
▁Rev	-14231
▁arr	-14232
▁sic	-14233
▁sus	-14234
8,000	-14235
ainly	-14236
amath	-14237
entil	-14238
erers	-14239
inder	-14240
onath	-14241
onver	-14242
oving	-14243
reath	-14244
waren	-14245
yrian	-14246
zones	-14247
▁Amer	-14248
▁Nath	-14249
▁alle	-14250
▁arcc	-14251
▁aris	-14252
▁desk	-14253
▁enth	-14254
▁impr	-14255
▁pock	-14256
▁quen	-14257
▁quer	-14258
▁quic	-14259
▁relo	-14260
▁stor	-14261
armers	-14262
ecific	-14263
ificat	-14264
inance	-14265
istory	-14266
letion	-14267
olving	-14268
onment	-14269
ontain	-14270
riving	-14271
roving	-14272
tainly	-14273
tainty	-14274
▁Sched	-14275
▁authe	-14276
▁capit	-14277
▁decim	-14278
▁decor	-14279
▁decry	-14280
▁entri	-14281
▁graph	-14282
▁handm	-14283
▁hardw	-14284
▁helpl	-14285
▁hereb	-14286
▁impat	-14287
▁inact	-14288
▁incum	-14289
▁indiv	-14290
▁inhib	-14291
▁iniqu	-14292
▁inste	-14293
▁insur	-14294
▁leftm	-14295
▁legis	-14296
▁medic	-14297
▁merch	-14298
▁moder	-14299
32	-14300
Ja	-14301
LA	-14302
Mas	-14303
jar	-14304
jat	-14305
lub	-14306
mph	-14307
phy	-14308
raf	-14309
roa	-14310
urp	-14311
7)".	-14312
Kath	-14313
Vide	-14314
bron	-14315
gion	-14316
gree	-14317
hide	-14318
nsel	-14319
odiz	-14320
omer	-14321
phic	-14322
pted	-14323
rors	-14324
tack	-14325
turn	-14326
uage	-14327
uris	-14328
urns	-14329
usel	-14330
▁Itt	-14331
achay	-14332
achin	-14333
alach	-14334
alist	-14335
amach	-14336
aturn	-14337
ctors	-14338
ensel	-14339
ideol	-14340
nally	-14341
ounts	-14342
pened	-14343
ploye	-14344
ppell	-14345
taken	-14346
three	-14347
urner	-14348
urnis	-14349
urnit	-14350
▁Gree	-14351
▁Item	-14352
▁herb	-14353
▁nois	-14354
▁unri	-14355
▁vide	-14356
alific	-14357
erally	-14358
hersel	-14359
illing	-14360
inally	-14361
inting	-14362
isions	-14363
itants	-14364
onesia	-14365
otific	-14366
reeing	-14367
urname	-14368
urning	-14369
urnish	-14370
▁concl	-14371
▁consc	-14372
▁herit	-14373
▁itsel	-14374
▁modif	-14375
▁monit	-14376
▁mound	-14377
▁mysel	-14378
▁negot	-14379
▁panch	-14380
▁parce	-14381
▁perse	-14382
▁pipel	-14383
▁recal	-14384
▁recom	-14385
▁recur	-14386
▁rehab	-14387
▁relat	-14388
▁relev	-14389
▁relie	-14390
▁repat	-14391
▁repub	-14392
▁requi	-14393
▁resul	-14394
▁retur	-14395
▁scrut	-14396
▁secon	-14397
▁secre	-14398
▁silen	-14399
IL	-14400
Pe	-14401
4),	-14402
Jon	-14403
Jul	-14404
Kon	-14405
Nep	-14406
awg	-14407
haw	-14408
inq	-14409
lue	-14410
rix	-14411
yrs	-14412
adev	-14413
alar	-14414
bind	-14415
derf	-14416
edal	-14417
hanc	-14418
idue	-14419
ifty	-14420
iods	-14421
ixel	-14422
llan	-14423
math	-14424
ncil	-14425
orri	-14426
plor	-14427
rder	-14428
slet	-14429
tach	-14430
udio	-14431
vanc	-14432
▁Jaw	-14433
▁Pow	-14434
▁abo	-14435
▁abu	-14436
▁cli	-14437
▁pil	-14438
ainty	-14439
alanc	-14440
antim	-14441
enanc	-14442
hedul	-14443
idder	-14444
inanc	-14445
iodiz	-14446
quors	-14447
resum	-14448
rical	-14449
stanc	-14450
ugger	-14451
vites	-14452
▁Notw	-14453
▁clos	-14454
▁clou	-14455
▁empl	-14456
▁pref	-14457
▁prem	-14458
▁prev	-14459
▁roar	-14460
▁thie	-14461
ancies	-14462
ctific	-14463
dating	-14464
icator	-14465
inment	-14466
istine	-14467
lating	-14468
ndants	-14469
ossess	-14470
▁consp	-14471
▁notab	-14472
▁numer	-14473
▁prese	-14474
▁spell	-14475
▁ssind	-14476
▁statu	-14477
▁strap	-14478
▁stren	-14479
▁stumb	-14480
▁taxex	-14481
▁teleg	-14482
▁textb	-14483
▁thumb	-14484
▁truck	-14485
▁undef	-14486
▁unlaw	-14487
▁utter	-14488
▁valle	-14489
▁vehic	-14490
▁volum	-14491
▁weigh	-14492
▁whate	-14493
▁worri	-14494
▁wound	-14495
▁writt	-14496
,145,17	-14497
2007)".	-14498
ARArmen	-14499
39	-14500
Ds	-14501
lo	-14502
6).	-14503
Kin	-14504
bie	-14505
eil	-14506
iev	-14507
loc	-14508
los	-14509
pit	-14510
rel	-14511
uor	-14512
▁Av	-14513
▁FI	-14514
▁fo	-14515
aceb	-14516
aceh	-14517
acku	-14518
amar	-14519
areh	-14520
chie	-14521
ctit	-14522
elie	-14523
emol	-14524
face	-14525
fare	-14526
idel	-14527
isha	-14528
ishi	-14529
lack	-14530
lare	-14531
nish	-14532
nown	-14533
osts	-14534
owns	-14535
ownw	-14536
rish	-14537
utie	-14538
yard	-14539
▁700	-14540
▁jum	-14541
▁nex	-14542
▁noz	-14543
▁obe	-14544
▁obj	-14545
ackag	-14546
ayout	-14547
chish	-14548
ctare	-14549
ensif	-14550
ewise	-14551
hemes	-14552
ignif	-14553
inish	-14554
ioner	-14555
izens	-14556
khald	-14557
leepy	-14558
ntens	-14559
place	-14560
reens	-14561
ulace	-14562
unish	-14563
▁Comp	-14564
▁Face	-14565
▁Prov	-14566
▁cann	-14567
▁cano	-14568
▁chie	-14569
▁obst	-14570
▁offl	-14571
▁scou	-14572
ARRANT	-14573
alform	-14574
ensity	-14575
erform	-14576
inters	-14577
ithout	-14578
reates	-14579
▁Counc	-14580
▁Legis	-14581
▁accru	-14582
▁parti	-14583
▁regre	-14584
▁retri	-14585
▁thous	-14586
Inspect	-14587
Promiss	-14588
abshake	-14589
acility	-14590
ackages	-14591
actions	-14592
acturer	-14593
ailable	-14594
ainment	-14595
aintain	-14596
ainties	-14597
akpoint	-14598
alanced	-14599
AO	-14600
Ay	-14601
LZ	-14602
dp	-14603
Che	-14604
Hol	-14605
bey	-14606
few	-14607
gue	-14608
ndp	-14609
non	-14610
nve	-14611
ppl	-14612
soe	-14613
tgh	-14614
usi	-14615
▁KB	-14616
▁KI	-14617
▁Kh	-14618
▁Kr	-14619
atso	-14620
augh	-14621
buch	-14622
ccup	-14623
cond	-14624
egul	-14625
ghou	-14626
hecy	-14627
igns	-14628
illm	-14629
inde	-14630
indl	-14631
mind	-14632
ncon	-14633
pren	-14634
proc	-14635
reak	-14636
rene	-14637
sook	-14638
tarn	-14639
ture	-14640
veda	-14641
wind	-14642
▁Kat	-14643
▁Kic	-14644
▁Pos	-14645
▁Zee	-14646
▁Zin	-14647
▁alp	-14648
anent	-14649
atern	-14650
athem	-14651
enden	-14652
endic	-14653
epend	-14654
erari	-14655
gazet	-14656
indow	-14657
later	-14658
mally	-14659
roker	-14660
venty	-14661
veryw	-14662
▁Chem	-14663
▁Gide	-14664
▁modu	-14665
▁priv	-14666
atural	-14667
cedent	-14668
edural	-14669
geting	-14670
pposed	-14671
raelit	-14672
reater	-14673
veryth	-14674
▁amend	-14675
▁becom	-14676
▁cater	-14677
▁knowl	-14678
acities	-14679
alances	-14680
aldeans	-14681
aldhung	-14682
alendar	-14683
alistic	-14684
aluated	-14685
aluates	-14686
alysing	-14687
anajati	-14688
anceled	-14689
anguage	-14690
ansform	-14691
apanese	-14692
aptized	-14693
archive	-14694
ariable	-14695
armelit	-14696
assific	-14697
astruct	-14698
atchman	-14699
('	-14700
co	-14701
lv	-14702
1.9	-14703
3),	-14704
Red	-14705
Vic	-14706
aga	-14707
agg	-14708
agl	-14709
ags	-14710
akh	-14711
epl	-14712
fus	-14713
gag	-14714
gul	-14715
iag	-14716
kag	-14717
lag	-14718
nag	-14719
trl	-14720
uag	-14721
▁FT	-14722
▁Ka	-14723
▁Ps	-14724
3,00	-14725
amag	-14726
asts	-14727
cour	-14728
efer	-14729
erat	-14730
ferr	-14731
hany	-14732
itag	-14733
jest	-14734
oast	-14735
ortu	-14736
oure	-14737
oved	-14738
oven	-14739
owin	-14740
riev	-14741
tock	-14742
urag	-14743
wned	-14744
▁Mag	-14745
▁Tob	-14746
▁Tog	-14747
▁chl	-14748
▁pag	-14749
▁seg	-14750
▁thr	-14751
antas	-14752
astri	-14753
astru	-14754
ecomm	-14755
erned	-14756
ertil	-14757
iffer	-14758
ights	-14759
ighty	-14760
irgin	-14761
jamin	-14762
light	-14763
night	-14764
refer	-14765
riced	-14766
veled	-14767
▁Spir	-14768
▁bric	-14769
▁disa	-14770
▁disg	-14771
▁liab	-14772
▁scar	-14773
▁scre	-14774
▁shep	-14775
▁tast	-14776
alized	-14777
ansfor	-14778
ething	-14779
ightil	-14780
ignate	-14781
readth	-14782
ricity	-14783
▁2064(	-14784
▁Found	-14785
▁damag	-14786
▁disre	-14787
▁eight	-14788
aterial	-14789
aternal	-14790
atistic	-14791
atriate	-14792
cationa	-14793
cceeded	-14794
ccessor	-14795
cretary	-14796
cturing	-14797
dayapur	-14798
diction	-14799
4/	-14800
FT	-14801
Tu	-14802
mc	-14803
cod	-14804
ibe	-14805
ibn	-14806
ibr	-14807
itn	-14808
ixb	-14809
loy	-14810
nin	-14811
ois	-14812
omy	-14813
sib	-14814
vab	-14815
atis	-14816
ches	-14817
ctib	-14818
eare	-14819
entr	-14820
epub	-14821
fied	-14822
[...]
