[PAD]	0
[EOS]	0
[UNK]	0
[SOS]	0
[MASK]	0
▁स	-0
र्	-1
▁प	-2
को	-3
्र	-4
मा	-5
का	-6
▁ग	-7
▁त	-8
्य	-9
हर	-10
ले	-11
ने	-12
न्	-13
▁अ	-14
ला	-15
▁व	-16
नि	-17
हरू	-18
▁क	-19
▁र	-20
▁ब	-21
स्	-22
▁भ	-23
नु	-24
▁ह	-25
▁गर्	-26
▁द	-27
▁म	-28
▁य	-29
ति	-30
▁प्र	-31
ना	-32
लाई	-33
▁ज	-34
क्	-35
ार	-36
▁आ	-37
▁उ	-38
▁गर	-39
ित	-40
▁छ	-41
म्	-42
▁मा	-43
ाल	-44
▁ति	-45
नी	-46
▁(	-47
▁।	-48
▁का	-49
▁वि	-50
था	-51
▁नि	-52
नेछ	-53
▁पर	-54
यो	-55
ता	-56
िए	-57
▁न	-58
▁हु	-59
ाँ	-60
ेश	-61
▁त्य	-62
..	-63
त्र	-64
रा	-65
्व	-66
▁वा	-67
मी	-68
दा	-69
ाउ	-70
▁कु	-71
▁च	-72
▁श	-73
िक	-74
नुह	-75
▁ल	-76
▁भए	-77
ाट	-78
क्ष	-79
ोज	-80
स्त	-81
▁ला	-82
्या	-83
▁ख	-84
कार	-85
वा	-86
▁गर्न	-87
र्य	-88
▁दि	-89
▁ए	-90
ेको	-91
पा	-92
▁मानि	-93
▁सम्	-94
▁थ	-95
▁परम	-96
ोस्	-97
ेर	-98
्ट	-99
▁मानिस	-100
धि	-101
▁फ	-102
▁सम	-103
बाट	-104
िम	-105
हरूले	-106
त्	-107
▁यस	-108
▁तिमी	-109
नुहोस्	-110
▁रा	-111
हरु	-112
▁पर्	-113
▁लाग	-114
▁व्य	-115
▁अनि	-116
▁सं	-117
▁तिनी	-118
▁सा	-119
प्र	-120
▁उप	-121
▁स्	-122
न्छ	-123
▁कार्य	-124
ल्	-125
रण	-126
स्था	-127
नै	-128
▁सु	-129
▁गर्ने	-130
ैन	-131
मोज	-132
मोजिम	-133
ाइ	-134
▁लागि	-135
जा	-136
िएको	-137
हाँ	-138
▁भन्	-139
▁त्यस	-140
द्	-141
▁दे	-142
हि	-143
▁कुनै	-144
▁बमोजिम	-145
ष्ट	-146
▁तथा	-147
हरूलाई	-148
या	-149
▁अनु	-150
▁परि	-151
भु	-152
न्ध	-153
▁यो	-154
री	-155
वि	-156
प्रभु	-157
्न	-158
ही	-159
नको	-160
ाप	-161
देश	-162
▁पु	-163
क्ति	-164
▁परमप्रभु	-165
गा	-166
▁आफ	-167
▁गर्नुहोस्	-168
▁ध	-169
▁ना	-170
▁हा	-171
्त	-172
▁गरी	-173
▁के	-174
ङ्	-175
दि	-176
हा	-177
▁तर	-178
िति	-179
पाई	-180
्रो	-181
्च	-182
▁से	-183
्रा	-184
▁ः	-185
▁१	-186
बन्ध	-187
▁भने	-188
सा	-189
▁पनि	-190
▁सक्	-191
▁प्रति	-192
▁को	-193
▁तपाई	-194
्वर	-195
▁क्	-196
योग	-197
ारी	-198
▁कि	-199
▁ती	-200
▁जा	-201
▁पा	-202
▁गरि	-203
▁भएको	-204
हरूको	-205
▁२	-206
ोक	-207
लि	-208
▁इ	-209
▁“	-210
न्त	-211
▁एक	-212
ेश्वर	-213
टा	-214
▁सो	-215
▁व्यव	-216
....	-217
▁हुनेछ	-218
रू	-219
्रम	-220
▁थिए	-221
▁परमेश्वर	-222
▁हो	-223
यम	-224
ूर्	-225
▁निर्	-226
▁ठ	-227
न्य	-228
पाल	-229
ेद	-230
एको	-231
▁देख	-232
▁कुरा	-233
▁गर्नु	-234
न्द	-235
▁गरे	-236
▁क्ष	-237
▁स्था	-238
▁छो	-239
▁काम	-240
▁व्यक्ति	-241
धार	-242
सम्	-243
▁ने	-244
▁सम्बन्ध	-245
त्य	-246
▁रह	-247
फा	-248
▁अव	-249
र्थ	-250
ियो	-251
धिकार	-252
ेक	-253
▁बा	-254
भा	-255
▁सब	-256
▁स्व	-257
ूल	-258
▁दा	-259
स्तो	-260
▁"	-261
▁ड	-262
▁सर	-263
▁नेपाल	-264
छि	-265
ान	-266
कास	-267
ध्य	-268
ैले	-269
▁मानिसहरू	-270
▁उत्	-271
▁छैन	-272
ँग	-273
माण	-274
पत्र	-275
रि	-276
ौं	-277
ाँच	-278
▁तिनीहरू	-279
▁त्यो	-280
जना	-281
▁विश	-282
▁गरेको	-283
▁घ	-284
ाउँ	-285
▁दिन	-286
▁अधिकार	-287
ूच	-288
र्ष	-289
क्रम	-290
स्ता	-291
ास	-292
लेख	-293
श्य	-294
ेरो	-295
्नो	-296
▁सञ	-297
▁सबै	-298
▁विकास	-299
के	-300
ुप	-301
ेत्र	-302
▁योज	-303
▁व्यवस्था	-304
र्म	-305
▁निम्	-306
▁आफ्नो	-307
▁योजना	-308
ली	-309
▁मु	-310
▁लि	-311
▁अन्य	-312
▁दु	-313
नुहु	-314
▁पर्छ	-315
ती	-316
दछ	-317
दै	-318
▁ऐ	-319
ित्र	-320
▁उहाँ	-321
▁थियो	-322
पर्	-323
ाउने	-324
▁मेरो	-325
▁सरकार	-326
▁क्षेत्र	-327
यन	-328
द्य	-329
ाप्त	-330
▁संस्था	-331
ब्	-332
ाउन	-333
▁आव	-334
ीक	-335
दैन	-336
सले	-337
▁सेवा	-338
▁गरिएको	-339
▁प्रयोग	-340
▁तिमीहरू	-341
रह	-342
र्ग	-343
ालय	-344
▁बढ	-345
लो	-346
...	-347
▁सि	-348
ेल	-349
नमा	-350
▁बना	-351
रो	-352
श्यक	-353
्ड	-354
▁ट	-355
ालन	-356
▁आवश्यक	-357
न्न	-358
सँग	-359
सम्म	-360
▁राख	-361
उँ	-362
र्त	-363
्रि	-364
म्रो	-365
न्त्र	-366
▁तपाईँ	-367
▁तिनीहरूले	-368
▁नै	-369
क्षा	-370
▁प्राप्त	-371
▁समिति	-372
▁निम्ति	-373
नका	-374
▁एउ	-375
▁सञ्च	-376
भि	-377
▁रू	-378
▁हामी	-379
याँ	-380
ाली	-381
खा	-382
थि	-383
ेट	-384
ण्ड	-385
ाइल	-386
▁चा	-387
▁मि	-388
हरुको	-389
पाद	-390
▁बि	-391
र्ता	-392
▁भयो	-393
▁हुँ	-394
▁दिनु	-395
▁हुने	-396
▁पर्नेछ	-397
▁कार्यक्रम	-398
▁३	-399
कि	-400
शा	-401
▁पू	-402
▁तोक	-403
नुहुन्छ	-404
▁झ	-405
ारा	-406
▁२०	-407
▁सूच	-408
▁यी	-409
▁परिव	-410
एल	-411
गर	-412
सु	-413
ेत	-414
क्त	-415
ाउनु	-416
ष्	-417
ुट	-418
धिक	-419
▁बो	-420
स्तु	-421
▁समा	-422
▁एउटा	-423
▁प्रा	-424
▁वर्ष	-425
▁तपाईं	-426
▁सक्नेछ	-427
▁त्यस्तो	-428
ैं	-429
▁मलाई	-430
ग्	-431
▁ढ	-432
▁ऐन	-433
पूर्	-434
डा	-435
ुन	-436
द्ध	-437
यमा	-438
स्थ	-439
्री	-440
▁सह	-441
▁पुन	-442
▁हुन	-443
▁मैले	-444
पछि	-445
▁इस	-446
▁छोरा	-447
रु	-448
▁लेख	-449
▁भएका	-450
जी	-451
हू	-452
ङ्क	-453
नाले	-454
▁...	-455
▁छन्	-456
▁फाइल	-457
▁सम्झ	-458
डी	-459
मि	-460
वेद	-461
सार	-462
सित	-463
▁गर्दा	-464
सि	-465
।”	-466
ीमा	-467
ेका	-468
▁शि	-469
▁इस्रा	-470
▁हुन्छ	-471
पादन	-472
▁पहि	-473
▁गरिनेछ	-474
▁बमोजिमको	-475
ेला	-476
▁खा	-477
▁जुन	-478
▁लगा	-479
▁अन्त	-480
▁मानिसहरूले	-481
ङ्ग	-482
नले	-483
रमा	-484
नियम	-485
▁चाह	-486
▁नाम	-487
की	-488
निक	-489
पमा	-490
िका	-491
▁जो	-492
▁तब	-493
▁यदि	-494
▁प्रत्य	-495
ूह	-496
▁अर्	-497
▁रुप	-498
▁कर्म	-499
........	-500
▁सम्बन्धित	-501
डि	-502
दी	-503
बा	-504
।"	-505
▁भा	-506
▁हे	-507
▁किन	-508
▁मूल	-509
▁भएमा	-510
▁राजा	-511
▁त्यहाँ	-512
▁परमप्रभुले	-513
धा	-514
मान	-515
हाय	-516
वेदन	-517
िएका	-518
▁दफा	-519
ृत	-520
वरण	-521
स्य	-522
▁उस	-523
▁जि	-524
▁पठ	-525
क्षण	-526
▁रहेको	-527
▁विश्व	-528
▁सञ्चालन	-529
सं	-530
काश	-531
दफा	-532
पना	-533
भाव	-534
िता	-535
▁शहर	-536
▁सन्	-537
▁केही	-538
▁पूर्	-539
▁प्रत्येक	-540
मति	-541
र्व	-542
्ने	-543
▁बै	-544
हरूमा	-545
▁निका	-546
▁मात्र	-547
▁तिमीहरूले	-548
गत	-549
हु	-550
ून	-551
्ञ	-552
र्न	-553
ारे	-554
▁जन	-555
्रिय	-556
▁उपल	-557
▁देश	-558
▁अवधि	-559
▁नियम	-560
▁उपदफा	-561
▁गर्नेछ	-562
▁इस्राएल	-563
वन	-564
ोग	-565
००	-566
ज्य	-567
भयो	-568
दस्य	-569
न्दा	-570
ल्ला	-571
▁मिति	-572
चार	-573
▁अद	-574
▁अब	-575
▁जब	-576
▁जी	-577
▁भू	-578
▁मो	-579
▁या	-580
योजना	-581
▁नयाँ	-582
▁पर्ने	-583
इन	-584
कम	-585
च्	-586
कको	-587
दान	-588
ष्ठ	-589
ेरै	-590
▁फि	-591
क्ता	-592
स्तै	-593
ञ्	-594
वी	-595
छन्	-596
तको	-597
नीय	-598
न्ट	-599
चारी	-600
नुपर्	-601
▁बनाउ	-602
▁विवरण	-603
▁सदस्य	-604
▁उपनियम	-605
▁प्रमाण	-606
▁मानिसहरूलाई	-607
धन	-608
फल	-609
▁पछि	-610
▁रकम	-611
▁उपलब्	-612
▁राष्ट	-613
▁रूपमा	-614
▁अनुमति	-615
▁भन्नाले	-616
▁कर्मचारी	-617
तर	-618
▁५	-619
▁कृ	-620
द्धि	-621
▁अरू	-622
▁चयन	-623
▁निज	-624
▁साथ	-625
▁कारण	-626
▁जसले	-627
▁देखि	-628
▁सूचना	-629
▁परमेश्वरले	-630
ीय	-631
ेष	-632
म्प	-633
▁अस	-634
▁लग	-635
ीकरण	-636
▁धेरै	-637
▁प्रश	-638
▁उत्पादन	-639
▁निर्माण	-640
ऊद	-641
जन	-642
मु	-643
ुझ	-644
र्श	-645
ान्	-646
▁खु	-647
▁चि	-648
▁मे	-649
धारण	-650
▁समय	-651
▁आधार	-652
▁दिने	-653
▁पानी	-654
▁भन्नु	-655
▁सम्बन्धी	-656
दे	-657
यु	-658
रको	-659
ल्य	-660
्नु	-661
▁अघ	-662
▁आए	-663
ख्या	-664
ारको	-665
▁कान	-666
▁जना	-667
▁वित	-668
ृद्धि	-669
▁आदेश	-670
▁निकाय	-671
▁भन्दा	-672
▁तिमीले	-673
कै	-674
गो	-675
सी	-676
्यो	-677
त्ति	-678
▁गर्छ	-679
▁दाऊद	-680
▁उपलब्ध	-681
टो	-682
ज्ञ	-683
व्य	-684
साय	-685
▁हि	-686
त्रु	-687
▁कुल	-688
▁पेश	-689
▁बाट	-690
▁विष	-691
रहेको	-692
▁समेत	-693
▁वस्तु	-694
▁स्थानीय	-695
ंश	-696
नो	-697
िस	-698
श्र	-699
ीले	-700
▁दर	-701
▁मह	-702
▁यहू	-703
▁सकि	-704
▁अध्य	-705
▁जाँच	-706
▁अर्को	-707
▁देहाय	-708
▁परिवर्त	-709
▁तिनीहरूलाई	-710
▁परमप्रभुको	-711
शी	-712
ुक	-713
▁'	-714
करण	-715
र्ड	-716
्रे	-717
▁बी	-718
▁यू	-719
▁येश	-720
▁हाल	-721
र्थिक	-722
▁अनुस	-723
▁नाउँ	-724
▁रुपमा	-725
▁आर्थिक	-726
▁सम्झनु	-727
▁कुराहरू	-728
▁तपाईँले	-729
▁स्थापना	-730
▁तिमीहरूलाई	-731
खि	-732
▁-	-733
उने	-734
तिर	-735
म्ब	-736
ुवा	-737
▁थप	-738
कारण	-739
▁अघि	-740
▁अभि	-741
▁उल्	-742
▁दिइ	-743
▁दिए	-744
▁बढी	-745
▁भाग	-746
▁माल	-747
▁सके	-748
स्ताव	-749
्वारा	-750
▁पार्	-751
▁येशू	-752
▁समूह	-753
▁विशेष	-754
▁परिवर्तन	-755
▁व्यवस्थाप	-756
धी	-757
तमा	-758
र्फ	-759
▁अग	-760
▁कस	-761
▁गए	-762
▁नग	-763
▁पार	-764
द्योग	-765
नेछन्	-766
▁उसले	-767
▁पूजा	-768
▁पूरा	-769
हरुलाई	-770
▁आयोजना	-771
▁प्रतिश	-772
▁सरकारले	-773
▁प्रस्ताव	-774
▁क्षेत्रमा	-775
थे	-776
मे	-777
च्छ	-778
धान	-779
श्च	-780
कारी	-781
देशी	-782
▁ताल	-783
▁महि	-784
भन्दा	-785
▁अदाल	-786
▁बारे	-787
▁भूमि	-788
▁भन्ने	-789
▁प्रकाश	-790
▁शिक्षा	-791
▁त्यसपछि	-792
▁प्रतिशत	-793
▁व्यक्तिले	-794
▁परमेश्वरको	-795
कु	-796
ठा	-797
ड्	-798
ढा	-799
मो	-800
रे	-801
▁ओ	-802
जार	-803
यार	-804
▁बच	-805
माथि	-806
हिले	-807
▁कार	-808
▁कोष	-809
भित्र	-810
▁ठाउँ	-811
▁परिष	-812
▁व्या	-813
▁सक्छ	-814
▁मिश्र	-815
▁मन्त्र	-816
▁विश्वास	-817
▁समितिको	-818
दो	-819
सो	-820
▁४	-821
भने	-822
भाग	-823
ोल्	-824
▁पृ	-825
ताको	-826
▁जग्	-827
▁नगर	-828
▁फर्	-829
▁बैठ	-830
पूर्ण	-831
भिन्न	-832
▁सकेन	-833
द्वारा	-834
▁दिएको	-835
▁विभिन्न	-836
चि	-837
पर	-838
वल	-839
से	-840
शले	-841
▁गा	-842
▁ठे	-843
▁रु	-844
▁ले	-845
नलाई	-846
म्रा	-847
▁आफ्	-848
▁राज	-849
वित्र	-850
▁सम्प	-851
नुपर्छ	-852
▁गर्दछ	-853
▁जग्गा	-854
▁उहाँले	-855
▁किनभने	-856
▁जिल्ला	-857
▁तिम्रो	-858
▁इस्राएलका	-859
टि	-860
णा	-861
हो	-862
▁औ	-863
च्च	-864
ट्ट	-865
म्भ	-866
रका	-867
ेमा	-868
▁जे	-869
▁शु	-870
विधि	-871
▁पदा	-872
▁बता	-873
▁बाल	-874
▁न्या	-875
▁माथि	-876
▁पुनरा	-877
▁विद्य	-878
▁यसकारण	-879
▁विदेशी	-880
▁सम्बन्धमा	-881
टी	-882
मती	-883
मुख	-884
लको	-885
ल्ट	-886
वेश	-887
हार	-888
▁छु	-889
▁दृ	-890
▁नभ	-891
▁लु	-892
क्षम	-893
न्दि	-894
ल्यै	-895
वाला	-896
ष्टि	-897
▁खोज	-898
▁बस्	-899
▁सुर	-900
▁कर्त	-901
▁सम्म	-902
▁सामा	-903
▁स्वा	-904
▁कानून	-905
▁जस्तै	-906
▁पूर्व	-907
▁लगानी	-908
सम्बन्ध	-909
▁प्रकार	-910
▁तोकिएको	-911
▁कार्यालय	-912
जि	-913
टक	-914
यौ	-915
शो	-916
ेस	-917
▁९	-918
चिव	-919
दैछ	-920
मिक	-921
र्भ	-922
ृति	-923
▁आइ	-924
▁तु	-925
▁नी	-926
▁मृ	-927
गाना	-928
र्गत	-929
वारी	-930
▁आफू	-931
▁निय	-932
▁मुख	-933
▁हेर	-934
न्द्र	-935
युक्त	-936
▁खण्ड	-937
▁मेरा	-938
▁गरेका	-939
▁मन्दि	-940
▁मूल्य	-941
▁विस्त	-942
▁शत्रु	-943
▁समक्ष	-944
▁अवस्था	-945
▁ठेगाना	-946
▁पवित्र	-947
▁प्रभाव	-948
▁अध्यक्ष	-949
▁तिनीहरूको	-950
जु	-951
पि	-952
ेम	-953
▁ऋ	-954
▁६	-955
उनु	-956
कमा	-957
द्र	-958
ीको	-959
ोक्	-960
▁पो	-961
▁सक	-962
दर्श	-963
ध्ये	-964
ान्व	-965
▁तीन	-966
▁त्र	-967
▁ध्व	-968
हरूका	-969
▁उसको	-970
▁कायम	-971
▁तयार	-972
▁बाटो	-973
▁सिर्	-974
▁तोकिए	-975
▁यसलाई	-976
▁यहूदा	-977
▁शक्ति	-978
▁उद्योग	-979
▁उहाँको	-980
▁गरिएका	-981
▁परिषद्	-982
▁मूल्या	-983
▁कर्तव्य	-984
▁तपाईंले	-985
▁कार्यान्व	-986
▁राष्ट्रिय	-987
▁व्यक्तिको	-988
▁व्यक्तिलाई	-989
पु	-990
मक	-991
यर	-992
▁ऊ	-993
▁८	-994
एका	-995
काल	-996
जिक	-997
प्त	-998
ुटि	-999
▁छा	-1000
▁दो	-1001
ल्या	-1002
विधा	-1003
शलेम	-1004
हारी	-1005
▁उनी	-1006
▁पाप	-1007
▁यरू	-1008
▁सङ्	-1009
▁स्थ	-1010
▁हात	-1011
कर्ता	-1012
हरुमा	-1013
▁पर्य	-1014
▁बाहि	-1015
▁संशो	-1016
न्त्रण	-1017
पूर्ति	-1018
▁गरिने	-1019
▁दर्ता	-1020
▁निर्ण	-1021
▁अनुसार	-1022
▁त्यसको	-1023
▁त्रुटि	-1024
▁प्रदान	-1025
▁सन्देश	-1026
▁मानिसले	-1027
▁व्यवसाय	-1028
▁तिमीहरूका	-1029
▁मन्त्रालय	-1030
▁७	-1031
▁–	-1032
ब्द	-1033
योज	-1034
समा	-1035
ेरि	-1036
▁पै	-1037
▁यु	-1038
▁वै	-1039
▁शा	-1040
कहाँ	-1041
ज्ञा	-1042
देखि	-1043
▁उद्	-1044
▁काग	-1045
▁कृष	-1046
▁चाँ	-1047
▁परी	-1048
▁बलि	-1049
▁बाँ	-1050
▁बाह	-1051
खास्त	-1052
जामती	-1053
न्छन्	-1054
▁अधिक	-1055
▁क्रम	-1056
▁जीवन	-1057
हिल्यै	-1058
▁अहिले	-1059
▁पाउने	-1060
▁भित्र	-1061
▁मुख्य	-1062
▁स्थान	-1063
▁सुविधा	-1064
▁हुँदैन	-1065
सम्बन्धी	-1066
▁तपाईँको	-1067
▁निजामती	-1068
▁यरूशलेम	-1069
▁लेखिएको	-1070
▁सिर्जना	-1071
▁आवश्यकता	-1072
▁पूजाहारी	-1073
▁अनुमतिपत्र	-1074
▁कार्यान्वयन	-1075
सम	-1076
ोर	-1077
खित	-1078
र्च	-1079
लिक	-1080
लित	-1081
ितो	-1082
ूची	-1083
ूलो	-1084
्रह	-1085
▁ऋण	-1086
▁पद	-1087
▁पि	-1088
त्री	-1089
नेछु	-1090
र्या	-1091
सुकै	-1092
▁अगम	-1093
▁छवि	-1094
▁झैं	-1095
▁दुई	-1096
▁बुझ	-1097
▁भेट	-1098
▁योग	-1099
देश्य	-1100
▁उनले	-1101
▁कम्प	-1102
▁छोरो	-1103
▁नीति	-1104
▁पत्र	-1105
▁पिता	-1106
▁फेरि	-1107
▁बन्द	-1108
▁शब्द	-1109
▁तालिम	-1110
▁समयमा	-1111
▁निर्णय	-1112
▁कहिल्यै	-1113
▁जुनसुकै	-1114
▁दरखास्त	-1115
खत	-1116
भव	-1117
भू	-1118
कले	-1119
ग्न	-1120
चना	-1121
मित	-1122
वार	-1123
▁आप	-1124
▁उठ	-1125
▁गि	-1126
▁गो	-1127
▁घट	-1128
▁था	-1129
▁रे	-1130
जनिक	-1131
णाली	-1132
त्मक	-1133
नीको	-1134
ैनिक	-1135
▁मान	-1136
विधिक	-1137
▁कुञ्	-1138
▁खर्च	-1139
▁धितो	-1140
▁ल्या	-1141
▁सुरु	-1142
▁जस्तो	-1143
▁मृत्य	-1144
▁स्वीक	-1145
र्वजनिक	-1146
▁उल्लेख	-1147
▁पठाउनु	-1148
▁सरकारी	-1149
▁उद्देश्य	-1150
▁नियन्त्रण	-1151
छौ	-1152
बी	-1153
श्	-1154
ूर	-1155
▁t	-1156
डीई	-1157
यास	-1158
रिद	-1159
वाद	-1160
वास	-1161
ामा	-1162
िएर	-1163
▁घर	-1164
▁थि	-1165
्तीय	-1166
▁अगा	-1167
▁अन्	-1168
▁जान	-1169
▁नरा	-1170
▁महा	-1171
▁सञ्	-1172
▁साम	-1173
▁स्प	-1174
रहेका	-1175
स्थित	-1176
▁प्रक	-1177
▁म्या	-1178
▁साथै	-1179
▁होइन	-1180
▁होस्	-1181
▁कागजा	-1182
▁गर्दै	-1183
▁जस्ता	-1184
▁पहिले	-1185
▁बाहिर	-1186
▁यसर्थ	-1187
▁यस्तो	-1188
▁वितरण	-1189
▁प्रमुख	-1190
▁मृत्यु	-1191
▁सञ्चाल	-1192
र्नुहोस्	-1193
▁देहायका	-1194
▁सम्पत्ति	-1195
▁अधिकारीले	-1196
▁प्रतिवेदन	-1197
▁हुनुहुन्छ	-1198
▁प्रमाणपत्र	-1199
एर	-1200
टन	-1201
शि	-1202
ाई	-1203
बुझ	-1204
रले	-1205
रुप	-1206
सुफ	-1207
▁अझ	-1208
▁कर	-1209
▁खो	-1210
▁चौ	-1211
▁डे	-1212
▁धा	-1213
▁मौ	-1214
▁हर	-1215
केको	-1216
क्षि	-1217
त्या	-1218
निर्	-1219
नेछौ	-1220
न्छु	-1221
न्तर	-1222
▁आउँ	-1223
▁ठीक	-1224
▁ताप	-1225
▁लिन	-1226
▁संर	-1227
▁सेट	-1228
मध्ये	-1229
वक्ता	-1230
ारम्भ	-1231
▁कृषि	-1232
▁मोशा	-1233
▁लागू	-1234
▁सचिव	-1235
▁सहित	-1236
▁हुन्	-1237
▁केडीई	-1238
▁गरेमा	-1239
▁पृष्ठ	-1240
▁बनाउन	-1241
▁यूसुफ	-1242
▁कुञ्जी	-1243
▁परिवार	-1244
▁प्रयास	-1245
▁बारेमा	-1246
▁राम्रो	-1247
▁विद्यु	-1248
▁निर्देश	-1249
▁वित्तीय	-1250
▁अगमवक्ता	-1251
▁गर्नुपर्	-1252
▁प्रारम्भ	-1253
▁सार्वजनिक	-1254
डर	-1255
प्	-1256
शु	-1257
ूब	-1258
ेन	-1259
ञ्ज	-1260
तान	-1261
त्व	-1262
वाह	-1263
स्क	-1264
ासन	-1265
▁प्	-1266
▁हट	-1267
थमिक	-1268
ल्लो	-1269
्याल	-1270
▁अस्	-1271
▁कति	-1272
▁जन्	-1273
▁नाप	-1274
▁परा	-1275
▁बचत	-1276
▁ल्य	-1277
▁संग	-1278
▁सात	-1279
▁स्त	-1280
▁२०४	-1281
च्छेद	-1282
र्षिक	-1283
विद्य	-1284
हरुले	-1285
▁अर्थ	-1286
▁ग्रा	-1287
▁ठूलो	-1288
▁पर्व	-1289
▁पुर्	-1290
▁साँच	-1291
▁हजार	-1292
▁हुनु	-1293
▁उत्तर	-1294
▁उसलाई	-1295
▁तापनि	-1296
▁सहयोग	-1297
▁सुधार	-1298
▁हुँदा	-1299
▁अन्तर्	-1300
▁अवधिमा	-1301
▁कारणले	-1302
▁त्यसरी	-1303
▁राख्नु	-1304
▁संशोधन	-1305
▁तिमीलाई	-1306
▁त्यसलाई	-1307
▁प्रणाली	-1308
▁स्थानमा	-1309
▁अन्तर्गत	-1310
▁निर्धारण	-1311
▁प्राथमिक	-1312
▁भन्नुभयो	-1313
▁तिमीहरूको	-1314
▁मूल्याङ्क	-1315
er	-1316
उन	-1317
गे	-1318
णी	-1319
तम	-1320
भो	-1321
वे	-1322
िन	-1323
।'	-1324
▁:	-1325
▁‘	-1326
डान	-1327
थवा	-1328
परि	-1329
संग	-1330
ारो	-1331
्टा	-1332
▁अन	-1333
▁गु	-1334
▁झू	-1335
▁नस	-1336
▁पी	-1337
▁शै	-1338
▁१०	-1339
क्षक	-1340
चलित	-1341
चालन	-1342
त्ता	-1343
म्मा	-1344
र्ने	-1345
ाउँछ	-1346
ीहरू	-1347
▁कम्	-1348
▁छुट	-1349
▁दुइ	-1350
▁पाठ	-1351
▁बीच	-1352
▁बैं	-1353
▁भनी	-1354
▁माग	-1355
नुसार	-1356
शक्ति	-1357
स्थ्य	-1358
▁चिन्	-1359
▁जाने	-1360
▁फोल्	-1361
▁बीमा	-1362
▁यसको	-1363
▁रेखा	-1364
▁लुगा	-1365
▁विषय	-1366
▁सर्व	-1367
▁सेना	-1368
बमोजिम	-1369
▁अदालत	-1370
▁आफ्ना	-1371
▁एकजना	-1372
▁गराउन	-1373
▁दुष्ट	-1374
▁ध्वंश	-1375
▁न्याय	-1376
▁परेको	-1377
▁महिना	-1378
▁म्याद	-1379
▁राज्य	-1380
▁विभाग	-1381
्नुहोस्	-1382
▁अनुमान	-1383
▁कागजात	-1384
▁विषयमा	-1385
▁साधारण	-1386
▁स्त्री	-1387
▁केन्द्र	-1388
▁छोराहरू	-1389
▁प्रकाशन	-1390
▁प्रचलित	-1391
▁प्रतिनि	-1392
▁अवस्थामा	-1393
▁तिनीहरूका	-1394
▁पुनरावेदन	-1395
▁प्राविधिक	-1396
ीत	-1397
केत	-1398
पया	-1399
मको	-1400
यात	-1401
र्प	-1402
लमा	-1403
वधि	-1404
वली	-1405
▁गठ	-1406
▁टा	-1407
▁पछ	-1408
▁भु	-1409
▁मन	-1410
▁सी	-1411
▁११	-1412
तर्फ	-1413
दिनु	-1414
ध्यम	-1415
न्दु	-1416
न्या	-1417
ल्ने	-1418
िएमा	-1419
्रोत	-1420
▁अति	-1421
▁आगो	-1422
▁उपर	-1423
▁काँ	-1424
▁चार	-1425
▁दाख	-1426
▁नहु	-1427
▁न्य	-1428
▁बिक	-1429
▁रोज	-1430
▁लिई	-1431
▁सँग	-1432
▁सिफ	-1433
दर्शन	-1434
▁अथवा	-1435
▁असफल	-1436
▁ऐनको	-1437
▁गरेर	-1438
▁चेला	-1439
▁दण्ड	-1440
▁पाँच	-1441
▁पालन	-1442
▁मूर्	-1443
▁यसले	-1444
▁विरू	-1445
▁शुरु	-1446
▁सर्भ	-1447
▁सहाय	-1448
▁सूची	-1449
▁कसैले	-1450
▁जान्द	-1451
▁निजले	-1452
▁प्रेम	-1453
▁सैनिक	-1454
▁हालको	-1455
▁अधिकृत	-1456
▁आधारमा	-1457
▁गराउने	-1458
▁प्रयोज	-1459
▁फिर्ता	-1460
▁स्पष्ट	-1461
▁स्वर्ग	-1462
▁हाम्रो	-1463
ाउनुहोस्	-1464
▁अधिकारी	-1465
▁अनुसूची	-1466
▁प्रविधि	-1467
▁यहूदाका	-1468
▁राजपत्र	-1469
▁समितिले	-1470
▁सामान्य	-1471
▁........	-1472
▁प्रकाशित	-1473
▁स्वास्थ्य	-1474
ंग	-1475
टर	-1476
णि	-1477
दर	-1478
यत	-1479
यी	-1480
काई	-1481
कूल	-1482
ञ्च	-1483
ड्ढ	-1484
त्त	-1485
धित	-1486
मेर	-1487
वित	-1488
श्त	-1489
ि्र	-1490
▁अध	-1491
▁अप	-1492
▁आय	-1493
▁चु	-1494
▁छल	-1495
▁बे	-1496
▁भई	-1497
▁रङ	-1498
▁लो	-1499
▁१९	-1500
कलाई	-1501
कहरू	-1502
क्ने	-1503
भएको	-1504
लम्ब	-1505
▁अधि	-1506
▁असल	-1507
▁आत्	-1508
▁गति	-1509
▁चला	-1510
▁चाल	-1511
▁देव	-1512
▁बहु	-1513
▁बाब	-1514
▁भवन	-1515
▁यसो	-1516
▁२०५	-1517
झ्याल	-1518
देशिक	-1519
श्चित	-1520
▁उच्च	-1521
▁क्षम	-1522
▁ढाँच	-1523
▁बाँच	-1524
▁रहने	-1525
▁उपयोग	-1526
▁कृपया	-1527
▁गर्यौ	-1528
▁जम्मा	-1529
▁तिनका	-1530
▁देशको	-1531
▁निजको	-1532
▁पहिलो	-1533
▁पुस्त	-1534
▁मार्ग	-1535
▁मालसा	-1536
▁युद्ध	-1537
▁योग्य	-1538
▁सक्ने	-1539
▁सम्झौ	-1540
▁सवारी	-1541
▁गराउनु	-1542
▁ठाउँमा	-1543
▁दृष्टि	-1544
▁निवेदन	-1545
▁पदार्थ	-1546
▁बैठकको	-1547
▁वृद्धि	-1548
▁संख्या	-1549
▁सन्तान	-1550
▁स्थिति	-1551
▁हामीले	-1552
विद्यालय	-1553
▁तपाईंको	-1554
▁वार्षिक	-1555
▁विरूद्ध	-1556
▁विस्तार	-1557
▁संस्थाको	-1558
▁सञ्झ्याल	-1559
▁प्राथमिकता	-1560
▁व्यवस्थापन	-1561
▁परमेश्वरलाई	-1562
on	-1563
जत	-1564
डो	-1565
दू	-1566
लन	-1567
वृ	-1568
वै	-1569
ीज	-1570
ठौं	-1571
न्स	-1572
मीन	-1573
याह	-1574
श्श	-1575
ाटा	-1576
ोका	-1577
▁एव	-1578
▁कम	-1579
▁छौ	-1580
▁तह	-1581
▁बस	-1582
▁भे	-1583
▁भै	-1584
▁रि	-1585
▁लड	-1586
▁१३	-1587
द्दा	-1588
द्या	-1589
नामा	-1590
बाही	-1591
र्जा	-1592
वाही	-1593
ारिस	-1594
▁आदि	-1595
▁कन्	-1596
▁दाय	-1597
▁देऊ	-1598
▁पाइ	-1599
▁पाल	-1600
▁मेट	-1601
▁लाख	-1602
▁साइ	-1603
▁स्ट	-1604
क्षित	-1605
धारित	-1606
प्रति	-1607
विधान	-1608
्रिया	-1609
▁अनुग	-1610
▁किना	-1611
▁खरिद	-1612
▁गराइ	-1613
▁नजिक	-1614
▁नष्ट	-1615
▁नानी	-1616
▁निरी	-1617
▁पक्ष	-1618
▁फेला	-1619
▁साधन	-1620
▁हुला	-1621
यमावली	-1622
हरूबाट	-1623
▁अध्या	-1624
▁आज्ञा	-1625
▁क्लिक	-1626
▁क्षति	-1627
▁चिन्ह	-1628
▁तिनले	-1629
▁त्यही	-1630
▁निम्न	-1631
▁पर्दा	-1632
▁पुर्‍	-1633
▁बाहेक	-1634
▁भएपछि	-1635
▁महत्व	-1636
▁व्याप	-1637
▁स्रोत	-1638
▁त्यसले	-1639
▁निर्दि	-1640
▁बिक्री	-1641
▁बिन्दु	-1642
▁मितिले	-1643
▁मुद्दा	-1644
▁सङ्केत	-1645
▁अवस्थित	-1646
▁नराम्रो	-1647
▁प्रस्तु	-1648
▁संरक्षण	-1649
▁सुरक्षा	-1650
▁अन्तर्रा	-1651
▁दिनभित्र	-1652
▁नियमावली	-1653
▁परिच्छेद	-1654
▁सम्पूर्ण	-1655
▁हुनुपर्छ	-1656
▁क्षेत्रको	-1657
▁प्रतिनिधि	-1658
▁मानिसहरूको	-1659
▁मूल्याङ्कन	-1660
▁विश्वविद्यालय	-1661
इस	-1662
चन	-1663
पत	-1664
पन	-1665
पो	-1666
फि	-1667
बू	-1668
मय	-1669
षा	-1670
ाए	-1671
उँछ	-1672
एली	-1673
चित	-1674
तिक	-1675
तिम	-1676
दको	-1677
दिए	-1678
द्द	-1679
पात	-1680
बाल	-1681
रोध	-1682
ल्प	-1683
वाई	-1684
सको	-1685
सिम	-1686
सिल	-1687
ेरी	-1688
▁आँ	-1689
▁डि	-1690
▁दश	-1691
▁रो	-1692
▁लै	-1693
▁सड	-1694
▁सय	-1695
▁१५	-1696
ग्री	-1697
थ्यो	-1698
नेको	-1699
पानी	-1700
बद्ध	-1701
लिपि	-1702
हामी	-1703
ेदार	-1704
्यान	-1705
▁एवं	-1706
▁काठ	-1707
▁छोड	-1708
▁तत्	-1709
▁दोष	-1710
▁पछा	-1711
▁पटक	-1712
▁लाभ	-1713
▁विक	-1714
▁वेद	-1715
▁सजा	-1716
▁समु	-1717
▁साझ	-1718
क्रमण	-1719
लिखित	-1720
स्करण	-1721
स्त्र	-1722
▁आएको	-1723
▁उपभो	-1724
▁कोही	-1725
▁क्रो	-1726
▁खाली	-1727
▁खुशी	-1728
▁छलफल	-1729
▁जडान	-1730
▁जन्म	-1731
▁जहाँ	-1732
▁जारी	-1733
▁निष्	-1734
▁फर्क	-1735
▁बेला	-1736
▁यसरी	-1737
▁रुपै	-1738
▁रोजग	-1739
▁लामो	-1740
▁लेवी	-1741
▁विधि	-1742
▁सत्य	-1743
पालिका	-1744
संख्या	-1745
▁अक्षम	-1746
▁दाज्य	-1747
▁नभएको	-1748
▁पर्दछ	-1749
▁प्रवि	-1750
▁सक्षम	-1751
▁हुँदै	-1752
ष्ट्रिय	-1753
▁अन्तिम	-1754
▁अभिलेख	-1755
▁उत्पाद	-1756
▁दाऊदले	-1757
▁नियमित	-1758
▁पुर्‍य	-1759
▁प्रवेश	-1760
▁मन्दिर	-1761
▁समावेश	-1762
▁सम्भाव	-1763
▁कारबाही	-1764
▁त्यस्ता	-1765
▁राष्ट्र	-1766
▁संस्करण	-1767
▁सम्झौता	-1768
▁हामीलाई	-1769
▁उपभोक्ता	-1770
▁उल्लिखित	-1771
▁गर्नेछन्	-1772
▁निर्दिष्ट	-1773
▁चाहनुहुन्छ	-1774
▁पार्नुहोस्	-1775
छु	-1776
दय	-1777
नौ	-1778
बर	-1779
बि	-1780
लब	-1781
सर	-1782
ें	-1783
ेउ	-1784
ौल	-1785
▁्	-1786
एमा	-1787
काउ	-1788
कोण	-1789
राई	-1790
लाइ	-1791
वटा	-1792
▁--	-1793
▁कठ	-1794
▁कै	-1795
▁जल	-1796
▁टे	-1797
▁डल	-1798
▁ता	-1799
▁यि	-1800
▁वी	-1801
▁शे	-1802
▁हक	-1803
जाजत	-1804
जुरी	-1805
तीमा	-1806
पट्ट	-1807
फिगर	-1808
भूमि	-1809
र्नु	-1810
लामा	-1811
लिया	-1812
वधिक	-1813
ित्व	-1814
▁आमा	-1815
▁आशा	-1816
▁गल्	-1817
▁चीज	-1818
▁ज्ञ	-1819
▁नदी	-1820
▁नोक	-1821
▁पलि	-1822
▁भार	-1823
▁यहो	-1824
▁रही	-1825
▁रोक	-1826
▁सुद	-1827
क्षिण	-1828
क्ष्य	-1829
▁आवास	-1830
▁उनको	-1831
▁कानू	-1832
▁जानु	-1833
▁झूटो	-1834
▁दस्त	-1835
▁निजी	-1836
▁पर्ख	-1837
▁पाउन	-1838
▁पारि	-1839
▁लैजा	-1840
▁संगठ	-1841
▁अगाडि	-1842
▁अद्या	-1843
▁आत्मा	-1844
▁आफ्नै	-1845
▁इजाजत	-1846
▁किसिम	-1847
▁ढाँचा	-1848
▁देवता	-1849
▁नहुने	-1850
▁पार्न	-1851
▁पुनर्	-1852
▁पुर्य	-1853
▁बस्ने	-1854
▁बोर्ड	-1855
▁महिला	-1856
▁मालिक	-1857
▁यसैले	-1858
▁सकिने	-1859
▁गर्दैन	-1860
▁गर्नका	-1861
▁तिम्रा	-1862
▁न्याया	-1863
▁पलिश्त	-1864
▁बृद्धि	-1865
▁येशूले	-1866
▁शहरहरू	-1867
▁कन्फिगर	-1868
▁जनशक्ति	-1869
▁जाँचबुझ	-1870
▁जानकारी	-1871
▁देखिन्छ	-1872
▁योजनाको	-1873
▁विकासका	-1874
▁व्यवहार	-1875
▁सिफारिस	-1876
▁स्वीकृत	-1877
▁इस्राएली	-1878
▁जनसंख्या	-1879
▁पदाधिकार	-1880
▁परियोजना	-1881
▁प्रदर्शन	-1882
▁प्रस्तुत	-1883
▁अद्यावधिक	-1884
▁प्रतिलिपि	-1885
▁कर्मचारीले	-1886
▁प्रभावकारी	-1887
आब	-1888
पथ	-1889
बो	-1890
लत	-1891
लु	-1892
वक	-1893
उपर	-1894
कीय	-1895
कूब	-1896
चाल	-1897
टिङ	-1898
थ्व	-1899
नन्	-1900
न्ड	-1901
पति	-1902
पनि	-1903
माई	-1904
रहे	-1905
विष	-1906
िएन	-1907
ुले	-1908
०००	-1909
▁खट	-1910
▁चढ	-1911
▁छि	-1912
▁ढा	-1913
▁ढु	-1914
▁पच	-1915
▁पढ	-1916
▁भौ	-1917
▁१६	-1918
▁३०	-1919
अन्त	-1920
केका	-1921
गरिक	-1922
ङ्गा	-1923
ठारी	-1924
तिमी	-1925
नाको	-1926
न्छौ	-1927
मार्	-1928
योजन	-1929
लग्न	-1930
ल्टर	-1931
स्या	-1932
▁अधी	-1933
▁अबी	-1934
▁आपू	-1935
▁आयो	-1936
▁खास	-1937
▁गठन	-1938
▁चढा	-1939
▁छेउ	-1940
▁छौं	-1941
▁जति	-1942
▁तौल	-1943
▁नक्	-1944
▁भएर	-1945
▁भनि	-1946
▁माउ	-1947
▁यसै	-1948
▁लाइ	-1949
▁वरि	-1950
▁संघ	-1951
▁सदा	-1952
▁सही	-1953
▁हार	-1954
जिष्ट	-1955
णिज्य	-1956
न्धान	-1957
रिक्त	-1958
वस्तु	-1959
ाउनेछ	-1960
ोक्सा	-1961
▁अङ्क	-1962
▁उत्प	-1963
▁उनका	-1964
▁कारो	-1965
▁किता	-1966
▁छोरी	-1967
▁जमीन	-1968
▁तर्फ	-1969
▁पश्च	-1970
▁प्रो	-1971
▁बोल्	-1972
▁भनेर	-1973
▁भेडा	-1974
▁लिएर	-1975
▁विगत	-1976
▁सन्द	-1977
▁सोको	-1978
▁स्वत	-1979
अनुसार	-1980
न्द्री	-1981
▁उपकरण	-1982
▁कामको	-1983
▁गर्छु	-1984
▁पर्वत	-1985
▁पूर्ण	-1986
▁पृथ्व	-1987
▁मुक्त	-1988
▁यहूदी	-1989
▁याकूब	-1990
▁सर्भर	-1991
▁साँचो	-1992
नुहुनेछ	-1993
▁अधीनमा	-1994
▁अध्ययन	-1995
▁आफूलाई	-1996
▁कम्पनी	-1997
▁दाज्यू	-1998
▁दिइनेछ	-1999
▁नोक्सा	-2000
▁पैठारी	-2001
▁फिल्टर	-2002
▁भुक्ता	-2003
▁मूर्ति	-2004
▁लक्ष्य	-2005
▁लाग्ने	-2006
▁सहायता	-2007
▁दायित्व	-2008
▁पलिश्ती	-2009
▁प्रत्या	-2010
▁मानिसको	-2011
▁रुपैयाँ	-2012
▁वाणिज्य	-2013
▁विद्युत	-2014
▁समेतलाई	-2015
▁सम्पादन	-2016
▁सामग्री	-2017
▁हुनेछन्	-2018
▁निर्देशन	-2019
▁प्रकारको	-2020
▁योजनाकाल	-2021
▁अनुसन्धान	-2022
▁इस्राएलको	-2023
▁दृष्टिकोण	-2024
▁महत्वपूर्ण	-2025
▁मानिसहरूका	-2026
▁सक्नुहुन्छ	-2027
),	-2028
ंक	-2029
गि	-2030
थो	-2031
पण	-2032
पय	-2033
बै	-2034
मन	-2035
यक	-2036
यस	-2037
रस	-2038
लग	-2039
ृढ	-2040
ैर	-2041
१२	-2042
▁P	-2043
चान	-2044
दार	-2045
दिन	-2046
परी	-2047
बलि	-2048
बार	-2049
भाइ	-2050
मका	-2051
माड	-2052
मीण	-2053
राध	-2054
ल्क	-2055
विक	-2056
विध	-2057
हान	-2058
हुँ	-2059
ोरी	-2060
्ति	-2061
्यु	-2062
्ले	-2063
▁अफ	-2064
▁छै	-2065
▁ठा	-2066
▁दू	-2067
▁नम	-2068
▁फल	-2069
▁फो	-2070
▁बु	-2071
▁भि	-2072
▁वृ	-2073
▁हृ	-2074
▁१२	-2075
▁१४	-2076
ँदैन	-2077
द्दत	-2078
निमय	-2079
न्थे	-2080
र्का	-2081
समूह	-2082
्नेछ	-2083
▁अरु	-2084
▁आशी	-2085
▁इन्	-2086
▁उम्	-2087
▁खेल	-2088
▁गैर	-2089
▁जाऊ	-2090
▁ट्र	-2091
▁डरा	-2092
▁डलर	-2093
▁पहा	-2094
▁बोल	-2095
▁मात	-2096
▁रहे	-2097
▁रात	-2098
▁रूप	-2099
▁लोड	-2100
▁वचन	-2101
▁शरी	-2102
▁सडक	-2103
▁सफल	-2104
▁हित	-2105
▁२०६	-2106
क्षिक	-2107
न्तरण	-2108
मानको	-2109
मित्त	-2110
र्मिक	-2111
विष्य	-2112
ाइएको	-2113
▁अत्य	-2114
▁आठौं	-2115
▁कहाँ	-2116
▁केवल	-2117
▁गराई	-2118
▁चारै	-2119
▁थिएन	-2120
▁पाउँ	-2121
▁बजार	-2122
▁बाली	-2123
▁बैठक	-2124
▁भन्न	-2125
▁यहाँ	-2126
▁याता	-2127
▁विदा	-2128
▁शेयर	-2129
▁सङ्क	-2130
▁सजाय	-2131
▁साइज	-2132
▁सानो	-2133
▁सारा	-2134
▁सुले	-2135
▁सोच्	-2136
▁स्वर	-2137
▁स्वी	-2138
ध्यक्ष	-2139
न्तरिक	-2140
पत्रको	-2141
र्गतको	-2142
सम्मको	-2143
स्थिति	-2144
▁अब्रा	-2145
▁आइमाई	-2146
▁कतिपय	-2147
▁किताब	-2148
▁गर्यो	-2149
▁छैनन्	-2150
▁त्यसै	-2151
▁दाखरस	-2152
▁दिनेछ	-2153
▁न्यून	-2154
▁पछाडि	-2155
▁पहिला	-2156
▁प्रशि	-2157
▁बाबेल	-2158
▁बैङ्क	-2159
▁मद्दत	-2160
▁मुद्र	-2161
▁रक्षा	-2162
▁ल्याए	-2163
▁सहभाग	-2164
▁सुदृढ	-2165
▁सुनको	-2166
▁सेटिङ	-2167
▁हातमा	-2168
▁हेर्न	-2169
▁उहाँका	-2170
▁क्षमता	-2171
▁तत्काल	-2172
▁तालिका	-2173
▁तोकेको	-2174
▁दक्षिण	-2175
▁दाऊदका	-2176
▁धितोको	-2177
▁नागरिक	-2178
▁नेपाली	-2179
▁परिमाण	-2180
▁फोल्डर	-2181
▁बनाउनु	-2182
▁भविष्य	-2183
▁माध्यम	-2184
▁रजिष्ट	-2185
▁राख्ने	-2186
▁राजाको	-2187
▁संगठित	-2188
▁संलग्न	-2189
▁समस्या	-2190
▁समाप्त	-2191
▁समुद्र	-2192
▁आन्तरिक	-2193
▁आपूर्ति	-2194
▁उहाँलाई	-2195
▁कम्तीमा	-2196
▁ग्रामीण	-2197
▁निकायले	-2198
▁निमित्त	-2199
▁निश्चित	-2200
▁परिमार्	-2201
▁मानिनेछ	-2202
▁वैदेशिक	-2203
▁व्यापार	-2204
▁संविधान	-2205
▁सरकारको	-2206
▁सामाजिक	-2207
▁अतिरिक्त	-2208
▁निरीक्षण	-2209
▁प्रतिष्ठ	-2210
▁मानिसलाई	-2211
▁सुरक्षित	-2212
▁स्वीकृति	-2213
▁नगरपालिका	-2214
▁पूर्वनिर्	-2215
▁प्रक्रिया	-2216
▁प्रयोजनको	-2217
▁संस्थानको	-2218
▁भन्नुहुन्छ	-2219
▁क्षतिपूर्ति	-2220
▁अन्तर्राष्ट्रिय	-2221
ac	-2222
ex	-2223
in	-2224
आर	-2225
कल	-2226
खी	-2227
जर	-2228
जो	-2229
ज्	-2230
टै	-2231
डै	-2232
धे	-2233
भर	-2234
व्	-2235
सन	-2236
▁?	-2237
क्स	-2238
जेट	-2239
तया	-2240
देऊ	-2241
नाम	-2242
परम	-2243
बाब	-2244
भूत	-2245
मेद	-2246
यौं	-2247
राम	-2248
रूप	-2249
र्ण	-2250
लाप	-2251
लास	-2252
वमा	-2253
शील	-2254
सभा	-2255
स्ट	-2256
हरी	-2257
ह्र	-2258
िने	-2259
ूला	-2260
ोकन	-2261
▁आउ	-2262
▁औष	-2263
▁गण	-2264
▁घो	-2265
▁चो	-2266
▁जस	-2267
▁डो	-2268
▁नव	-2269
▁फै	-2270
▁बग	-2271
▁मर	-2272
▁वे	-2273
▁सघ	-2274
▁२९	-2275
इनेछ	-2276
क्षर	-2277
ग्ने	-2278
च्छा	-2279
तिनी	-2280
त्रा	-2281
दाता	-2282
द्रा	-2283
नासि	-2284
नेका	-2285
प्ति	-2286
प्रै	-2287
बन्द	-2288
म्मे	-2289
लियन	-2290
वसाय	-2291
सँगै	-2292
स्रो	-2293
ानको	-2294
ालमा	-2295
ैलाई	-2296
्रोल	-2297
▁कमा	-2298
▁गयो	-2299
▁छाउ	-2300
▁जवा	-2301
▁जोड	-2302
▁तिर	-2303
▁दिई	-2304
▁फिर	-2305
▁भर्	-2306
▁भाइ	-2307
▁यति	-2308
▁यही	-2309
▁लाई	-2310
▁लुक	-2311
▁वटा	-2312
▁वडा	-2313
▁शपथ	-2314
▁शाऊ	-2315
▁सभा	-2316
▁स्क	-2317
दैनन्	-2318
धिकरण	-2319
माडौं	-2320
र्वाद	-2321
लम्बन	-2322
ाउँदै	-2323
ुक्रा	-2324
▁आउनु	-2325
▁आउने	-2326
▁आएका	-2327
▁आफैं	-2328
▁आयात	-2329
▁इकाई	-2330
▁इन्ट	-2331
▁उत्त	-2332
▁उमेर	-2333
▁एउटै	-2334
▁करार	-2335
▁खाता	-2336
▁खाने	-2337
▁खारे	-2338
▁खोल्	-2339
▁घरमा	-2340
▁चालू	-2341
▁चौथो	-2342
▁ज्या	-2343
▁टाढा	-2344
▁दोषी	-2345
▁नम्ब	-2346
▁पचास	-2347
▁पठाइ	-2348
▁पराम	-2349
▁प्या	-2350
▁बनाए	-2351
▁बिना	-2352
▁बैंक	-2353
▁यसका	-2354
▁राखे	-2355
▁लिनु	-2356
▁लिने	-2357
▁वर्ग	-2358
▁शर्त	-2359
▁शासन	-2360
▁श्री	-2361
▁समया	-2362
▁स्तर	-2363
प्रयोग	-2364
बृद्धि	-2365
वसायिक	-2366
हरूसित	-2367
▁अगुवा	-2368
▁अनुभव	-2369
▁उजुरी	-2370
▁उपहार	-2371
▁चाँहि	-2372
▁छेउमा	-2373
▁तरिका	-2374
▁तुल्य	-2375
▁त्यसो	-2376
▁पत्रु	-2377
▁पुत्र	-2378
▁लिखित	-2379
▁विज्ञ	-2380
▁विवाह	-2381
▁विविध	-2382
▁हस्ता	-2383
▁हारून	-2384
▁हुलाक	-2385
द्योगिक	-2386
▁कामहरू	-2387
▁जिम्मे	-2388
▁तिनलाई	-2389
▁तुल्या	-2390
▁नगर्ने	-2391
▁पहिचान	-2392
▁प्रधान	-2393
▁प्रशास	-2394
▁बनाएको	-2395
▁भूमिमा	-2396
▁मुद्रा	-2397
▁राखेको	-2398
▁रोजगार	-2399
▁वरिपरि	-2400
▁वर्षको	-2401
▁वर्षमा	-2402
▁सकिनेछ	-2403
▁सूचीमा	-2404
▁हाम्रा	-2405
अन्तर्गत	-2406
हरुमध्ये	-2407
▁अदालतमा	-2408
▁उत्पन्न	-2409
▁उपयुक्त	-2410
▁चेलाहरू	-2411
▁जग्गामा	-2412
▁दिनुभयो	-2413
▁धार्मिक	-2414
▁नियमहरू	-2415
▁प्रशासन	-2416
▁बोलपत्र	-2417
▁विकासको	-2418
▁विस्तृत	-2419
▁शैक्षिक	-2420
▁संस्थान	-2421
▁सचिवालय	-2422
▁सञ्चालक	-2423
▁सदस्यले	-2424
▁सम्पन्न	-2425
▁हुनुपर्	-2426
▁हुन्छन्	-2427
▁आशीर्वाद	-2428
▁औद्योगिक	-2429
▁नोक्सानी	-2430
▁परिषद्ले	-2431
▁भुक्तानी	-2432
▁मानिसहरु	-2433
▁मालसामान	-2434
▁रजिष्ट्र	-2435
▁विद्यालय	-2436
▁प्रशिक्षण	-2437
▁यरूशलेमका	-2438
▁राजपत्रमा	-2439
▁अन्तर्गतको	-2440
▁प्रमाणीकरण	-2441
▁व्यावसायिक	-2442
▁स्पष्टीकरण	-2443
▁कर्मचारीलाई	-2444
▁कार्यक्रमको	-2445
▁देखाउनुहोस्	-2446
▁परमप्रभुलाई	-2447
▁प्रत्यायोजन	-2448
▁प्रयोगकर्ता	-2449
▁पूर्वनिर्धारित	-2450
et	-2451
घट	-2452
चा	-2453
चु	-2454
जे	-2455
टप	-2456
ठो	-2457
पद	-2458
फो	-2459
बल	-2460
मै	-2461
सद	-2462
सह	-2463
हन	-2464
हे	-2465
ृह	-2466
१५	-2467
▁ई	-2468
ंसा	-2469
क्ट	-2470
चाइ	-2471
णाम	-2472
ण्ट	-2473
तका	-2474
नेर	-2475
नौट	-2476
न्व	-2477
फ्ट	-2478
भरण	-2479
भरि	-2480
यदि	-2481
यान	-2482
लसि	-2483
लुक	-2484
संर	-2485
सक्	-2486
सुर	-2487
हीन	-2488
ाइँ	-2489
ारण	-2490
ारि	-2491
िकी	-2492
ुको	-2493
ुमा	-2494
ेकी	-2495
ोमा	-2496
्यौ	-2497
▁अख	-2498
▁अड	-2499
▁आज	-2500
▁ग्	-2501
▁चे	-2502
▁तथ	-2503
▁तल	-2504
▁फु	-2505
▁बट	-2506
▁बद	-2507
▁मल	-2508
▁मै	-2509
▁वन	-2510
▁२५	-2511
▁५०	-2512
क्षी	-2513
छोरी	-2514
न्सी	-2515
ब्जा	-2516
मलाई	-2517
वाणी	-2518
शाली	-2519
सचिव	-2520
स्तर	-2521
▁अंश	-2522
▁अझै	-2523
▁अपा	-2524
▁अमा	-2525
▁आसा	-2526
▁उपा	-2527
▁एकै	-2528
▁एली	-2529
▁गाई	-2530
▁गुण	-2531
▁चाप	-2532
▁जरि	-2533
▁जीव	-2534
▁पशु	-2535
▁बरा	-2536
▁बाक	-2537
▁बीस	-2538
▁बोक	-2539
▁भइस	-2540
▁मरू	-2541
▁मर्	-2542
▁सरह	-2543
▁सर्	-2544
▁सिं	-2545
कार्य	-2546
त्यका	-2547
पर्ने	-2548
रोधमा	-2549
र्यात	-2550
वलोकन	-2551
वीकार	-2552
शापात	-2553
ान्ति	-2554
▁अपना	-2555
▁अश्श	-2556
▁आएमा	-2557
▁आकाश	-2558
▁आयोग	-2559
▁उक्त	-2560
▁ऐनमा	-2561
▁कठिन	-2562
▁कोठा	-2563
▁खोजी	-2564
▁ख्री	-2565
▁गरें	-2566
▁गाउँ	-2567
▁गिदो	-2568
▁छिटो	-2569
▁छोडी	-2570
▁ढुवा	-2571
▁ढोका	-2572
▁थाले	-2573
▁देखा	-2574
▁निवृ	-2575
▁नोकर	-2576
▁पावल	-2577
▁पुरा	-2578
▁प्रि	-2579
▁प्ले	-2580
▁फर्म	-2581
▁फिरऊ	-2582
▁फिल्	-2583
▁भेला	-2584
▁युवा	-2585
▁राखि	-2586
▁शैली	-2587
▁श्रम	-2588
▁श्रे	-2589
▁सीमा	-2590
▁सुनि	-2591
▁सुन्	-2592
▁हरेक	-2593
▁हृदय	-2594
न्थ्यो	-2595
पूर्वक	-2596
संरचना	-2597
▁एप्रै	-2598
▁एलिया	-2599
▁कब्जा	-2600
▁काममा	-2601
▁कोषको	-2602
▁क्रोध	-2603
▁खुलाई	-2604
▁गर्थे	-2605
▁चाँडै	-2606
▁चाहनु	-2607
▁ज्ञान	-2608
▁तिनको	-2609
▁दृश्य	-2610
▁देशमा	-2611
▁नम्बर	-2612
▁परेमा	-2613
▁बनाउँ	-2614
▁बैड्ढ	-2615
▁भन्दछ	-2616
▁भौतिक	-2617
▁यसबाट	-2618
▁यस्ता	-2619
▁रहनेछ	-2620
▁वास्त	-2621
▁विचार	-2622
▁शहरमा	-2623
▁संसार	-2624
▁सकिएन	-2625
▁समन्व	-2626
▁सम्भव	-2627
▁सातौं	-2628
▁सिलसि	-2629
▁सुम्प	-2630
▁हुदैन	-2631
क्षिप्त	-2632
न्द्रीय	-2633
वालालाई	-2634
सम्पादन	-2635
▁अनुकूल	-2636
▁अनुसरण	-2637
▁उम्मेद	-2638
▁चाहेको	-2639
▁टुक्रा	-2640
▁दस्तखत	-2641
▁दिइएको	-2642
▁नगरेको	-2643
▁नवीकरण	-2644
▁पर्यटन	-2645
▁बनाउने	-2646
▁बिन्या	-2647
▁भएकोले	-2648
▁मुद्रण	-2649
▁राजाले	-2650
▁लुकेको	-2651
▁विनिमय	-2652
▁शान्ति	-2653
▁संचालन	-2654
▁सङ्कलन	-2655
▁समाचार	-2656
▁समूहका	-2657
▁स्तम्भ	-2658
▁हुनेछौ	-2659
▁अत्यन्त	-2660
▁अदालतको	-2661
▁अब्राहा	-2662
▁उपत्यका	-2663
▁ख्रीष्ट	-2664
▁गराइनेछ	-2665
▁चारैतिर	-2666
▁तपाईंका	-2667
▁त्यस्तै	-2668
▁देखिएमा	-2669
▁नियुक्त	-2670
▁निर्यात	-2671
▁निष्काश	-2672
▁परामर्श	-2673
▁परीक्षण	-2674
▁फाइलहरू	-2675
▁मरूभूमि	-2676
▁यातायात	-2677
▁येशूलाई	-2678
▁योग्यता	-2679
▁योजनामा	-2680
▁राखिएको	-2681
▁सकिँदैन	-2682
▁सङ्ख्या	-2683
▁स्वीकार	-2684
▁हुनेछैन	-2685
▁अस्वीकार	-2686
▁कम्पनीको	-2687
▁न्यायाधी	-2688
▁परिवारको	-2689
▁परिषद्को	-2690
▁पर्वतारो	-2691
▁यहोशापात	-2692
▁योजनावधि	-2693
▁सहभागिता	-2694
▁अनुप्रयोग	-2695
▁अभिबृद्धि	-2696
▁कन्फिगरेस	-2697
▁गर्नुपर्छ	-2698
▁पदाधिकारी	-2699
▁प्रतिस्था	-2700
▁शक्तिशाली	-2701
▁सिलसिलामा	-2702
▁गर्नुहुन्छ	-2703
▁जिम्मेवारी	-2704
▁ठेगानावाला	-2705
▁तिमीहरूसित	-2706
▁योजनाकालमा	-2707
▁सञ्झ्यालको	-2708
▁पुनर्संरचना	-2709
▁कार्यसम्पादन	-2710
?”	-2711
he	-2712
it	-2713
le	-2714
re	-2715
st	-2716
ti	-2717
ut	-2718
कर	-2719
ट्	-2720
पी	-2721
रक	-2722
रै	-2723
लम	-2724
वट	-2725
सव	-2726
हण	-2727
ुु	-2728
ूक	-2729
ूप	-2730
१०	-2731
▁>	-2732
▁L	-2733
▁S	-2734
▁T	-2735
▁X	-2736
▁l	-2737
▁ि	-2738
▁०	-2739
▁	-2740
ँमा	-2741
उन्	-2742
कित	-2743
कोे	-2744
च्न	-2745
च्य	-2746
छौं	-2747
टमा	-2748
तीस	-2749
थान	-2750
थिर	-2751
दथे	-2752
दाय	-2753
दूत	-2754
नकी	-2755
नाथ	-2756
बास	-2757
भरी	-2758
रुष	-2759
रेर	-2760
सिक	-2761
हाल	-2762
ापत	-2763
िमो	-2764
ुटी	-2765
्चै	-2766
्टै	-2767
्दछ	-2768
्ये	-2769
▁आई	-2770
▁कप	-2771
▁खे	-2772
▁गई	-2773
▁छन	-2774
▁झु	-2775
▁नद	-2776
▁भन	-2777
▁मत	-2778
▁सए	-2779
▁सध	-2780
▁२२	-2781
▁३३	-2782
खाना	-2783
गेको	-2784
चामा	-2785
च्चा	-2786
तामा	-2787
तिहा	-2788
पताल	-2789
पर्क	-2790
पल्ट	-2791
फाइल	-2792
महरू	-2793
र्फत	-2794
लेको	-2795
श्रम	-2796
सर्व	-2797
सूची	-2798
स्वी	-2799
स्सा	-2800
हुँच	-2801
ालीस	-2802
ि्रय	-2803
ृतिक	-2804
्याँ	-2805
्रहण	-2806
▁अम्	-2807
▁आवा	-2808
▁उठा	-2809
▁उदा	-2810
▁कुट	-2811
▁क्व	-2812
▁खरा	-2813
▁खेत	-2814
▁गाउ	-2815
▁गुप	-2816
▁घोष	-2817
▁छाड	-2818
▁छिम	-2819
▁जहा	-2820
▁टाइ	-2821
▁ठेक	-2822
▁दुः	-2823
▁दूर	-2824
▁नबू	-2825
▁पक्	-2826
▁पोख	-2827
▁फूल	-2828
▁बखत	-2829
▁बीउ	-2830
▁भएन	-2831
▁मही	-2832
▁मोड	-2833
▁रोग	-2834
▁शास	-2835
▁श्र	-2836
▁साँ	-2837
▁सुन	-2838
▁स्म	-2839
▁हाँ	-2840
▁२०२	-2841
कुञ्ज	-2842
चित्र	-2843
द्रिक	-2844
न्ध्र	-2845
पट्टि	-2846
पर्धा	-2847
योग्य	-2848
राधना	-2849
लिभरी	-2850
सकेको	-2851
सेन्स	-2852
ाउँदा	-2853
ुट्टा	-2854
ृतिको	-2855
▁अमेर	-2856
▁उसका	-2857
▁कसरी	-2858
▁कसुर	-2859
▁कानु	-2860
▁कुरो	-2861
▁खोली	-2862
▁गएको	-2863
▁चाहि	-2864
▁छैनौ	-2865
▁जान्	-2866
▁ज्ये	-2867
▁ठूला	-2868
▁डेटा	-2869
▁थाहा	-2870
▁दुवै	-2871
▁पठाए	-2872
▁पढ्न	-2873
▁पेशा	-2874
▁पैसा	-2875
▁प्रव	-2876
▁प्लग	-2877
▁बजेट	-2878
▁बोला	-2879
▁भन्य	-2880
▁मध्य	-2881
▁मसँग	-2882
▁माउस	-2883
▁यिनी	-2884
▁राखी	-2885
▁रुपा	-2886
▁लाइन	-2887
▁शरीर	-2888
▁शाऊल	-2889
▁सङ्ग	-2890
▁समाज	-2891
▁हवाई	-2892
▁हानि	-2893
▁हिसा	-2894
इरहेको	-2895
त्तभरण	-2896
मन्त्र	-2897
मानस्थ	-2898
वृत्ति	-2899
समाचार	-2900
सर्वदा	-2901
सिन्दा	-2902
स्थायी	-2903
ेदारले	-2904
▁आपसमा	-2905
▁आफूले	-2906
▁इच्छा	-2907
▁कोषमा	-2908
▁खाद्य	-2909
▁गरियो	-2910
▁गर्छौ	-2911
▁गल्ती	-2912
▁चन्दा	-2913
▁छाउनी	-2914
▁तस्वी	-2915
▁दिइने	-2916
▁दिनमा	-2917
▁निकास	-2918
▁परिषद	-2919
▁पहुँच	-2920
▁पाएको	-2921
▁प्रशो	-2922
▁फर्का	-2923
▁फोल्ड	-2924
▁बनेको	-2925
▁बायाँ	-2926
▁भत्ता	-2927
▁भनेको	-2928
▁मध्ये	-2929
▁मनश्श	-2930
▁मुलुक	-2931
▁यस्तै	-2932
▁राख्न	-2933
▁रूपले	-2934
▁संभाव	-2935
▁सक्नु	-2936
▁समर्थ	-2937
▁सर्वो	-2938
▁साझेद	-2939
स्पर्धा	-2940
▁अनुगमन	-2941
▁अनुरुप	-2942
▁आक्रमण	-2943
▁आराधना	-2944
▁कारवाई	-2945
▁किनारा	-2946
▁खुल्ला	-2947
▁गर्दैछ	-2948
▁चाहेमा	-2949
▁छोरीको	-2950
▁जबसम्म	-2951
▁ढुङ्गा	-2952
▁ढुवानी	-2953
▁पत्रुस	-2954
▁पन्ध्र	-2955
▁परास्त	-2956
▁परिणाम	-2957
▁पर्खाल	-2958
▁पुस्तक	-2959
▁पूर्वा	-2960
▁पृथ्वी	-2961
▁योगदान	-2962
▁विकल्प	-2963
▁वेदीमा	-2964
▁समूहमा	-2965
▁सहितको	-2966
▁साक्षी	-2967
▁स्तरमा	-2968
▁हुँदैछ	-2969
▁हुनाले	-2970
▁अनुग्रह	-2971
▁अस्थायी	-2972
▁आधारभूत	-2973
▁कारवाही	-2974
▁कारोबार	-2975
▁कार्यको	-2976
▁कार्यमा	-2977
▁किनारमा	-2978
▁गर्नेछु	-2979
▁ज्येष्ठ	-2980
▁डेलिभरी	-2981
▁दाऊदलाई	-2982
▁देहायको	-2983
▁निकायको	-2984
▁न्यूनतम	-2985
▁परिचालन	-2986
▁परीक्षा	-2987
▁मिश्रमा	-2988
▁मोशालाई	-2989
▁मौद्रिक	-2990
▁यूसुफले	-2991
▁विकासमा	-2992
▁विज्ञान	-2993
▁शब्दहरू	-2994
▁सङ्केतन	-2995
▁सदस्यको	-2996
▁समयावधि	-2997
▁समाप्ति	-2998
▁समितिमा	-2999
▁सम्पर्क	-3000
▁साँच्चै	-3001
▁अध्यादेश	-3002
▁आज्ञाहरू	-3003
▁उद्योगको	-3004
▁काठमाडौं	-3005
▁खानेपानी	-3006
▁गरिरहेको	-3007
▁गर्नुभयो	-3008
▁तपाईंलाई	-3009
▁देवताहरू	-3010
▁पर्याप्त	-3011
▁प्रमाणित	-3012
▁प्रविष्ट	-3013
▁मृत्युको	-3014
▁लाइसेन्स	-3015
▁विमानस्थ	-3016
▁शत्रुहरू	-3017
▁संस्थागत	-3018
▁संस्थाले	-3019
▁सम्भाव्य	-3020
▁सरकारलाई	-3021
▁सुसमाचार	-3022
▁सैनिकहरू	-3023
▁इजाजतपत्र	-3024
▁उम्मेदवार	-3025
▁कार्यविधि	-3026
▁क्षेत्रीय	-3027
▁प्रतिशतले	-3028
▁प्रयोजनका	-3029
▁प्रविष्टि	-3030
▁राष्टि्रय	-3031
▁संक्षिप्त	-3032
▁कन्फिगरेसन	-3033
▁निवृत्तभरण	-3034
▁परमेश्वरका	-3035
▁पुनरावलोकन	-3036
▁पुर्‍याउने	-3037
▁मालसामानको	-3038
▁योजनावधिमा	-3039
▁रजिष्ट्रार	-3040
▁संविधानसभा	-3041
▁सार्नुहोस्	-3042
▁हेर्नुहोस्	-3043
▁अगमवक्ताहरू	-3044
▁तोकिएबमोजिम	-3045
▁पूजाहारीहरू	-3046
▁दृष्टिकोणबाट	-3047
▁प्रतिष्ठानको	-3048
▁प्रतिस्पर्धा	-3049
▁व्यवस्थापिका	-3050
................	-3051
▁विश्वविद्यालयको	-3052
op	-3053
गल	-3054
चे	-3055
चौ	-3056
जक	-3057
णत	-3058
धु	-3059
बे	-3060
रत	-3061
रौ	-3062
शन	-3063
शू	-3064
शै	-3065
षे	-3066
हक	-3067
।’	-3068
०२	-3069
२८	-3070
४९	-3071
▁/	-3072
▁I	-3073
▁b	-3074
▁e	-3075
erv	-3076
ँजी	-3077
ओस्	-3078
खिल	-3079
गति	-3080
चाई	-3081
जसो	-3082
डित	-3083
तार	-3084
दमा	-3085
नोम	-3086
पुर	-3087
पोत	-3088
फिक	-3089
बेस	-3090
मले	-3091
यहू	-3092
र्ई	-3093
लाम	-3094
लेर	-3095
व्ध	-3096
स्व	-3097
हाब	-3098
ाँउ	-3099
ालो	-3100
िया	-3101
ून्	-3102
ौला	-3103
्दा	-3104
।'"	-3105
▁अं	-3106
▁अभ	-3107
▁अल	-3108
▁अश	-3109
▁आन	-3110
▁एन	-3111
▁औं	-3112
▁खि	-3113
▁गत	-3114
▁जु	-3115
▁नब	-3116
▁पश	-3117
▁बल	-3118
▁बू	-3119
▁भय	-3120
▁भो	-3121
▁सू	-3122
▁१८	-3123
▁२१	-3124
▁२८	-3125
▁३१	-3126
▁३५	-3127
tion	-3128
इँमा	-3129
क्या	-3130
ग्रा	-3131
जाति	-3132
डियो	-3133
ण्डा	-3134
तपाई	-3135
ताका	-3136
तिको	-3137
त्तर	-3138
त्नी	-3139
त्सा	-3140
दैनौ	-3141
द्र्	-3142
नबाट	-3143
निया	-3144
न्ती	-3145
परीत	-3146
पर्छ	-3147
बाना	-3148
बारे	-3149
बेला	-3150
ब्रो	-3151
मबलि	-3152
मानि	-3153
म्बा	-3154
यारी	-3155
रहनु	-3156
रीमा	-3157
र्षक	-3158
लहरू	-3159
लाइन	-3160
लाको	-3161
लाग्	-3162
वेयर	-3163
श्रो	-3164
ष्ठी	-3165
सहित	-3166
साना	-3167
स्को	-3168
स्ती	-3169
हीमा	-3170
ाँडा	-3171
ाएको	-3172
ित्त	-3173
ीकृत	-3174
ूरका	-3175
ूहन्	-3176
ेरित	-3177
ोक्न	-3178
्यास	-3179
्युट	-3180
▁अंग	-3181
▁अल्	-3182
▁आफै	-3183
▁उही	-3184
▁कना	-3185
▁कुन	-3186
▁गधा	-3187
▁गृह	-3188
▁तर्	-3189
▁तेल	-3190
▁तेस	-3191
▁थाल	-3192
▁दिं	-3193
▁धनी	-3194
▁नमू	-3195
▁नेत	-3196
▁पाए	-3197
▁बनि	-3198
▁बेत	-3199
▁बोट	-3200
▁भोग	-3201
▁मरे	-3202
▁माइ	-3203
▁यथा	-3204
▁रिस	-3205
▁रीत	-3206
▁लगे	-3207
▁लिए	-3208
▁वीर	-3209
▁वेब	-3210
▁शोक	-3211
▁संक	-3212
▁साल	-3213
▁हाइ	-3214
▁हिं	-3215
▁१००	-3216
▁२०१	-3217
▁२०३	-3218
चारिक	-3219
चालित	-3220
तापनि	-3221
मार्ग	-3222
मित्व	-3223
र्थना	-3224
र्पोर	-3225
लाउने	-3226
ल्याण	-3227
वस्था	-3228
ारोपण	-3229
▁अञ्च	-3230
▁अन्न	-3231
▁अर्ध	-3232
▁आउँछ	-3233
▁उल्ट	-3234
▁कपडा	-3235
▁कम्म	-3236
▁कष्ट	-3237
▁गठित	-3238
▁चुनि	-3239
▁छनौट	-3240
▁जनता	-3241
▁जवाफ	-3242
▁जापा	-3243
▁जेठा	-3244
▁डाटा	-3245
▁तराई	-3246
▁ताकि	-3247
▁तारा	-3248
▁त्रि	-3249
▁दर्श	-3250
▁दुबै	-3251
▁दुर्	-3252
▁धर्म	-3253
▁धारा	-3254
▁नगरी	-3255
▁नबूक	-3256
▁नसके	-3257
▁निषे	-3258
▁पट्ट	-3259
▁पदमा	-3260
▁पहाड	-3261
▁पुनः	-3262
▁फन्ट	-3263
▁फ्रे	-3264
▁बाँड	-3265
▁भाषा	-3266
▁महान	-3267
▁मारे	-3268
▁मौका	-3269
▁यसमा	-3270
▁योआब	-3271
▁रहेछ	-3272
▁रूपा	-3273
▁लिखत	-3274
▁वायु	-3275
▁विके	-3276
▁शिमी	-3277
▁सएछौ	-3278
▁सघाउ	-3279
▁समान	-3280
▁सामु	-3281
▁सियो	-3282
▁सुना	-3283
▁सोही	-3284
▁स्वे	-3285
▁हानी	-3286
▁हेर्	-3287
▁होला	-3288
▁२०४९	-3289
तन्त्र	-3290
प्रत्य	-3291
बालिका	-3292
वृद्धि	-3293
ष्टि्र	-3294
सायनिक	-3295
स्तरमा	-3296
हरुबाट	-3297
ाउँछन्	-3298
▁उनलाई	-3299
▁कच्चा	-3300
▁कर्जा	-3301
▁काँढा	-3302
▁खेलकु	-3303
▁गवाही	-3304
▁ग्रहण	-3305
▁घोषणा	-3306
▁चाँदी	-3307
▁चालीस	-3308
▁चिहान	-3309
▁जीवित	-3310
▁दिएका	-3311
▁देखें	-3312
▁देख्न	-3313
▁दैनिक	-3314
▁ध्यान	-3315
▁ध्वनि	-3316
▁नाबाल	-3317
▁नाममा	-3318
▁निस्क	-3319
▁पत्नी	-3320
▁परिणत	-3321
▁पीडित	-3322
▁पुग्न	-3323
▁पुरुष	-3324
▁प्रती	-3325
▁प्रभु	-3326
▁प्राय	-3327
▁बढेको	-3328
▁बसेका	-3329
▁बस्नु	-3330
▁बीचको	-3331
▁बीचमा	-3332
▁भन्छु	-3333
▁भाँडा	-3334
▁भागमा	-3335
▁मनासि	-3336
▁मूर्ख	-3337
▁मैदान	-3338
▁रुपले	-3339
▁लगाउन	-3340
▁लगायत	-3341
▁लिएको	-3342
▁व्याज	-3343
▁शहरको	-3344
▁शुल्क	-3345
▁संवाद	-3346
▁सक्छौ	-3347
▁सहमति	-3348
▁सुनका	-3349
▁स्थिर	-3350
▁हटाउन	-3351
▁हासिल	-3352
उनुहोस्	-3353
क्षेत्र	-3354
हरूमाथि	-3355
▁अधिकतम	-3356
▁अध्याय	-3357
▁अपाङ्ग	-3358
▁आधारित	-3359
▁उपलव्ध	-3360
▁कल्याण	-3361
▁किल्ला	-3362
▁कुराको	-3363
▁खाद्या	-3364
▁खारेजी	-3365
▁गरेपछि	-3366
▁गर्छन्	-3367
▁गर्नको	-3368
▁गोष्ठी	-3369
▁चाहन्छ	-3370
▁जनताको	-3371
▁जनाउँछ	-3372
▁जीवनको	-3373
▁तेस्रो	-3374
▁दोस्रो	-3375
▁निकासी	-3376
▁पाउनेछ	-3377
▁पार्ने	-3378
▁पिताले	-3379
▁पुग्ने	-3380
▁पुर्या	-3381
▁प्याके	-3382
▁प्रगति	-3383
▁प्रचार	-3384
▁प्रहरी	-3385
▁प्लगइन	-3386
▁बताउनु	-3387
▁बैठकमा	-3388
▁बोल्ने	-3389
▁भएसम्म	-3390
▁भन्दछु	-3391
▁भन्सार	-3392
▁भूइँमा	-3393
▁यन्त्र	-3394
▁लागेको	-3395
▁वस्त्र	-3396
▁वार्ता	-3397
▁विपरीत	-3398
▁विश्रा	-3399
▁शब्दले	-3400
▁शिक्षक	-3401
▁संरचना	-3402
▁सक्रिय	-3403
▁सञ्चार	-3404
▁सम्मान	-3405
▁सीमाना	-3406
▁सेवाको	-3407
▁स्थायी	-3408
▁स्वदेश	-3409
▁होमबलि	-3410
परमप्रभु	-3411
▁अञ्चलको	-3412
▁अदालतले	-3413
▁अन्यत्र	-3414
▁अस्पताल	-3415
▁उपलब्धि	-3416
▁कार्यरत	-3417
▁कुराहरु	-3418
▁गतिविधि	-3419
▁गर्दछन्	-3420
▁गर्नेको	-3421
▁गर्नेछौ	-3422
▁चाहन्छु	-3423
▁जरिबाना	-3424
▁जान्दछौ	-3425
▁जान्दैन	-3426
▁तरिकाले	-3427
▁त्यसबाट	-3428
▁नानीहरू	-3429
▁निकायमा	-3430
▁निकुञ्ज	-3431
▁निलम्बन	-3432
▁न्यायिक	-3433
▁पछिल्लो	-3434
▁पर्दाको	-3435
▁प्रतिफल	-3436
▁प्रबन्ध	-3437
▁प्रशंसा	-3438
▁प्रेरित	-3439
▁भइसकेको	-3440
▁महिनाको	-3441
▁मूल्यको	-3442
▁रहनेछन्	-3443
▁लेखिएका	-3444
▁संभाव्य	-3445
▁सङ्ग्रह	-3446
▁सन्दर्भ	-3447
▁सूचनामा	-3448
▁स्थानको	-3449
▁अश्शूरका	-3450
▁कार्यहरू	-3451
▁क्षमताको	-3452
▁गरिरहेका	-3453
▁तपाईँलाई	-3454
▁दिनुहोस्	-3455
▁निष्काशन	-3456
▁पदपूर्ति	-3457
▁प्रतिकूल	-3458
▁बासिन्दा	-3459
▁मन्दिरका	-3460
▁मितिदेखि	-3461
▁राजपत्रा	-3462
▁समितिबाट	-3463
▁सर्वोच्च	-3464
▁अध्यक्षता	-3465
▁अध्यक्षले	-3466
▁उत्पादनको	-3467
▁केन्द्रीय	-3468
▁तुल्याउने	-3469
▁थप्नुहोस्	-3470
▁निर्धारित	-3471
▁न्यायाधीश	-3472
▁परिमार्जन	-3473
▁पुर्याउने	-3474
▁पूर्वाधार	-3475
▁प्रादेशिक	-3476
▁प्रार्थना	-3477
▁बालबालिका	-3478
▁महिनासम्म	-3479
▁माध्यमबाट	-3480
▁विषयवस्तु	-3481
▁सन्तानहरू	-3482
▁सुनिश्चित	-3483
▁स्वर्गदूत	-3484
▁स्वामित्व	-3485
▁हस्ताक्षर	-3486
▁हुनुपर्दछ	-3487
▁कर्मचारीको	-3488
▁गर्नुपर्ने	-3489
▁धितोपत्रको	-3490
▁पर्वतारोहण	-3491
▁व्यवस्थाको	-3492
▁सम्पत्तिको	-3493
▁नगरपालिकाको	-3494
▁मानिसहरूसँग	-3495
▁शत्रुहरूलाई	-3496
▁स्त्रीहरूले	-3497
▁............	-3498
▁कार्यक्रमहरू	-3499
▁व्यवस्थापकले	-3500
,"	-3501
00	-3502
AN	-3503
AR	-3504
an	-3505
gn	-3506
or	-3507
ri	-3508
ंस	-3509
अघ	-3510
एब	-3511
एस	-3512
औष	-3513
कृ	-3514
खर	-3515
गु	-3516
चय	-3517
टल	-3518
ठी	-3519
ढु	-3520
ढे	-3521
तः	-3522
तै	-3523
थम	-3524
दन	-3525
बु	-3526
यद	-3527
वर	-3528
ैध	-3529
१७	-3530
४८	-3531
▁,	-3532
▁1	-3533
▁D	-3534
▁G	-3535
▁O	-3536
▁R	-3537
▁d	-3538
▁f	-3539
▁p	-3540
▁x	-3541
▁ा	-3542
RAN	-3543
int	-3544
ost	-3545
utf	-3546
अगा	-3547
अघि	-3548
अनु	-3549
इन्	-3550
कुल	-3551
क्व	-3552
चाप	-3553
चाह	-3554
जकि	-3555
जनक	-3556
जले	-3557
जित	-3558
जोर	-3559
टको	-3560
डाइ	-3561
डिङ	-3562
डिन	-3563
णमा	-3564
तोक	-3565
थात	-3566
दछौ	-3567
दने	-3568
दोष	-3569
धनी	-3570
निज	-3571
निय	-3572
न्ज	-3573
पित	-3574
फ्र	-3575
बान	-3576
बेन	-3577
भार	-3578
भीत	-3579
ममा	-3580
माल	-3581
मूल	-3582
य्य	-3583
रीय	-3584
रेब	-3585
रोक	-3586
रोड	-3587
र्ट	-3588
र्स	-3589
लले	-3590
लिस	-3591
लोड	-3592
शास	-3593
संस	-3594
सला	-3595
सान	-3596
हूद	-3597
ात्	-3598
ापन	-3599
ाप्	-3600
ित्	-3601
िन्	-3602
िमा	-3603
ुति	-3604
ूएल	-3605
ेलन	-3606
ोरै	-3607
्डा	-3608
‍ने	-3609
▁अह	-3610
▁आर	-3611
▁आश	-3612
▁उभ	-3613
▁ओछ	-3614
▁कल	-3615
▁टि	-3616
▁डर	-3617
▁डी	-3618
▁ते	-3619
▁थु	-3620
▁नप	-3621
▁नो	-3622
▁ये	-3623
▁शी	-3624
▁।"	-3625
▁१७	-3626
▁२३	-3627
ंदैन	-3628
आरएल	-3629
इएको	-3630
किने	-3631
क्टर	-3632
गेडा	-3633
ङ्गो	-3634
चबुझ	-3635
चौरा	-3636
जुमा	-3637
ञ्चल	-3638
ट्टा	-3639
ठाला	-3640
णीको	-3641
ण्टा	-3642
ताले	-3643
दिरा	-3644
दैछु	-3645
द्धा	-3646
धारा	-3647
पुर्	-3648
बाटै	-3649
मासा	-3650
मेरो	-3651
मैले	-3652
यामा	-3653
रीका	-3654
रौटी	-3655
र्णन	-3656
र्थी	-3657
र्मत	-3658
र्यो	-3659
लागि	-3660
वन्ध	-3661
वासी	-3662
शाला	-3663
ष्टा	-3664
सर्ग	-3665
सलाई	-3666
हकार	-3667
हिला	-3668
होरा	-3669
ह्रै	-3670
ाइरे	-3671
ापरी	-3672
ाराम	-3673
ालीम	-3674
ि्रक	-3675
ृत्व	-3676
ेन्ट	-3677
्याब	-3678
्रेड	-3679
्लेष	-3680
▁the	-3681
▁utf	-3682
▁अक्	-3683
▁आएर	-3684
▁आगत	-3685
▁आधा	-3686
▁आर्	-3687
▁उभि	-3688
▁एल्	-3689
▁कर्	-3690
▁कूल	-3691
▁क्र	-3692
▁गएर	-3693
▁गलत	-3694
▁गाइ	-3695
▁गीत	-3696
▁छान	-3697
▁जाँ	-3698
▁जाग	-3699
▁झन्	-3700
▁टगल	-3701
▁ड्र	-3702
▁तलब	-3703
▁तीस	-3704
▁थिई	-3705
▁धर्	-3706
▁नगद	-3707
▁नजर	-3708
▁परे	-3709
▁पाउ	-3710
▁पैं	-3711
▁फरक	-3712
▁फार	-3713
▁बचा	-3714
▁बटन	-3715
▁बदर	-3716
▁बद्	-3717
▁बसे	-3718
▁बसो	-3719
▁बाद	-3720
▁भत्	-3721
▁भरा	-3722
▁भोज	-3723
▁मनो	-3724
▁मृग	-3725
▁मृत	-3726
▁रगत	-3727
▁राय	-3728
▁रूख	-3729
▁सहु	-3730
▁सित	-3731
▁सीप	-3732
▁हेट	-3733
▁१९८	-3734
क्रिय	-3735
क्षता	-3736
खाहरू	-3737
गोरिद	-3738
ङ्कित	-3739
ङ्गमा	-3740
जस्ता	-3741
तावरण	-3742
पट्टी	-3743
पनाको	-3744
परिवे	-3745
बन्दी	-3746
मानित	-3747
याहका	-3748
याहले	-3749
योजित	-3750
य्यूब	-3751
राज्य	-3752
रीहरू	-3753
रुद्ध	-3754
रुपमा	-3755
रूपमा	-3756
लार्ई	-3757
ल्तिर	-3758
स्तुर	-3759
हरुका	-3760
ारीका	-3761
ेक्षण	-3762
ेक्षा	-3763
ोक्सी	-3764
्याउन	-3765
▁अवैध	-3766
▁आइपु	-3767
▁आकार	-3768
▁आश्च	-3769
▁आहाब	-3770
▁इसहा	-3771
▁उडान	-3772
▁एहूद	-3773
▁ओरेब	-3774
▁औषधि	-3775
▁औषधी	-3776
▁कठोर	-3777
▁करोड	-3778
▁कुवा	-3779
▁क्यु	-3780
▁खनिज	-3781
▁खाना	-3782
▁खानु	-3783
▁गरिए	-3784
▁गरिन	-3785
▁गरीब	-3786
▁गर्भ	-3787
▁गुमा	-3788
▁ग्लो	-3789
▁चट्ट	-3790
▁चढाए	-3791
▁चालक	-3792
▁छान्	-3793
▁छोडे	-3794
▁छोड्	-3795
▁जहाज	-3796
▁जाति	-3797
▁जादू	-3798
▁झूटा	-3799
▁टेलि	-3800
▁डराए	-3801
▁तोकि	-3802
▁तोके	-3803
▁थोरै	-3804
▁दरले	-3805
▁दिशा	-3806
▁देखे	-3807
▁परिप	-3808
▁परेन	-3809
▁पशहू	-3810
▁पोशा	-3811
▁प्रस	-3812
▁फुका	-3813
▁फोटो	-3814
▁बथान	-3815
▁बनाऊ	-3816
▁बाँध	-3817
▁बाकस	-3818
▁बाधा	-3819
▁बापत	-3820
▁बिजन	-3821
▁बिदा	-3822
▁बूढा	-3823
▁बोसो	-3824
▁भक्त	-3825
▁भण्ड	-3826
▁भागे	-3827
▁भेटी	-3828
▁मलखा	-3829
▁मसित	-3830
▁महली	-3831
▁महसु	-3832
▁मारि	-3833
▁मासु	-3834
▁मिल्	-3835
▁मोआब	-3836
▁यर्म	-3837
▁रचना	-3838
▁रहेन	-3839
▁रोटी	-3840
▁लगाइ	-3841
▁लगाऊ	-3842
▁लागु	-3843
▁लुका	-3844
▁लेखा	-3845
▁लेखी	-3846
▁वादी	-3847
▁विना	-3848
▁विभा	-3849
▁वेदी	-3850
▁शिमो	-3851
▁शुरू	-3852
▁संसद	-3853
▁सत्र	-3854
▁सधैं	-3855
▁सफ्ट	-3856
▁सर्त	-3857
▁सुने	-3858
▁सुरू	-3859
▁स्थल	-3860
▁स्वय	-3861
▁हावा	-3862
क्षकले	-3863
द्र्धन	-3864
नात्मक	-3865
पुर्खा	-3866
लाग्दो	-3867
वालाको	-3868
संसदको	-3869
स्तरका	-3870
हरुसित	-3871
हामीले	-3872
ीहरूले	-3873
▁अख्ति	-3874
▁अगाडी	-3875
▁अगावै	-3876
▁अड्डा	-3877
▁अधिका	-3878
▁अन्तर	-3879
▁अबनेर	-3880
▁अवश्य	-3881
▁अशक्त	-3882
▁आदिको	-3883
▁आनन्द	-3884
▁इन्टर	-3885
▁उत्सव	-3886
▁कचौरा	-3887
▁कमारा	-3888
▁काँसा	-3889
▁काउन्	-3890
▁किनकि	-3891
▁किसान	-3892
▁कोषले	-3893
▁गरून्	-3894
▁गर्नै	-3895
▁छैठौं	-3896
▁जगेडा	-3897
▁जिनोम	-3898
▁जोनाथ	-3899
▁डाइरे	-3900
▁डेस्क	-3901
▁तथ्या	-3902
▁तल्लो	-3903
▁तिर्न	-3904
▁तोक्न	-3905
▁थियौं	-3906
▁दाखको	-3907
▁दाखिल	-3908
▁दायाँ	-3909
▁दिनको	-3910
▁दिन्छ	-3911
▁देखिन	-3912
▁धरौटी	-3913
▁नक्शा	-3914
▁नभएका	-3915
▁नभएमा	-3916
▁पत्ता	-3917
▁परमाण	-3918
▁पहाडी	-3919
▁पारित	-3920
▁प्रथम	-3921
▁फ्याँ	-3922
▁बटनमा	-3923
▁बढुवा	-3924
▁बतायो	-3925
▁बनेका	-3926
▁बलियो	-3927
▁बाध्य	-3928
▁बाह्र	-3929
▁बेतेल	-3930
▁बोल्न	-3931
▁भएकोछ	-3932
▁भनेका	-3933
▁भन्यो	-3934
▁भयभीत	-3935
▁भेट्न	-3936
▁मदिरा	-3937
▁मध्यम	-3938
▁मर्मत	-3939
▁महिमा	-3940
▁मार्न	-3941
▁मितिः	-3942
▁यूहन्	-3943
▁योराम	-3944
▁रहेका	-3945
▁लगाएर	-3946
▁लिलाम	-3947
▁लेखिए	-3948
▁लैजान	-3949
▁वर्णन	-3950
▁सकेको	-3951
▁सक्कल	-3952
▁सल्ला	-3953
▁सामान	-3954
▁सीमित	-3955
▁सेन्ट	-3956
▁हत्या	-3957
▁हाँगा	-3958
▁हिजकि	-3959
▁हिसाब	-3960
तिमीहरू	-3961
निर्देश	-3962
नुपर्ने	-3963
नुहुन्न	-3964
लिरहेको	-3965
शास्त्र	-3966
ष्टि्रय	-3967
▁अनुरूप	-3968
▁अभियान	-3969
▁अवधिको	-3970
▁आफ्नोे	-3971
▁आयोडिन	-3972
▁एकीकृत	-3973
▁कसैलाई	-3974
▁कानूनी	-3975
▁कामदार	-3976
▁कुरामा	-3977
▁क्रममा	-3978
▁खुट्टा	-3979
▁गरिदिए	-3980
▁गरिन्छ	-3981
▁गर्दथे	-3982
▁गर्नमा	-3983
▁चढाउनु	-3984
▁छुट्टै	-3985
▁ज्यादै	-3986
▁तस्वीर	-3987
▁दस्तुर	-3988
▁दस्तूर	-3989
▁दामासा	-3990
▁दिन्छु	-3991
▁दुइवटा	-3992
▁देखाउन	-3993
▁देखेको	-3994
▁देखेमा	-3995
▁देशबाट	-3996
▁दोश्रो	-3997
▁द्वारा	-3998
▁नजिकका	-3999
▁नपर्ने	-4000
▁नसकेमा	-4001
▁नाउँको	-4002
▁पर्यटक	-4003
▁पश्चिम	-4004
▁पानीको	-4005
▁पुगेको	-4006
▁पैंतीस	-4007
▁प्रवाह	-4008
▁फर्किए	-4009
▁फर्केर	-4010
▁फाइलको	-4011
▁बढाउने	-4012
▁बलिदान	-4013
▁बालुवा	-4014
▁बिलियन	-4015
▁बुझाउन	-4016
▁भूमिका	-4017
▁भूमिको	-4018
▁मानहरू	-4019
▁मार्फत	-4020
▁मालपोत	-4021
▁मिलियन	-4022
▁यात्रा	-4023
▁यूआरएल	-4024
▁लगाएको	-4025
▁लगातार	-4026
▁लेवीका	-4027
▁ल्याउन	-4028
▁विद्या	-4029
▁विनियम	-4030
▁शब्दको	-4031
▁शीर्षक	-4032
▁सक्दैन	-4033
▁समन्वय	-4034
▁समर्थन	-4035
▁साह्रै	-4036
▁सुलेमा	-4037
▁सेनाले	-4038
▁सेवामा	-4039
▁स्थानह	-4040
▁स्वरुप	-4041
▁हेक्टर	-4042
▁हेरचाह	-4043
▁होइनन्	-4044
विधानहरू	-4045
▁अघिल्लो	-4046
▁अमेरिकी	-4047
▁अलगोरिद	-4048
▁आश्चर्य	-4049
▁कानूनको	-4050
▁कुलसमूह	-4051
▁क्रोधित	-4052
▁गर्नुको	-4053
▁चाहन्थे	-4054
▁जानेछन्	-4055
▁जान्दछु	-4056
▁डाटाबेस	-4057
▁तर्जुमा	-4058
▁तर्फबाट	-4059
▁त्यसैले	-4060
▁देखाउँछ	-4061
▁देखिएको	-4062
▁धेरैजसो	-4063
▁नबूकदने	-4064
▁नराम्रा	-4065
▁निर्दोष	-4066
▁नीतिहरु	-4067
▁नेतृत्व	-4068
▁पर्वतमा	-4069
▁पहिल्यै	-4070
▁पारदर्श	-4071
▁प्याकेज	-4072
▁प्रदर्श	-4073
▁प्रशोधन	-4074
▁प्रिन्ट	-4075
▁बाबेलको	-4076
▁भएतापनि	-4077
▁मूल्यमा	-4078
▁मेटि्रक	-4079
▁यर्मिया	-4080
▁लगाइएको	-4081
▁लगानीको	-4082
▁लुगाहरू	-4083
▁लेखापरी	-4084
▁ल्याउनु	-4085
▁विच्छेद	-4086
▁वितरणको	-4087
▁विरोधमा	-4088
▁विश्राम	-4089
▁विश्लेष	-4090
▁व्यहोरा	-4091
▁समितिका	-4092
▁सरकारका	-4093
▁सुपरिवे	-4094
▁सुलेमान	-4095
▁सोच्दछौ	-4096
▁स्क्रोल	-4097
▁अधिकारमा	-4098
▁अधिराज्य	-4099
▁अनुक्रमण	-4100
▁अपाङ्गता	-4101
▁आयोजनाको	-4102
▁क्रमबद्ध	-4103
▁डाइरेक्ट	-4104
▁तपाईँसँग	-4105
▁दिनुभएको	-4106
▁प्रकारले	-4107
▁प्रोक्सी	-4108
▁प्रोत्सा	-4109
▁फोल्डरमा	-4110
▁बहुविधिक	-4111
▁बिन्यामी	-4112
▁मन्दिरको	-4113
▁मन्दिरमा	-4114
▁माथिल्लो	-4115
▁मिश्रबाट	-4116
▁रासायनिक	-4117
▁रुपान्तर	-4118
▁वर्षसम्म	-4119
▁विद्युत्	-4120
▁व्यवसायी	-4121
▁संख्यामा	-4122
▁सञ्चालित	-4123
▁सफ्टवेयर	-4124
▁सबैभन्दा	-4125
▁समुद्रको	-4126
▁स्वचालित	-4127
▁स्वर्गमा	-4128
▁अभिवृद्धि	-4129
▁आयोजनाहरु	-4130
▁उनीहरूलाई	-4131
▁क्षेत्रगत	-4132
▁खाद्यान्न	-4133
▁चेलाहरूले	-4134
▁छोराहरूले	-4135
▁जनशक्तिको	-4136
▁तिनीहरुले	-4137
▁दिनुहुनेछ	-4138
▁निष्क्रिय	-4139
▁परिस्थिति	-4140
▁पुर्‍याउन	-4141
▁प्रकृतिको	-4142
▁प्रशासकीय	-4143
▁प्राधिकरण	-4144
▁भन्नुपर्छ	-4145
▁रूपान्तरण	-4146
▁विमानस्थल	-4147
▁व्यापारिक	-4148
▁सर्वेक्षण	-4149
▁सल्लाहकार	-4150
▁सुदृढीकरण	-4151
▁स्त्रीलाई	-4152
▁स्वतन्त्र	-4153
हरुमध्येबाट	-4154
▁अन्तर्गतका	-4155
▁अर्थतन्त्र	-4156
▁कार्यालयमा	-4157
▁छोड्नुहोस्	-4158
▁नगर्नुहोस्	-4159
▁पूजाहारीले	-4160
▁प्रस्तावित	-4161
▁हिजकियाहले	-4162
▁जनसंख्यालाई	-4163
▁न्यायाधिकरण	-4164
▁परमेश्वरबाट	-4165
▁प्रतिस्थापन	-4166
▁मन्त्रालयमा	-4167
▁मन्त्रालयले	-4168
▁मानिसहरूबाट	-4169
▁रुपैयाँसम्म	-4170
▁अनुमतिपत्रको	-4171
▁कार्यक्रमहरु	-4172
▁क्षेत्रहरुमा	-4173
▁मानिसहरूमाथि	-4174
▁संविधानसभाको	-4175
▁पूजाहारीहरूले	-4176
▁प्रयोगकर्ताको	-4177
▁अन्तर्राष्टि्रय	-4178
AP	-4179
LA	-4180
OR	-4181
ck	-4182
ft	-4183
hi	-4184
ke	-4185
oe	-4186
ol	-4187
ur	-4188
ंन	-4189
ऊँ	-4190
खो	-4191
जग	-4192
तो	-4193
पक	-4194
वस	-4195
शः	-4196
ुख	-4197
ूद	-4198
ृक	-4199
?"	-4200
ML	-4201
ap	-4202
ँई	-4203
आइ	-4204
एक	-4205
मह	-4206
िड	-4207
ेप	-4208
३७	-4209
▁%	-4210
▁5	-4211
▁c	-4212
▁h	-4213
▁s	-4214
BAR	-4215
Con	-4216
LAT	-4217
ORS	-4218
ans	-4219
gre	-4220
ite	-4221
ँदा	-4222
ँदै	-4223
ंकन	-4224
एदो	-4225
औषध	-4226
कका	-4227
किम	-4228
केा	-4229
क्र	-4230
गेल	-4231
ग्छ	-4232
चमा	-4233
चेत	-4234
झमा	-4235
टोक	-4236
णको	-4237
तली	-4238
तले	-4239
तित	-4240
तीय	-4241
तैन	-4242
त्न	-4243
दया	-4244
द्व	-4245
नार	-4246
नेल	-4247
पास	-4248
प्ट	-4249
फाँ	-4250
फिस	-4251
फोन	-4252
बडी	-4253
बाम	-4254
बिट	-4255
बेद	-4256
ब्ज	-4257
ब्र	-4258
भाष	-4259
मेल	-4260
म्र	-4261
यरो	-4262
राइ	-4263
राज	-4264
रेट	-4265
र्क	-4266
र्‍	-4267
लबे	-4268
लाग	-4269
लीन	-4270
लेक	-4271
ल्न	-4272
वर्	-4273
वाइ	-4274
वान	-4275
व्र	-4276
शेष	-4277
श्व	-4278
सना	-4279
सूच	-4280
हरण	-4281
ाटी	-4282
ानी	-4283
ायत	-4284
िकै	-4285
िनी	-4286
िला	-4287
िलो	-4288
ुन्	-4289
ुुु	-4290
ृया	-4291
ेदे	-4292
ेरा	-4293
ैको	-4294
्यू	-4295
्वे	-4296
।”‘	-4297
५००	-4298
‍यो	-4299
IF	-4300
la	-4301
lt	-4302
ot	-4303
tr	-4304
yy	-4305
अब	-4306
आफ	-4307
एँ	-4308
खु	-4309
गण	-4310
टे	-4311
तन	-4312
तु	-4313
नह	-4314
भौ	-4315
यव	-4316
य्	-4317
रल	-4318
लै	-4319
सू	-4320
िच	-4321
ुद	-4322
ोस	-4323
१क	-4324
▁!	-4325
▁M	-4326
ंका	-4327
काठ	-4328
क्क	-4329
जनी	-4330
जीव	-4331
टिभ	-4332
लेट	-4333
वले	-4334
वेक	-4335
ष्‍	-4336
साथ	-4337
ाँई	-4338
ेरह	-4339
ेषण	-4340
्वी	-4341
▁OF	-4342
▁उज	-4343
▁एघ	-4344
▁एल	-4345
▁ओढ	-4346
▁औप	-4347
▁कट	-4348
▁कथ	-4349
▁कू	-4350
▁घम	-4351
▁चल	-4352
▁छर	-4353
▁जू	-4354
▁जै	-4355
▁झि	-4356
▁टी	-4357
▁डट	-4358
▁ढल	-4359
▁तट	-4360
▁तव	-4361
▁तो	-4362
▁थर	-4363
▁द्	-4364
▁धु	-4365
▁नं	-4366
▁नल	-4367
▁पस	-4368
▁पे	-4369
▁पौ	-4370
▁फे	-4371
▁फ्	-4372
▁बृ	-4373
▁भग	-4374
▁भर	-4375
▁भी	-4376
▁रथ	-4377
▁शू	-4378
▁शो	-4379
▁सौ	-4380
▁हौ	-4381
▁३२	-4382
▁४१	-4383
▁८०	-4384
RANS	-4385
Serv	-4386
greS	-4387
hift	-4388
ंगली	-4389
ंशिक	-4390
इन्छ	-4391
ऊहरू	-4392
कक्ष	-4393
कल्प	-4394
किलो	-4395
गरमा	-4396
गरुक	-4397
गाउँ	-4398
ग्नु	-4399
ङ्कन	-4400
चुली	-4401
ञ्जू	-4402
टकीय	-4403
टहरू	-4404
टोको	-4405
ट्ठा	-4406
डिया	-4407
तिजा	-4408
तिमा	-4409
त्ती	-4410
त्यस	-4411
त्यो	-4412
त्र्	-4413
दाका	-4414
दानी	-4415
दायी	-4416
दीको	-4417
दैछौ	-4418
द्दी	-4419
धनको	-4420
निमे	-4421
न्तु	-4422
न्दर	-4423
न्ने	-4424
पनको	-4425
फाँड	-4426
फोटक	-4427
बाहक	-4428
भान्	-4429
मर्थ	-4430
मुले	-4431
मेली	-4432
मैला	-4433
यरोग	-4434
युर्	-4435
योस्	-4436
रोसा	-4437
र्णा	-4438
र्दछ	-4439
लागे	-4440
लियत	-4441
लेकी	-4442
वद्ध	-4443
वर्ष	-4444
शूले	-4445
श्या	-4446
श्रय	-4447
षामा	-4448
समेत	-4449
सितै	-4450
सिया	-4451
सेवा	-4452
सोटप	-4453
हिनी	-4454
होस्	-4455
ाउको	-4456
ाउरा	-4457
ान्ट	-4458
ारुद	-4459
िकरण	-4460
िमुख	-4461
िष्ट	-4462
ूहिक	-4463
ेटिड	-4464
ेटिस	-4465
ेतेर	-4466
ेरीब	-4467
ेलका	-4468
्नका	-4469
्याट	-4470
्वना	-4471
्वाइ	-4472
▁अघा	-4473
▁अतः	-4474
▁अशि	-4475
▁आँग	-4476
▁आदर	-4477
▁उठ्	-4478
▁उदय	-4479
▁उपज	-4480
▁एका	-4481
▁एजे	-4482
▁कथा	-4483
▁काज	-4484
▁खबर	-4485
▁खाल	-4486
▁खुव	-4487
▁गाड	-4488
▁गाद	-4489
▁चक्	-4490
▁चम्	-4491
▁चुप	-4492
▁चोट	-4493
▁जएब	-4494
▁जता	-4495
▁जनस	-4496
▁जित	-4497
▁जेट	-4498
▁ठहर	-4499
▁ढुक	-4500
▁तुल	-4501
▁थोक	-4502
▁दया	-4503
▁दूत	-4504
▁धान	-4505
▁धार	-4506
▁धूप	-4507
▁नदि	-4508
▁पका	-4509
▁पङ्	-4510
▁पसे	-4511
▁पिउ	-4512
▁पूल	-4513
▁पोथ	-4514
▁फाइ	-4515
▁फाल	-4516
▁बढन	-4517
▁बढ्	-4518
▁बसा	-4519
▁बाइ	-4520
▁बेच	-4521
▁बोझ	-4522
▁ब्र	-4523
▁भएँ	-4524
▁भजन	-4525
▁भरी	-4526
▁भूत	-4527
▁भेर	-4528
▁मरि	-4529
▁याद	-4530
▁रेक	-4531
▁रेल	-4532
▁रोए	-4533
▁लहर	-4534
▁लोक	-4535
▁विप	-4536
▁वेश	-4537
▁वैध	-4538
▁शेक	-4539
▁शेम	-4540
▁सजि	-4541
▁सनह	-4542
▁समी	-4543
▁सां	-4544
▁सोच	-4545
▁सोध	-4546
▁हिम	-4547
▁हेड	-4548
▁हेल	-4549
▁होट	-4550
▁होस	-4551
▁हौं	-4552
▁२००	-4553
अगाडि	-4554
अर्का	-4555
इस्रा	-4556
कारमा	-4557
कृतिक	-4558
क्याप	-4559
क्षेप	-4560
क्सेल	-4561
गोलिक	-4562
च्छिक	-4563
ञ्जेल	-4564
टाङ्ग	-4565
डाहरू	-4566
डिएको	-4567
ड्ढित	-4568
ड्नेछ	-4569
तिहास	-4570
त्रित	-4571
दारको	-4572
दिएको	-4573
धित्व	-4574
नाहरू	-4575
न्याह	-4576
पछिको	-4577
पदण्ड	-4578
पूर्व	-4579
माण्ड	-4580
यहूदी	-4581
रुन्त	-4582
रुपले	-4583
ल्यास	-4584
विष्ट	-4585
शुल्क	-4586
सकेका	-4587
सक्ने	-4588
सदस्य	-4589
समिति	-4590
सम्भव	-4591
सुधार	-4592
हारको	-4593
ाउनको	-4594
ाटाको	-4595
ारीमा	-4596
ेकोमा	-4597
्नेछौ	-4598
्यानल	-4599
्योति	-4600
्रेजी	-4601
▁Post	-4602
▁अन्ध	-4603
▁अभाव	-4604
▁अवसर	-4605
▁अस्व	-4606
▁आँधी	-4607
▁इन्क	-4608
▁इन्ध	-4609
▁इमेल	-4610
▁उचाइ	-4611
▁उचित	-4612
▁उज्य	-4613
▁उब्ज	-4614
▁एक्स	-4615
▁ओबेद	-4616
▁कक्ष	-4617
▁कन्ट	-4618
▁कसले	-4619
▁काँध	-4620
▁कागज	-4621
▁काटि	-4622
▁कार्	-4623
▁कृषक	-4624
▁केटो	-4625
▁क्या	-4626
▁क्रू	-4627
▁खराब	-4628
▁खुला	-4629
▁खेती	-4630
▁गएका	-4631
▁गएमा	-4632
▁गह्र	-4633
▁ग्या	-4634
▁घण्ट	-4635
▁घरको	-4636
▁घुमा	-4637
▁चकित	-4638
▁चलाई	-4639
▁चाहा	-4640
▁चौकी	-4641
▁छिन्	-4642
▁छैन्	-4643
▁जनाउ	-4644
▁जलया	-4645
▁जसको	-4646
▁जसमा	-4647
▁जानी	-4648
▁जेठो	-4649
▁ठाने	-4650
▁डरले	-4651
▁डाउन	-4652
▁तान्	-4653
▁थपघट	-4654
▁थिच्	-4655
▁थियौ	-4656
▁थुमा	-4657
▁दलित	-4658
▁दाबी	-4659
▁दिएँ	-4660
▁दियो	-4661
▁दिला	-4662
▁दुःख	-4663
▁धागो	-4664
▁धारण	-4665
▁धावन	-4666
▁धूलो	-4667
▁नदीप	-4668
▁नबुझ	-4669
▁नाता	-4670
▁नापी	-4671
▁नियु	-4672
▁न्यु	-4673
▁न्यू	-4674
▁पञ्च	-4675
▁पाइप	-4676
▁पाइल	-4677
▁पुगे	-4678
▁प्रय	-4679
▁फैलि	-4680
▁फोहर	-4681
▁बगैं	-4682
▁बढेर	-4683
▁बताउ	-4684
▁बराब	-4685
▁बर्न	-4686
▁बहाल	-4687
▁बाँण	-4688
▁बादल	-4689
▁बाबु	-4690
▁ब्या	-4691
▁माकी	-4692
▁मातह	-4693
▁मानव	-4694
▁मिला	-4695
▁मेनु	-4696
▁मौसम	-4697
▁येहू	-4698
▁रद्द	-4699
▁रहनु	-4700
▁राख्	-4701
▁रातो	-4702
▁रुको	-4703
▁रुमा	-4704
▁रोकि	-4705
▁रोक्	-4706
▁लगाई	-4707
▁लागत	-4708
▁लागे	-4709
▁लाग्	-4710
▁लिब्	-4711
▁वाली	-4712
▁विरो	-4713
▁शहरी	-4714
▁शाखा	-4715
▁शायद	-4716
▁सँगै	-4717
▁सचेत	-4718
▁सच्य	-4719
▁सञ्‍	-4720
▁समेट	-4721
▁सम्ब	-4722
▁साना	-4723
▁साहू	-4724
▁सीनै	-4725
▁सुखी	-4726
▁सुती	-4727
▁सुत्	-4728
▁सोधे	-4729
▁स्कि	-4730
▁स्रे	-4731
▁हकमा	-4732
▁हराए	-4733
▁हिंड	-4734
▁हेरी	-4735
▁हेरे	-4736
▁होशि	-4737
▁२०४७	-4738
▁२०४८	-4739
▁२०५५	-4740
▁२०५८	-4741
▁२०६४	-4742
LATORS	-4743
action	-4744
अनुरुप	-4745
इरहेका	-4746
कल्पिक	-4747
क्षकको	-4748
खानामा	-4749
जनजाति	-4750
तिक्रम	-4751
तिम्रो	-4752
दाताले	-4753
द्धारा	-4754
ध्यमिक	-4755
नातिनी	-4756
नामकरण	-4757
प्रकार	-4758
म्बिनी	-4759
यात्मक	-4760
योजनको	-4761
वालाले	-4762
संस्था	-4763
सम्ममा	-4764
साधारण	-4765
स्तरीय	-4766
हरुसँग	-4767
हरूसँग	-4768
ीकरणको	-4769
्तिकरण	-4770
्तीकरण	-4771
्यानमा	-4772
▁TRANS	-4773
▁अनन्त	-4774
▁अपराध	-4775
▁अबीमे	-4776
▁अम्मो	-4777
▁अरुको	-4778
▁अर्का	-4779
▁अर्पण	-4780
▁अवकाश	-4781
▁अहीमा	-4782
▁आंशिक	-4783
▁आउँदै	-4784
▁आउनेछ	-4785
▁आयुर्	-4786
▁आरक्ष	-4787
▁आर्जन	-4788
▁आवादी	-4789
▁आश्रय	-4790
▁इन्टे	-4791
▁उठाउन	-4792
▁उत्तम	-4793
▁उत्ती	-4794
▁उपदेश	-4795
▁ऐतिहा	-4796
▁कम्मर	-4797
▁कहिले	-4798
▁काठको	-4799
▁कानुन	-4800
▁कान्छ	-4801
▁कुलका	-4802
▁खरानी	-4803
▁खारेज	-4804
▁खिन्न	-4805
▁गरिनु	-4806
▁गिदोन	-4807
▁गिम्प	-4808
▁घण्टा	-4809
▁घमण्ड	-4810
▁चलाउन	-4811
▁चित्त	-4812
▁चौडाइ	-4813
▁छैनौं	-4814
▁जंगली	-4815
▁जनावर	-4816
▁जन्मे	-4817
▁जसलाई	-4818
▁जानेछ	-4819
▁जैविक	-4820
▁टाउको	-4821
▁ट्याब	-4822
▁ट्रया	-4823
▁डोर्य	-4824
▁तटस्थ	-4825
▁तरवार	-4826
▁तरीका	-4827
▁तवरले	-4828
▁तालीम	-4829
▁तिनकी	-4830
▁तीव्र	-4831
▁तौलने	-4832
▁दफाको	-4833
▁दर्जा	-4834
▁दर्शन	-4835
▁दाउरा	-4836
▁दायरा	-4837
▁दिंदा	-4838
▁दिइयो	-4839
▁ध्वंस	-4840
▁नक्कल	-4841
▁नक्सा	-4842
▁नतिजा	-4843
▁निवार	-4844
▁निवेद	-4845
▁निषेध	-4846
▁पछाडी	-4847
▁पट्टि	-4848
▁पदबाट	-4849
▁परेका	-4850
▁पर्यो	-4851
▁पाउनु	-4852
▁पाठको	-4853
▁पाठ्य	-4854
▁पालना	-4855
▁पालमा	-4856
▁पिण्ड	-4857
▁पुतली	-4858
▁पूँजी	-4859
▁पोखरी	-4860
▁प्राण	-4861
▁फाराम	-4862
▁फिल्ड	-4863
▁बढाउन	-4864
▁बढीमा	-4865
▁बताउँ	-4866
▁बराबर	-4867
▁बसेको	-4868
▁बस्तु	-4869
▁बाँकी	-4870
▁बाह्य	-4871
▁बेच्न	-4872
▁बोलाइ	-4873
▁भगाउन	-4874
▁भन्छौ	-4875
▁भराउन	-4876
▁भरोसा	-4877
▁भर्ना	-4878
▁भैपरी	-4879
▁मलखाद	-4880
▁माग्न	-4881
▁मारेर	-4882
▁मिहीन	-4883
▁मेटाइ	-4884
▁यूफ्र	-4885
▁येतेर	-4886
▁रद्दी	-4887
▁रह्यो	-4888
▁रिक्त	-4889
▁रूबेन	-4890
▁लडाइँ	-4891
▁ल्याइ	-4892
▁वर्षा	-4893
▁विदेश	-4894
▁विधान	-4895
▁विलाप	-4896
▁विवेक	-4897
▁शहरका	-4898
▁संघीय	-4899
▁सक्छु	-4900
▁सजावट	-4901
▁सट्टा	-4902
▁सत्ता	-4903
▁सफलता	-4904
▁सभामा	-4905
▁समयको	-4906
▁समर्प	-4907
▁समस्त	-4908
▁सहायक	-4909
▁साँढे	-4910
▁सान्त	-4911
▁सुरुआ	-4912
▁स्मरण	-4913
▁स्वयं	-4914
▁हार्ड	-4915
▁हितको	-4916
▁हिमाल	-4917
▁हुन्न	-4918
▁हेटौं	-4919
▁होलबे	-4920
▁ह्यास	-4921
ज्ञानिक	-4922
तोकिएको	-4923
निर्माण	-4924
पट्टिको	-4925
प्राप्त	-4926
भान्वित	-4927
मुलेटिभ	-4928
राधिकार	-4929
ल्यान्ड	-4930
ान्टाइल	-4931
िमाञ्चल	-4932
▁अनलाइन	-4933
▁अनिकाल	-4934
▁अनुचित	-4935
▁अनुपात	-4936
▁अनुरोध	-4937
▁अन्त्य	-4938
▁अबीगेल	-4939
▁अभिमुख	-4940
▁अमारोक	-4941
▁अय्यूब	-4942
▁अरूलाई	-4943
▁अर्थात	-4944
▁असमर्थ	-4945
▁आइसोटप	-4946
▁आदेशको	-4947
▁आफैलाई	-4948
▁आयोगको	-4949
▁इतिहास	-4950
▁उठाउनु	-4951
▁उत्तरी	-4952
▁उनीहरू	-4953
▁उपयोगी	-4954
▁उपसर्ग	-4955
▁उपासना	-4956
▁एकपल्ट	-4957
▁कुलबाट	-4958
▁कुलहरू	-4959
▁क्रमशः	-4960
▁क्वेरी	-4961
▁खटाउनु	-4962
▁खर्चमा	-4963
▁खेतहरू	-4964
▁खोल्दा	-4965
▁गधालाई	-4966
▁गराइने	-4967
▁गर्दछु	-4968
▁गर्‍यो	-4969
▁गोठाला	-4970
▁चट्टान	-4971
▁चढाएको	-4972
▁चाहिने	-4973
▁चीजहरू	-4974
▁चुपचाप	-4975
▁चेष्टा	-4976
▁छलफलको	-4977
▁छलफलमा	-4978
▁छान्नु	-4979
▁छिमेकी	-4980
▁छुट्टा	-4981
▁छुट्या	-4982
▁जागरुक	-4983
▁जिन्सी	-4984
▁जोनाथन	-4985
▁ज्ञानी	-4986
▁ज्योति	-4987
▁झिक्ने	-4988
▁तबसम्म	-4989
▁त्यहीं	-4990
▁दक्षता	-4991
▁दिनलाई	-4992
▁दुइजना	-4993
▁दुर्घट	-4994
▁देख्ने	-4995
▁नगर्नु	-4996
▁नजिकको	-4997
▁नरहेको	-4998
▁नसक्ने	-4999
▁नाउँमा	-5000
▁नाप्ने	-5001
▁निजलाई	-5002
▁निलम्ब	-5003
▁पठाउने	-5004
▁परिवहन	-5005
▁परिवेश	-5006
▁पापहरू	-5007
▁पारेको	-5008
▁पार्दछ	-5009
▁पार्नु	-5010
▁पुरानो	-5011
▁पुर्खा	-5012
▁पूर्ति	-5013
▁पूर्वी	-5014
▁पेशागत	-5015
▁प्रश्न	-5016
▁प्रसार	-5017
▁प्राणी	-5018
▁प्रायः	-5019
▁फाइलमा	-5020
▁बलिहरू	-5021
▁बाँधेर	-5022
▁बाटोमा	-5023
▁बालीको	-5024
▁बीऊहरू	-5025
▁बोकेको	-5026
▁बोक्ने	-5027
▁भएकहाँ	-5028
▁भक्तजन	-5029
▁भिक्षा	-5030
▁भिडियो	-5031
▁मनश्शे	-5032
▁मनासिब	-5033
▁महलहरू	-5034
▁मार्नु	-5035
▁मुक्ति	-5036
▁मुनासि	-5037
▁मृगौला	-5038
▁मोशाले	-5039
▁येशूका	-5040
▁रहनेछु	-5041
▁राजस्व	-5042
▁लगाउँछ	-5043
▁लगाउने	-5044
▁लाइब्र	-5045
▁लागेका	-5046
▁वचनहरू	-5047
▁वर्षका	-5048
▁विश्वस	-5049
▁व्यर्थ	-5050
▁शर्तमा	-5051
▁शिक्षण	-5052
▁शिमीका	-5053
▁शुरुको	-5054
▁श्रेणी	-5055
▁सकेनन्	-5056
▁सक्तैन	-5057
▁सचिवले	-5058
▁सन्दूक	-5059
▁समकक्ष	-5060
▁समाउने	-5061
▁समाधान	-5062
▁समूहको	-5063
▁सम्झना	-5064
▁सुकेको	-5065
▁सुनेका	-5066
▁सुन्दर	-5067
▁सुन्नु	-5068
▁सुन्ने	-5069
▁सुम्पि	-5070
▁स्ट्रि	-5071
▁स्तुति	-5072
▁स्थलको	-5073
▁स्वस्थ	-5074
▁हिस्सा	-5075
▁हुनसक्	-5076
▁हुनुहु	-5077
▁हेब्रो	-5078
कमारीहरू	-5079
परमेश्वर	-5080
प्रत्येक	-5081
मध्येबाट	-5082
रहेकाछन्	-5083
व्यवस्था	-5084
▁अगमवाणी	-5085
▁अमालेकी	-5086
▁अवलम्बन	-5087
▁आदिवासी	-5088
▁उपस्थित	-5089
▁उपेक्षा	-5090
▁एजेन्सी	-5091
▁एलियाले	-5092
▁औपचारिक	-5093
▁कानूनमा	-5094
▁कारखाना	-5095
▁कार्यले	-5096
▁कुरालाई	-5097
▁क्रोधको	-5098
▁क्षयरोग	-5099
▁खान्छन्	-5100
▁गराइएको	-5101
▁गरिदिनु	-5102
▁गुणस्तर	-5103
▁ग्याबिट	-5104
▁ग्राफिक	-5105
▁घटनाहरू	-5106
▁जग्गाको	-5107
▁जन्मेका	-5108
▁जन्मेको	-5109
▁जानुभयो	-5110
▁जान्छन्	-5111
▁डेस्कटप	-5112
▁ढाँचामा	-5113
▁ढोकाहरू	-5114
▁तत्कालै	-5115
▁तुरुन्त	-5116
▁तुलनामा	-5117
▁त्यसैको	-5118
▁दिन्छन्	-5119
▁दूरवाणी	-5120
▁देखिदैन	-5121
▁देख्नेछ	-5122
▁नजरबन्द	-5123
▁नाउँहरू	-5124
▁नेपालको	-5125
▁पक्षहरू	-5126
▁पङ्क्ति	-5127
▁पञ्चायत	-5128
▁पत्रकार	-5129
▁पत्रिका	-5130
▁परिश्रम	-5131
▁पश्चात्	-5132
▁पानीलाई	-5133
▁पार्नेछ	-5134
▁पिक्सेल	-5135
▁प्रकृया	-5136
▁प्रतिमा	-5137
▁फाइलनाम	-5138
▁बाँच्दछ	-5139
▁बाँच्ने	-5140
▁बोर्डको	-5141
▁बोर्डले	-5142
▁भइरहेको	-5143
▁भन्नेछौ	-5144
▁मन्त्री	-5145
▁मरारीका	-5146
▁मानिसका	-5147
▁मापदण्ड	-5148
▁मार्गमा	-5149
▁मुलुकमा	-5150
▁मूर्खले	-5151
▁यहूदाको	-5152
▁याकूबले	-5153
▁युद्धमा	-5154
▁यूसुफका	-5155
▁राजालाई	-5156
▁लागुऔषध	-5157
▁ल्याउने	-5158
▁ल्याएको	-5159
▁वातावरण	-5160
▁विभागको	-5161
▁शरीरबाट	-5162
▁संयुक्त	-5163
▁संशोधित	-5164
▁संसारमा	-5165
▁सनहेरीब	-5166
▁समयसम्म	-5167
▁समीक्षा	-5168
▁सम्मेलन	-5169
▁सहुलियत	-5170
▁सामूहिक	-5171
▁सुरक्षण	-5172
▁सेनापति	-5173
▁सोभन्दा	-5174
▁हुलाकको	-5175
काउनुहोस्	-5176
तिनीहरूले	-5177
राष्ट्रिय	-5178
र्पोरेटिड	-5179
▁PostgreS	-5180
▁अंग्रेजी	-5181
▁अख्तियार	-5182
▁अगुवाहरू	-5183
▁अत्यन्तै	-5184
▁अदालतबाट	-5185
▁अधिकृतको	-5186
▁अधिकृतले	-5187
▁अनुमतिको	-5188
▁अनुमतिमा	-5189
▁अनुमानित	-5190
▁आयुर्वेद	-5191
▁उल्लेखित	-5192
▁एप्रैमका	-5193
▁ऐतिहासिक	-5194
▁कम्पनीले	-5195
▁काउन्सिल	-5196
▁कामदारको	-5197
▁गराउँछन्	-5198
▁गरिसकेको	-5199
▁जलयात्रा	-5200
▁डरलाग्दो	-5201
▁तथ्याङ्क	-5202
▁दिनहरूमा	-5203
▁धितोपत्र	-5204
▁निकायहरु	-5205
▁नियुक्ति	-5206
▁निरीक्षक	-5207
▁निर्देशक	-5208
▁पदार्थको	-5209
▁परिवारमा	-5210
▁पारिदिनु	-5211
▁पुस्तकको	-5212
▁पुस्तकमा	-5213
▁प्रकारका	-5214
▁प्रकार्य	-5215
▁प्रमुखको	-5216
▁प्रोफाइल	-5217
▁फोहरमैला	-5218
▁बनाउँछन्	-5219
▁बाँडफाँड	-5220
▁भविष्यमा	-5221
▁मात्रामा	-5222
▁माध्यमिक	-5223
▁मानिससित	-5224
▁मुद्रामा	-5225
▁यूसुफलाई	-5226
▁रद्दीटोक	-5227
▁रोजगारमा	-5228
▁लगानीबाट	-5229
▁लुम्बिनी	-5230
▁वरिपरिका	-5231
▁वास्तवमा	-5232
▁वास्तविक	-5233
▁विशेषज्ञ	-5234
▁विश्लेषण	-5235
▁वृद्धिको	-5236
▁वैकल्पिक	-5237
▁व्याख्या	-5238
▁शत्रुलाई	-5239
▁शहरहरूमा	-5240
▁सक्दैनन्	-5241
▁समाविष्ट	-5242
▁समितिकोे	-5243
▁सम्भावना	-5244
▁सम्भावित	-5245
▁साझेदारी	-5246
▁सामानहरू	-5247
▁स्रेस्ता	-5248
▁स्वर्गका	-5249
▁हुनुहोस्	-5250
▁अध्यक्षको	-5251
▁अवधिभित्र	-5252
▁अहिलेसम्म	-5253
▁उत्तरदायी	-5254
▁उत्पादनमा	-5255
▁कार्यकारी	-5256
▁गुप्तिकरण	-5257
▁छोराहरूको	-5258
▁दायित्वको	-5259
▁दिनुपर्ने	-5260
▁नबूकदनेस्	-5261
▁नियमहरूको	-5262
▁निवेदकलाई	-5263
▁परिमार्जक	-5264
▁पुननामकरण	-5265
▁पृष्ठभूमि	-5266
▁प्रणालीमा	-5267
▁प्रतिज्ञा	-5268
▁प्रतीक्षा	-5269
▁प्राकृतिक	-5270
▁बताउनुभयो	-5271
▁बिन्यामीन	-5272
▁भूमिसुधार	-5273
▁मरूभूमिमा	-5274
▁मिश्रमाथि	-5275
▁मूर्तिहरू	-5276
▁मूल्यांकन	-5277
▁यरूशलेमको	-5278
▁यूफ्रेटिस	-5279
▁लाभान्वित	-5280
▁लेवीहरूले	-5281
▁वस्त्रहरू	-5282
▁विकेन्द्र	-5283
▁विस्तारको	-5284
▁वैज्ञानिक	-5285
▁व्यक्तिगत	-5286
▁संस्थाबाट	-5287
▁सन्देशहरू	-5288
▁साझेदारको	-5289
▁साझेदारले	-5290
▁साधारणतया	-5291
▁सान्त्वना	-5292
▁सुरक्षाको	-5293
▁सुलेमानले	-5294
▁स्तम्भहरू	-5295
▁स्वेच्छिक	-5296
▁हिमालचुली	-5297
▁होलबेलिया	-5298
▁अगमवक्ताले	-5299
▁अधिकारपत्र	-5300
▁अधिकारीबाट	-5301
▁अधिराज्यका	-5302
▁अब्राहामको	-5303
▁अभिमुखीकरण	-5304
▁उत्पादनशील	-5305
▁कार्यालयले	-5306
▁क्वान्टाइल	-5307
▁गर्नुपर्दछ	-5308
▁चेलाहरूलाई	-5309
▁तिनीहरूबाट	-5310
▁तिनीहरूसंग	-5311
▁थिच्नुहोस्	-5312
▁देखिन्थ्यो	-5313
▁परियोजनाको	-5314
▁प्रतिष्ठान	-5315
▁प्रयोगशाला	-5316
▁प्रवद्र्धन	-5317
▁प्रस्तावको	-5318
▁प्रस्तावना	-5319
▁प्रेरितहरू	-5320
▁प्रोत्साहन	-5321
▁बनाउनुहोस्	-5322
▁महानिर्देश	-5323
▁यहूदीहरूको	-5324
▁यहूदीहरूले	-5325
▁विद्यार्थी	-5326
▁संस्थानहरु	-5327
▁सर्वसाधारण	-5328
▁सामान्यतया	-5329
▁हटाउनुहोस्	-5330
▁TRANSLATORS	-5331
▁आयोजनाहरुको	-5332
▁आयोडिनयुक्त	-5333
▁उत्तराधिकार	-5334
▁कार्यालयलाई	-5335
▁क्युमुलेटिभ	-5336
▁जान्नुहुन्छ	-5337
▁दृष्टिकोणले	-5338
▁धर्मशास्त्र	-5339
▁नियन्त्रणमा	-5340
▁परमप्रभुबाट	-5341
▁प्रत्यारोपण	-5342
▁बिन्यामीनका	-5343
▁वस्तुस्थिति	-5344
▁व्यवस्थालाई	-5345
▁समन्वयात्मक	-5346
▁सुपरिवेक्षक	-5347
▁निवृत्तभरणको	-5348
▁परमप्रभुकहाँ	-5349
▁प्रधानमन्त्र	-5350
▁प्रिन्टक्याप	-5351
▁मूल्याङ्कनको	-5352
▁सञ्चालनकर्ता	-5353
▁सन्तानहरूलाई	-5354
▁सामग्रीहरुको	-5355
▁आवश्यकतानुसार	-5356
▁इन्कर्पोरेटिड	-5357
▁कर्मचारीहरुको	-5358
▁राजपत्राङ्कित	-5359
▁कार्यक्रमहरुको	-5360
▁दरखास्तवालालाई	-5361
▁प्राथमिकताक्रम	-5362
IFF	-5363
TML	-5364
ace	-5365
ack	-5366
ble	-5367
cap	-5368
der	-5369
etc	-5370
exU	-5371
gnd	-5372
hea	-5373
ick	-5374
key	-5375
mon	-5376
ser	-5377
आगो	-5378
इनस	-5379
घटन	-5380
तृक	-5381
देख	-5382
देव	-5383
नकु	-5384
फटी	-5385
बिख	-5386
बुक	-5387
बोश	-5388
भलत	-5389
मणि	-5390
मेछ	-5391
वीन	-5392
सेज	-5393
सेन	-5394
होऊ	-5395
िनल	-5396
ूशी	-5397
१००	-5398
१२५	-5399
ंै	-5400
वण	-5401
हत	-5402
ंकी	-5403
दीय	-5404
पतन	-5405
मिन	-5406
संख	-5407
४००	-5408
▁LD	-5409
▁co	-5410
▁ta	-5411
▁tr	-5412
▁ओह	-5413
▁५६	-5414
▁७५	-5415
▁९क	-5416
ders	-5417
trol	-5418
अफिस	-5419
आरआइ	-5420
आरजी	-5421
उछन्	-5422
एसडी	-5423
कम्प	-5424
कुनै	-5425
कुमा	-5426
कुसे	-5427
गणना	-5428
गर्भ	-5429
गोरू	-5430
ग्यो	-5431
ङ्गु	-5432
चपास	-5433
चारु	-5434
च्ची	-5435
छनीय	-5436
जुली	-5437
झभलत	-5438
टवर्	-5439
टामो	-5440
ठूला	-5441
डबडी	-5442
डाको	-5443
ड्ढन	-5444
तबार	-5445
तलास	-5446
तुले	-5447
दयमा	-5448
दाऊद	-5449
दायक	-5450
धेयक	-5451
धेरै	-5452
धेसी	-5453
नरले	-5454
न्डा	-5455
पदवी	-5456
पनमा	-5457
पाही	-5458
प्टा	-5459
फाटा	-5460
फ्टि	-5461
बापत	-5462
बूसी	-5463
भोलि	-5464
मश्व	-5465
मिला	-5466
मुखी	-5467
मुना	-5468
मूलक	-5469
मोदन	-5470
रराइ	-5471
र्सो	-5472
वायु	-5473
वेषण	-5474
शिया	-5475
श्री	-5476
संगै	-5477
सिनो	-5478
सीको	-5479
हजार	-5480
ितवन	-5481
िसमा	-5482
ेम्ब	-5483
ैपनि	-5484
ोल्छ	-5485
्छन्	-5486
्रेज	-5487
०२००	-5488
▁Con	-5489
▁etc	-5490
▁eur	-5491
▁int	-5492
▁अंक	-5493
▁अनौ	-5494
▁अबि	-5495
▁अशु	-5496
▁आधु	-5497
▁आलु	-5498
▁आशय	-5499
ग्र	-5500
छुट	-5501
झैं	-5502
फेर	-5503
बाह	-5504
मेन	-5505
हेम	-5506
ाइत	-5507
ृणा	-5508
ेकै	-5509
ेलु	-5510
ैलो	-5511
▁एस	-5512
▁टन	-5513
▁३८	-5514
▁३९	-5515
ग्ला	-5516
ग्लो	-5517
माता	-5518
म्री	-5519
यरको	-5520
रक्त	-5521
रहरू	-5522
रहेछ	-5523
र्दन	-5524
र्शो	-5525
ाइते	-5526
ूनले	-5527
्येट	-5528
▁आमो	-5529
▁उठे	-5530
▁ऋणा	-5531
▁एदो	-5532
▁एयर	-5533
▁कटौ	-5534
▁करा	-5535
▁कैद	-5536
▁खपत	-5537
▁खूद	-5538
▁खोल	-5539
▁गाह	-5540
▁घटि	-5541
▁चतु	-5542
▁चिज	-5543
▁जसो	-5544
▁ठेस	-5545
▁डेम	-5546
▁दरभ	-5547
▁नपु	-5548
▁नून	-5549
▁नूह	-5550
▁नोट	-5551
▁पिछ	-5552
▁पेट	-5553
▁फुट	-5554
▁बिष	-5555
▁बेस	-5556
▁भलो	-5557
▁भाव	-5558
▁मञ्	-5559
▁मौन	-5560
▁राह	-5561
▁रोऊ	-5562
▁र्व	-5563
▁लडि	-5564
▁लेब	-5565
▁सधै	-5566
▁सयक	-5567
▁हजु	-5568
▁हना	-5569
▁हप्	-5570
▁१२४	-5571
▁१५८	-5572
▁३००	-5573
▁५००	-5574
acket	-5575
ansla	-5576
erver	-5577
exUri	-5578
tions	-5579
ँईचाल	-5580
काउनु	-5581
कालीन	-5582
कासमा	-5583
किनेछ	-5584
कृष्ट	-5585
क्‍ने	-5586
ङ्गको	-5587
जार्ड	-5588
ठीहरू	-5589
तपाईँ	-5590
ताकोे	-5591
देशीय	-5592
द्वार	-5593
नकुटा	-5594
निष्ठ	-5595
नूनले	-5596
नैतिक	-5597
न्तुप	-5598
न्मुख	-5599
जिर	-5600
डाई	-5601
दली	-5602
सके	-5603
ुप्	-5604
▁९६	-5605
कर्म	-5606
केही	-5607
ख्रा	-5608
दलीय	-5609
नियन	-5610
रिने	-5611
र्दै	-5612
ल्ती	-5613
सरले	-5614
▁खाम	-5615
▁जौं	-5616
▁थलो	-5617
▁बसि	-5618
▁सफा	-5619
▁हति	-5620
▁हन्	-5621
▁१९५	-5622
क्र्य	-5623
गाउने	-5624
ग्राफ	-5625
द्धरण	-5626
न्सका	-5627
न्सेन	-5628
पियाँ	-5629
पोलिस	-5630
फटीपी	-5631
बलिको	-5632
ब्लिक	-5633
भिचार	-5634
मञ्जू	-5635
मध्यम	-5636
मानमा	-5637
मिनार	-5638
मेण्ट	-5639
म्पमा	-5640
म्बाई	-5641
योर्क	-5642
रन्तर	-5643
रहेकै	-5644
रहेछु	-5645
रूपले	-5646
लनबाट	-5647
लबन्द	-5648
लापमा	-5649
लिएका	-5650
ल्सले	-5651
वन्धी	-5652
वाचित	-5653
वारको	-5654
वितरण	-5655
वृतिक	-5656
व्हान	-5657
शासित	-5658
शीलता	-5659
श्बोश	-5660
संख्य	-5661
सूचना	-5662
स्टको	-5663
स्पति	-5664
हुन्छ	-5665
हूदको	-5666
ाउँथे	-5667
ाउछन्	-5668
ाटोमा	-5669
ात्मक	-5670
ानदार	-5671
ाप्ता	-5672
ाप्लु	-5673
ाराजा	-5674
िकित्	-5675
िताको	-5676
ुङ्गो	-5677
ुप्पा	-5678
ूकलाई	-5679
ेलाडी	-5680
ोजिला	-5681
ोल्डर	-5682
▁LDAP	-5683
▁अनगि	-5684
▁अल्प	-5685
▁अवयव	-5686
▁आँगन	-5687
▁आत्म	-5688
▁आदान	-5689
▁आफनो	-5690
▁आयकर	-5691
▁आवाज	-5692
▁आहार	-5693
▁उठाए	-5694
▁उन्न	-5695
▁उपाय	-5696
▁एउटी	-5697
▁एघार	-5698
▁एश्त	-5699
लह	-5700
▁=	-5701
रिङ	-5702
रूष	-5703
सेक	-5704
हित	-5705
ँलाई	-5706
एलका	-5707
खाले	-5708
चालय	-5709
न्यू	-5710
न्यौ	-5711
रियो	-5712
स्ति	-5713
स्यौ	-5714
िङ्ग	-5715
ेकमा	-5716
▁अड्	-5717
▁चेक	-5718
▁ठाउ	-5719
▁डाँ	-5720
▁दान	-5721
▁पठा	-5722
▁पीन	-5723
▁सलह	-5724
▁होः	-5725
जालमा	-5726
टवारी	-5727
नेपाल	-5728
राहरू	-5729
रूस्त	-5730
ाप्ति	-5731
ौचालय	-5732
्रामक	-5733
▁एन्ड	-5734
▁एल्ब	-5735
▁ओहदा	-5736
▁कथित	-5737
▁कपाल	-5738
▁कलूब	-5739
▁कसूर	-5740
▁काबू	-5741
▁कालो	-5742
▁कूवा	-5743
▁कृपा	-5744
▁केटी	-5745
▁क्षण	-5746
▁खानी	-5747
▁खुबै	-5748
▁खेदे	-5749
▁गणना	-5750
▁गणित	-5751
▁गराए	-5752
▁गहुँ	-5753
▁गाडी	-5754
▁गाढा	-5755
▁गिबो	-5756
▁गुना	-5757
▁ग्नि	-5758
▁घृणा	-5759
▁चढाऊ	-5760
▁चलाइ	-5761
▁चिनि	-5762
▁चिप्	-5763
▁चुरो	-5764
▁चेता	-5765
▁छाती	-5766
▁छापा	-5767
▁छैनँ	-5768
▁छोटो	-5769
▁छोडछ	-5770
▁छोडन	-5771
▁जङ्ग	-5772
▁जोडि	-5773
▁टर्म	-5774
▁टेवा	-5775
▁ठाँउ	-5776
▁डाँक	-5777
▁डिजि	-5778
▁ड्रअ	-5779
▁ड्रि	-5780
▁ढङ्ग	-5781
▁तत्व	-5782
▁तथ्य	-5783
▁तलास	-5784
▁तहको	-5785
▁तोकी	-5786
▁थकित	-5787
▁थप्न	-5788
▁थिइन	-5789
▁थिएँ	-5790
▁थैलो	-5791
▁दलमा	-5792
▁दाना	-5793
▁दिएर	-5794
▁दिदै	-5795
▁देवी	-5796
▁देशभ	-5797
▁द्वी	-5798
▁धन्य	-5799
शल	-5800
ठीक	-5801
नोक	-5802
प्प	-5803
लिन	-5804
लिप	-5805
सीन	-5806
हाई	-5807
होर	-5808
▁Gn	-5809
▁इन	-5810
▁“‘	-5811
एदोम	-5812
डोने	-5813
तत्र	-5814
दारी	-5815
द्रो	-5816
बिखन	-5817
मध्य	-5818
मिति	-5819
लिने	-5820
वाना	-5821
सेयर	-5822
ेलमा	-5823
ोनको	-5824
▁Gnu	-5825
▁एकल	-5826
▁चोक	-5827
▁थाइ	-5828
▁पात	-5829
▁पास	-5830
▁भोक	-5831
▁रहन	-5832
▁हटा	-5833
आफ्नो	-5834
जदारी	-5835
द्रोह	-5836
न्तको	-5837
मितिय	-5838
ाउँदछ	-5839
िमिति	-5840
▁GnuP	-5841
▁कैदी	-5842
▁क्ले	-5843
▁छपाई	-5844
▁धुरू	-5845
▁धोका	-5846
▁नदेख	-5847
▁नबस्	-5848
▁नलाग	-5849
▁नहोऊ	-5850
▁नाफा	-5851
▁निकै	-5852
▁निको	-5853
▁निलो	-5854
▁निस्	-5855
▁निहु	-5856
▁पठाई	-5857
▁पत्त	-5858
▁पदको	-5859
▁पसार	-5860
▁पालो	-5861
▁पिउन	-5862
▁पुग्	-5863
▁पूरै	-5864
▁पे्र	-5865
▁पैदा	-5866
▁पोषा	-5867
▁फैला	-5868
▁बताए	-5869
▁बनाँ	-5870
▁बनाई	-5871
▁बनौट	-5872
▁बालक	-5873
▁बिरू	-5874
▁बिला	-5875
▁बेवा	-5876
▁भएकी	-5877
▁भराई	-5878
▁भाडा	-5879
▁भारत	-5880
▁भोग्	-5881
▁भोजन	-5882
▁भोलि	-5883
▁मतलब	-5884
▁मद्य	-5885
▁महाप	-5886
▁माइल	-5887
▁माउथ	-5888
▁मातृ	-5889
▁मिठो	-5890
▁मुना	-5891
▁मुलु	-5892
▁मूशी	-5893
▁मोही	-5894
▁यहीं	-5895
▁यारो	-5896
▁यिशै	-5897
▁योएल	-5898
▁रथका	-5899
क्न	-5900
नरी	-5901
यरी	-5902
याई	-5903
रीद	-5904
लाभ	-5905
ल्ल	-5906
विन	-5907
साह	-5908
हिन	-5909
ाइज	-5910
ैला	-5911
्ती	-5912
▁०३	-5913
गन्ध	-5914
धुरू	-5915
▁आया	-5916
▁आरो	-5917
▁एकद	-5918
▁चाइ	-5919
▁नात	-5920
▁पतन	-5921
▁पुल	-5922
▁बहू	-5923
▁बाछ	-5924
▁योआ	-5925
▁सरी	-5926
▁हैन	-5927
जन्तु	-5928
ण्डाऊ	-5929
तानको	-5930
फ्टिङ	-5931
यातको	-5932
लाउनु	-5933
▁bgnd	-5934
▁खरीद	-5935
▁दशौं	-5936
▁दैला	-5937
▁नामा	-5938
▁बढदै	-5939
▁बसाई	-5940
▁बिमा	-5941
▁भन्छ	-5942
▁भन्‍	-5943
▁भेरी	-5944
▁र्वष	-5945
▁लबान	-5946
▁लापर	-5947
▁लायक	-5948
▁विगो	-5949
▁विधा	-5950
▁विष्	-5951
▁शिशु	-5952
▁शेले	-5953
▁श्रृ	-5954
▁संभव	-5955
▁सकुन	-5956
▁सन्त	-5957
▁सराई	-5958
▁साइड	-5959
▁साइन	-5960
▁सागर	-5961
▁सिमो	-5962
▁सुति	-5963
▁सुपर	-5964
▁सुर्	-5965
▁सूती	-5966
▁सेयर	-5967
▁सेवक	-5968
▁सोचे	-5969
▁स्टक	-5970
▁स्रो	-5971
▁हत्य	-5972
▁हाले	-5973
▁हालै	-5974
▁हिज्	-5975
▁हुदै	-5976
▁२००२	-5977
▁२०१५	-5978
▁२०५२	-5979
▁२०५३	-5980
▁२०६३	-5981
▁२०६७	-5982
intcap	-5983
कुलपति	-5984
क्टरको	-5985
क्यांश	-5986
क्रमित	-5987
क्रिया	-5988
गरमाथा	-5989
ग्रस्त	-5990
घाटाको	-5991
घारीमा	-5992
ङ्ख्या	-5993
छुट्टै	-5994
ञ्छनीय	-5995
टामोटी	-5996
डियाले	-5997
ढुङ्गा	-5998
तिमीले	-5999
1-	-6000
ec	-6001
gt	-6002
un	-6003
कन	-6004
लक	-6005
वच	-6006
११	-6007
▁o	-6008
▁े	-6009
ext	-6010
ind	-6011
कोट	-6012
नाउ	-6013
नान	-6014
भर्	-6015
राय	-6016
वत्	-6017
सौं	-6018
्रत	-6019
▁-1	-6020
▁of	-6021
▁उँ	-6022
▁एम	-6023
▁खत	-6024
▁झा	-6025
▁फा	-6026
▁फू	-6027
▁फौ	-6028
▁बज	-6029
टोबर	-6030
न्की	-6031
न्डर	-6032
प्रा	-6033
प्रे	-6034
र्पो	-6035
▁कवच	-6036
▁केन	-6037
▁खस्	-6038
▁घाँ	-6039
▁नपा	-6040
▁बही	-6041
▁मेड	-6042
▁लाम	-6043
▁साओ	-6044
▁सुत	-6045
▁हेत	-6046
त्रिम	-6047
वार्य	-6048
ापतको	-6049
▁अप्र	-6050
▁आयको	-6051
▁एण्ड	-6052
▁घाटा	-6053
▁चिता	-6054
▁च्या	-6055
▁पक्र	-6056
▁पल्ट	-6057
▁बनाइ	-6058
▁मण्ड	-6059
▁व्यय	-6060
▁स्मा	-6061
▁हस्त	-6062
▁हुनै	-6063
दक्षिण	-6064
देशबाट	-6065
दोस्रो	-6066
निमेसन	-6067
नियनको	-6068
नियमित	-6069
न्तुपथ	-6070
न्दर्य	-6071
न्नलाई	-6072
पत्रमा	-6073
प्तिस्	-6074
प्रधान	-6075
प्रवाह	-6076
बन्सेन	-6077
बिन्दु	-6078
मश्वेत	-6079
मेलीमा	-6080
यन्त्र	-6081
यवस्तु	-6082
यसकारण	-6083
रहेछन्	-6084
र्पोरे	-6085
र्‍ारा	-6086
लङ्गमा	-6087
लबन्दी	-6088
विद्यु	-6089
संग्रह	-6090
सकेपछि	-6091
सचिवले	-6092
सहितको	-6093
स्तामा	-6094
स्त्री	-6095
हाल्नु	-6096
ाउँनेछ	-6097
ाउनेछु	-6098
ाउपत्र	-6099
il	-6100
लव	-6101
षि	-6102
।–	-6103
२०	-6104
५८	-6105
कता	-6106
घाट	-6107
ताम	-6108
लिङ	-6109
लेन	-6110
ूरा	-6111
ोजा	-6112
्वा	-6113
▁ht	-6114
▁लौ	-6115
▁२४	-6116
ज्जत	-6117
न्ता	-6118
बस्त	-6119
रामी	-6120
▁आउन	-6121
▁काट	-6122
▁गएँ	-6123
▁तरल	-6124
▁दाँ	-6125
▁नमा	-6126
▁नरह	-6127
▁नर्	-6128
▁निभ	-6129
▁पचह	-6130
▁प्य	-6131
▁भएज	-6132
▁वाइ	-6133
▁वाप	-6134
▁विज	-6135
▁वीउ	-6136
▁सता	-6137
▁सोझ	-6138
तपाईं	-6139
मेछाप	-6140
लिँदा	-6141
ूर्ती	-6142
▁अक्ष	-6143
▁उभिए	-6144
▁केटा	-6145
▁ज्वा	-6146
▁दावी	-6147
▁नत्र	-6148
▁नम्र	-6149
▁यत्र	-6150
▁लगाए	-6151
▁विजय	-6152
▁सिफर	-6153
▁सोझो	-6154
नान्तर	-6155
प्ताली	-6156
हरेदार	-6157
ापर्यो	-6158
ारीहरू	-6159
िरहेका	-6160
िरहेको	-6161
िसकेका	-6162
ेदारको	-6163
्याउने	-6164
▁GnuPG	-6165
▁अक्षर	-6166
▁अग्ला	-6167
▁अघाडी	-6168
▁अडियो	-6169
▁अन्धा	-6170
▁अपनाई	-6171
▁अपांग	-6172
▁अम्मी	-6173
▁अल्फा	-6174
▁आउँदछ	-6175
▁आउँदा	-6176
▁आगोको	-6177
▁आगोले	-6178
▁आदिमा	-6179
▁आफुले	-6180
▁आफैले	-6181
▁आवधिक	-6182
▁आसाका	-6183
▁इसहाक	-6184
▁उपचार	-6185
▁उपवास	-6186
▁उभियो	-6187
▁उल्टा	-6188
▁उस्तै	-6189
▁ऊर्जा	-6190
▁ऋणीको	-6191
▁एलीले	-6192
▁एलीशा	-6193
▁एल्का	-6194
▁ऐनलाई	-6195
▁ओआरजी	-6196
▁ओएसडी	-6197
▁कक्षा	-6198
▁कनानी	-6199
:,	-6200
उप	-6201
चो	-6202
जब	-6203
२३	-6204
२७	-6205
▁F	-6206
▁U	-6207
गाई	-6208
ङ्‍	-6209
चाँ	-6210
ठार	-6211
नीत	-6212
लाख	-6213
िकल	-6214
▁आऊ	-6215
▁आम	-6216
▁एड	-6217
▁की	-6218
▁छः	-6219
▁जं	-6220
▁जफ	-6221
▁नु	-6222
▁नू	-6223
▁नौ	-6224
▁बन	-6225
▁हस	-6226
▁५४	-6227
गलाई	-6228
नाका	-6229
न्ति	-6230
न्नु	-6231
परबो	-6232
र्नी	-6233
ृजना	-6234
ेलको	-6235
▁जफत	-6236
▁द्र	-6237
▁नाश	-6238
▁निग	-6239
▁नुह	-6240
▁पुर	-6241
▁मनी	-6242
▁लिख	-6243
▁वंश	-6244
▁वाल	-6245
▁हमा	-6246
▁१५७	-6247
न्छौं	-6248
मात्र	-6249
मालाई	-6250
वास्त	-6251
िगलाई	-6252
▁छाडी	-6253
▁ढिलो	-6254
▁माति	-6255
▁युने	-6256
▁२०२१	-6257
▁२०५६	-6258
▁२०६२	-6259
▁उल्टो	-6260
▁कमजोर	-6261
▁कर्तब	-6262
▁कर्सर	-6263
▁कसैको	-6264
▁कस्तो	-6265
▁कारोब	-6266
▁कालमा	-6267
▁कैदमा	-6268
▁क्येट	-6269
▁क्षमा	-6270
▁खटाउन	-6271
▁खेलको	-6272
▁खोल्न	-6273
▁गएनन्	-6274
▁गडबडी	-6275
▁गतिमा	-6276
▁गरिदि	-6277
▁गरिबी	-6278
▁गह्रौ	-6279
▁गाईको	-6280
▁ग्राह	-6281
▁ग्लोम	-6282
▁घट्ने	-6283
▁घरहरू	-6284
▁घरेलु	-6285
▁घाइते	-6286
▁घोल्छ	-6287
▁चक्ला	-6288
▁चलेको	-6289
▁चाँडो	-6290
▁चितवन	-6291
▁चित्र	-6292
▁चुनिए	-6293
▁छर्दछ	-6294
▁छायाँ	-6295
▁छोड्न	-6296
▁जएबको	-6297
▁जन्मा	-6298
▁जित्न	-6299
30	-6300
ँन	-6301
अप	-6302
आय	-6303
७६	-6304
९०	-6305
▁g	-6306
▁m	-6307
▁y	-6308
खला	-6309
ज्र	-6310
बीस	-6311
लें	-6312
सफा	-6313
हेर	-6314
▁अच	-6315
▁गी	-6316
▁तप	-6317
▁ब्	-6318
▁रस	-6319
खेको	-6320
धनमा	-6321
निका	-6322
रिनु	-6323
लाका	-6324
सुरी	-6325
ारिश	-6326
्लेट	-6327
▁ग्य	-6328
▁जोख	-6329
▁दास	-6330
▁द्ध	-6331
▁फाँ	-6332
▁ब्ल	-6333
▁मिस	-6334
▁रमा	-6335
नीलाई	-6336
भाषित	-6337
ूचीको	-6338
ेर्शो	-6339
▁अण्ड	-6340
▁उजूर	-6341
▁गरौं	-6342
▁दिएन	-6343
▁मेरी	-6344
▁वीरे	-6345
▁हनेछ	-6346
श्रमिक	-6347
हाम्रो	-6348
▁अस्ता	-6349
▁एक्रो	-6350
▁एशिया	-6351
▁खोज्न	-6352
▁जीतको	-6353
▁जेटले	-6354
▁जोखिम	-6355
▁झण्डा	-6356
▁झ्याल	-6357
▁टनबाट	-6358
▁ट्रंक	-6359
▁ट्रेड	-6360
▁डलरमा	-6361
▁तथापि	-6362
▁तहसिल	-6363
▁तिहाई	-6364
▁तैपनि	-6365
▁थप्दा	-6366
▁थिइन्	-6367
▁थियोः	-6368
▁दररेट	-6369
▁दिएमा	-6370
▁दिनका	-6371
▁दुःखी	-6372
▁देशका	-6373
▁धनीको	-6374
▁धर्मी	-6375
▁धारणा	-6376
▁नदीको	-6377
▁नदीमा	-6378
▁नमुना	-6379
▁नमूना	-6380
▁नहुनु	-6381
▁नातान	-6382
▁नियोग	-6383
▁निश्च	-6384
▁नूनको	-6385
▁पक्का	-6386
▁पठाउन	-6387
▁परिचय	-6388
▁पशहूर	-6389
▁पसलमा	-6390
▁पहिरो	-6391
▁पाँचौ	-6392
▁पाइने	-6393
▁पाइला	-6394
▁पाउन्	-6395
▁पाउलो	-6396
▁पापको	-6397
▁पारेर	-6398
▁पुँजी	-6399
Fa	-6400
di	-6401
en	-6402
nc	-6403
एज	-6404
एम	-6405
औं	-6406
कप	-6407
चर	-6408
टु	-6409
ढो	-6410
तह	-6411
फी	-6412
भी	-6413
४२	-6414
४५	-6415
६२	-6416
६६	-6417
८३	-6418
ंको	-6419
टका	-6420
पिई	-6421
बुल	-6422
वाट	-6423
षको	-6424
समय	-6425
ैमा	-6426
▁पख	-6427
▁फर	-6428
उसको	-6429
ढोका	-6430
निको	-6431
म्ने	-6432
रिटी	-6433
▁hea	-6434
▁जमी	-6435
▁फिं	-6436
▁फेड	-6437
▁मेल	-6438
▁सजग	-6439
▁सतह	-6440
▁सिम	-6441
र्नेछ	-6442
र्याङ	-6443
▁आजको	-6444
▁त्या	-6445
▁दूता	-6446
▁बचाउ	-6447
▁बताऊ	-6448
▁मनमा	-6449
काउन्ट	-6450
क्षालय	-6451
पनअफिस	-6452
ेकाछन्	-6453
▁कमारी	-6454
▁खण्डन	-6455
▁खाध्य	-6456
▁पुरूष	-6457
▁पुर्व	-6458
▁पे्रस	-6459
▁पैतृक	-6460
▁पोखरा	-6461
▁पोर्ट	-6462
▁पोष्ट	-6463
▁प्रशा	-6464
▁प्रिय	-6465
▁फाइदा	-6466
▁फूलका	-6467
▁फैसला	-6468
▁बचावट	-6469
▁बटुले	-6470
▁बढेका	-6471
▁बढ्दो	-6472
▁बद्ला	-6473
▁बद्ली	-6474
▁बनाएँ	-6475
▁बनायो	-6476
▁बन्दो	-6477
▁बलिको	-6478
▁बहिनी	-6479
▁बांकी	-6480
▁बारुद	-6481
▁बालको	-6482
▁बिचार	-6483
▁बैजनी	-6484
▁बोकेर	-6485
▁बोलाउ	-6486
▁बोलाए	-6487
▁बोल्छ	-6488
▁भनिन्	-6489
▁भन्यौ	-6490
▁भागको	-6491
▁भावना	-6492
▁भेरिए	-6493
▁भ्वाइ	-6494
▁मधेसी	-6495
▁मरेका	-6496
▁मरेको	-6497
▁मर्यो	-6498
▁मसिनो	-6499
,”	-6500
.)	-6501
EL	-6502
ID	-6503
ay	-6504
mp	-6505
ve	-6506
yp	-6507
ःभ	-6508
आई	-6509
एन	-6510
णु	-6511
मस	-6512
ेे	-6513
ोन	-6514
१८	-6515
▁)	-6516
▁A	-6517
▁N	-6518
▁ं	-6519
टले	-6520
ट्र	-6521
मला	-6522
▁पथ	-6523
कलाप	-6524
तबाट	-6525
न्न्	-6526
म्यु	-6527
याली	-6528
हासन	-6529
▁lex	-6530
▁अवल	-6531
▁खडा	-6532
▁नभई	-6533
▁पस्	-6534
▁बरू	-6535
▁मने	-6536
लिएको	-6537
▁दलले	-6538
▁दारी	-6539
▁फारम	-6540
▁बहुम	-6541
▁रूनु	-6542
▁वाचन	-6543
कहरूको	-6544
जिल्ला	-6545
ेक्षित	-6546
▁एल्या	-6547
▁चिच्य	-6548
▁धन्दा	-6549
▁फिल्म	-6550
▁महसुल	-6551
▁महसुस	-6552
▁महीना	-6553
▁माइनस	-6554
▁माझमा	-6555
▁मानेर	-6556
▁मान्द	-6557
▁मान्य	-6558
▁मार्प	-6559
▁मास्क	-6560
▁मिलाइ	-6561
▁मिलेर	-6562
▁मेट्न	-6563
▁म्याट	-6564
▁यर्दन	-6565
▁रकमको	-6566
▁रहबाम	-6567
▁राम्र	-6568
▁रुलाई	-6569
▁लगायो	-6570
▁लडाँई	-6571
▁लाउने	-6572
▁लाबान	-6573
▁लिएका	-6574
▁लेख्न	-6575
▁लेबीय	-6576
▁लोडिङ	-6577
▁ल्याई	-6578
▁वटाको	-6579
▁विषको	-6580
▁वृक्ष	-6581
▁वृत्त	-6582
▁शान्त	-6583
▁शिमोन	-6584
▁शुद्ध	-6585
▁शेकेल	-6586
▁शोकमा	-6587
▁श्राप	-6588
▁संगठन	-6589
▁संगीत	-6590
▁सक्दछ	-6591
▁सजिलो	-6592
▁सन्धि	-6593
▁सबैले	-6594
▁सम्मि	-6595
▁सयकडा	-6596
▁सरसफा	-6597
▁सरुवा	-6598
▁सर्तक	-6599
.,	-6600
50	-6601
?’	-6602
fs	-6603
ंच	-6604
उठ	-6605
कस	-6606
झा	-6607
फ्	-6608
सत	-6609
सय	-6610
१६	-6611
१९	-6612
खको	-6613
चरण	-6614
नुअ	-6615
लिए	-6616
िमि	-6617
▁नह	-6618
▁पं	-6619
पाटी	-6620
बादी	-6621
रिया	-6622
सर्भ	-6623
▁अद्	-6624
▁खान	-6625
▁बढे	-6626
▁वाण	-6627
▁सरू	-6628
▁साग	-6629
बाबेल	-6630
बाहेक	-6631
ाल्ने	-6632
▁एकाई	-6633
▁किलो	-6634
▁ख्या	-6635
▁दिवस	-6636
▁प्ला	-6637
▁विरा	-6638
▁शिखर	-6639
▁संका	-6640
▁साहु	-6641
▁होल्	-6642
च्छाले	-6643
▁चाहिं	-6644
▁दुखको	-6645
▁नगर्न	-6646
▁पराउँ	-6647
▁सर्भे	-6648
▁सस्तो	-6649
▁सहवास	-6650
▁साथमा	-6651
▁सार्न	-6652
▁सालमा	-6653
▁सिचाई	-6654
▁सिलास	-6655
▁सुदूर	-6656
▁सुनाए	-6657
▁सूर्य	-6658
▁सृजना	-6659
▁सेटअप	-6660
▁सौर्य	-6661
▁स्वतः	-6662
▁स्विच	-6663
▁हटाएर	-6664
▁हप्ता	-6665
▁हिंसा	-6666
▁हेरेर	-6667
▁हेलचे	-6668
▁होस्ट	-6669
rintcap	-6670
कुसेहरू	-6671
केन्द्र	-6672
क्र्याट	-6673
गरहरूले	-6674
छोरीहरू	-6675
तपाईँको	-6676
तपाईंले	-6677
त्तिजनक	-6678
दिन्छन्	-6679
नुपर्दछ	-6680
न्द्रीत	-6681
पाठीहरू	-6682
मञ्जूषा	-6683
मार्गको	-6684
म्प्लेट	-6685
म्राहरू	-6686
यहूदाका	-6687
र्काउने	-6688
र्पोरेश	-6689
र्याएको	-6690
वार्षिक	-6691
विकासमा	-6692
विरुद्ध	-6693
श्बोशेत	-6694
हरुमाथि	-6695
हरूसितै	-6696
▁LexUri	-6697
▁Server	-6698
▁अनिष्ट	-6699
▁अनुदान	-6700
▁अनुवाद	-6701
▁अन्तमा	-6702
▁अन्नको	-6703
▁अफलाइन	-6704
▁अफिसमा	-6705
▁अवधिभर	-6706
▁अवश्यै	-6707
▁अशिष्ट	-6708
▁अशुद्ध	-6709
▁अश्शूर	-6710
▁असक्षम	-6711
▁अहीमास	-6712
▁आइतबार	-6713
▁आइपुगे	-6714
▁आउँछन्	-6715
▁आकाशमा	-6716
▁आगोलाई	-6717
▁आधुनिक	-6718
▁आफैंले	-6719
▁आमोनले	-6720
▁उठाउने	-6721
▁उठाएको	-6722
▁उत्साह	-6723
▁उदयपुर	-6724
▁उदाहरण	-6725
▁उद्धरण	-6726
▁उपसमूह	-6727
▁उमेरका	-6728
▁उहाँमा	-6729
▁एकहजार	-6730
▁एप्रैम	-6731
▁ओछ्यान	-6732
▁ओहदाको	-6733
▁करारको	-6734
▁काँधमा	-6735
▁कानुनी	-6736
▁कान्छो	-6737
▁कामहरु	-6738
▁काम्यो	-6739
▁कुट्ने	-6740
▁कुस्ती	-6741
▁क्रमिक	-6742
▁खरिदको	-6743
▁खानेछौ	-6744
▁खान्छौ	-6745
▁खुवाउन	-6746
▁खेलकुद	-6747
▁खेलाडी	-6748
▁गएकोले	-6749
▁गणनाको	-6750
▁गरिदेऊ	-6751
▁गर्यौं	-6752
▁गाड्नु	-6753
▁गाह्रो	-6754
▁गेर्शो	-6755
▁ग्निबल	-6756
▁ग्राहक	-6757
▁घमण्डी	-6758
▁चलाएको	-6759
▁चिकित्	-6760
▁चिट्ठा	-6761
▁चुक्ता	-6762
▁चेप्टा	-6763
▁च्यानल	-6764
▁छानविन	-6765
▁छोरोको	-6766
▁छोरोले	-6767
▁जङ्गली	-6768
▁जलवायु	-6769
▁जवानको	-6770
▁जानेछु	-6771
▁जापानी	-6772
▁जिब्रो	-6773
▁झुप्पा	-6774
▁टुङ्गो	-6775
▁ट्रयाक	-6776
▁ठानेमा	-6777
▁ठान्यौ	-6778
▁तीनजना	-6779
▁तेर्सो	-6780
▁त्यलाई	-6781
▁थाल्यो	-6782
▁दाऊदको	-6783
▁दाज्यु	-6784
▁दिदैंन	-6785
▁दिनेछु	-6786
▁दुईवटा	-6787
▁दृश्या	-6788
▁देखेका	-6789
▁देख्यौ	-6790
▁देशहरू	-6791
▁धनकुटा	-6792
▁धातुले	-6793
▁नगरेमा	-6794
▁नदिएमा	-6795
▁नसकिने	-6796
▁नसकेको	-6797
▁नानीको	-6798
▁निजसँग	-6799
▁नियमको	-6800
▁नियममा	-6801
▁नियाली	-6802
▁निर्भर	-6803
▁नीतिको	-6804
▁नोकरले	-6805
▁पक्षको	-6806
▁पक्षमा	-6807
▁पत्रको	-6808
▁पदावधि	-6809
▁पब्लिक	-6810
▁परमाणु	-6811
▁परिपाल	-6812
▁पर्खनु	-6813
▁पर्दैन	-6814
▁पर्यवे	-6815
▁पशुहरू	-6816
▁पहाडको	-6817
▁पाइएमा	-6818
▁पानीका	-6819
▁पानीले	-6820
▁पावलले	-6821
▁पुनलोड	-6822
▁पुराना	-6823
▁पूर्वक	-6824
▁पोथ्रा	-6825
▁फर्काई	-6826
▁फर्मको	-6827
▁फाइलका	-6828
▁फाप्लु	-6829
▁फुल्ने	-6830
▁फैलियो	-6831
▁बगैंचा	-6832
▁बजारमा	-6833
▁बढाएको	-6834
▁बनिनेछ	-6835
▁बसोबास	-6836
▁बाँच्न	-6837
▁बाहकमा	-6838
▁बिक्रे	-6839
▁बिदामा	-6840
▁बिरूवा	-6841
▁बिर्ता	-6842
▁बीमाको	-6843
▁बुझ्ने	-6844
▁बुट्टा	-6845
▁बुद्धि	-6846
▁बुर्जा	-6847
▁बेलामा	-6848
▁बैंकमा	-6849
▁बोटुको	-6850
▁भएकाले	-6851
▁भएकोमा	-6852
▁भण्डार	-6853
▁भन्छन्	-6854
▁भन्‍ने	-6855
▁भर्याङ	-6856
▁भागलाई	-6857
▁भारतका	-6858
▁भाषामा	-6859
▁मनासिव	-6860
▁मनोनीत	-6861
▁महलीका	-6862
▁महासभा	-6863
▁माग्ने	-6864
▁माटोको	-6865
▁मातेकी	-6866
▁मातेको	-6867
▁मात्रा	-6868
▁माथिको	-6869
▁मामिला	-6870
▁मार्ने	-6871
▁माहिला	-6872
▁मितिमा	-6873
▁मिद्या	-6874
▁मिल्ने	-6875
▁मुनाफा	-6876
▁मेडिकल	-6877
▁मोआबका	-6878
▁मोआबको	-6879
▁मोजिला	-6880
▁मोड्यु	-6881
▁यथार्थ	-6882
▁यात्रु	-6883
▁योआबका	-6884
▁योआशले	-6885
▁रकमहरू	-6886
▁रहेकोछ	-6887
▁रिन्यू	-6888
▁रिसाइज	-6889
▁रुपैया	-6890
▁रूखहरू	-6891
▁रेकर्ड	-6892
▁रेखाको	-6893
▁रेखामा	-6894
▁रेल्वे	-6895
▁रोक्का	-6896
▁रोक्यो	-6897
▁रोगहरु	-6898
▁लक्षित	-6899
▁लगाउनु	-6900
▁लड्नका	-6901
▁लम्बाई	-6902
▁लागतको	-6903
▁लाग्यो	-6904
▁लिइएको	-6905
▁लिइनेछ	-6906
▁लिब्नी	-6907
▁लुगाको	-6908
▁लेखेको	-6909
▁वायुया	-6910
▁विकसित	-6911
▁विगतको	-6912
▁विगतमा	-6913
▁विधेयक	-6914
▁विरोधी	-6915
▁विलम्ब	-6916
▁विषयका	-6917
▁वृत्ति	-6918
▁वेश्या	-6919
▁व्ययको	-6920
▁शरीरको	-6921
▁शहरलाई	-6922
▁शाऊलको	-6923
▁शानदार	-6924
▁शासनका	-6925
▁शेमूएल	-6926
▁शौचालय	-6927
▁सक्छौं	-6928
▁सचिवको	-6929
▁सपनाको	-6930
▁सभामुख	-6931
▁समयलाई	-6932
▁समर्पण	-6933
▁समुदाय	-6934
▁समूहले	-6935
▁सम्पाद	-6936
▁सम्भार	-6937
▁सम्मका	-6938
▁सम्ममा	-6939
▁सहकारी	-6940
▁सहभागी	-6941
▁साटोमा	-6942
▁सिंचाइ	-6943
▁सिद्धा	-6944
▁सिपाही	-6945
▁सिस्को	-6946
▁सुगन्ध	-6947
▁सुचारु	-6948
▁सुरुआत	-6949
▁सोच्नु	-6950
▁स्क्रि	-6951
▁स्पन्ज	-6952
▁स्मृति	-6953
▁स्वरूप	-6954
▁स्वामी	-6955
▁हजुरले	-6956
▁हटाउने	-6957
▁हराएको	-6958
▁हामीमा	-6959
▁हालेको	-6960
▁हाल्नु	-6961
▁हिम्रो	-6962
▁हुनेछन	-6963
▁हुन्थे	-6964
▁हृदयमा	-6965
▁हृदयले	-6966
▁हेडरको	-6967
▁हेरफेर	-6968
▁हेर्दा	-6969
▁हेर्नु	-6970
काठमाडौं	-6971
तापूर्वक	-6972
तिक्रम्य	-6973
नुहुन्न्	-6974
पूर्वकको	-6975
प्तिस्मा	-6976
प्रदर्शन	-6977
मन्त्रणा	-6978
लीहरूलाई	-6979
सम्वन्धी	-6980
ाप्ताङ्क	-6981
▁Control	-6982
▁headers	-6983
▁transla	-6984
▁अक्टोबर	-6985
▁अत्यधिक	-6986
▁अधिकांश	-6987
▁अधिपत्र	-6988
▁अध्यापन	-6989
▁अनुभवको	-6990
▁अनुमोदन	-6991
▁अन्ततिर	-6992
▁अन्तराल	-6993
▁अन्तरिम	-6994
▁अन्वेषण	-6995
▁अपनाउनु	-6996
▁अपराधको	-6997
▁अप्रत्य	-6998
▁अभिलेखन	-6999
▁अस्वस्थ	-7000
▁आँखाहरू	-7001
▁आइमाईले	-7002
▁आत्माले	-7003
▁आफैंलाई	-7004
▁आरक्षको	-7005
▁आशयपत्र	-7006
▁इन्टरने	-7007
▁इन्डोने	-7008
▁इन्धनको	-7009
▁उज्यालो	-7010
▁उत्पादक	-7011
▁उत्सवको	-7012
▁उपकरणटि	-7013
▁उपायहरू	-7014
▁ऋणात्मक	-7015
▁एकत्रित	-7016
▁एघारजना	-7017
▁एनिमेसन	-7018
▁एलीशाले	-7019
▁एल्काना	-7020
▁ओपनअफिस	-7021
▁कम्मरमा	-7022
▁कर्णाली	-7023
▁कर्तब्य	-7024
▁कर्पोरे	-7025
▁कसुरदार	-7026
▁काँसाकै	-7027
▁कारणबाट	-7028
▁किसिमको	-7029
▁कृत्रिम	-7030
▁कोठाहरू	-7031
▁खोजतलास	-7032
▁गइरहेको	-7033
▁गराउँदा	-7034
▁गराउनका	-7035
▁गरिरहनु	-7036
▁गर्नलाई	-7037
▁गर्भपतन	-7038
▁गवाहीले	-7039
▁गिदोनले	-7040
▁गुमाउनु	-7041
▁चन्दाको	-7042
▁चम्किलो	-7043
▁चलचित्र	-7044
▁चाहन्छौ	-7045
▁चुनिएका	-7046
▁छाउनीको	-7047
▁छोरोलाई	-7048
▁जनतालाई	-7049
▁जन्मियो	-7050
▁जरिवाना	-7051
▁जापानको	-7052
▁जापानमा	-7053
▁जीवनभरि	-7054
▁जीवनलाई	-7055
▁झुण्डाऊ	-7056
▁टर्मिनल	-7057
▁टेलिफोन	-7058
▁ठाउँबाट	-7059
▁डाउनलोड	-7060
▁ढङ्गबाट	-7061
▁तन्तुपथ	-7062
▁ताराहरू	-7063
▁तालिमको	-7064
▁तालिममा	-7065
▁तिनीहरु	-7066
▁तिमीसँग	-7067
▁तिमीसित	-7068
▁तिमीहरु	-7069
▁तुल्याए	-7070
▁त्यत्ति	-7071
▁त्यसउपर	-7072
▁त्यससमय	-7073
▁त्यस्को	-7074
▁दरबन्दी	-7075
▁दर्ताको	-7076
▁दायराको	-7077
▁दिनसम्म	-7078
▁दिनेछन्	-7079
▁दुरूस्त	-7080
▁देखाउनु	-7081
▁देखाउने	-7082
▁धर्तीमा	-7083
▁नदीपारि	-7084
▁नप्ताली	-7085
▁नबुझ्ने	-7086
▁नभएकोले	-7087
▁नमूनाले	-7088
▁निरन्तर	-7089
▁निशुल्क	-7090
▁निषेधित	-7091
▁नेपालमा	-7092
▁नेपालले	-7093
▁नोकरहरू	-7094
▁नोकर्नी	-7095
▁न्यायको	-7096
▁पक्षलाई	-7097
▁पचहत्तर	-7098
▁पछ्याउन	-7099
▁पट्टिको	-7100
▁पठाइनेछ	-7101
▁पठाउँदा	-7102
▁परिपक्व	-7103
▁परिमिति	-7104
▁परिषदले	-7105
▁परिषद््	-7106
▁पर्नेछः	-7107
▁पलङ्गमा	-7108
▁पहरेदार	-7109
▁पहाडबाट	-7110
▁पहिलाको	-7111
▁पहिलेका	-7112
▁पाँचवटा	-7113
▁पार्नको	-7114
▁पुनगणना	-7115
▁पूर्वमा	-7116
▁पृष्ठको	-7117
▁पोशाकको	-7118
▁प्रकृति	-7119
▁प्रयत्न	-7120
▁प्रसन्न	-7121
▁फाइलसँग	-7122
▁फिरऊनका	-7123
▁फिरऊनले	-7124
▁फुकाउने	-7125
▁फौजदारी	-7126
▁फ्याँकि	-7127
▁फ्रेममा	-7128
▁बढाउँदै	-7129
▁बनाइनेछ	-7130
▁बराबरको	-7131
▁बर्नरको	-7132
▁बाँसुरी	-7133
▁बाटोबाट	-7134
▁बाबेलमा	-7135
▁बालकलाई	-7136
▁बालकहरू	-7137
▁बाहेकका	-7138
▁बिद्रोह	-7139
▁बुझाउनु	-7140
▁बेचबिखन	-7141
▁बैंकहरू	-7142
▁बैड्ढको	-7143
▁भइरहेका	-7144
▁भण्डारण	-7145
▁भन्छिन्	-7146
▁भन्दछन्	-7147
▁भाँडामा	-7148
▁भूँईचाल	-7149
▁भेडाहरू	-7150
▁भौगोलिक	-7151
▁मञ्जुरी	-7152
▁मदिराले	-7153
▁मध्यस्थ	-7154
▁मातहतका	-7155
▁मानपदवी	-7156
▁मानिन्छ	-7157
▁मालिकले	-7158
▁मिलाउने	-7159
▁मिश्रका	-7160
▁मिश्रको	-7161
▁मुनासिव	-7162
▁मुलुकको	-7163
▁म्यानुअ	-7164
▁यहोशूले	-7165
▁यिनीहरू	-7166
▁युद्धको	-7167
▁युवाहरू	-7168
▁योजनाले	-7169
▁रहेकोमा	-7170
▁राखिएका	-7171
▁राखिनेछ	-7172
▁राज्यको	-7173
▁राज्यमा	-7174
▁रामेछाप	-7175
▁रूपियाँ	-7176
▁रोजगारी	-7177
▁लाग्नेछ	-7178
▁वनस्पति	-7179
▁वस्तुको	-7180
▁वायुयान	-7181
▁विचारमा	-7182
▁विजार्ड	-7183
▁विभागले	-7184
▁विरुद्ध	-7185
▁विवरणका	-7186
▁विशिष्ट	-7187
▁विशेषता	-7188
▁वेदीहरू	-7189
▁वैचारिक	-7190
▁शक्तिले	-7191
▁शत्रुको	-7192
▁शब्दकोश	-7193
▁शासकहरू	-7194
▁शिमोनका	-7195
▁श्रीमती	-7196
▁सकिंदैन	-7197
▁सगरमाथा	-7198
▁सजायलाई	-7199
▁सन्चालन	-7200
▁समक्रमण	-7201
▁समर्थित	-7202
▁समावेशी	-7203
▁सम्वन्ध	-7204
▁सर्भरमा	-7205
▁सवारीको	-7206
▁सवारीमा	-7207
▁साझेदार	-7208
▁साथीहरू	-7209
▁सिंहासन	-7210
▁सिफारिश	-7211
▁सिमेन्ट	-7212
▁सिमोनको	-7213
▁सियोनको	-7214
▁सुधारका	-7215
▁सूचीबाट	-7216
▁सेटिङले	-7217
▁सेमिनार	-7218
▁सेवाहरु	-7219
▁सेवाहरू	-7220
▁स्थानका	-7221
▁स्थापित	-7222
▁स्वदेशी	-7223
▁हत्यारा	-7224
▁हाइपरबो	-7225
▁हानूनले	-7226
▁हालसम्म	-7227
▁हिल्सले	-7228
▁हुँदाका	-7229
▁हुनसक्छ	-7230
▁हुनुभयो	-7231
▁हेटौंडा	-7232
▁हेब्रोन	-7233
क्षेत्रमा	-7234
ञ्जेलसम्म	-7235
भाइहरूलाई	-7236
सार्वजनिक	-7237
हरूद्वारा	-7238
▁अघिल्तिर	-7239
▁अण्डरराइ	-7240
▁अदालतलाई	-7241
▁अधिकारका	-7242
▁अधिकारको	-7243
▁अनगिन्ती	-7244
▁अनिवार्य	-7245
▁अनुरोधमा	-7246
▁अबियाहका	-7247
▁अबीमेलेक	-7248
▁अब्रामले	-7249
▁अर्कालाई	-7250
▁अलगोरिदम	-7251
▁आइमाईलाई	-7252
▁आइमाईहरू	-7253
▁आउनुहोस्	-7254
▁आमन्त्रण	-7255
▁इसहाकलाई	-7256
▁ईश्बोशेत	-7257
▁उत्तरबाट	-7258
▁उत्तीर्ण	-7259
▁उत्पत्ति	-7260
▁उनीहरुले	-7261
▁उनीहरूमा	-7262
▁उपकुलपति	-7263
▁उब्जाउँछ	-7264
▁उभिरहेका	-7265
▁एप्रैमको	-7266
▁ऐनबमोजिम	-7267
▁कचौराहरू	-7268
▁कन्ट्रोल	-7269
▁कम्प्युट	-7270
▁करारनामा	-7271
▁कर्पोरेश	-7272
▁कागजातमा	-7273
▁कार्यलाई	-7274
▁कार्यहरु	-7275
▁किल्लामा	-7276
▁किसिमबाट	-7277
▁कुञ्जीले	-7278
▁कुटनैतिक	-7279
▁केनन्याह	-7280
▁खेलकुदमा	-7281
▁गरिनेछन्	-7282
▁गर्दैछन्	-7283
▁ग्राफिकल	-7284
▁घण्टीहरू	-7285
▁चाहन्छन्	-7286
▁चाहन्छौं	-7287
▁छोराहरूः	-7288
▁जग्गाधनी	-7289
▁जग्गाहरू	-7290
▁जलविद्यु	-7291
▁जसद्वारा	-7292
▁जागरुकता	-7293
▁जिल्लामा	-7294
▁ट्याबहरु	-7295
▁ठेगानामा	-7296
▁तालिकामा	-7297
▁तुल्यायो	-7298
▁दाऊदकहाँ	-7299
▁दामासाही	-7300
▁दारीमहरू	-7301
▁दिइरहेको	-7302
▁दिनुपर्छ	-7303
▁दुर्घटना	-7304
▁देखिन्थे	-7305
▁देख्नसक्	-7306
▁नदेखिएमा	-7307
▁नागरिकता	-7308
▁नागरिकले	-7309
▁निकायबाट	-7310
▁निकायसँग	-7311
▁नियन्त्र	-7312
▁निलम्बित	-7313
▁निहुरियो	-7314
▁पछिल्तिर	-7315
▁पठाइयोस्	-7316
▁पदार्थमा	-7317
▁परमाणुको	-7318
▁परिभाषित	-7319
▁परिवारका	-7320
▁पर्यटकीय	-7321
▁पर्वतलाई	-7322
▁पसारिएका	-7323
▁पाउँदैनौ	-7324
▁पाउँनेछौ	-7325
▁पारदर्शी	-7326
▁पिछडिएको	-7327
▁पुत्रलाई	-7328
▁पुरुषहरू	-7329
▁पुर्याउन	-7330
▁पृथ्वीका	-7331
▁पृथ्वीको	-7332
▁पृथ्वीमा	-7333
▁पोषाकहरू	-7334
▁प्रभुलाई	-7335
▁प्रशोधित	-7336
▁प्राप्ति	-7337
▁फर्काउँछ	-7338
▁फाँटवारी	-7339
▁फिल्महरू	-7340
▁फोल्डरको	-7341
▁बनाइदिनु	-7342
▁बलिरहेको	-7343
▁बहुसंख्य	-7344
▁बृद्धिको	-7345
▁बृद्धिदर	-7346
▁बेवास्ता	-7347
▁बैड्ढसंग	-7348
▁बोर्डलाई	-7349
▁भत्काउनु	-7350
▁भन्नेछन्	-7351
▁भविष्यको	-7352
▁भेक्टरको	-7353
▁भ्वाइसेज	-7354
▁मनश्शेका	-7355
▁महाशक्ति	-7356
▁मानिससँग	-7357
▁मिश्रणको	-7358
▁मुख्यतया	-7359
▁मुद्दामा	-7360
▁मूर्तिको	-7361
▁मूल्यवान	-7362
▁मेटाइलाई	-7363
▁मोटामोटी	-7364
▁म्याट्रि	-7365
▁यत्रतत्र	-7366
▁यथासम्भव	-7367
▁यसअनुसार	-7368
▁यसप्रकार	-7369
▁यहाँसम्म	-7370
▁येशूकहाँ	-7371
▁योजनालाई	-7372
▁राज्यपाल	-7373
▁लडिरहेको	-7374
▁लबानोनको	-7375
▁लाइब्रेर	-7376
▁लामटाङ्ग	-7377
▁लुगाफाटा	-7378
▁वस्तुलाई	-7379
▁वाक्यांश	-7380
▁विकासलाई	-7381
▁विज्ञापन	-7382
▁विवरणहरू	-7383
▁विश्वासी	-7384
▁विष्फोटक	-7385
▁वीरहरूले	-7386
▁व्यभिचार	-7387
▁श्रेणीको	-7388
▁संक्रामक	-7389
▁संरचनाको	-7390
▁संशोधनको	-7391
▁संसदसेवा	-7392
▁सञ्चारको	-7393
▁सञ्जालमा	-7394
▁सदस्यलाई	-7395
▁सदस्यहरू	-7396
▁सन्तानको	-7397
▁समाव्हान	-7398
▁सरकारबाट	-7399
▁सरकारसँग	-7400
▁सहायताको	-7401
▁सामुन्ने	-7402
▁सिलबन्दी	-7403
▁स्थितिको	-7404
▁स्रोतबाट	-7405
▁स्वदेशमा	-7406
▁स्वयंलाई	-7407
▁स्वशासित	-7408
▁हातहरूले	-7409
▁हावापानी	-7410
▁हुँदैनन्	-7411
▁हुनसक्ने	-7412
▁होशियारी	-7413
..........	-7414
▁अंकुसेहरू	-7415
▁अनुसूचीको	-7416
▁अभिलेखबाट	-7417
▁आपत्तिजनक	-7418
▁इस्राएलमा	-7419
▁उपत्यकाको	-7420
▁उपत्यकामा	-7421
▁कामदारलाई	-7422
▁कारबाहीको	-7423
▁कारोबारको	-7424
▁कुञ्जीहरू	-7425
▁कुराहरुको	-7426
▁कुराहरूको	-7427
▁कुराहरूमा	-7428
▁क्षेत्रका	-7429
▁ख्रीष्टमा	-7430
▁गरेअनुसार	-7431
▁गर्नुभएको	-7432
▁गर्नेतर्फ	-7433
▁गुप्तीकरण	-7434
▁गोठालाहरू	-7435
▁छिमेकीलाई	-7436
▁जनसङ्ख्या	-7437
▁जान्दैनन्	-7438
▁ज्यामितिय	-7439
▁ज्येष्ठता	-7440
▁टेलिग्राफ	-7441
▁ठेकेदारको	-7442
▁ठेकेदारले	-7443
▁ड्रिफ्टिङ	-7444
▁ढाँचाबद्ध	-7445
▁ढुङ्गाहरू	-7446
▁तिनीहरूकै	-7447
▁तिनीहरूमा	-7448
▁तिमीहरुले	-7449
▁तोकिदिएको	-7450
▁दरखास्तमा	-7451
▁दरभाउपत्र	-7452
▁दिनसम्मको	-7453
▁दृष्टिबाट	-7454
▁देखापर्यो	-7455
▁देख्नेछैन	-7456
▁देशहरूबाट	-7457
▁दैलाहरूका	-7458
▁नजरबन्दमा	-7459
▁नदिनुहोस्	-7460
▁नागरिकलाई	-7461
▁निर्माणको	-7462
▁निर्वाचित	-7463
▁निस्क्रिय	-7464
▁पत्रहरुमा	-7465
▁पर्खालहरू	-7466
▁पाठ्यक्रम	-7467
▁पुर्याएको	-7468
▁पुस्तकबाट	-7469
▁प्रतिसेयर	-7470
▁प्रत्यक्ष	-7471
▁प्रभावकार	-7472
▁प्रयासहरू	-7473
▁प्रयोगलाई	-7474
▁प्रविधिको	-7475
▁प्रवृत्ति	-7476
▁प्रशासनिक	-7477
▁प्रस्तावक	-7478
▁फाइलहरूको	-7479
▁बप्तिस्मा	-7480
▁बलिदानहरू	-7481
▁बाँच्दछन्	-7482
▁बिन्दुबाट	-7483
▁भजनसंग्रह	-7484
▁भन्नुभएको	-7485
▁मन्त्रीले	-7486
▁यरूशलेममा	-7487
▁यर्मियाले	-7488
▁यातायातको	-7489
▁यूहन्नाको	-7490
▁योग्यताको	-7491
▁रुपान्तरण	-7492
▁वर्षअगाडि	-7493
▁वर्षभन्दा	-7494
▁वर्षहरुमा	-7495
▁विकासतर्फ	-7496
▁विद्युतीय	-7497
▁विनियमहरू	-7498
▁विरूद्धमा	-7499
▁विश्वसनीय	-7500
▁वीरेन्द्र	-7501
▁व्यवस्थित	-7502
▁व्यवहारको	-7503
▁व्यापारको	-7504
▁शहरहरूलाई	-7505
▁शिक्षाहरू	-7506
▁संस्थानका	-7507
▁संस्थालाई	-7508
▁संस्थासँग	-7509
▁सङ्क्रमित	-7510
▁सङ्ग्रहमा	-7511
▁सञ्चालनको	-7512
▁सञ्चालनमा	-7513
▁सन्दूकलाई	-7514
▁सम्झौताको	-7515
▁सम्झौतामा	-7516
▁साधनहरुको	-7517
▁साहूहरूको	-7518
▁सुनियोजित	-7519
▁सेनाहरूका	-7520
▁सेनाहरूले	-7521
▁स्त्रीहरू	-7522
▁हस्तक्षेप	-7523
▁हुनुपर्ने	-7524
▁हुनुभन्दा	-7525
▁होमबलिहरू	-7526
▁LexUriServ	-7527
▁अगुवाहरूका	-7528
▁अधिकारीलाई	-7529
▁अनतिक्रम्य	-7530
▁अप्रत्यक्ष	-7531
▁अम्मीहूदको	-7532
▁अरूहरूसितै	-7533
▁आइरहेकाछन्	-7534
▁उद्देश्यले	-7535
▁काउन्सिलले	-7536
▁कार्यकर्ता	-7537
▁कार्यालयको	-7538
▁क्षयरोगबाट	-7539
▁क्षेत्रबाट	-7540
▁क्षेत्रलाई	-7541
▁क्षेत्रहरू	-7542
▁गर्नेजस्ता	-7543
▁चक्लाबन्दी	-7544
▁चलाउनुहोस्	-7545
▁चिच्याउँदै	-7546
▁जनसंख्याको	-7547
▁डाइरेक्टरी	-7548
▁डेमक्र्याट	-7549
▁तान्नुहोस्	-7550
▁तिनीहरुसित	-7551
▁तिमीहरुलाई	-7552
▁तिमीहरूबाट	-7553
▁तोकेबमोजिम	-7554
▁थाइल्यान्ड	-7555
▁दामासाहीमा	-7556
▁दायित्वबाट	-7557
▁दृश्यात्मक	-7558
▁देवताहरूका	-7559
▁नाबालिगलाई	-7560
▁निमन्त्रणा	-7561
▁नियमावलीको	-7562
▁नियमावलीमा	-7563
▁निर्देशिका	-7564
▁नोक्सानीको	-7565
▁परमप्रभुका	-7566
▁परियोजनाका	-7567
▁पर्वतारोही	-7568
▁पारदर्शिता	-7569
▁पारिश्रमिक	-7570
▁पुनरावृतिक	-7571
▁प्रणालीबाट	-7572
▁प्रत्येकले	-7573
▁प्रदर्शनका	-7574
▁प्रविधिहरु	-7575
▁प्रारम्भिक	-7576
▁फ्याँक्‍ने	-7577
▁बुर्जासम्म	-7578
▁महिलाहरुको	-7579
▁मानिसहरूमा	-7580
▁मार्गदर्शन	-7581
▁मूल्याड्ढन	-7582
▁मेट्नुहोस्	-7583
▁यहोशापातका	-7584
▁राख्नुहोस्	-7585
▁राजमार्गको	-7586
▁राष्ट्रपति	-7587
▁विद्यालयको	-7588
▁वृत्तचित्र	-7589
▁व्यक्तिबाट	-7590
▁व्यक्तिसँग	-7591
▁व्यक्तिहरू	-7592
▁व्यवसायीको	-7593
▁व्यवसायीले	-7594
▁व्यवस्थापक	-7595
▁व्यवस्थामा	-7596
▁शत्रुहरूले	-7597
▁शेयरवालाको	-7598
▁श्रेस्तामा	-7599
▁सञ्झ्यालमा	-7600
▁सम्झनुपर्छ	-7601
▁सेनाध्यक्ष	-7602
▁सेनाहरूलाई	-7603
▁सोच्नुहोस्	-7604
▁स्थानहरुमा	-7605
▁स्वेच्छाले	-7606
▁हस्तान्तरण	-7607
............	-7608
▁अगमवक्तालाई	-7609
▁अगुवाहरूलाई	-7610
▁अनुक्रमणिका	-7611
▁अनुसन्धानशा	-7612
▁अन्तर्देशीय	-7613
▁अब्राहामलाई	-7614
▁अर्धवार्षिक	-7615
▁आयोजनाहरुमा	-7616
▁इजाजतपत्रको	-7617
▁उद्देश्यहरु	-7618
▁कर्मचारीहरू	-7619
▁कार्यक्रमका	-7620
▁कार्यक्रमले	-7621
▁किताबखानामा	-7622
▁क्षेत्रतर्फ	-7623
▁गर्नुपर्नेछ	-7624
▁जग्गावालाले	-7625
▁जाँच्नुहोस्	-7626
▁जादूगरहरूले	-7627
▁देवताहरूलाई	-7628
▁देहायबमोजिम	-7629
▁नबूकदनेस्सर	-7630
▁नियमितरूपमा	-7631
▁निस्कनुहोस्	-7632
▁न्यायाधीशले	-7633
▁पदाधिकारीको	-7634
▁पदाधिकारीले	-7635
▁परमप्रभुअघि	-7636
▁परमप्रभुसित	-7637
▁पश्चिमाञ्चल	-7638
▁पुनरावृत्ति	-7639
▁पुर्खाहरूले	-7640
▁प्रतिक्रिया	-7641
▁प्रभावहरूको	-7642
▁प्राप्ताङ्क	-7643
▁बासिन्दाहरू	-7644
▁भक्तजनहरूले	-7645
▁मन्त्रालयको	-7646
▁महानिर्देशक	-7647
▁मिश्रदेशबाट	-7648
▁योजनाहरुलाई	-7649
▁रीतपूर्वकको	-7650
▁लेखापरीक्षक	-7651
▁वार्तालापमा	-7652
▁विकेन्द्रीत	-7653
▁विदेशीहरूले	-7654
▁विमानस्थलमा	-7655
▁शत्रुहरूबाट	-7656
▁शिक्षकहरुको	-7657
▁शिक्षाहरूले	-7658
▁शीर्षकपट्टी	-7659
▁सक्नुहुन्न्	-7660
▁सञ्झ्याललाई	-7661
▁सम्पत्तिबाट	-7662
▁सिपाहीहरूले	-7663
▁सीमानाहरूको	-7664
▁सैनिकहरूलाई	-7665
▁अर्थतन्त्रमा	-7666
▁आपूर्तिकर्ता	-7667
▁क्षेत्रहरुको	-7668
▁छुट्टाछुट्टै	-7669
▁जिल्लास्तरका	-7670
▁ठेगानावालाले	-7671
▁न्यायाधीशलाई	-7672
▁पहरेदारहरूले	-7673
▁पुनर्निर्माण	-7674
▁पूजाहारीकहाँ	-7675
▁प्रतिनिधित्व	-7676
▁प्रतिवेदनलाई	-7677
▁प्रस्तावमाथि	-7678
▁मन्त्रालयलाई	-7679
▁माध्यमर्‍ारा	-7680
▁मूर्तिहरूसित	-7681
▁रजिष्ट्रारको	-7682
▁रजिष्ट्रारले	-7683
▁रद्दीटोकरीमा	-7684
▁राष्ट्रहरूले	-7685
▁व्यक्तिहरुको	-7686
▁व्यक्तिहरूले	-7687
▁व्यवस्थापकीय	-7688
▁शिक्षाध्यक्ष	-7689
▁संस्थानहरुको	-7690
▁अगमवक्ताहरूले	-7691
▁इस्राएलीहरूले	-7692
▁दक्षिणपट्टिको	-7693
▁प्रधानमन्त्री	-7694
▁बोलपत्रदाताले	-7695
▁मूल्यसम्बन्धी	-7696
▁विद्यालयहरुको	-7697
▁आयोजनाअन्तर्गत	-7698
▁आवश्यकताअनुसार	-7699
▁इस्राएलीहरूलाई	-7700
▁पूजाहारीहरूलाई	-7701
▁विनिमयसम्बन्धी	-7702
▁विकेन्द्रीकरणको	-7703
▁विश्वविद्यालयमा	-7704
1-3	-7705
130	-7706
CEL	-7707
Fam	-7708
TEL	-7709
ecr	-7710
ect	-7711
eve	-7712
gtk	-7713
ilu	-7714
ily	-7715
ock	-7716
otS	-7717
une	-7718
ypt	-7719
ःभब	-7720
उपल	-7721
कपट	-7722
तनः	-7723
लकण	-7724
लवु	-7725
सय्	-7726
सूस	-7727
ुमस	-7728
ेेे	-7729
०८३	-7730
६२५	-7731
▁5.	-7732
▁FI	-7733
▁UR	-7734
▁gi	-7735
▁ma	-7736
▁mm	-7737
:1-3	-7738
CELE	-7739
Deve	-7740
Sock	-7741
UTEL	-7742
able	-7743
bkey	-7744
fect	-7745
hite	-7746
ians	-7747
item	-7748
lace	-7749
mont	-7750
nick	-7751
otSy	-7752
pace	-7753
tive	-7754
tune	-7755
urre	-7756
user	-7757
yyyy	-7758
ँईको	-7759
ंखला	-7760
ःभबक	-7761
अठार	-7762
आइनु	-7763
ईसौं	-7764
कुशल	-7765
खोली	-7766
घाटो	-7767
ङ्‍क	-7768
चरना	-7769
चरिङ	-7770
जिरग	-7771
झापा	-7772
टुका	-7773
ठ्यू	-7774
डिआई	-7775
णुता	-7776
थुन्	-7777
दुमस	-7778
पीएन	-7779
फ्ता	-7780
भौमस	-7781
मरेट	-7782
महाप	-7783
म्रन	-7784
लकण्	-7785
लवुड	-7786
लिएँ	-7787
वर्ध	-7788
ष्‍ठ	-7789
सेकम	-7790
हदेव	-7791
हिलै	-7792
िँदै	-7793
ुतले	-7794
ोजाव	-7795
्वीट	-7796
०८३स	-7797
२०१६	-7798
▁-10	-7799
▁550	-7800
▁BAR	-7801
▁FIG	-7802
▁Inc	-7803
▁XML	-7804
▁ctr	-7805
▁अचल	-7806
▁उजू	-7807
▁एघा	-7808
▁कूत	-7809
▁घिच	-7810
▁ठोस	-7811
▁तोड	-7812
▁नउठ	-7813
▁पंख	-7814
▁भीड	-7815
▁लौह	-7816
▁शूअ	-7817
▁०३१	-7818
▁३९ध	-7819
▁५३७	-7820
Curre	-7821
Devel	-7822
LUTEL	-7823
Shift	-7824
abled	-7825
ffect	-7826
iansa	-7827
month	-7828
pacep	-7829
ubkey	-7830
ःभबकग	-7831
अङ्गु	-7832
आवद्ध	-7833
ऊँलाई	-7834
एजरले	-7835
कचरिङ	-7836
खझभलत	-7837
गदीको	-7838
ग्लोन	-7839
ङ्खला	-7840
चाँडो	-7841
चाँमा	-7842
ज्रेल	-7843
टिँदै	-7844
त्तीर	-7845
नगरमा	-7846
नदीको	-7847
पाकोट	-7848
पिईजि	-7849
प्पूक	-7850
प्राय	-7851
प्रोन	-7852
फ्रेज	-7853
फ्र्य	-7854
बहिनी	-7855
भर्नि	-7856
भौतिक	-7857
मध्यप	-7858
रकाटे	-7859
रबादी	-7860
रायणी	-7861
लकण्ठ	-7862
लमल्ल	-7863
लिएरे	-7864
लिङ्ट	-7865
लिपबो	-7866
लैसँग	-7867
वीनतम	-7868
सतरमा	-7869
सर्भर	-7870
सूलाई	-7871
हकिलो	-7872
हाकिम	-7873
हातले	-7874
हूंको	-7875
हेमको	-7876
ाँंको	-7877
िमियम	-7878
ृकुटी	-7879
ेदवाट	-7880
ेरामा	-7881
ेसबुक	-7882
्याटल	-7883
▁-10-	-7884
▁RIFF	-7885
▁TIFF	-7886
▁ctrl	-7887
▁find	-7888
▁gimp	-7889
▁take	-7890
▁अड््	-7891
▁अशिष	-7892
▁आचरण	-7893
▁आफंै	-7894
▁आरोप	-7895
▁इनार	-7896
▁उँभो	-7897
▁उडाई	-7898
▁एकदम	-7899
und	-7900
undo	-7901
पीआई	-7902
वशेष	-7903
▁डीन	-7904
▁नोड	-7905
▁येऊ	-7906
ँदैछु	-7907
्रावण	-7908
▁them	-7909
▁आरजी	-7910
▁एकसय	-7911
▁एलूल	-7912
▁कीला	-7913
▁कुशल	-7914
▁खतना	-7915
▁खतरा	-7916
▁खालि	-7917
▁खिंच	-7918
▁घाँस	-7919
▁चक्र	-7920
▁चतुर	-7921
▁जनसङ	-7922
▁जेरह	-7923
▁झन्झ	-7924
▁झाडा	-7925
▁टाटी	-7926
▁टिबी	-7927
▁ठाउं	-7928
▁डीभी	-7929
▁ड्रप	-7930
▁ढिला	-7931
▁तरकस	-7932
▁तराज	-7933
▁तोबि	-7934
▁धुलो	-7935
▁धूपौ	-7936
▁नहौं	-7937
▁नुवा	-7938
▁पंखे	-7939
▁पाखु	-7940
▁पिटे	-7941
▁पेपर	-7942
▁पौधा	-7943
▁पौरि	-7944
▁फिंज	-7945
▁बाइम	-7946
▁बाछो	-7947
▁बूढो	-7948
▁भराउ	-7949
▁मनीच	-7950
▁मुटु	-7951
▁येऊश	-7952
▁येरह	-7953
▁रत्न	-7954
▁लौरो	-7955
▁वतनः	-7956
▁वेशी	-7957
▁शंका	-7958
▁शूबा	-7959
▁सरीक	-7960
▁सहुँ	-7961
▁सोध्	-7962
▁हतिय	-7963
▁हनोक	-7964
▁हमला	-7965
▁हवाइ	-7966
▁हेटौ	-7967
▁हेलच	-7968
▁ेाटा	-7969
▁१२४७	-7970
▁१९६२	-7971
▁१९८७	-7972
▁१९८८	-7973
▁१९९०	-7974
▁२००९	-7975
▁२५औं	-7976
▁५३७स	-7977
Family	-7978
OLUTEL	-7979
active	-7980
ecrypt	-7981
packet	-7982
pubkey	-7983
racket	-7984
ःभबकगच	-7985
ःशुल्क	-7986
अय्यूब	-7987
आफैलाई	-7988
इञ्जेल	-7989
इरहेछु	-7990
कन्याह	-7991
खझभलत०	-7992
खुरीमा	-7993
गोठाला	-7994
ङ्ग्लो	-7995
चलाउनु	-7996
जाउँथे	-7997
जुषामा	-7998
जेन्डर	-7999
▁10	-8000
▁11	-8001
▁DB	-8002
▁Do	-8003
▁RD	-8004
▁pi	-8005
RANT	-8006
भर्स	-8007
यर्स	-8008
▁108	-8009
▁118	-8010
▁RDN	-8011
▁pix	-8012
ग्लिस	-8013
जलेटर	-8014
जिरगन	-8015
डिङको	-8016
तोकिए	-8017
न्जेल	-8018
मूल्य	-8019
वीघाट	-8020
शासँग	-8021
सिनरी	-8022
ित्ता	-8023
्दैछु	-8024
▁118:	-8025
▁pixb	-8026
▁अहम्	-8027
▁इलिस	-8028
▁भित्	-8029
ARRANT	-8030
Socket	-8031
ज्ञापन	-8032
टवर्कि	-8033
टवर्ती	-8034
दक्षता	-8035
दलिँदा	-8036
दाऊदले	-8037
दिदुमस	-8038
दिवासी	-8039
धनमाथि	-8040
ध्युति	-8041
नावशेष	-8042
नियनले	-8043
नीहोस्	-8044
नेसरले	-8045
न्डरिङ	-8046
न्डाजो	-8047
न्तिमा	-8048
भेदवाट	-8049
मलालाप	-8050
माञ्चल	-8051
मालपोत	-8052
मूर्ती	-8053
म्दानी	-8054
यापनको	-8055
राखेको	-8056
रियाली	-8057
र्टर्ड	-8058
लागनेछ	-8059
लिसिया	-8060
लेन्डर	-8061
लेसिया	-8062
लोनिका	-8063
ल्यतले	-8064
वाइलाई	-8065
वाणीको	-8066
वानपुर	-8067
विनिमे	-8068
शासँगै	-8069
शियाली	-8070
ष्णुता	-8071
सन्तको	-8072
स्प्रे	-8073
स्फोटक	-8074
स्यौदा	-8075
हदेवको	-8076
हप्पूक	-8077
होरिने	-8078
ाँन्की	-8079
ालगाउँ	-8080
िसेम्ब	-8081
ूहदाका	-8082
ोकाकुल	-8083
ोकिँदै	-8084
ोजिष्ट	-8085
ोन्मुख	-8086
ोलनबाट	-8087
्योजाव	-8088
्रीप्ट	-8089
्रेजरी	-8090
्रोफोन	-8091
्ल्यास	-8092
▁118:2	-8093
▁Place	-8094
▁europ	-8095
▁gimpr	-8096
▁pixbu	-8097
▁shift	-8098
▁table	-8099
005	-8100
ang	-8101
gno	-8102
ord	-8103
ror	-8104
sor	-8105
उचय	-8106
गुए	-8107
गुण	-8108
ढुं	-8109
१७८	-8110
▁1,	-8111
▁or	-8112
gnom	-8113
sort	-8114
औषधी	-8115
काठी	-8116
ढुकी	-8117
बुस्	-8118
▁off	-8119
▁उतै	-8120
▁नटल	-8121
error	-8122
gnome	-8123
कृपया	-8124
गुएरा	-8125
गुरेर	-8126
चयिता	-8127
द्गुण	-8128
बुस्ब	-8129
▁1,00	-8130
▁lang	-8131
▁offi	-8132
▁जेएब	-8133
▁जेठी	-8134
▁साठी	-8135
▁सायद	-8136
▁1,000	-8137
▁error	-8138
▁offic	-8139
▁ंस्था	-8140
▁अक्सा	-8141
▁अघाडि	-8142
▁अघिकै	-8143
▁अचम्भ	-8144
▁अनौठो	-8145
▁अपूरा	-8146
▁अबीएज	-8147
▁अरामी	-8148
▁अवशेष	-8149
▁अहिलै	-8150
▁अह्रा	-8151
▁आरोहण	-8152
▁आलुको	-8153
▁ईलाका	-8154
▁एकदमै	-8155
▁एकसाथ	-8156
▁एड्रि	-8157
▁ओढेको	-8158
▁ओढ्ने	-8159
▁कच्ची	-8160
▁कटौति	-8161
▁कट्टा	-8162
▁कट्ने	-8163
▁कथामा	-8164
▁कथाले	-8165
▁कराउँ	-8166
▁काटून	-8167
▁काटेर	-8168
▁कार्ट	-8169
▁क्रूस	-8170
▁क्लेज	-8171
▁खालका	-8172
▁खेल्न	-8173
▁गतेदे	-8174
▁गरुन्	-8175
▁गह्रु	-8176
▁गाइने	-8177
▁गाइयो	-8178
▁गाउय्	-8179
▁गादका	-8180
▁गीतको	-8181
▁घोप्ट	-8182
▁चम्कन	-8183
▁चिताई	-8184
▁चुरोट	-8185
▁चेताउ	-8186
▁चौबीस	-8187
▁छलकपट	-8188
▁जाँगर	-8189
▁जातीय	-8190
▁झन्झट	-8191
▁झन्डा	-8192
▁टिल्ट	-8193
▁टिष्ट	-8194
▁ट्वीट	-8195
▁ड्रअर	-8196
▁ढुकुट	-8197
▁ढुक्क	-8198
▁तँलाई	-8199
ःभच	-8200
ःभचष	-8201
▁नेतृ	-8202
▁पाएन	-8203
▁माइम	-8204
▁वेबस	-8205
▁२०३१	-8206
▁२०३५	-8207
ःभचष्त	-8208
चलाउने	-8209
दोरहेछ	-8210
▁तपाँई	-8211
▁त्याग	-8212
▁थोकमा	-8213
▁थ्रेड	-8214
▁दर्शक	-8215
▁दशलाख	-8216
▁दाँया	-8217
▁दुर्द	-8218
▁देइन्	-8219
▁देखेँ	-8220
▁नपन्छ	-8221
▁नर्सि	-8222
▁नलगाई	-8223
▁नलागे	-8224
▁नाहोर	-8225
▁निभ्न	-8226
▁निहित	-8227
▁न्युज	-8228
▁पच्ची	-8229
▁पठायो	-8230
▁परिगण	-8231
▁परिपू	-8232
▁पसलको	-8233
▁पुरस्	-8234
▁पोशाक	-8235
▁फलकका	-8236
▁फिंजा	-8237
▁फ्लिप	-8238
▁बदल्न	-8239
▁बनाँउ	-8240
▁बस्यौ	-8241
▁बहूद्	-8242
▁बाँध्	-8243
▁बेतले	-8244
▁बेलको	-8245
▁बोक्न	-8246
▁ब्याक	-8247
▁ब्याब	-8248
▁ब्रूक	-8249
▁भोकले	-8250
▁भोजमा	-8251
▁मञ्जू	-8252
▁महापु	-8253
▁माइली	-8254
▁माउथ्	-8255
▁माकीर	-8256
▁मिलेन	-8257
▁मिहिन	-8258
▁मृगले	-8259
▁यशूले	-8260
▁यससय्	-8261
▁युनेप	-8262
▁योताम	-8263
▁रिसेट	-8264
▁रेकेम	-8265
▁रेलिङ	-8266
▁लगाएँ	-8267
▁लेबुल	-8268
▁वर्णा	-8269
▁विनाश	-8270
▁विराट	-8271
▁वेष्‍	-8272
▁शनिको	-8273
▁शून्य	-8274
▁शेमेर	-8275
▁शेलेम	-8276
▁शोबाब	-8277
▁श्रवण	-8278
▁संसूच	-8279
▁सकिंन	-8280
▁सन्तो	-8281
▁सर्कस	-8282
▁सालको	-8283
▁सुनार	-8284
▁सुशास	-8285
▁स्टोन	-8286
▁स्माइ	-8287
▁स्लाभ	-8288
▁हन्मे	-8289
▁हफ्ता	-8290
▁हराएँ	-8291
▁हलवुड	-8292
▁हसेरो	-8293
▁हिंडन	-8294
▁हिज्ज	-8295
▁हेतलो	-8296
▁हेर्छ	-8297
▁हेलेक	-8298
▁होलान	-8299
ालोउ	-8300
▁Net	-8301
▁१८क	-8302
▁१८८	-8303
▁३५२	-8304
इरहनु	-8305
उत्तर	-8306
कर्षक	-8307
गन्ती	-8308
ड्युट	-8309
तयारी	-8310
मानिस	-8311
ह्यास	-8312
ेनिया	-8313
्राफी	-8314
▁अंगभ	-8315
▁अभिक	-8316
▁अलग्	-8317
▁अल्छ	-8318
▁अल्म	-8319
▁औंसी	-8320
▁जुत्	-8321
▁जुम्	-8322
▁तर्क	-8323
▁धौला	-8324
▁पशुप	-8325
▁मनाउ	-8326
▁१८८८	-8327
आकर्षक	-8328
कुस्ती	-8329
ग्राले	-8330
ग्राही	-8331
जुताका	-8332
त्नबाट	-8333
नेलहरू	-8334
म्बाको	-8335
म्बामा	-8336
रोत्तर	-8337
लिरहनु	-8338
सनलहरू	-8339
स्कोको	-8340
▁NetFa	-8341
▁अंन्ध	-8342
▁अलग्ग	-8343
▁अल्छी	-8344
▁गधामा	-8345
▁गिबोन	-8346
▁तायरी	-8347
▁रोक्न	-8348
▁सित्त	-8349
▁ार्फत	-8350
▁२०५३८	-8351
Develop	-8352
SOLUTEL	-8353
rackets	-8354
xpacket	-8355
अनुसूची	-8356
इस्राएल	-8357
उखुरीमा	-8358
एकभन्दा	-8359
कनेसरले	-8360
काइरहनु	-8361
काउन्टे	-8362
किर्नेछ	-8363
क्रीप्ट	-8364
क्षालयह	-8365
ख्राहरू	-8366
गरजस्ता	-8367
ङ्‍ककमा	-8368
जारीहरू	-8369
जोरपाटी	-8370
ठ्यूँमा	-8371
ड्नेछौं	-8372
ताबाहेक	-8373
त्कारमा	-8374
त्कालीन	-8375
त्यसैले	-8376
त्साहित	-8377
दाताकोे	-8378
द्धतिको	-8379
द्युतले	-8380
धार्नेछ	-8381
नीलकण्ठ	-8382
न्कीहरू	-8383
न्गुएरा	-8384
न्डाजोल	-8385
न्डिङको	-8386
पूर्वको	-8387
बाँन्की	-8388
भ्यानमा	-8389
मप्रकार	-8390
म्बाहरू	-8391
म्युच्य	-8392
लढुङ्गा	-8393
लाग्नेछ	-8394
ल्यासाप	-8395
वटपछिको	-8396
वद्र्धन	-8397
वनीहोस्	-8398
वस्थामा	-8399
fop	-8400
तबे	-8401
दशन	-8402
२८ख	-8403
४९क	-8404
शनरी	-8405
शूबी	-8406
शैया	-8407
सतार	-8408
▁bet	-8409
▁६२८	-8410
केमले	-8411
गोनोम	-8412
जगन्ज	-8413
तबेरा	-8414
मास्व	-8415
र्दशन	-8416
सीदमा	-8417
▁गाइड	-8418
▁जतात	-8419
▁पागल	-8420
▁भाजक	-8421
▁मसला	-8422
▁१०४९	-8423
क्शनरी	-8424
शैयाले	-8425
▁मिचाई	-8426
▁राहाब	-8427
▁१०४९९	-8428
गोनोमेट	-8429
ष्टान्त	-8430
सकहरूको	-8431
सर्गबाट	-8432
सलोनिका	-8433
ाराजाधि	-8434
ाराजाले	-8435
ित्तीको	-8436
िमिडिया	-8437
ेनियामा	-8438
ेम्बरमा	-8439
ौन्दर्य	-8440
्जाउँथे	-8441
्नेबेला	-8442
्युटरका	-8443
्युरिटी	-8444
्रान्ति	-8445
्रेन्डा	-8446
▁118:22	-8447
▁europa	-8448
▁gimprc	-8449
▁spacep	-8450
▁ंस्थान	-8451
▁अंगभंग	-8452
▁अड्ढित	-8453
▁अद्भूत	-8454
▁अभावमा	-8455
▁अभ्यास	-8456
▁अर्काे	-8457
▁अलमल्ल	-8458
▁अल्पवि	-8459
▁अवलोकन	-8460
▁असन्तु	-8461
▁असम्भव	-8462
▁आगतबाट	-8463
▁आयातित	-8464
▁आवाजले	-8465
▁आहाबका	-8466
▁आहारको	-8467
▁इङ्कित	-8468
▁इन्टरफ	-8469
▁उज्याल	-8470
▁उठ्दैन	-8471
▁उदासीन	-8472
▁उन्मुख	-8473
▁एकाईले	-8474
▁एकान्त	-8475
▁एक्रोन	-8476
▁एग्लोन	-8477
▁एड्रिन	-8478
▁एदोमका	-8479
▁एश्तमो	-8480
▁एसडिआई	-8481
▁एहूदले	-8482
▁ओरेबको	-8483
▁कनानको	-8484
▁कन्क्व	-8485
▁कफ्र्य	-8486
▁कमसेकम	-8487
▁कानाका	-8488
▁किलाका	-8489
▁कूवामा	-8490
▁केटोले	-8491
▁खेतीको	-8492
▁खोज्दा	-8493
▁गाडीको	-8494
▁गीतहरू	-8495
▁गुप्ती	-8496
▁गुमायो	-8497
▁ग्यारे	-8498
▁ग्रहणः	-8499
CELEX	-8500
ग्रहण	-8501
▁उठाई	-8502
▁टाइक	-8503
▁टाइप	-8504
▁टाइम	-8505
▁पक्ड	-8506
▁महीर	-8507
▁रोगी	-8508
▁वापस	-8509
▁२०२०	-8510
▁२०२६	-8511
▁उदाहर	-8512
▁कुटेर	-8513
▁कुट्न	-8514
▁घोषित	-8515
▁छिमेक	-8516
▁दूरसं	-8517
▁नलागी	-8518
▁पक्कै	-8519
▁पक्डे	-8520
▁प्लगइ	-8521
▁सङ्गग	-8522
▁हाँस्	-8523
कुञ्जेल	-8524
स्सालाई	-8525
▁अयोग्य	-8526
▁खोलाको	-8527
▁घिच्रो	-8528
▁चतुर्थ	-8529
▁चहकिलो	-8530
▁चिजहरू	-8531
▁चोर्यो	-8532
▁चौडाको	-8533
▁छाडिएन	-8534
▁छापामा	-8535
▁छालाको	-8536
▁जडिएको	-8537
▁जताततै	-8538
▁जमीनको	-8539
▁जमीनमा	-8540
▁जलाउनु	-8541
▁जहाजको	-8542
▁जाग्नु	-8543
▁जान्नै	-8544
▁जित्नु	-8545
▁जुम्ला	-8546
▁जूम्रा	-8547
▁झाडावा	-8548
▁टाइकिक	-8549
▁टाइमजो	-8550
▁टाङ्गो	-8551
▁ठहरेमा	-8552
▁ठाउंमा	-8553
▁डिजिज्	-8554
▁डीपीआई	-8555
▁ढाल्ने	-8556
▁ढुकुटी	-8557
▁तथ्यको	-8558
▁तथ्यगत	-8559
▁तराईमा	-8560
▁तिम्री	-8561
▁तिर्दै	-8562
▁त्यागी	-8563
▁त्रिभु	-8564
▁त्रिशु	-8565
▁त्रैमा	-8566
▁थाम्ने	-8567
▁थालहरू	-8568
▁थुप्रै	-8569
▁थैलोमा	-8570
▁दगुरेर	-8571
▁दलिँदा	-8572
▁दाताले	-8573
▁दिंदिन	-8574
▁दिइयोः	-8575
▁दिलाएँ	-8576
▁दुर्बल	-8577
▁द्धारा	-8578
▁द्रष्ट	-8579
▁ध्वनिअ	-8580
▁नबूकदे	-8581
▁नभन्नु	-8582
▁नरहेमा	-8583
▁नरहोस्	-8584
▁नाङ्गो	-8585
▁निवारण	-8586
▁निस्कि	-8587
▁नेतृत्	-8588
▁न्युजि	-8589
▁पंखेटा	-8590
▁पकाएको	-8591
▁पक्रौं	-8592
▁पठाएको	-8593
▁पम्पमा	-8594
▁परिगणन	-8595
▁परिपाट	-8596
▁पर्सीन	-8597
▁पशुपति	-8598
▁पस्नेछ	-8599
Aut	-8600
ast	-8601
but	-8602
ity	-8603
mit	-8604
एएस	-8605
खरै	-8606
पीठ	-8607
वोस	-8608
▁Li	-8609
▁Su	-8610
▁li	-8611
▁िर	-8612
▁िव	-8613
▁(	-8614
Auth	-8615
butt	-8616
itle	-8617
mith	-8618
sity	-8619
त्सव	-8620
पुटी	-8621
बुटी	-8622
रैया	-8623
ल्लम	-8624
हाल्	-8625
▁Lib	-8626
▁Ple	-8627
▁आट्	-8628
▁कलम	-8629
▁चूप	-8630
▁बलम	-8631
▁मतू	-8632
▁लट्	-8633
▁२२०	-8634
▁२२५	-8635
AuthD	-8636
ढतामा	-8637
त्तीस	-8638
र्टमा	-8639
ोत्सव	-8640
ौतामा	-8641
▁Plea	-8642
▁last	-8643
▁अनाथ	-8644
▁आट्घ	-8645
▁कुरै	-8646
▁गदथे	-8647
▁झुटा	-8648
▁टुटी	-8649
▁नउठु	-8650
▁पासव	-8651
▁पुरै	-8652
▁मतूश	-8653
▁मुकर	-8654
▁लट्ठ	-8655
▁लाट्	-8656
▁िक्ष	-8657
▁२२०६	-8658
AuthDi	-8659
button	-8660
ensity	-8661
कम्युट	-8662
च्नलाई	-8663
झौतामा	-8664
डीबुटी	-8665
दायहरु	-8666
पातामा	-8667
मरेटले	-8668
मार्फत	-8669
रैयापा	-8670
स्पताल	-8671
▁Pleas	-8672
▁Smith	-8673
▁Suite	-8674
▁title	-8675
▁आईमाई	-8676
▁एमएएस	-8677
▁खोलेर	-8678
▁घटिरह	-8679
▁दरपीठ	-8680
▁नदिएर	-8681
▁बाच्न	-8682
▁मुकरर	-8683
▁हिवोस	-8684
▁िक्ष्	-8685
▁िरएको	-8686
AuthDir	-8687
अस्पताल	-8688
गाढतामा	-8689
रक्रिया	-8690
रैयापाग	-8691
ोत्सवको	-8692
▁Please	-8693
▁अस्थिर	-8694
▁आट्घोर	-8695
▁कनानका	-8696
▁खुल्लम	-8697
▁चूपचाप	-8698
▁झुकेका	-8699
250	-8700
.250	-8701
ाखिल	-8702
%.250	-8703
▁आईडी	-8704
▁गजले	-8705
▁आएकेा	-8706
▁धनीले	-8707
एकप्रति	-8708
▁आयोगमा	-8709
▁आयोगले	-8710
▁कोठाको	-8711
▁डेपुटी	-8712
▁दााखिल	-8713
▁पाखुरा	-8714
▁पातहरू	-8715
▁पीआरआइ	-8716
▁पुग्नु	-8717
▁पुग्यो	-8718
▁पुलहरु	-8719
▁पुस्ति	-8720
▁पूलबाट	-8721
▁पूललाई	-8722
▁पेटीमा	-8723
▁पेशावि	-8724
▁प्यारा	-8725
▁प्रतीक	-8726
▁प्रमूल	-8727
▁प्रिसि	-8728
▁फर्काइ	-8729
▁फाल्दछ	-8730
▁फाल्नु	-8731
▁फिरोजा	-8732
▁फुकाले	-8733
▁फूल्ने	-8734
▁फोटोका	-8735
▁फ्याटल	-8736
▁फ्रेन्	-8737
▁बजारको	-8738
▁बटनहरु	-8739
▁बनाऊने	-8740
▁बनिएको	-8741
▁बनौटको	-8742
▁बनौटले	-8743
▁बन्दोव	-8744
▁बरबादी	-8745
▁बराबरी	-8746
▁बसोवास	-8747
▁बस्दथे	-8748
▁बाइनरी	-8749
▁बापतको	-8750
▁बाबुका	-8751
▁बिन्ती	-8752
▁बिरामी	-8753
▁बिलायो	-8754
▁बिषयमा	-8755
▁बेसहरू	-8756
▁बोलाएँ	-8757
▁भन्‍नु	-8758
▁भरिएका	-8759
▁भर्खरै	-8760
▁भवनकेा	-8761
▁भूकम्प	-8762
▁भूगर्भ	-8763
▁भोग्नै	-8764
▁मगाउने	-8765
▁मतवाला	-8766
▁मरेनन्	-8767
▁महीरका	-8768
▁माकीको	-8769
▁मापनमा	-8770
▁मिल्दछ	-8771
▁मिल्नु	-8772
▁मिश्री	-8773
▁मुनिका	-8774
▁मुभर्स	-8775
▁यथावत्	-8776
▁यारोबा	-8777
▁याशूबी	-8778
▁युआरआइ	-8779
▁योआबको	-8780
▁योआबले	-8781
▁रङ्गको	-8782
▁रमाउँछ	-8783
▁राख्दा	-8784
▁राजदूत	-8785
▁राजामह	-8786
▁रोकिनु	-8787
▁रोगबाट	-8788
▁रोटीको	-8789
▁लगाइने	-8790
▁लड्नेछ	-8791
▁लाट्ठी	-8792
▁लिखतमा	-8793
▁लुकाएर	-8794
▁विरक्त	-8795
▁विरोधा	-8796
▁वेष्‍ट	-8797
▁शाऊलले	-8798
▁शाखाको	-8799
टलुक	-8800
यानक	-8801
▁आजै	-8802
▁ईटा	-8803
▁तलव	-8804
▁बटु	-8805
▁बदल	-8806
▁बृह	-8807
ण्टेन	-8808
बोतका	-8809
रोतका	-8810
वनभरि	-8811
सक्नु	-8812
सुरषा	-8813
▁अडेस	-8814
▁ईर्ष	-8815
▁एकैज	-8816
▁ग्ला	-8817
▁झरेर	-8818
▁ढिकी	-8819
▁बदलन	-8820
▁बदलि	-8821
▁बदल्	-8822
▁मैदा	-8823
▁याइँ	-8824
▁सारि	-8825
कण्टेन	-8826
णामबाट	-8827
ण्डारण	-8828
ण्डोमा	-8829
नवनभरि	-8830
बाबुको	-8831
म्बुको	-8832
ृतस्तर	-8833
ोबोतका	-8834
▁एलीहू	-8835
▁चढछौं	-8836
▁तलतिर	-8837
▁तानेर	-8838
▁बरावर	-8839
▁बसाइँ	-8840
▁बृहत्	-8841
▁भयानक	-8842
▁रह्यौ	-8843
▁सरहका	-8844
▁सरहको	-8845
▁सर्बर	-8846
▁सह्यौ	-8847
▁सिचाइ	-8848
कण्टेनर	-8849
छोरीहरु	-8850
ठनात्मक	-8851
त्तिभरण	-8852
भण्डारण	-8853
लीनदेखि	-8854
स्थापित	-8855
▁अमान्य	-8856
▁आउटलुक	-8857
▁आर्कको	-8858
▁एकैजना	-8859
▁एकैजुट	-8860
▁गुणहरू	-8861
▁ग्लास्	-8862
▁देशभरि	-8863
▁धर्मपु	-8864
▁नबस्ने	-8865
▁बजेटको	-8866
▁बटुल्य	-8867
▁बदलिइस	-8868
▁बाकसमा	-8869
▁बाकसले	-8870
▁बोकेका	-8871
▁ब्लन्ट	-8872
▁भन्सक्	-8873
▁मर्छन्	-8874
▁मैत्री	-8875
▁युवाका	-8876
▁शिरहरू	-8877
▁शूबाएल	-8878
▁शोकबाट	-8879
▁श्रमजी	-8880
▁श्रमले	-8881
▁श्रापे	-8882
▁श्रावण	-8883
▁संकटले	-8884
▁संचरना	-8885
▁संसदले	-8886
▁संसारै	-8887
▁सक्छुः	-8888
▁सन्तोष	-8889
▁समतामा	-8890
▁समाजमा	-8891
▁समानता	-8892
▁सम्बत्	-8893
▁सम्भवत	-8894
▁सम्वत्	-8895
▁सरसफाई	-8896
▁सर्तमा	-8897
▁सर्वतो	-8898
▁सहुँला	-8899
गृह	-8900
यजे	-8901
▁pa	-8902
चुरू	-8903
चुरो	-8904
जेले	-8905
पाचु	-8906
फामै	-8907
▁pag	-8908
▁डबल	-8909
▁रसद	-8910
यजेथा	-8911
लामणि	-8912
सदबाट	-8913
▁page	-8914
▁केबल	-8915
▁छानब	-8916
▁जनगु	-8917
▁जनसह	-8918
▁पिठो	-8919
▁विपद	-8920
▁होटल	-8921
चुरोको	-8922
ड्जेले	-8923
त्तीले	-8924
पाचुके	-8925
फोलिया	-8926
▁प्याड	-8927
▁हिंडि	-8928
चुरूङ्ग	-8929
तपाईंका	-8930
संसदबाट	-8931
▁अगुवाइ	-8932
▁गुफामै	-8933
▁छानबिन	-8934
▁जनगुना	-8935
▁पठाइका	-8936
▁पुत्रस	-8937
▁प्यासी	-8938
▁वर्गीय	-8939
▁साँझमा	-8940
▁साथसाथ	-8941
▁सालबाट	-8942
▁साहुको	-8943
▁सुत्छौ	-8944
▁सुरूवा	-8945
▁सूचिमा	-8946
▁सूर्ती	-8947
▁सोबापत	-8948
▁स्तरीय	-8949
▁हन्मेआ	-8950
▁हाँसिल	-8951
▁हिंडेर	-8952
▁हिज्जे	-8953
▁हुदैँन	-8954
▁हेटौंड	-8955
▁हेटौडा	-8956
▁हेडरमा	-8957
▁हेतुले	-8958
▁हेर्दछ	-8959
▁हेलचेक	-8960
▁होटलमा	-8961
▁होलान्	-8962
▁होल्डि	-8963
BSOLUTEL	-8964
Printcap	-8965
inactive	-8966
अर्कातिर	-8967
अर्कालाई	-8968
इमप्रकार	-8969
इस्राएली	-8970
कर्मचारी	-8971
कुमालेको	-8972
कुशलताको	-8973
क्जेन्डर	-8974
क्रान्ति	-8975
क्षारोपण	-8976
खलढुङ्गा	-8977
खविरुद्ध	-8978
ग्नावशेष	-8979
ग्राहीको	-8980
ङ्‍ग्लिस	-8981
ञ्जुषामा	-8982
टिफोलिया	-8983
डाघारीमा	-8984
दकनेसरले	-8985
दिसकेपछि	-8986
द्धाश्रम	-8987
नाड्जेले	-8988
नेहरूसित	-8989
न्यजन्तु	-8990
पद्धतिको	-8991
बृद्धिले	-8992
भागिताको	-8993
भौमसत्ता	-8994
मध्यपश्च	-8995
मास्वरूप	-8996
म्युच्यल	-8997
लिपबोर्ड	-8998
वस्थानमा	-8999
11-	-9000
111-	-9001
जलास	-9002
दिँन	-9003
वर्ण	-9004
स्ट्	-9005
▁गणप	-9006
▁ततै	-9007
▁सघन	-9008
2111-	-9009
खिलाप	-9010
रायसी	-9011
लासमो	-9012
स्वमा	-9013
▁जोडन	-9014
▁डोला	-9015
▁नवौं	-9016
▁बगाइ	-9017
▁बगाल	-9018
▁बर्ण	-9019
▁सभाघ	-9020
▁सरूग	-9021
02111-	-9022
टुक्रा	-9023
त्राले	-9024
राइनेछ	-9025
र्मिने	-9026
लासमोइ	-9027
लिस्ट्	-9028
स्टर्न	-9029
▁आउनुँ	-9030
▁इजलास	-9031
▁खस्दा	-9032
▁खस्रो	-9033
▁गणपूर	-9034
▁चापले	-9035
▁चिनाउ	-9036
▁चोर्य	-9037
▁ज्याक	-9038
▁बाहरी	-9039
▁भाइले	-9040
▁लगिने	-9041
▁वडाको	-9042
▁सभाको	-9043
▁सभाघर	-9044
गराइनेछ	-9045
टर्मिने	-9046
पनातिनी	-9047
र्खिलाप	-9048
वेदनशील	-9049
स्ट्रोल	-9050
▁02111-	-9051
▁आफैंको	-9052
▁करारमा	-9053
▁गणपूरक	-9054
▁गतिशील	-9055
▁घरायसी	-9056
▁जीवनमा	-9057
▁जोडसित	-9058
▁टाढाको	-9059
▁तोकिने	-9060
▁नदिएको	-9061
▁लिदिँन	-9062
▁लेखिने	-9063
▁स्क्री	-9064
तिग्रस्त	-9065
लासमोइड्	-9066
वास्तविक	-9067
शास्त्री	-9068
सकेकाछन्	-9069
सर्वदाका	-9070
सर्वदाको	-9071
सौन्दर्य	-9072
स्कृतिको	-9073
हिष्णुता	-9074
ाउनुपर्छ	-9075
ाराजगन्ज	-9076
ुप्तीकरण	-9077
ोल्डरहरू	-9078
्नुपर्दछ	-9079
्रेडसम्म	-9080
्रेनीलाई	-9081
▁118:22-	-9082
▁ServerA	-9083
▁अक्षरको	-9084
▁अक्साले	-9085
▁अगस्टको	-9086
▁अघिबाटै	-9087
▁अनगन्ती	-9088
▁अनड्ढित	-9089
▁अनुकूलन	-9090
▁अपनाउने	-9091
▁अपनाएको	-9092
▁अबीएजेर	-9093
▁अबीमेले	-9094
▁अर्थहीन	-9095
▁अवसरलाई	-9096
▁असन्तुल	-9097
▁आइपुग्छ	-9098
▁आईमाईले	-9099
जोत	-9100
ुसन	-9101
ौज्	-9102
बेदा	-9103
मौज्	-9104
याज्	-9105
लिवस	-9106
ल्भर	-9107
ियौं	-9108
जरहरु	-9109
जरहरू	-9110
जेटका	-9111
जोङ्ग	-9112
याज्ज	-9113
रामदा	-9114
व्र्य	-9115
ाउँडै	-9116
ि्रकल	-9117
▁अराम	-9118
▁टाइट	-9119
▁दबाब	-9120
▁हिजो	-9121
▁१९५५	-9122
डाउँडै	-9123
बाबुले	-9124
मौज्दा	-9125
याज्जम	-9126
रामचान	-9127
रामदाई	-9128
ल्युसन	-9129
व्र्यस	-9130
▁छाडदछ	-9131
▁बाँधे	-9132
▁लबेदा	-9133
▁लियौं	-9134
खडाउँडै	-9135
ट्रलिवस	-9136
मौज्दात	-9137
र्णाङ्क	-9138
ल्भरलाई	-9139
हाजोङ्ग	-9140
ेरामचान	-9141
▁कठोरता	-9142
▁दिनेछन	-9143
▁रातिको	-9144
▁ल्याएँ	-9145
▁सिरिया	-9146
▁हुनदेऊ	-9147
भाइजरहरु	-9148
भोल्युसन	-9149
स्थितिमा	-9150
▁आउनेहरू	-9151
▁आकाशलाई	-9152
▁आयातलाई	-9153
▁आयामहरू	-9154
▁आरामदाई	-9155
▁आर्ककोस	-9156
▁इन्टरफे	-9157
▁उठाउँदा	-9158
▁उदाहरणा	-9159
▁उपचारको	-9160
▁उभिन्छु	-9161
▁एकद्वार	-9162
▁एकमात्र	-9163
▁एल्याशी	-9164
▁एहूदलाई	-9165
▁ओआरजीको	-9166
▁औषधिहरू	-9167
▁कक्षाका	-9168
▁कङ्ग्लो	-9169
▁कराउँदै	-9170
▁कर्जाले	-9171
▁काँसाको	-9172
▁काटिदिए	-9173
▁कानुनका	-9174
▁किताबमा	-9175
▁कूवाबाट	-9176
▁कैदीलाई	-9177
▁कोस्टको	-9178
▁खरानीमा	-9179
▁खोल्दैछ	-9180
▁गराउँदछ	-9181
▁गरिदिएँ	-9182
▁गरिनछन्	-9183
▁गरिनुका	-9184
▁गरियोस्	-9185
▁गाउँहरू	-9186
▁गिबोनको	-9187
▁गुमाएको	-9188
▁गेर्शोम	-9189
▁ग्यारिस	-9190
▁घुमाउने	-9191
▁घोडाहरू	-9192
▁चक्रलाई	-9193
▁चाइखाना	-9194
▁चापाकोट	-9195
▁चाहिन्छ	-9196
▁चिताएको	-9197
▁चिनिएको	-9198
▁चुनिएको	-9199
▁छैठ	-9200
▁फोट	-9201
▁बुध	-9202
▁बुस	-9203
▁१४६	-9204
ँदैनौ	-9205
मर्का	-9206
्नेछन	-9207
▁text	-9208
▁गैरआ	-9209
▁छैठौ	-9210
▁जाऊँ	-9211
▁ठाडो	-9212
▁दूवै	-9213
▁दूष्	-9214
▁नमेट	-9215
▁भिन्	-9216
▁रूपै	-9217
▁लहरा	-9218
रमर्का	-9219
विनिमय	-9220
ेकिङ्ग	-9221
्नेछौं	-9222
▁चल्ती	-9223
▁टीनको	-9224
▁डराउँ	-9225
▁डराउन	-9226
▁थालमा	-9227
▁नमेटे	-9228
▁फोटोग	-9229
▁भिन्द	-9230
▁वनिमय	-9231
▁सङ्कु	-9232
▁सजायँ	-9233
▁सजायः	-9234
▁स्वीच	-9235
▁हितमा	-9236
अध्यक्ष	-9237
कार्यमा	-9238
नान्तरण	-9239
विनिमेय	-9240
ाध्यक्ष	-9241
▁इन्कार	-9242
▁एदोमको	-9243
▁ठाँउको	-9244
▁डराउँछ	-9245
▁डराएका	-9246
▁डलरबाट	-9247
▁पाउँदछ	-9248
▁फारममा	-9249
▁बालीमा	-9250
▁बुधवार	-9251
▁बुसारा	-9252
▁भिन्दै	-9253
▁भिन्नै	-9254
▁रहेेका	-9255
▁वृष्टि	-9256
▁सजायको	-9257
▁हिर्का	-9258
पाध्यक्ष	-9259
▁गराईएको	-9260
▁चौडाइको	-9261
▁छुट्याई	-9262
▁छुट्याऊ	-9263
▁जडीबुटी	-9264
▁जतिबेला	-9265
▁जनताबाट	-9266
▁जनतासित	-9267
▁जाँदैछौ	-9268
▁ज्ञानका	-9269
▁ज्ञानमा	-9270
▁टाइमजोन	-9271
▁टाउकोको	-9272
▁ट्रयाकर	-9273
▁ट्रेजरी	-9274
▁ठाऊँलाई	-9275
▁ठेकेदार	-9276
▁ठोकिँदै	-9277
▁डराउँथे	-9278
▁डिसेम्ब	-9279
▁डेटाबेस	-9280
▁ड्रअरको	-9281
▁ढुकढुकी	-9282
▁ढुङ्गमा	-9283
▁तरङ्गको	-9284
▁तरीकाले	-9285
▁तीव्रता	-9286
▁तीसदेखि	-9287
▁तुल्याई	-9288
▁तेत्तीस	-9289
▁त्याग्न	-9290
▁त्रिकोण	-9291
▁थालिएमा	-9292
▁थुमाहरु	-9293
▁दर्जाका	-9294
▁दलितलाई	-9295
▁दिनलागे	-9296
▁दिनुुुु	-9297
▁दिनेछैन	-9298
▁दिलाएमा	-9299
इमन	-9300
सबै	-9301
२यस	-9302
▁PI	-9303
▁PN	-9304
प्पण	-9305
बाबु	-9306
लगाल	-9307
लग्र	-9308
्लेड	-9309
▁PIN	-9310
▁PNM	-9311
▁अलग	-9312
▁छैट	-9313
▁दूध	-9314
जीबार	-9315
फिकको	-9316
विकको	-9317
ोरीले	-9318
्यांक	-9319
▁अफसो	-9320
▁दामन	-9321
▁नायक	-9322
▁बेबै	-9323
▁बोयस	-9324
▁मरेछ	-9325
▁२०१२	-9326
टिप्पण	-9327
▁ग्लेड	-9328
▁छैटौं	-9329
▁डेइमन	-9330
▁डोमेन	-9331
▁पट्टी	-9332
▁पश्चा	-9333
▁प्रोब	-9334
▁बिहान	-9335
▁स्वतप	-9336
जीबारमा	-9337
देवीघाट	-9338
ल्किएको	-9339
सर्भरको	-9340
▁अधिविक	-9341
▁उपकरणह	-9342
▁गरिदिन	-9343
▁गिलगाल	-9344
▁छोरीले	-9345
▁डोरीले	-9346
▁थ्यांक	-9347
▁दूधबाट	-9348
▁बेबैका	-9349
▁बोयसका	-9350
▁भेडाका	-9351
▁भेडाको	-9352
▁शुरूमा	-9353
▁संलग्र	-9354
भाइहरूको	-9355
▁अफसोसमा	-9356
▁छोरीलाई	-9357
▁टुटीबाट	-9358
▁डोर्याउ	-9359
▁दुईवर्ष	-9360
▁दुबैलाई	-9361
▁दुर्दशा	-9362
▁दूतावास	-9363
▁दृश्यका	-9364
▁दृश्यमा	-9365
▁देशभरका	-9366
▁देशभरमा	-9367
▁धूलोबाट	-9368
▁ध्यानमा	-9369
▁नदीपारी	-9370
▁नपुगेको	-9371
▁नपुग्ने	-9372
▁नापीबाट	-9373
▁नामाकरण	-9374
▁निकालेन	-9375
▁निकालेर	-9376
▁निक्षेप	-9377
▁निभाउने	-9378
▁नीलामणि	-9379
▁नुहाउने	-9380
▁नेपालभर	-9381
▁पघाटाको	-9382
▁पचासवटा	-9383
▁पट्टीमा	-9384
▁पठाइदिए	-9385
▁पठाउनेछ	-9386
▁परिपालन	-9387
▁परिषदका	-9388
▁पशहूरका	-9389
▁पशहूरले	-9390
▁पहिरिनु	-9391
▁पाइलटका	-9392
▁पाएकोमा	-9393
▁पाठ्यपु	-9394
▁पातालमा	-9395
▁पानीझैं	-9396
▁पिउनलाई	-9397
▁पीडाहरू	-9398
▁पुतलीले	-9399
गलत	-9400
खनन्	-9401
नोबो	-9402
▁htm	-9403
▁ढां	-9404
▁ढुं	-9405
▁पढ्	-9406
कन्छौ	-9407
कमजोर	-9408
चालिस	-9409
टिङका	-9410
नसलाई	-9411
ुङ्गा	-9412
ूनाको	-9413
▁html	-9414
▁अबीश	-9415
▁खटाइ	-9416
▁ढुस्	-9417
▁नबता	-9418
▁पढेर	-9419
▁वरिप	-9420
▁सोलु	-9421
▁हारू	-9422
खानाको	-9423
न्डहरू	-9424
रजिष्ट	-9425
संलग्न	-9426
समस्या	-9427
ुलेन्स	-9428
्यान्ड	-9429
्रोभाइ	-9430
▁खट्ने	-9431
▁छेउको	-9432
▁ढुंगे	-9433
▁नबताई	-9434
▁पेशाव	-9435
▁भएनन्	-9436
▁सदाका	-9437
▁स्क्र	-9438
▁हारान	-9439
क्दैनन्	-9440
ङ्गाहरू	-9441
ट्रोभाइ	-9442
नोबोबाट	-9443
न्कन्छौ	-9444
्यान्डल	-9445
▁केटीका	-9446
▁खटाइयो	-9447
▁खटाउने	-9448
▁गरिरहे	-9449
▁गरेनन्	-9450
▁चढाउँछ	-9451
▁ट्रम्प	-9452
▁डुङ्गा	-9453
▁तौलहरू	-9454
▁दिन्छौ	-9455
▁दुःखित	-9456
▁नसकेका	-9457
▁नियोजन	-9458
▁बाबुले	-9459
▁भनिएको	-9460
▁मण्डली	-9461
▁मानसिक	-9462
▁लाभउपर	-9463
▁वरिपार	-9464
▁सुन्छौ	-9465
▁सोलुखु	-9466
वकहरूलाई	-9467
▁अबीशैले	-9468
▁उत्खनन्	-9469
▁कुनैपनि	-9470
▁खटाउनेः	-9471
▁ढांचामा	-9472
▁तोबियाह	-9473
▁नभूनाको	-9474
▁नाउँपनि	-9475
▁पढ्नाले	-9476
▁पेपरडाइ	-9477
▁पेशावाल	-9478
▁पौधाहरू	-9479
▁पौरिन्छ	-9480
▁प्रथमतः	-9481
▁प्रदायक	-9482
▁प्रशाखा	-9483
▁प्रसस्त	-9484
▁प्रोप्र	-9485
▁फन्टहरू	-9486
▁फारमसँग	-9487
▁फिंजाउन	-9488
▁फिंजाएर	-9489
▁फुकालेर	-9490
▁फैलिएको	-9491
▁फोल्डिङ	-9492
▁फ्ल्यास	-9493
▁बजारसँग	-9494
▁बढाइएको	-9495
▁बढाउछन्	-9496
▁बढाउनमा	-9497
▁बतासलाई	-9498
▁बथानबाट	-9499
ype	-9500
गमन	-9501
type	-9502
आबकी	-9503
लाइट	-9504
सवमा	-9505
ेउमा	-9506
▁जलस	-9507
▁टेप	-9508
▁२१५	-9509
उजुरी	-9510
छेउमा	-9511
यन्ता	-9512
राएमा	-9513
लाइडर	-9514
▁आगमन	-9515
▁कैयौ	-9516
▁रोकन	-9517
▁वीणा	-9518
▁्भने	-9519
▁२०१३	-9520
काउछन्	-9521
मोआबकी	-9522
▁Shift	-9523
▁आशाका	-9524
▁आशामा	-9525
▁क्लाइ	-9526
▁खलामा	-9527
▁खुलाइ	-9528
▁गल्ति	-9529
▁नगएमा	-9530
▁नगराई	-9531
▁बुझें	-9532
▁यहोवा	-9533
▁यिर्प	-9534
▁लैजाई	-9535
▁वीलको	-9536
▁सिकाउ	-9537
ष्ठभूमि	-9538
▁जलाउने	-9539
▁पर्खौं	-9540
▁पारिदि	-9541
▁भारतमा	-9542
▁भारलाई	-9543
▁यिर्पल	-9544
▁विभाजक	-9545
ृष्ठभूमि	-9546
▁उत्सवमा	-9547
▁ओरेबलाई	-9548
▁किसिमले	-9549
▁छिमल्ने	-9550
▁जलस्रोत	-9551
▁नगराएमा	-9552
▁पुनर्जी	-9553
▁पुर्याइ	-9554
▁बनाँउदै	-9555
▁बनाइएको	-9556
▁बनाउँदछ	-9557
▁बनाउँदा	-9558
▁बनाउँदै	-9559
▁बनाएकोछ	-9560
▁बनिदैछौ	-9561
▁बर्णबास	-9562
▁बाँकीनै	-9563
▁बाबेलका	-9564
▁बाबेलले	-9565
▁बिलामको	-9566
▁बोलाएको	-9567
▁बोल्दैछ	-9568
▁ब्रेलमा	-9569
▁भएजतिको	-9570
▁भएजस्तै	-9571
▁भत्केका	-9572
▁भित्र्य	-9573
▁भेरिएशन	-9574
▁भैसकेको	-9575
▁मनश्शेक	-9576
▁मनाउनको	-9577
▁मलखादको	-9578
▁मलेसिया	-9579
▁मस्यौदा	-9580
▁महासचिव	-9581
▁महीनामा	-9582
▁मातहतको	-9583
▁मान्दैन	-9584
▁मान्यता	-9585
▁माफिकको	-9586
▁मारोतका	-9587
▁मालबाहक	-9588
▁मिल्दैन	-9589
▁मिसिएको	-9590
▁मुद्रित	-9591
▁मेसिनरी	-9592
▁मैदानमा	-9593
▁मोहीबाट	-9594
▁मौकाबाट	-9595
▁यशैयाले	-9596
▁यसैकारण	-9597
▁यहाँबाट	-9598
▁यिज्रेल	-9599
एनौ	-9600
्छु	-9601
▁ंि	-9602
नौलो	-9603
बिधी	-9604
ब्बर	-9605
सरेत	-9606
्रसर	-9607
▁दशम	-9608
▁रोप	-9609
▁हसर	-9610
▁१५०	-9611
▁१५६	-9612
छ्यान	-9613
भर्ना	-9614
▁ंिसं	-9615
▁गोबर	-9616
▁डिस्	-9617
ओछ्यान	-9618
नेकोले	-9619
नेसरेत	-9620
पानीमा	-9621
वस्त्र	-9622
सापानी	-9623
▁आएकोछ	-9624
▁इन्धन	-9625
▁खालीठ	-9626
▁डिस्क	-9627
▁दशमलव	-9628
▁निष्प	-9629
▁प्यान	-9630
▁फोहोर	-9631
▁बस्छु	-9632
▁लाभमा	-9633
▁लैङ्ग	-9634
▁विकल्	-9635
▁सडकको	-9636
▁सडकले	-9637
▁सुरबि	-9638
▁हग्री	-9639
कवानपुर	-9640
्याउँदा	-9641
▁अग्रसर	-9642
▁अर्धपा	-9643
▁किनेको	-9644
▁क्रोने	-9645
▁छानेको	-9646
▁छोडेको	-9647
▁जन्मजा	-9648
▁जहाँको	-9649
▁डिग्री	-9650
▁तराईको	-9651
▁तेब्बर	-9652
▁पराएनौ	-9653
▁फर्कनु	-9654
▁रोप्नु	-9655
▁सडकहरू	-9656
▁सत्यको	-9657
▁सुनौलो	-9658
▁सुरबिर	-9659
▁हतियार	-9660
छ्याउँदा	-9661
नेसरेतको	-9662
▁ंिसंचाई	-9663
▁अस्वच्छ	-9664
▁कमन्सका	-9665
▁काउन्सि	-9666
▁क्लिएरे	-9667
▁जन्मजात	-9668
▁डिस्कमा	-9669
▁ढाँचाको	-9670
▁फर्किएर	-9671
▁बाँच्छु	-9672
▁यूहन्ना	-9673
▁योरामले	-9674
▁रसायनिक	-9675
▁रहेनछन्	-9676
▁राख्छौं	-9677
▁राख्नको	-9678
▁राख्नमा	-9679
▁राख्नेछ	-9680
▁राजकुमा	-9681
▁लगाउनेछ	-9682
▁लगायतका	-9683
▁लडाँईमा	-9684
▁लाँदैछु	-9685
▁लाइनबाट	-9686
▁लाग्दैन	-9687
▁लाबानले	-9688
▁लिखतहरू	-9689
▁लुकाउँछ	-9690
▁लेख्छन्	-9691
▁लैङ्गिक	-9692
▁लैजान्छ	-9693
▁वनिमयको	-9694
▁वसन्तको	-9695
▁विजेटका	-9696
▁विधानको	-9697
▁विधानमा	-9698
▁विभाजित	-9699
▁da	-9700
इसौं	-9701
भाषा	-9702
यसको	-9703
▁dae	-9704
▁आँट	-9705
▁कपन	-9706
▁७२०	-9707
पोदको	-9708
पोर्त	-9709
पोष्ट	-9710
ब्बाल	-9711
ारपात	-9712
▁आँटा	-9713
▁आँशु	-9714
▁आँसु	-9715
▁ओबाल	-9716
▁छसिम	-9717
▁ट्रक	-9718
▁डिजा	-9719
▁ढाकि	-9720
▁मदको	-9721
ज्रेको	-9722
थपोष्ट	-9723
पोर्ते	-9724
▁अस्पत	-9725
▁चीजको	-9726
▁डिजाई	-9727
▁डिजिक	-9728
▁मिभार	-9729
▁विरोध	-9730
options	-9731
दिएसम्म	-9732
पट्टीमा	-9733
पोहरुको	-9734
▁daemon	-9735
▁आँट्नु	-9736
▁आँसुले	-9737
▁एपोदको	-9738
▁कान्छी	-9739
▁कार्ला	-9740
▁चिन्हक	-9741
▁झारपात	-9742
▁डिजाईन	-9743
▁तिर्नु	-9744
▁नजिककै	-9745
▁नजिकमा	-9746
▁नानीकी	-9747
▁मृतकको	-9748
▁रोकिने	-9749
▁व्यापक	-9750
▁श्रमिक	-9751
▁सङ्कलक	-9752
थपोष्टमा	-9753
्याउँछन्	-9754
▁कारोवार	-9755
▁थुमाबलि	-9756
▁धनात्मक	-9757
▁नानीसंग	-9758
▁परिभाषा	-9759
▁विविधता	-9760
▁विवेकको	-9761
▁विवेकशु	-9762
▁वेलिङ्ट	-9763
▁व्याजदर	-9764
▁शकन्याह	-9765
▁शिकारमा	-9766
▁शिरकाटे	-9767
▁शेयरधनी	-9768
▁शोकाकुल	-9769
▁श्रीपुर	-9770
▁संकटहरू	-9771
▁संभावित	-9772
▁संवादका	-9773
▁संसदलाई	-9774
▁सक्तैनौ	-9775
▁सक्दैनौ	-9776
▁सच्याउन	-9777
▁सञ्‍चार	-9778
▁सञ्‍चाल	-9779
▁सबैखाले	-9780
▁समर्पित	-9781
▁समेटेको	-9782
▁समेटेमा	-9783
▁सम्पादक	-9784
▁सरेकोमा	-9785
▁सर्भरबा	-9786
▁सर्भेयर	-9787
▁साथसाथै	-9788
▁सामुदाय	-9789
▁सारिन्छ	-9790
▁सियोनका	-9791
▁सुर्काउ	-9792
▁सूचीकृत	-9793
▁सेटिङमा	-9794
▁सेन्ट्र	-9795
▁सोझोबाट	-9796
▁स्क्रीन	-9797
▁स्ट्रिङ	-9798
▁स्रोतका	-9799
चलन	-9800
चेज	-9801
णुतर	-9802
बूटी	-9803
सिडो	-9804
▁फीज	-9805
▁भें	-9806
▁रिच	-9807
▁रिब	-9808
▁सवै	-9809
ड्ढलन	-9810
दूतको	-9811
द्यान	-9812
याहकी	-9813
रोन्स	-9814
शियाह	-9815
ैयामा	-9816
▁एवम्	-9817
▁गिदू	-9818
▁चाडो	-9819
▁टाडो	-9820
▁तहले	-9821
▁बसेर	-9822
▁भेंट	-9823
▁भैरह	-9824
▁लडेर	-9825
▁सयको	-9826
▁स्टू	-9827
otSync	-9828
डिबूटी	-9829
द्यापा	-9830
नप्रति	-9831
पर्चेज	-9832
र्जाको	-9833
▁अणुतर	-9834
▁अनुगम	-9835
▁किनार	-9836
▁गिदूद	-9837
▁लड्ने	-9838
▁लेन्स	-9839
▁वारिस	-9840
▁स्टार	-9841
कीराहरू	-9842
द्यापान	-9843
प्रतिनि	-9844
लीशियाह	-9845
लोद्यान	-9846
▁एयाहकी	-9847
▁कुनामा	-9848
▁परिचलन	-9849
▁पाइपमा	-9850
▁पालबाट	-9851
▁बनिएका	-9852
▁बरोन्स	-9853
▁भैरहवा	-9854
▁रिचर्ड	-9855
▁रिबेका	-9856
▁रोक्ने	-9857
▁सड्ढलन	-9858
▁साधनको	-9859
▁स्टकको	-9860
रुषहरुको	-9861
सिडोनिया	-9862
सेढुङ्गा	-9863
▁अखैयामा	-9864
▁उर्जाको	-9865
▁जडिबूटी	-9866
▁तहहरूमा	-9867
▁स्रोतमा	-9868
▁स्लाइडर	-9869
▁स्वतःसि	-9870
▁स्वतपरि	-9871
▁स्वालोउ	-9872
▁हटाउनेछ	-9873
▁हाँगाको	-9874
▁हारानमा	-9875
▁हारूनका	-9876
▁हावालाई	-9877
▁हिंड्ने	-9878
▁हिंसाले	-9879
▁हिसावले	-9880
▁हेलचेक्	-9881
▁होल्डिं	-9882
उचयखझभलत०	-9883
उपाध्यक्ष	-9884
कुस्तीपछि	-9885
क्षेत्रको	-9886
क्सद्वारा	-9887
गुप्तीकरण	-9888
ग्रेडसम्म	-9889
छोरीहरूले	-9890
टनगरजस्ता	-9891
ट्रेकिङ्ग	-9892
ट्रोभाइरल	-9893
तिनीहरूमा	-9894
ध्यक्षलाई	-9895
ध्युतिकरण	-9896
निभ्यानमा	-9897
नियन्त्रण	-9898
नियापोलिस	-9899
चाः	-9900
▁==	-9901
त्तै	-9902
यत्त	-9903
याइँ	-9904
लउपर	-9905
लुका	-9906
सञ्च	-9907
ि्रप	-9908
▁==>	-9909
▁अरौ	-9910
▁बेभ	-9911
ञ्चित	-9912
त्तरी	-9913
नुकूल	-9914
न्चाइ	-9915
लम्बो	-9916
▁अड्ढ	-9917
▁अपरा	-9918
▁अश्त	-9919
▁चालु	-9920
▁चुके	-9921
▁टि्र	-9922
▁डि्र	-9923
▁थुनु	-9924
▁नायव	-9925
▁बेखत	-9926
▁यसोभ	-9927
▁लोवी	-9928
उत्तरी	-9929
यत्तता	-9930
र्मवित	-9931
सञ्चार	-9932
सुलउपर	-9933
ेषकलाई	-9934
▁अपवाद	-9935
▁अवरोध	-9936
▁ईत्तै	-9937
▁चलानी	-9938
▁चुकें	-9939
▁जागृत	-9940
▁डि्रल	-9941
▁धारमा	-9942
▁बहुभु	-9943
▁बाँचि	-9944
▁बेभेल	-9945
▁ब्याग	-9946
▁स्कूल	-9947
▁हकलाई	-9948
▁हलुका	-9949
▁अड्ढको	-9950
▁अपराधी	-9951
▁आत्मवि	-9952
▁आत्मिक	-9953
▁उपयोगि	-9954
▁एकिकरण	-9955
▁खातामा	-9956
▁चालकको	-9957
▁थुनुवा	-9958
▁बताउँछ	-9959
▁बहुभुज	-9960
▁यसोभनी	-9961
▁युद्धग	-9962
▁वञ्चित	-9963
▁सेन्टी	-9964
अनुसारको	-9965
▁bgndBAR	-9966
▁अरौनाको	-9967
▁अश्तारो	-9968
▁असुलउपर	-9969
▁कोलम्बो	-9970
▁डि्रलर्	-9971
▁ब्यागका	-9972
▁युद्धका	-9973
▁योग्यको	-9974
▁रङहरूमा	-9975
▁सिन्चाइ	-9976
▁स्टि्रप	-9977
क्तसञ्चार	-9978
न्जेलसम्म	-9979
न्तहरूबाट	-9980
न्सद्वारा	-9981
फोल्डरहरू	-9982
महापवित्र	-9983
म्बनेलहरू	-9984
म्बुलेन्स	-9985
रजिष्टर्ड	-9986
रावटपछिको	-9987
रैयापागस्	-9988
र्मिकताका	-9989
लासमोइड्स	-9990
ल्कीराहरू	-9991
वविद्यालय	-9992
सम्झौतामा	-9993
सूचनापत्र	-9994
स्सलोनिका	-9995
हान्गुएरा	-9996
हिर्काउने	-9997
्याइञ्जेल	-9998
्यामश्वेत	-9999
डिटर	-10000
ाइटर	-10001
▁ढंग	-10002
▁वहन	-10003
ilure	-10004
टरलाई	-10005
न्याए	-10006
मार्ण	-10007
शाजनक	-10008
▁काँच	-10009
▁दाखब	-10010
▁पेटी	-10011
▁सरदर	-10012
▁अडिटर	-10013
▁अतिनै	-10014
▁इन्डि	-10015
▁कन्या	-10016
▁फल्ने	-10017
▁बल्ने	-10018
▁ब्राउ	-10019
▁शुरुह	-10020
न्यावाद	-10021
राशाजनक	-10022
▁आगोसित	-10023
▁काँचको	-10024
▁खन्याए	-10025
▁खुल्ने	-10026
▁गरिएमा	-10027
▁गर्भमा	-10028
▁टायरको	-10029
▁ढंगबाट	-10030
▁दण्डदि	-10031
▁पाँचका	-10032
▁पाँचौं	-10033
▁विन्या	-10034
▁शुरुमा	-10035
काईरहेका	-10036
न्यानलाई	-10037
▁इन्डिगो	-10038
▁निमार्ण	-10039
▁पाँचजना	-10040
▁पोर्टमा	-10041
▁ब्राउजि	-10042
▁लैजानको	-10043
▁विन्याश	-10044
▁शुरुहुन	-10045
▁सर्भरका	-10046
▁सैनिकको	-10047
▁सैनिकले	-10048
्योजावलाख	-10049
▁118:22-2	-10050
▁ServerAd	-10051
▁brackets	-10052
▁printcap	-10053
▁translat	-10054
▁अंन्धकार	-10055
▁अध्ययनका	-10056
▁अनुगमनमा	-10057
▁अनुमानको	-10058
▁अन्यसँगै	-10059
▁अबनेरसित	-10060
▁अब्राहाम	-10061
▁अभिकर्ता	-10062
▁अभिप्राय	-10063
▁अराममाथि	-10064
▁अस्पतालह	-10065
▁अह्राएको	-10066
▁आइपुग्यो	-10067
▁इच्छाएको	-10068
▁इच्छाबाट	-10069
▁ईर्ष्याल	-10070
▁उत्कृष्ट	-10071
▁उत्पादित	-10072
▁उपकरणहको	-10073
▁उब्जाउने	-10074
▁उम्लिएको	-10075
▁उहाँसितै	-10076
▁एकाउन्टे	-10077
▁एकाधिकार	-10078
▁एक्रोनको	-10079
▁एलियालाई	-10080
▁एलीएजरले	-10081
▁एल्याशीब	-10082
▁एल्यासाप	-10083
▁ओछ्याउने	-10084
▁कचौराबाट	-10085
▁कन्क्वेर	-10086
▁कन्ड्युट	-10087
▁कब्जाहरू	-10088
▁कमारीलाई	-10089
▁करदाताले	-10090
▁कर्पोरेस	-10091
▁कर्मेलमा	-10092
▁काँढाहरू	-10093
▁कागजसम्म	-10094
▁कार्ट्रि	-10095
▁किताबबाट	-10096
▁किलोग्रा	-10097
▁किसानहरू	-10098
▁कोरियाली	-10099
30,	-10100
330,	-10101
आमेन	-10102
टीएम	-10103
लमणि	-10104
‍केत	-10105
▁टाय	-10106
▁भुई	-10107
▁भुस	-10108
▁भुु	-10109
▁शोध	-10110
▁११६	-10111
चटीएम	-10112
चीहरू	-10113
ाउँछु	-10114
्याँक	-10115
▁330,	-10116
▁छुट्	-10117
▁टायम	-10118
▁टायर	-10119
▁भुईं	-10120
र्पनमा	-10121
ानुसार	-10122
ालीमको	-10123
▁कम्पा	-10124
▁खालको	-10125
▁छुट्ट	-10126
▁टायमआ	-10127
▁नोटेश	-10128
▁पछ्या	-10129
▁बैंैं	-10130
▁भुभाग	-10131
▁सीडीई	-10132
करणतर्फ	-10133
चटीएमएल	-10134
ैंचीहरू	-10135
▁कम्पाइ	-10136
▁चिन्ता	-10137
▁टायमआउ	-10138
▁टायलको	-10139
▁न्यायक	-10140
▁पक्षले	-10141
▁पछ्याऊ	-10142
▁पाउँछु	-10143
▁पाठलाई	-10144
▁फूलहरू	-10145
▁बीचबाट	-10146
▁बैंकले	-10147
▁लालमणि	-10148
▁लुगाले	-10149
▁ल्याँउ	-10150
▁विदाको	-10151
हर्याएको	-10152
▁एकजनाको	-10153
▁खर्पनमा	-10154
▁टायमआउट	-10155
▁टायरलाई	-10156
▁तथ्याँक	-10157
▁तालीमको	-10158
▁प्रभुले	-10159
▁फर्केका	-10160
▁भुुक्ता	-10161
▁मिल्नेछ	-10162
▁यिनीहरु	-10163
▁रेखाबाट	-10164
▁विभागमा	-10165
▁विभागीय	-10166
▁सङ्‍केत	-10167
▁सीडीईको	-10168
▁होशियार	-10169
तीकरणतर्फ	-10170
नीहरूमाथि	-10171
▁एचटीएमएल	-10172
▁केन्द्रह	-10173
▁कैंचीहरू	-10174
▁क्रमवद्ध	-10175
▁क्रमसूची	-10176
▁क्रूसबाट	-10177
▁क्लिस्ट्	-10178
▁खटेकाछन्	-10179
▁खाद्यान्	-10180
▁खारेजीको	-10181
▁खालीठाउँ	-10182
▁खिंचिएको	-10183
▁खेलकुदका	-10184
▁खोज्दैछु	-10185
▁गतिशीलता	-10186
▁गराउनेछु	-10187
▁गरिदिएको	-10188
▁गरिदिनेछ	-10189
▁गर्दैनन्	-10190
▁गर्नेकोः	-10191
▁गर्भनरले	-10192
▁गिदोनीको	-10193
▁गोल्यतले	-10194
▁ग्यारिसन	-10195
▁घिच्रोमा	-10196
▁घेरामचान	-10197
▁चाँदीसित	-10198
▁चार्टर्ड	-10199
ery	-10200
खमय	-10201
गिन	-10202
गेज	-10203
िनछ	-10204
ूणी	-10205
▁PO	-10206
uery	-10207
अथवा	-10208
काउन	-10209
जोमा	-10210
लाउन	-10211
वेहर	-10212
्टाए	-10213
▁खतम	-10214
▁घिन	-10215
▁डिन	-10216
▁पीठ	-10217
गर्ने	-10218
तालीस	-10219
वेष्ट	-10220
सार्क	-10221
िनछैन	-10222
▁गारो	-10223
▁गुला	-10224
▁झूसि	-10225
▁नसकी	-10226
▁नसता	-10227
▁नेगे	-10228
ड्काउन	-10229
परिवार	-10230
▁अन्या	-10231
▁एनगेज	-10232
▁गादको	-10233
▁जलाउन	-10234
▁जोगिन	-10235
▁तरूणी	-10236
▁दिलाइ	-10237
▁नेगेब	-10238
▁बताउन	-10239
▁बुझिन	-10240
▁मर्ने	-10241
▁यहीएल	-10242
▁सर्ने	-10243
▁हर्ने	-10244
वेहरीमा	-10245
ैंतालीस	-10246
ोरवेष्ट	-10247
▁अन्याय	-10248
▁अवरक्त	-10249
▁गुलाबी	-10250
▁ठीकसंग	-10251
▁दिनसंग	-10252
▁विक्रि	-10253
▁हेर्ने	-10254
ाँचिनछैन	-10255
▁गिदोनका	-10256
▁ग्लोमको	-10257
▁दाँजोमा	-10258
▁नसताएका	-10259
▁परीक्षक	-10260
▁पर्खन्छ	-10261
▁प्यानेल	-10262
▁फड्काउन	-10263
▁भित्रिन	-10264
▁भेट्टाए	-10265
▁भेरिएसन	-10266
▁संशोधनः	-10267
टाउनुहोस्	-10268
▁क्लाइन्ट	-10269
▁चाहानामा	-10270
▁चिकित्सा	-10271
▁चिन्हबाट	-10272
▁चिप्लिएँ	-10273
▁चिसापानी	-10274
▁चिहानबाट	-10275
▁चोकपट्टि	-10276
▁च्यात्यो	-10277
▁छात्राले	-10278
▁छिन्नेछु	-10279
▁छिमेकीको	-10280
▁जन्माउन्	-10281
▁जन्माएको	-10282
▁जन्मिएका	-10283
▁जन्मेपछि	-10284
▁जलप्रवाह	-10285
▁जीनवनभरि	-10286
▁जोखिमबाट	-10287
▁जोनाथनले	-10288
▁ठूलोवर्ण	-10289
▁डिक्शनरी	-10290
▁डिजिक्या	-10291
▁ढाकिदिनु	-10292
▁तत्कालका	-10293
▁तत्कालीन	-10294
▁तथ्याकको	-10295
▁तन्कन्छौ	-10296
▁तस्वीरमा	-10297
▁तस्वीरले	-10298
▁तामेलीमा	-10299
गञ्ज	-10300
प्ला	-10301
फिसस	-10302
▁एप्	-10303
डरस्क	-10304
प्लाव	-10305
रूञ्ज	-10306
स्कृत	-10307
स्केर	-10308
्याँई	-10309
▁काचो	-10310
▁साँझ	-10311
▁हट्न	-10312
▁२०४०	-10313
▁२०४५	-10314
ञ्जस्य	-10315
ीहरुले	-10316
▁अबीशै	-10317
▁एफिसस	-10318
▁कृषिज	-10319
▁चल्ने	-10320
▁छोडछे	-10321
▁टेबुल	-10322
▁तत्पर	-10323
▁भिन्न	-10324
▁लिफ्ट	-10325
▁साँचि	-10326
्याँईका	-10327
▁अर्थमा	-10328
▁आउँदैछ	-10329
▁एप्लेट	-10330
▁कृषिमा	-10331
▁खस्केर	-10332
▁जुनदिन	-10333
▁तापमान	-10334
▁नाप्नु	-10335
▁फर्काउ	-10336
▁वर्गमा	-10337
▁सहयोगी	-10338
▁सहितका	-10339
डरस्क्रो	-10340
रूञ्जनेल	-10341
▁अबीशैको	-10342
▁केडीईका	-10343
▁चिन्तित	-10344
▁त्यसवाह	-10345
▁पर्वतको	-10346
▁बार्षिक	-10347
▁यूसुफकै	-10348
▁सचिवलाई	-10349
डरस्क्रोर	-10350
न्याउनेछु	-10351
▁उत्तरतिर	-10352
▁उत्प्लाव	-10353
▁कुञ्जीका	-10354
▁कुञ्जीको	-10355
▁कृषिजन्य	-10356
▁तुरुन्तै	-10357
▁तुल्याँउ	-10358
▁तुल्यायौ	-10359
▁त्रिभुवन	-10360
▁दिइसकेको	-10361
▁दिनसम्मै	-10362
▁दिलाइनेछ	-10363
▁दुष्टात्	-10364
▁दूतहरूको	-10365
▁दूरसंचार	-10366
▁देखाउँदछ	-10367
▁देखाउनका	-10368
▁देखेकोछु	-10369
▁देख्नेछौ	-10370
▁धनीहरुको	-10371
▁धन्यावाद	-10372
▁धर्मशाला	-10373
▁धुरूधुरू	-10374
▁नतोकिएको	-10375
▁नदिएसम्म	-10376
▁नबूकदनेस	-10377
▁नबूकदेस्	-10378
▁नर्सिङ्ग	-10379
▁नवीकरणीय	-10380
▁नागरिकका	-10381
▁निःशुल्क	-10382
▁नियोगकोे	-10383
▁निर्भरता	-10384
▁नुहाउँदै	-10385
▁नोटेशनमा	-10386
▁नोरवेष्ट	-10387
▁पटकभन्दा	-10388
▁पट्टिबाट	-10389
▁पत्रुसको	-10390
▁पत्रुसले	-10391
▁पराउँदैन	-10392
▁पर्दालाई	-10393
▁पश्चिमको	-10394
▁पहुँचलाई	-10395
▁पापबलिको	-10396
▁पासफ्रेज	-10397
▁पीरमर्का	-10398
▁पुगेकोमा	-10399
िजर	-10400
ूटन	-10401
फूटन	-10402
मूएल	-10403
लाएर	-10404
शिला	-10405
▁अहं	-10406
▁आशि	-10407
▁खोप	-10408
▁चौध	-10409
▁लोप	-10410
इज्जत	-10411
रुप्य	-10412
ह्रौं	-10413
▁खोसि	-10414
▁खोसे	-10415
▁चौडा	-10416
▁लगएर	-10417
▁लाएर	-10418
▁हत्त	-10419
दिन्छु	-10420
न्नेछौ	-10421
शिक्षण	-10422
शिक्षा	-10423
स्फूटन	-10424
हिस्सा	-10425
▁अत्या	-10426
▁कटौती	-10427
▁छअन्त	-10428
▁प्रकट	-10429
▁बुझाई	-10430
▁मनिको	-10431
▁मिलान	-10432
▁लोपेस	-10433
▁शमूएल	-10434
त्यासित	-10435
रहेकाछौ	-10436
▁अत्याव	-10437
▁अधिलेख	-10438
▁अहंकार	-10439
▁आशिषको	-10440
▁गरीबको	-10441
▁गर्दैं	-10442
▁चुक्ने	-10443
▁दिनेछौ	-10444
▁नटलसले	-10445
▁पोष्टर	-10446
▁सिलाएर	-10447
▁हत्तार	-10448
▁हराउने	-10449
निर्धारण	-10450
मानिसहरू	-10451
लिदिन्छु	-10452
हिस्साको	-10453
▁अधिलेखन	-10454
▁इन्टिजर	-10455
▁खोसिनेछ	-10456
▁छअन्तर्	-10457
▁जस्ताको	-10458
▁दुष्टको	-10459
▁बन्नेछौ	-10460
▁बस्नेछौ	-10461
▁बुझाईदि	-10462
▁बेइज्जत	-10463
▁रोटीहरू	-10464
▁वैरुप्य	-10465
▁सेयरधनी	-10466
टिप्पणीमा	-10467
प्रशिक्षण	-10468
▁अहंकारले	-10469
▁आधारशिला	-10470
▁एघाह्रौं	-10471
▁चुचुरोको	-10472
▁पार्नेछौ	-10473
▁पुतलीलाई	-10474
▁पुरस्कार	-10475
▁पुरस्कृत	-10476
▁पुरूषहरू	-10477
▁पुस्तकाल	-10478
▁पृष्ठयदि	-10479
▁पेपरडाइन	-10480
▁पेशाविद्	-10481
▁पोखरीहरू	-10482
▁पोथ्राले	-10483
▁पोशाकहरू	-10484
▁प्रगतिमा	-10485
▁प्रतिदिन	-10486
▁प्रमुखले	-10487
▁प्रर्दशन	-10488
▁प्राणीको	-10489
▁प्रिन्टी	-10490
▁प्रिमियम	-10491
▁प्रिसिला	-10492
▁प्रेमबाट	-10493
▁प्लेसूची	-10494
▁फर्काएका	-10495
▁फाइलसूची	-10496
▁फ्रेमहरू	-10497
▁बगैंचाको	-10498
▁बचतहरूको	-10499
बीच	-10500
रबी	-10501
श्‍	-10502
उँछौ	-10503
र्छौ	-10504
लिएर	-10505
श्मा	-10506
श्‍च	-10507
▁अश्	-10508
▁घटे	-10509
▁दबी	-10510
▁रेफ	-10511
भिवाद	-10512
रिदिए	-10513
्रीबी	-10514
▁अरबी	-10515
▁आमिन	-10516
▁घटित	-10517
▁छुटृ	-10518
▁थायो	-10519
▁धातु	-10520
▁पिएर	-10521
▁२०४६	-10522
अभिवाद	-10523
ट्टामा	-10524
थ्रीबी	-10525
धात्मक	-10526
पानीको	-10527
फानीको	-10528
र्त्ता	-10529
लोनिया	-10530
ौरिदिए	-10531
▁अम्फि	-10532
▁अश्दो	-10533
▁आश्‍च	-10534
▁घटनेछ	-10535
▁घटाउन	-10536
▁घटीमा	-10537
▁घटेको	-10538
▁छुटृै	-10539
▁थलिएर	-10540
▁महाका	-10541
▁महादे	-10542
▁ल्याऊ	-10543
▁सामेल	-10544
▁हकमाः	-10545
अभिवादन	-10546
त्तियास	-10547
्यात्मक	-10548
▁अन्र्त	-10549
▁अश्दोद	-10550
▁केडीई४	-10551
▁जिउँछौ	-10552
▁डिजिटल	-10553
▁थायोबे	-10554
▁दबीरका	-10555
▁भएकाछौ	-10556
▁मार्छौ	-10557
▁रिश्मा	-10558
▁सामर्थ	-10559
▁सामवेश	-10560
ध्यात्मक	-10561
पिफानीको	-10562
भर्निङ्ग	-10563
मार्गबाट	-10564
रोधात्मक	-10565
▁कुञ्ीले	-10566
▁खौरिदिए	-10567
▁घरभित्र	-10568
▁घरहरूमा	-10569
▁डोलाउने	-10570
▁महाकाली	-10571
▁मृत्युप	-10572
▁ल्याएका	-10573
▁सट्टामा	-10574
▁हुनुअगा	-10575
थ्रीबीसँग	-10576
ोल्लोनिया	-10577
▁अन्र्तगत	-10578
▁आश्‍चर्य	-10579
▁उल्लेख्य	-10580
▁क्रोनेकर	-10581
▁पारिवारी	-10582
▁बढिरहेको	-10583
▁बन्दबस्त	-10584
▁बसिरहेको	-10585
▁बहिनीसित	-10586
▁बाँचिरहे	-10587
▁बाँच्दछु	-10588
▁बाँध्छौं	-10589
▁बाहिरिनु	-10590
▁बाहिरिने	-10591
▁बिमारहरू	-10592
▁बुझ्नेछौ	-10593
▁बृद्धिले	-10594
▁बेतेलममा	-10595
▁बोलाएपछि	-10596
▁ब्याबहार	-10597
▁ब्राउजिङ	-10598
▁भएबमोजिम	-10599
dist	-10600
कलेग	-10601
मवार	-10602
लिखत	-10603
▁गोठ	-10604
▁घटन	-10605
items	-10606
याचना	-10607
रकलेग	-10608
▁आपसी	-10609
▁उठेर	-10610
▁गोदा	-10611
▁गोरू	-10612
▁गोशो	-10613
▁चलान	-10614
▁बग्न	-10615
▁सवार	-10616
monthd	-10617
गात्मक	-10618
ञ्जिका	-10619
▁items	-10620
▁उठेका	-10621
▁उठ्ने	-10622
▁कम्पो	-10623
▁गोदाम	-10624
▁गोर्म	-10625
▁पत्रा	-10626
▁बन्दक	-10627
देश्यीय	-10628
मवारबाट	-10629
्यूरिटी	-10630
▁काठमाड	-10631
▁कोठामा	-10632
▁गिल्ला	-10633
▁घटनाले	-10634
▁नीतिगत	-10635
▁नीतिमा	-10636
▁रसीदमा	-10637
▁रूएलका	-10638
▁रोकेरै	-10639
▁शेकर्स	-10640
▁समयामा	-10641
▁सूचकले	-10642
monthday	-10643
क्यूरिटी	-10644
योगात्मक	-10645
▁काठमाडौ	-10646
▁गोशोनमा	-10647
▁निर्मित	-10648
▁पञ्जिका	-10649
▁पत्रचार	-10650
▁पितालाई	-10651
▁लडनेछन्	-10652
प्रधानहरू	-10653
▁आत्माबाट	-10654
▁कम्पोष्ट	-10655
▁गोर्मनले	-10656
▁निकालिने	-10657
▁निर्णयले	-10658
▁पत्राचार	-10659
▁पर्दाहरू	-10660
▁पिताकहाँ	-10661
▁भएसम्मका	-10662
▁भनिरहेछु	-10663
▁भनिसकेका	-10664
▁भन्नलागे	-10665
▁भवनहरूको	-10666
▁भेट्नेछौ	-10667
▁भोलिपल्ट	-10668
▁मकवानपुर	-10669
▁मर्दैनन्	-10670
▁महानदीको	-10671
▁महासभामा	-10672
▁महिलालाई	-10673
▁मानचित्र	-10674
▁मानहरूमा	-10675
▁मान्दछन्	-10676
▁मान्नलाई	-10677
▁मार्गतिर	-10678
▁मालवस्तु	-10679
▁मिडियाले	-10680
▁मिद्यानी	-10681
▁मिल्नुको	-10682
▁मुद्राको	-10683
▁मुनाफाको	-10684
▁मुलुकबाट	-10685
▁मूल्याकन	-10686
▁मृत्युका	-10687
▁मेटाइदैन	-10688
▁यतिमात्र	-10689
▁यरूब्बाल	-10690
▁यूनियनको	-10691
▁येतेरतिर	-10692
▁योजनाकोा	-10693
▁योरामलाई	-10694
▁राखिएकोछ	-10695
▁राजाकोमा	-10696
▁रासनलहरू	-10697
▁राहाबलाई	-10698
▁रिबेकाले	-10699
rap	-10700
son	-10701
एबि	-10702
sson	-10703
ठूलो	-10704
▁घोर	-10705
▁पदः	-10706
▁‘..	-10707
isson	-10708
उनेछु	-10709
एबिलत	-10710
कारोर	-10711
र्याई	-10712
लिकले	-10713
्र्या	-10714
्वलित	-10715
▁ऋणको	-10716
▁कोशि	-10717
▁खेतह	-10718
▁जसका	-10719
▁तामा	-10720
▁पिउँ	-10721
▁पिरि	-10722
▁पिल्	-10723
▁बाँस	-10724
▁बुझे	-10725
▁भयरह	-10726
▁भेटे	-10727
oisson	-10728
ङ्गणमा	-10729
ज्वलित	-10730
डकारोर	-10731
वातर्फ	-10732
स्वरुप	-10733
▁ऋणीले	-10734
▁कोशिश	-10735
▁क्रमब	-10736
▁पक्की	-10737
▁पिउनु	-10738
▁पिरिन	-10739
▁पिल्स	-10740
▁बलिरह	-10741
▁बाँया	-10742
▁मर्या	-10743
▁मिर्च	-10744
▁रहेनछ	-10745
Poisson	-10746
कहिल्यै	-10747
मालिकले	-10748
योजनकोे	-10749
र्खास्त	-10750
र्याकमा	-10751
स्त्रमा	-10752
्रर्याई	-10753
▁उद्धार	-10754
▁क्रमको	-10755
▁खन्छन्	-10756
▁खेतहगर	-10757
▁जनाउय्	-10758
▁जस्ताय	-10759
▁ट्र्या	-10760
▁पच्चीस	-10761
▁पिउँदा	-10762
▁बलिरहन	-10763
▁बाबुकी	-10764
▁बुझ्नु	-10765
▁भयरहित	-10766
▁भित्री	-10767
▁भित्रै	-10768
▁मिर्चै	-10769
▁रेडियो	-10770
▁९एबिलत	-10771
अङ्गुरको	-10772
डकारोरुप	-10773
ासनमध्ये	-10774
▁खेतहगरु	-10775
▁चाहंदैन	-10776
▁छान्छन्	-10777
▁नभएकाले	-10778
▁फैलिनेछ	-10779
▁भन्नेछु	-10780
▁भित्रका	-10781
▁मर्यादा	-10782
जातिहरूका	-10783
प्रतिलिपि	-10784
शासनमध्ये	-10785
▁अहवातर्फ	-10786
▁उद्धारता	-10787
▁क्रमबद्व	-10788
▁छविहरूमा	-10789
▁दर्खास्त	-10790
▁पिल्सियो	-10791
▁प्लगइनको	-10792
▁फलस्वरुप	-10793
▁बनाउनेछु	-10794
▁बुझेसम्म	-10795
▁मिर्चैया	-10796
▁रूवाइलाई	-10797
▁रेखासम्म	-10798
▁रेन्डरिङ	-10799
▁७८	-10800
▁अनप	-10801
▁सदर	-10802
णामको	-10803
ल्याए	-10804
वासमा	-10805
▁गोमि	-10806
▁छानि	-10807
▁जोडे	-10808
▁तेरह	-10809
▁फेटा	-10810
▁रहिन	-10811
▁शावल	-10812
नाज्ञा	-10813
पार्ने	-10814
मीकहाँ	-10815
रूशलेम	-10816
▁अज्ञा	-10817
▁आगतका	-10818
▁गोमिस	-10819
▁पर्यट	-10820
▁पर्या	-10821
▁भनियो	-10822
▁साधनह	-10823
यरूशलेम	-10824
विधानको	-10825
▁दिलाउँ	-10826
▁पुर्वी	-10827
▁प्रवर्	-10828
▁बाहिरी	-10829
▁बैंजनी	-10830
▁योद्धा	-10831
▁सिंचित	-10832
▁अज्ञानी	-10833
▁अनाज्ञा	-10834
▁अमेरिका	-10835
▁उनीकहाँ	-10836
▁कफ्र्यू	-10837
▁त्रुटिच	-10838
▁दिनदेखि	-10839
▁निर्णया	-10840
▁पैल्याए	-10841
▁प्रज्ञा	-10842
▁भारतभरि	-10843
▁व्याकुल	-10844
▁सियोनकी	-10845
▁सुविधाः	-10846
▁अनुसारको	-10847
▁अनुसारले	-10848
▁उदाहरणका	-10849
▁उनीहरूको	-10850
▁उनीहरूले	-10851
▁त्रुटिचल	-10852
▁थुपार्ने	-10853
▁निमीकहाँ	-10854
▁परिणामको	-10855
▁पर्यटनको	-10856
▁पर्यावरण	-10857
▁प्रवर्धन	-10858
▁लडाइँलाई	-10859
▁लापरवाही	-10860
▁लिफ्टर्न	-10861
▁लिब्नीका	-10862
▁लुगामाथि	-10863
▁लेखेकोमा	-10864
▁लेबीयथान	-10865
▁लोककार्य	-10866
▁ल्याँउदै	-10867
▁ल्याउँथे	-10868
▁ल्याउँदै	-10869
▁ल्याउनेछ	-10870
▁वंशभित्र	-10871
▁वरिपरिको	-10872
▁वर्षदेखि	-10873
▁वस्तुुुु	-10874
▁वारिसलाई	-10875
▁वास्तवित	-10876
▁विकल्पको	-10877
▁विण्डोमा	-10878
▁विधेयकका	-10879
▁विभेदवाट	-10880
▁विवरणउपर	-10881
▁विश्लेषक	-10882
▁विस्फोटक	-10883
▁वृत्तिको	-10884
▁वृद्धिदर	-10885
▁वृद्धिमा	-10886
▁वेदीमाथि	-10887
▁वेलिङ्टन	-10888
▁व्यर्थका	-10889
▁शत्रुजीव	-10890
▁शाहदेवको	-10891
▁शिखरसम्म	-10892
▁शुल्कबाट	-10893
▁शेलेम्या	-10894
▁संख्याको	-10895
▁संवादलाई	-10896
▁संसारबाट	-10897
▁सकिरहेका	-10898
▁सक्षिप्त	-10899
vfs	-10900
पुअ	-10901
पुछ	-10902
पियन	-10903
पुअन	-10904
रकमा	-10905
ाएका	-10906
▁fla	-10907
▁बंै	-10908
▁१०३	-10909
दर्शक	-10910
दियाह	-10911
द्यपि	-10912
निएका	-10913
पिनेछ	-10914
पुरमा	-10915
र्तित	-10916
▁flas	-10917
▁छाडि	-10918
▁छाड्	-10919
▁छाना	-10920
▁तोक्	-10921
▁निपु	-10922
▁फोक्	-10923
▁बंैक	-10924
▁भइसक	-10925
▁मिटर	-10926
▁रुजु	-10927
▁लिपि	-10928
▁सकनु	-10929
▁सकौं	-10930
ट्टेरी	-10931
थपिनेछ	-10932
रोपियन	-10933
▁flash	-10934
▁खाएका	-10935
▁घट्यो	-10936
▁दु्रत	-10937
▁नरकमा	-10938
▁निपुण	-10939
▁पपुअन	-10940
▁पाएका	-10941
▁मर्नै	-10942
▁लडेको	-10943
▁लाउनु	-10944
Shiftdi	-10945
राहरूका	-10946
▁flashc	-10947
▁गराएका	-10948
▁चलाइने	-10949
▁जनिएका	-10950
▁थलोबाट	-10951
▁दिशामा	-10952
▁फोक्सो	-10953
▁बनाएका	-10954
▁बाटोको	-10955
▁बाटोले	-10956
▁बुहारी	-10957
▁मेट्नु	-10958
▁यद्यपि	-10959
▁लगाएका	-10960
▁सोचेका	-10961
▁सोधपुछ	-10962
▁हराउनु	-10963
Shiftdis	-10964
एकाहरूको	-10965
नियोजनको	-10966
प्रदर्शक	-10967
▁flashca	-10968
▁अट्टेरी	-10969
▁गर्दैछु	-10970
▁ढाकिनेछ	-10971
▁तोक्नका	-10972
▁दु्रततर	-10973
▁बाटोहरू	-10974
▁भइसकेकी	-10975
▁मूल्यान	-10976
▁यहूदामा	-10977
▁रक्षाका	-10978
▁विदेशमा	-10979
▁शक्तिको	-10980
▁सिदियाह	-10981
▁flashcar	-10982
▁अस्ताउँछ	-10983
▁कर्तव्यः	-10984
▁किल्लाको	-10985
▁जापानलाई	-10986
▁फोक्सोको	-10987
▁यूरोपियन	-10988
▁लिपिबद्ध	-10989
▁शक्तिलाई	-10990
▁सङ्गगनको	-10991
▁सच्याउने	-10992
▁सजिलैसँग	-10993
▁सत्कारमा	-10994
▁सफलताहरू	-10995
▁सभामुखले	-10996
▁समयसम्मु	-10997
▁समस्याका	-10998
▁समाउनेमा	-10999
गेस	-11000
टकट	-11001
पटक	-11002
▁९२	-11003
▁९८	-11004
ँदैछ	-11005
जिया	-11006
टकरि	-11007
दियौ	-11008
नपटक	-11009
यौला	-11010
लाजु	-11011
▁नीच	-11012
जुहरू	-11013
झयौला	-11014
भिगेस	-11015
यनमिक	-11016
र्भिक	-11017
्राजि	-11018
▁आइला	-11019
▁तुम्	-11020
▁रहयौ	-11021
▁वृता	-11022
▁हेरक	-11023
▁हेरि	-11024
क्टरमा	-11025
जयुक्त	-11026
टकरिमा	-11027
डिदियौ	-11028
तीनपटक	-11029
मिकरको	-11030
लिजिया	-11031
्राजिल	-11032
▁केमिक	-11033
▁जुलाई	-11034
▁प्रेस	-11035
▁भर्नु	-11036
▁मर्का	-11037
▁मेटिए	-11038
▁हेरौं	-11039
जिरहेको	-11040
डायनमिक	-11041
राईतर्फ	-11042
र्भिकता	-11043
ेजयुक्त	-11044
▁अस्ताउ	-11045
▁केमिकल	-11046
▁खण्डको	-11047
▁खण्डमा	-11048
▁गरिदैछ	-11049
▁तुम्ली	-11050
▁बालाजु	-11051
▁मझयौला	-11052
▁मोडबाट	-11053
▁सर्टकट	-11054
तराईतर्फ	-11055
यन्त्रित	-11056
▁अवस्थाह	-11057
▁आइरहेको	-11058
▁गरिँदैछ	-11059
▁दाजुहरू	-11060
▁नेभिगेस	-11061
▁पोखरामा	-11062
▁बगालबाट	-11063
▁ब्राजिल	-11064
▁मूल्यका	-11065
▁वृतान्त	-11066
▁हग्रीका	-11067
सम्बन्धित	-11068
▁अनुरूपका	-11069
▁अन्तिममा	-11070
▁आइलागेको	-11071
▁गरेकाछन्	-11072
▁चोटहरूको	-11073
▁छोटकरिमा	-11074
▁छोडिदियौ	-11075
▁बजिरहेको	-11076
▁भूमिकरको	-11077
▁मालिजिया	-11078
▁यूसुफसित	-11079
▁ल्याउछन्	-11080
▁समाधानका	-11081
▁समायोजित	-11082
▁समुदायको	-11083
▁समुद्रमा	-11084
▁सम्झनेछु	-11085
▁सम्झनेछौ	-11086
▁सम्मानमा	-11087
▁सम्मानित	-11088
▁सरसफार्ई	-11089
▁सरूयाहका	-11090
▁सर्तबन्द	-11091
▁सर्वोपरी	-11092
▁साँझसम्म	-11093
▁साँढेहरू	-11094
▁साक्षीका	-11095
▁साधारणले	-11096
▁सुगन्धित	-11097
▁सुधारहरु	-11098
▁सुनेकाछौ	-11099
वटी	-11100
उल्ट	-11101
केटी	-11102
बहार	-11103
यल्ट	-11104
वर्स	-11105
वेशन	-11106
ाउटी	-11107
▁दृढ	-11108
उल्टो	-11109
कालको	-11110
टीपना	-11111
नेलको	-11112
न्दिन	-11113
यबूसी	-11114
यल्टी	-11115
सावले	-11116
हारका	-11117
▁उदास	-11118
▁घट्न	-11119
▁छुनै	-11120
▁नभेट	-11121
▁बताई	-11122
▁शुल्	-11123
ननेलको	-11124
रहन्थे	-11125
स्थलको	-11126
ाँउछौं	-11127
▁जूटका	-11128
▁टाइटल	-11129
▁बाल्ट	-11130
▁बिशेष	-11131
▁रङहरू	-11132
▁विहार	-11133
▁साउटी	-11134
▁स्वाद	-11135
टीपनामा	-11136
वाइवर्स	-11137
सहोल्डर	-11138
िसहारका	-11139
▁एसावले	-11140
▁खोजेका	-11141
▁खोजेको	-11142
▁खोज्नु	-11143
▁छानवीन	-11144
▁जोडिएर	-11145
▁बताएको	-11146
▁बतासले	-11147
▁बनावटी	-11148
▁बस्दैन	-11149
▁बस्नका	-11150
▁बाल्टी	-11151
▁भोग्नु	-11152
▁लाग्दछ	-11153
▁स्वागत	-11154
▁होल्डर	-11155
त्रीबाहक	-11156
▁अधिवेशन	-11157
▁आउँदैछु	-11158
▁खोजिएका	-11159
▁चेताउनी	-11160
▁जान्दिन	-11161
▁बाल्टीन	-11162
▁बैड्ढले	-11163
▁रोयल्टी	-11164
▁शुल्कको	-11165
▁सदाबहार	-11166
▁सामादान	-11167
▁हननेलको	-11168
केटीहरूले	-11169
सम्बन्धमा	-11170
▁अनिकालको	-11171
▁नभेटिएमा	-11172
▁पुनरावेद	-11173
▁पुस्तकचि	-11174
▁यिसहारका	-11175
▁लगानीहरू	-11176
▁विद्यमान	-11177
▁शुल्ककोे	-11178
▁सुनेकोले	-11179
▁सुन्नलाई	-11180
▁सुपरकम्प	-11181
▁सुशासनको	-11182
▁सौन्दर्य	-11183
▁स्किनरले	-11184
▁स्क्रीनश	-11185
▁स्टूडियो	-11186
▁स्तुतिका	-11187
▁स्थानहरू	-11188
▁स्थितिमा	-11189
▁स्पन्जमा	-11190
▁स्मरणशील	-11191
▁स्वर्गको	-11192
▁हजारदेखि	-11193
▁हतियारको	-11194
▁हनानीलाई	-11195
▁हराउँनेछ	-11196
▁हाँगाहरू	-11197
▁हात्तीले	-11198
▁हाम्रोमा	-11199
महो	-11200
▁op	-11201
घट्ट	-11202
टिने	-11203
म्भी	-11204
होती	-11205
▁गाऊ	-11206
▁जटि	-11207
▁ठेग	-11208
▁नसक	-11209
▁लेऊ	-11210
नेरका	-11211
महोदय	-11212
म्भीर	-11213
राएका	-11214
▁oper	-11215
▁औजार	-11216
▁गाडा	-11217
▁गाडि	-11218
▁गाभि	-11219
▁गार्	-11220
▁जटिल	-11221
▁जेली	-11222
▁नासे	-11223
▁नोमु	-11224
▁पाशि	-11225
▁मनन्	-11226
▁मोहो	-11227
▁राजद	-11228
▁रुग्	-11229
▁लेवल	-11230
थानलाई	-11231
बराएका	-11232
भाविकै	-11233
▁इयर्स	-11234
▁खटिने	-11235
▁गार्ह	-11236
▁ठेगना	-11237
▁तिरका	-11238
▁नसकुन	-11239
▁बहुरे	-11240
▁रहेमा	-11241
▁राजधा	-11242
▁रुग्ण	-11243
▁होटेल	-11244
होतीरका	-11245
्याइएको	-11246
▁औजारका	-11247
▁गम्भीर	-11248
▁गाभिने	-11249
▁टिष्टु	-11250
▁नपाओस्	-11251
▁नासेमा	-11252
▁निर्णा	-11253
▁नोमुरा	-11254
▁पकाउने	-11255
▁पठाइयो	-11256
▁राम्रा	-11257
▁स्वरले	-11258
ट्याइएको	-11259
▁अबनेरका	-11260
▁उठाउनको	-11261
▁गाडालाई	-11262
▁गाडिएका	-11263
▁गाडिदेऊ	-11264
▁घबराएका	-11265
▁चढाइएको	-11266
▁जिल्लाह	-11267
▁प्रसङ्ग	-11268
▁बथानलाई	-11269
▁बहुरेखि	-11270
▁भन्नलाई	-11271
▁मोहोर्न	-11272
▁राजदण्ड	-11273
▁राजधानी	-11274
▁विषयहरू	-11275
▁हुन्छहो	-11276
▁जिल्लाका	-11277
▁जिल्लाको	-11278
▁निर्णायक	-11279
▁पाउनुभयो	-11280
▁पानीघट्ट	-11281
▁बढाउँछन्	-11282
▁बहुरेखिय	-11283
▁लिनुपर्छ	-11284
▁हाललार्ई	-11285
▁हिज्जेका	-11286
▁हुँदैछन्	-11287
▁हुनहुन्छ	-11288
▁हुनुहुने	-11289
▁हुनेथ्यो	-11290
▁हुलाकबाट	-11291
▁हुलाकलाई	-11292
▁हेटौडामा	-11293
▁हेरिरहनु	-11294
▁ह्यान्डल	-11295
कमाराहरूका	-11296
क्षालयअन्त	-11297
खिरहेकाछन्	-11298
गाउँपालिका	-11299
ंदो	-11300
▁४०	-11301
▁४३	-11302
▁४५	-11303
▁४९	-11304
आसमा	-11305
कताप	-11306
परित	-11307
शावल	-11308
ुटवल	-11309
▁घट्	-11310
▁बचन	-11311
▁सदो	-11312
▁सवल	-11313
▁४००	-11314
पहिले	-11315
विभाग	-11316
सोतको	-11317
▁नाचि	-11318
▁पासो	-11319
▁बच्च	-11320
▁बासो	-11321
▁शारि	-11322
▁सफाई	-11323
दाताको	-11324
रीयामा	-11325
▁आहिले	-11326
▁उमाथि	-11327
▁कारबा	-11328
▁घट्ना	-11329
▁बचतमा	-11330
▁बचाउँ	-11331
▁बच्चा	-11332
▁बच्ने	-11333
▁बिघटन	-11334
▁बुटवल	-11335
▁मौलिक	-11336
▁विभाज	-11337
भित्रको	-11338
ुद्वारा	-11339
्रोआसमा	-11340
▁कारबाई	-11341
▁कोहिले	-11342
▁क्युदा	-11343
▁चलाउने	-11344
▁बचनहरू	-11345
▁बचाउने	-11346
▁बादलको	-11347
▁लैजानु	-11348
▁विपरित	-11349
▁शारिरी	-11350
▁सदोमका	-11351
कारीताको	-11352
धनद्वारा	-11353
▁जलसोतको	-11354
▁ठाउँहरू	-11355
▁देशमाथि	-11356
▁नगरिएका	-11357
▁शरीरहरू	-11358
▁शारिरीक	-11359
▁सम्झेमा	-11360
▁सेनालाई	-11361
कतापहरुको	-11362
र्ताकर्ता	-11363
हिलेभन्दा	-11364
िताद्वारा	-11365
▁अनुरुपको	-11366
▁उहाँमाथि	-11367
▁करदाताको	-11368
▁चाँहिंदो	-11369
▁त्रोआसमा	-11370
▁देशभित्र	-11371
▁परिपूर्ण	-11372
▁बचाउँनका	-11373
▁भूँईचालो	-11374
▁मोरीयामा	-11375
▁विभाजनको	-11376
ग्नावशेषमा	-11377
जातिहरुलाई	-11378
ज्ञापनपत्र	-11379
ढुंङ्गाहरू	-11380
न्दर्भिकता	-11381
परमप्रभुले	-11382
परमेश्वरले	-11383
पाठीहरूसँग	-11384
माइमप्रकार	-11385
यहूदीहरूको	-11386
र्थीहरुलाई	-11387
र्मेनियामा	-11388
लिपबोर्डमा	-11389
ल्थपोष्टमा	-11390
वनीहोस्टको	-11391
वस्तुहरूको	-11392
विनिमयपत्र	-11393
व्यवस्थापक	-11394
शाधनद्वारा	-11395
श्यामश्वेत	-11396
सम्बन्धीवि	-11397
सौन्दर्यका	-11398
हटाउनुहोस्	-11399
min	-11400
ठाई	-11401
ठाक	-11402
ड्ज	-11403
ढाई	-11404
मोत	-11405
्ठा	-11406
▁ओठ	-11407
▁ओर	-11408
ठाईस	-11409
ठ्ठा	-11410
मेरा	-11411
मोदा	-11412
मोरी	-11413
मोहर	-11414
मोही	-11415
वधान	-11416
ेरेन	-11417
आगोको	-11418
मेम्ब	-11419
मोदाद	-11420
लमोहर	-11421
िकठाक	-11422
ेकामे	-11423
ेदेशी	-11424
▁ओठले	-11425
▁ओर्ग	-11426
▁खुकु	-11427
▁गेरा	-11428
▁टेक्	-11429
▁पढाई	-11430
▁पाठा	-11431
▁पुरे	-11432
▁मुकु	-11433
▁मेजर	-11434
▁विड्	-11435
▁सेमे	-11436
मेम्बे	-11437
▁अठाईस	-11438
▁केरेन	-11439
▁नाचमा	-11440
▁बन्दप	-11441
▁भन्थे	-11442
▁मिलाउ	-11443
▁शूअका	-11444
▁हातले	-11445
▁हेरें	-11446
दसम्मको	-11447
मोरीयाह	-11448
▁खुकुलो	-11449
▁झुठ्ठा	-11450
▁टेक्सा	-11451
▁ठिकठाक	-11452
▁प्रप्त	-11453
▁बेकामे	-11454
▁मरेमोत	-11455
▁विपक्ष	-11456
▁स्वच्छ	-11457
याँभन्दा	-11458
्नुभन्दा	-11459
▁ओराल्ने	-11460
▁छाउनीमा	-11461
▁टेक्सास	-11462
▁पाउँनेछ	-11463
▁मुकुण्ड	-11464
▁याइँबाट	-11465
▁याकूबका	-11466
▁लालमोहर	-11467
▁विड्जेट	-11468
▁विेदेशी	-11469
▁सबभन्दा	-11470
▁सेमेस्ट	-11471
्रेमेम्बे	-11472
▁inactive	-11473
▁अल्मोदाद	-11474
▁गर्नुअघि	-11475
▁गित्तीको	-11476
▁प्रावधान	-11477
▁बन्दपूरा	-11478
▁बस्नुभयो	-11479
▁मिलाउनका	-11480
▁मुकुण्डो	-11481
▁विपक्षमा	-11482
▁सियोनलाई	-11483
▁हदसम्मको	-11484
घट्नुभन्दा	-11485
ाराजाधिराज	-11486
ूचाउनुहोस्	-11487
ैंयाँभन्दा	-11488
‍वविद्यालय	-11489
▁.........	-11490
▁02111-130	-11491
▁118:22-23	-11492
▁intensity	-11493
▁अख्तियारी	-11494
▁अधिविकर्ष	-11495
▁अनपेक्षित	-11496
▁अनुकूलनका	-11497
▁अनुग्रहको	-11498
▁अनुग्रहले	-11499
धीको	-11500
यतमा	-11501
रेखा	-11502
ेशेम	-11503
▁her	-11504
▁अगे	-11505
▁कसू	-11506
▁जसै	-11507
▁शोभ	-11508
दमाथि	-11509
पातमा	-11510
रकारण	-11511
ैकारण	-11512
▁here	-11513
▁उल्ल	-11514
▁कसको	-11515
▁चढेर	-11516
▁थपका	-11517
▁थपको	-11518
▁नगदे	-11519
▁नग्न	-11520
▁पाइए	-11521
▁सकेट	-11522
म्बोस्	-11523
सियतमा	-11524
▁hereh	-11525
▁अगेन्	-11526
▁अघिको	-11527
▁आफ्नी	-11528
▁गेशेम	-11529
▁दिइनै	-11530
▁दिइन्	-11531
▁नगदेब	-11532
▁पारयो	-11533
▁पार्छ	-11534
▁पार्ट	-11535
▁फर्के	-11536
▁भाग्न	-11537
▁सकेमा	-11538
इम्बोस्	-11539
ैसियतमा	-11540
▁hereht	-11541
▁अभियोग	-11542
▁अवधीको	-11543
▁आउँदैन	-11544
▁उठाउँछ	-11545
▁उल्लङ्	-11546
▁कसूरको	-11547
▁नाबालक	-11548
▁पाइएला	-11549
▁ब्याकइ	-11550
▁भागोस्	-11551
▁येशूको	-11552
▁येशूमा	-11553
▁शाऊलकी	-11554
▁शोभनीय	-11555
▁सकेपछि	-11556
इम्बोस्ड	-11557
निर्माता	-11558
▁herehtt	-11559
▁अदालतका	-11560
▁उल्लङ्घ	-11561
▁खानेछन्	-11562
▁जनाउनेछ	-11563
▁टाउकोमा	-11564
▁पूजालाई	-11565
▁यसरकारण	-11566
▁लानेछन्	-11567
▁लिनुभयो	-11568
▁समूहलाई	-11569
इस्राएलका	-11570
त्यसैकारण	-11571
न्टहरुलाई	-11572
▁herehttp	-11573
▁अगेन्स्ट	-11574
▁अनुपातमा	-11575
▁अर्धपाको	-11576
▁आधाररेखा	-11577
▁उल्लङ्घन	-11578
▁नगदेबाली	-11579
▁यहूदमाथि	-11580
▁सैंतालीस	-11581
▁हैसियतमा	-11582
▁अनुरोधहरू	-11583
▁अन्जुताका	-11584
▁अभिलेखहरु	-11585
▁अल्पविराम	-11586
▁अल्मलिएका	-11587
▁अवस्थाहरु	-11588
▁अश्शूरबाट	-11589
▁अस्ताउनेछ	-11590
▁अस्पतालमा	-11591
▁आइलाग्नेछ	-11592
▁आत्मविश्व	-11593
▁आपत्कालीन	-11594
▁आपूर्तिको	-11595
▁आफ्नोपनको	-11596
▁आयोजनाहरू	-11597
▁इङ्‍ग्लिस	-11598
▁इन्टरफेसा	-11599
▁'=	-11600
ँदिन	-11601
अतिर	-11602
क्रे	-11603
खिरी	-11604
प्तह	-11605
ब्रे	-11606
शीको	-11607
▁'='	-11608
▁बीट	-11609
▁महं	-11610
▁महे	-11611
▁१६५	-11612
करणले	-11613
म्बित	-11614
र्डिक	-11615
वार्ड	-11616
ुकहाँ	-11617
▁औंला	-11618
▁कोशी	-11619
▁क्रे	-11620
▁टेबल	-11621
▁दयाग	-11622
▁नतिर	-11623
▁नपिई	-11624
▁बेचि	-11625
▁बेसह	-11626
▁मुखि	-11627
▁लर्ड	-11628
▁वर्ड	-11629
▁सकिन	-11630
उनेहरु	-11631
गटिँदै	-11632
ण्डर्ड	-11633
िकार्ड	-11634
▁आखिरी	-11635
▁क्रसि	-11636
▁जाँची	-11637
▁पक्रे	-11638
▁फुटाइ	-11639
▁महंगो	-11640
▁वार्ड	-11641
▁हालका	-11642
▁१६५०२	-11643
अतिरञ्ज	-11644
वाम्बित	-11645
ैण्डर्ड	-11646
▁अनुकरण	-11647
▁क्रसिङ	-11648
▁खोजीमा	-11649
▁खोजेमा	-11650
▁गराएमा	-11651
▁गहूंको	-11652
▁जनाउने	-11653
▁जाँच्न	-11654
▁दयागरी	-11655
▁दिँदिन	-11656
▁देब्रे	-11657
▁नाउँका	-11658
▁नाउँनि	-11659
▁मुखिया	-11660
▁यिप्तह	-11661
▁शहरतिर	-11662
▁सकिन्छ	-11663
वास्तवमा	-11664
िकार्डको	-11665
▁एडवार्ड	-11666
▁ओगटिँदै	-11667
▁जहाँबाट	-11668
▁ज्योतिष	-11669
▁नतिरेमा	-11670
▁नाउँनिश	-11671
▁नाउँलाई	-11672
▁पापीहरू	-11673
▁पुर्याउ	-11674
▁पृष्ठमा	-11675
▁बेचिन्छ	-11676
▁बेसहारा	-11677
▁हटाइएको	-11678
अतिरञ्जित	-11679
पुर्खाहरु	-11680
▁अर्कोतिर	-11681
▁क्रसिङमा	-11682
▁निकासहरु	-11683
▁निम्शीको	-11684
▁पिउनेहरु	-11685
▁बाबुकहाँ	-11686
▁बुद्धिमा	-11687
▁बैंैंकले	-11688
▁महेन्द्र	-11689
▁रहोबोतका	-11690
▁इन्डिगोले	-11691
▁इन्डियाले	-11692
▁इपिफानीको	-11693
▁ईर्ष्यालु	-11694
▁उज्यालोमा	-11695
▁उत्पादनका	-11696
▁उद्धरणहरू	-11697
▁उनीहरुलाई	-11698
▁उपकेन्द्र	-11699
जिस	-11700
टिस	-11701
टोल	-11702
वंश	-11703
▁IN	-11704
ंशास	-11705
कुञ्	-11706
गमती	-11707
जिसन	-11708
ढीले	-11709
परिष	-11710
म्टो	-11711
रिसी	-11712
लेसी	-11713
श्रण	-11714
सानो	-11715
हासी	-11716
▁INB	-11717
▁बूक	-11718
ज्ञाप	-11719
नोस्त	-11720
बीचमा	-11721
रह्यो	-11722
ितव्य	-11723
िपरिष	-11724
िश्रण	-11725
ुम्टो	-11726
▁INBO	-11727
▁आशीष	-11728
▁बाटा	-11729
▁बाटै	-11730
▁भव्य	-11731
▁माटो	-11732
▁मोटो	-11733
▁हिना	-11734
▁हिलो	-11735
ंशासित	-11736
कुञ्जी	-11737
न्तव्य	-11738
वंशलाई	-11739
वीजिसन	-11740
ितव्यय	-11741
्रिटिस	-11742
▁INBOX	-11743
▁अघिनै	-11744
▁कुलना	-11745
▁कुलमा	-11746
▁गीतमा	-11747
▁जत्ति	-11748
▁दरलाई	-11749
▁दिव्य	-11750
▁फरिसी	-11751
▁भोग्न	-11752
▁विषले	-11753
▁सुव्य	-11754
▁हलेसी	-11755
▁हिन्द	-11756
गाउँटोल	-11757
वित्तीय	-11758
व्यक्ति	-11759
िपरिषद्	-11760
▁क्रिया	-11761
▁ख्याको	-11762
▁घुम्टो	-11763
▁तरकारी	-11764
▁दिएपछि	-11765
▁देख्यो	-11766
▁बागमती	-11767
▁बाटाको	-11768
▁बाढीले	-11769
▁यूनियन	-11770
▁साहासी	-11771
▁सुव्यव	-11772
▁हिनामि	-11773
▁हिन्दू	-11774
कुञ्जीले	-11775
क्वीजिसन	-11776
ज्ञापत्र	-11777
धिकारीले	-11778
▁कुलनायक	-11779
▁गन्तव्य	-11780
▁पृष्ठका	-11781
▁ब्रिटिस	-11782
▁मितव्यय	-11783
▁मिश्रले	-11784
▁यारोबाम	-11785
▁वस्तुमा	-11786
▁वस्तुले	-11787
▁समिश्रण	-11788
एक्वीजिसन	-11789
▁कुलहरूले	-11790
▁गर्नैछन्	-11791
▁परिरह्यो	-11792
▁वाञ्छनीय	-11793
▁सच्याउनु	-11794
▁सहयोगीको	-11795
▁हिनामिना	-11796
िपरिषद्बाट	-11797
▁उपलब्धिको	-11798
▁उपसमूहहरु	-11799
यकै	-11800
लसी	-11801
सीआ	-11802
▁ऊँ	-11803
ख्नु	-11804
गोला	-11805
मोरा	-11806
लासी	-11807
▁आएन	-11808
▁आएम	-11809
कीशले	-11810
जरिया	-11811
नारको	-11812
लसीका	-11813
हिरको	-11814
▁आएमए	-11815
▁कसीआ	-11816
▁सबूद	-11817
▁हिलै	-11818
▁२०४१	-11819
स्तरको	-11820
ेरियाई	-11821
▁अघिका	-11822
▁उपरको	-11823
▁ऊँटको	-11824
▁तलासी	-11825
▁तोड्न	-11826
▁शिरको	-11827
▁संचना	-11828
गेरियाई	-11829
गोलाकार	-11830
बाहिरको	-11831
ल्याउनु	-11832
िएलसीका	-11833
▁आकीशले	-11834
▁इनारको	-11835
▁उभिरहे	-11836
▁कानहरू	-11837
▁गोमोरा	-11838
▁चाख्नु	-11839
▁छविलाई	-11840
▁जनालाई	-11841
▁नहौंला	-11842
▁निश्चि	-11843
▁लाग्नु	-11844
▁संचनाह	-11845
▁हजारौं	-11846
▁आएमएसले	-11847
▁आदेशबाट	-11848
▁कन्ट्री	-11849
▁निकायका	-11850
▁पहिलेको	-11851
▁सरकारकै	-11852
▁सिजरिया	-11853
ल्गेरियाई	-11854
▁कागजातको	-11855
▁खेलकुदको	-11856
▁टल्किएको	-11857
▁निकायलाई	-11858
▁पिएलसीका	-11859
▁मूर्खहरू	-11860
▁उपहारसितै	-11861
▁उप्जाउँथे	-11862
▁उल्ट्याउन	-11863
▁एजेन्सीको	-11864
▁एलीशासँगै	-11865
▁ओछ्यानबाट	-11866
▁औंल्याउनु	-11867
▁कम्पाइलको	-11868
▁कम्प्युटर	-11869
▁कम्मरमाथि	-11870
▁करोडभन्दा	-11871
▁कर्पोरेसन	-11872
▁कागजातबाट	-11873
▁कागजातलाई	-11874
▁कामदारहरू	-11875
▁कारखानाको	-11876
▁कारबाहीका	-11877
▁कारबाहीमा	-11878
▁कारोबारमा	-11879
▁कार्यकलाप	-11880
▁कार्यबिधी	-11881
▁कार्यवाही	-11882
▁कार्यसूची	-11883
▁किल्लालाई	-11884
▁कैदखानामा	-11885
▁कैन्द्रीय	-11886
▁क्याम्पमा	-11887
▁क्र्याकमा	-11888
▁क्लेमेण्ट	-11889
▁खुट्टातिर	-11890
▁खुल्लाउपल	-11891
▁खेलाडीलाई	-11892
▁खेलिरहेको	-11893
▁गनेसरेतको	-11894
▁गभर्निङ्ग	-11895
▁गरिदिनेछु	-11896
▁गरिसकेपछि	-11897
▁गर्नसक्ने	-11898
▁गाडीहरुको	-11899
200	-11900
शीय	-11901
▁५२	-11902
▁५३	-11903
2001	-11904
तुमा	-11905
म्पर	-11906
शांश	-11907
सदीय	-11908
ौलिन	-11909
्रतक	-11910
▁असर	-11911
▁चिठ	-11912
▁चिन	-11913
▁लगभ	-11914
▁लगि	-11915
32001	-11916
भार्ड	-11917
म्परा	-11918
्यामु	-11919
▁असमा	-11920
▁गल्फ	-11921
▁चिठृ	-11922
▁चिम्	-11923
▁चिहा	-11924
▁तर्श	-11925
▁पम्प	-11926
▁पापी	-11927
▁महँग	-11928
▁लगभग	-11929
▁हँदै	-11930
▁१९८९	-11931
क्तव्य	-11932
शांशकप	-11933
शीयाली	-11934
ारामको	-11935
्यामुय	-11936
्रतकथा	-11937
▁अरूले	-11938
▁असरवि	-11939
▁असहाय	-11940
▁अस्री	-11941
▁ऋतुमा	-11942
▁चिठृी	-11943
▁जम्पर	-11944
▁तर्शी	-11945
▁तौलिन	-11946
▁दिनेः	-11947
▁महँगो	-11948
▁माग्छ	-11949
▁येशना	-11950
थेन्सका	-11951
म्परागत	-11952
स्तरबाट	-11953
्यामुयल	-11954
▁आधारको	-11955
▁आयुक्त	-11956
▁एकीकरण	-11957
▁चिम्टा	-11958
▁तर्शीश	-11959
▁न्यूनी	-11960
▁पानीमा	-11961
▁लगिनेछ	-11962
▁लिब्ना	-11963
▁संसदीय	-11964
▁सोनिया	-11965
एथेन्सका	-11966
शीयालीले	-11967
्रतकथाको	-11968
▁असमान्य	-11969
▁असरविना	-11970
▁अस्रीएल	-11971
▁चिहानमा	-11972
▁दशांशकप	-11973
▁धेरैलाई	-11974
▁नुवाकोट	-11975
▁पढ्नलाई	-11976
▁पानीबाट	-11977
▁प्रशस्त	-11978
▁फारामको	-11979
▁बथानवाट	-11980
▁भन्नुको	-11981
▁वक्तव्य	-11982
▁सेभार्ड	-11983
विद्यालमा	-11984
▁आयुक्तको	-11985
▁छायाँलाई	-11986
▁परिपालना	-11987
▁भन्दाअघि	-11988
▁विश्वासघ	-11989
▁व्यापकता	-11990
▁शान्तिको	-11991
▁स्यामुयल	-11992
▁आधारहरुको	-11993
▁इभोल्युसन	-11994
▁गाड्नेछौं	-11995
▁गीतहरूसँग	-11996
▁गेर्शोमका	-11997
▁घिनलाग्दो	-11998
▁चिठृीपत्र	-11999
इन्ट	-12000
गायत	-12001
टकको	-12002
तरना	-12003
दानो	-12004
न्टल	-12005
न्टि	-12006
न्टी	-12007
इन्टर	-12008
तरनाक	-12009
पातिक	-12010
बेहरी	-12011
लगायत	-12012
हीतको	-12013
ेदकको	-12014
▁चलाए	-12015
▁फोका	-12016
▁बुझी	-12017
▁भावी	-12018
न्टियो	-12019
पाँंको	-12020
ूहीतको	-12021
▁एन्टी	-12022
▁केन्ट	-12023
▁झुण्ड	-12024
▁नहुन्	-12025
▁पछिको	-12026
▁पटकको	-12027
▁फर्की	-12028
▁बचाऔं	-12029
▁रातको	-12030
▁समाधन	-12031
▁समेटी	-12032
इन्टरमि	-12033
गिसकेका	-12034
तपाँंको	-12035
नुपातिक	-12036
ारेन्टि	-12037
▁कक्षका	-12038
▁कपडाको	-12039
▁खतरनाक	-12040
▁जएबलाई	-12041
▁जनसमूह	-12042
▁झुण्डय	-12043
▁ढोकामा	-12044
▁निगमको	-12045
▁पराजित	-12046
▁योक्ता	-12047
▁सक्छन्	-12048
नुपर्नेछ	-12049
▁आवेदकको	-12050
▁चित्रमा	-12051
▁परामिति	-12052
▁योक्तान	-12053
▁लूहीतको	-12054
▁विवरणको	-12055
▁सदस्यमा	-12056
इन्टरमिडि	-12057
▁उपनियममा	-12058
▁गुज्रेको	-12059
▁तिमीकहाँ	-12060
▁मान्टियो	-12061
▁वारेन्टि	-12062
▁संकलनबाट	-12063
▁सदस्यहरु	-12064
▁अनुमतिहरू	-12065
▁चुनिएकोले	-12066
▁छापामारेर	-12067
▁जंजीबारमा	-12068
▁जग्गावाला	-12069
▁जलविद्युत	-12070
▁जानकारीका	-12071
▁जानुपर्दछ	-12072
▁जान्नेछन्	-12073
▁जिब्रोलाई	-12074
▁जुम्राहरू	-12075
▁जूम्राहरू	-12076
▁झर्नुहोस्	-12077
▁झुण्डयाउन	-12078
▁टेम्प्लेट	-12079
▁ठहर्याएको	-12080
▁ठाँउहरूमा	-12081
▁ठाउँहरुमा	-12082
▁ठाउँहरूमा	-12083
▁डलरसम्मको	-12084
▁डिजिक्याम	-12085
▁डिटर्मिने	-12086
▁डिपोहरुको	-12087
▁तपाँईकहाँ	-12088
▁तपाईंकहाँ	-12089
▁तपाईंमाथि	-12090
▁तालिकालाई	-12091
▁तिमीहरुका	-12092
▁तुम्लीङ्ग	-12093
▁तुल्याउनु	-12094
▁तुल्याएको	-12095
▁त्यसवाहेक	-12096
▁त्यसैबेला	-12097
▁त्रैमासिक	-12098
▁थाक्दैनन्	-12099
MAP	-12100
भोग	-12101
ोगि	-12102
००२	-12103
१८च	-12104
७००	-12105
▁MI	-12106
च्छि	-12107
जीवन	-12108
रेता	-12109
ोगिट	-12110
▁MIM	-12111
▁अदल	-12112
▁आइन	-12113
▁गइन	-12114
▁जनव	-12115
▁नभन	-12116
▁मोट	-12117
▁लगी	-12118
भोगमा	-12119
लमापन	-12120
विचार	-12121
▁IMAP	-12122
▁MIME	-12123
▁अदना	-12124
▁जबदी	-12125
▁जीजा	-12126
▁जीवि	-12127
▁पारे	-12128
▁यूसू	-12129
▁वृहत	-12130
▁२०००	-12131
रियामा	-12132
लिन्दा	-12133
विच्छि	-12134
शोनलाई	-12135
ोगिटेक	-12136
▁अदनमा	-12137
▁अवधिघ	-12138
▁आबद्ध	-12139
▁जनप्र	-12140
▁जिल्ल	-12141
▁पाइथो	-12142
▁मोस्त	-12143
▁यूसूफ	-12144
▁सम्बो	-12145
▁होर्न	-12146
▁२५००२	-12147
योजनाको	-12148
▁अपेकमा	-12149
▁कमाएको	-12150
▁चन्द्र	-12151
▁जबदीका	-12152
▁जलमापन	-12153
▁जीविका	-12154
▁देशलाई	-12155
▁नपरेता	-12156
▁नियमले	-12157
▁पर्नेः	-12158
▁पाइथोन	-12159
▁पारेमा	-12160
▁संग्रह	-12161
म्मावारी	-12162
विचारहरू	-12163
िमशोनलाई	-12164
▁अविच्छि	-12165
▁उपदफाको	-12166
▁उपदफाले	-12167
▁उपभोगमा	-12168
▁गल्तिको	-12169
▁जनवरीमा	-12170
▁नियमलाई	-12171
▁बुझ्छन्	-12172
▁मरिहाल्	-12173
▁मोटाउनु	-12174
▁यान्त्र	-12175
▁यूसूफले	-12176
▁लोगिटेक	-12177
▁सम्बोधन	-12178
▁सेनाहरू	-12179
▁अवधिसम्म	-12180
▁उत्तरदाय	-12181
▁कारवाईमा	-12182
▁ग्निबलले	-12183
▁चन्द्रमा	-12184
▁जीविकाको	-12185
▁पुलिन्दा	-12186
▁मिलाइदिए	-12187
▁मोस्तकिम	-12188
▁वडाहाकिम	-12189
▁वितरकलेग	-12190
▁सञ्‍चालक	-12191
▁सुरुआतमा	-12192
▁हसर्मवित	-12193
▁हाँगाभरि	-12194
▁अवधिघण्टा	-12195
▁केन्द्रित	-12196
▁चिनिन्छन्	-12197
▁थोरैभन्दा	-12198
▁दक्षिणतिर	-12199
leC	-12200
▁eu	-12201
ileC	-12202
उठेर	-12203
गर्न	-12204
ग्लत	-12205
च्ने	-12206
न्जन	-12207
पिता	-12208
भ्ने	-12209
र्नब	-12210
र्नर	-12211
र्नल	-12212
र्वल	-12213
सिजन	-12214
हुनु	-12215
हुला	-12216
▁लहु	-12217
FileC	-12218
भर्नर	-12219
रन्जन	-12220
रुर्‍	-12221
वर्धक	-12222
हुलाक	-12223
ूनलाई	-12224
्रभाव	-12225
▁मर्न	-12226
▁र्नब	-12227
▁सकिए	-12228
FileCh	-12229
कहरूमा	-12230
तापिता	-12231
भावबाट	-12232
र्काउन	-12233
▁असमान	-12234
▁एग्लत	-12235
▁किताव	-12236
▁कोर्न	-12237
▁गाईका	-12238
▁गोमेद	-12239
▁जर्नल	-12240
▁पैतीस	-12241
▁बिलको	-12242
▁लहुरो	-12243
▁शहरकी	-12244
▁श्रोत	-12245
▁्रभाव	-12246
FileCho	-12247
फर्काउन	-12248
रुर्‍मा	-12249
हाहरूमा	-12250
▁खिच्ने	-12251
▁गभर्नर	-12252
▁गाभ्ने	-12253
▁चढाएका	-12254
▁जनाएको	-12255
▁दुर्वल	-12256
▁निर्गत	-12257
▁बिगर्न	-12258
▁बिजुली	-12259
▁र्नबिस	-12260
▁वापतको	-12261
▁शहरबाट	-12262
▁शहरूमा	-12263
FileChoo	-12264
तापिताले	-12265
हारूनलाई	-12266
ाटकहरूमा	-12267
ेदभावबाट	-12268
▁अक्सिजन	-12269
▁असमानता	-12270
▁आत्मसम्	-12271
▁गराउँदै	-12272
▁रूपैयाँ	-12273
kFileChoo	-12274
ताहाहरूमा	-12275
▁गर्नुुुु	-12276
▁नफर्काउन	-12277
▁फकिर्नेछ	-12278
▁बहुमतबाट	-12279
▁मनोरन्जन	-12280
▁ल्याइएका	-12281
▁शहरहरूको	-12282
▁शास्त्री	-12283
▁सोच्दैनौ	-12284
tkFileChoo	-12285
▁आत्मसम्मा	-12286
▁दफाबमोजिम	-12287
▁दाज्यूभाइ	-12288
▁दिनुहुन्न	-12289
▁दूतावासमा	-12290
▁दूरवाणीको	-12291
▁दृश्यसँगै	-12292
▁दृष्टान्त	-12293
▁देउखुरीमा	-12294
▁देखाँउछौं	-12295
▁देख्नेछौं	-12296
▁धर्मपुत्र	-12297
▁धूपौराहरू	-12298
▁नक्साङ्कन	-12299
ंठ	-12300
emp	-12301
▁४२	-12302
अमान	-12303
एनान	-12304
क्लो	-12305
स्यो	-12306
▁ओंठ	-12307
▁करि	-12308
▁शबा	-12309
▁हेप	-12310
emple	-12311
अमानत	-12312
ङ्कशन	-12313
डिङ्ग	-12314
त्नका	-12315
सामान	-12316
हानान	-12317
▁इन्ड	-12318
▁उसेल	-12319
▁करिब	-12320
▁दिदी	-12321
▁भानु	-12322
▁भाला	-12323
▁मसंग	-12324
▁रहबा	-12325
▁लगका	-12326
▁वजार	-12327
▁सघैं	-12328
▁सपना	-12329
ढोकामा	-12330
प्रकाश	-12331
म्रामा	-12332
रावेदन	-12333
▁अर्था	-12334
▁अर्ना	-12335
▁आकाशे	-12336
▁जेताम	-12337
▁बस्यो	-12338
▁लक्षण	-12339
▁हेपेर	-12340
बाबेलका	-12341
लढोकामा	-12342
▁Temple	-12343
▁कर्मेल	-12344
▁निकासा	-12345
▁निश्चय	-12346
▁पापबलि	-12347
▁फङ्कशन	-12348
▁बाक्लो	-12349
▁मूलयमा	-12350
▁लेख्नु	-12351
▁वर्गको	-12352
▁संसूचक	-12353
▁सम्बलत	-12354
▁सिक्ने	-12355
▁सुरुका	-12356
▁हावाको	-12357
प्रकाशित	-12358
सामानहरु	-12359
ुनरावेदन	-12360
्रेडिङ्ग	-12361
▁अर्थात्	-12362
▁आउनेछन्	-12363
▁दिनुपर्	-12364
▁नबुझेका	-12365
▁योहानान	-12366
▁रहबामले	-12367
▁राजाहरू	-12368
▁शाऊललाई	-12369
ग्रेडिङ्ग	-12370
पुनरावेदन	-12371
▁इन्डेन्ट	-12372
▁कर्मेलकी	-12373
▁जुम्रामा	-12374
▁दृष्टिगत	-12375
▁भएसम्मको	-12376
▁समात्नका	-12377
▁समुद्रका	-12378
▁खरानीमाथि	-12379
▁त्यहाँबाट	-12380
▁नलागेसम्म	-12381
▁नातेदारले	-12382
▁नाबालकहाँ	-12383
▁निरन्तरता	-12384
▁निराशाजनक	-12385
▁निर्णयलाई	-12386
▁निर्दिष्‍	-12387
▁निर्देशकः	-12388
▁निर्देशना	-12389
▁निर्माणका	-12390
▁निर्माणमा	-12391
▁निलम्बनको	-12392
▁निश्चिन्त	-12393
▁निसर्गबाट	-12394
▁नेतृत्त्व	-12395
▁नेतृत्वले	-12396
▁नेपालगञ्ज	-12397
▁नोकरहरूले	-12398
▁नोडहरुलाई	-12399
नगर	-12400
मधु	-12401
मिट	-12402
मिथ	-12403
▁ही	-12404
ङ्गी	-12405
निकस	-12406
मधुर	-12407
मिरी	-12408
मिलो	-12409
र्की	-12410
लान्	-12411
▁उसि	-12412
▁जोन	-12413
▁शिष	-12414
ङ्गला	-12415
ङ्गीण	-12416
टर्की	-12417
थानले	-12418
न्सार	-12419
प्रमि	-12420
बच्चा	-12421
सारिक	-12422
हरीको	-12423
▁कर्ड	-12424
▁थुना	-12425
▁नामस	-12426
▁भेरे	-12427
▁हीरा	-12428
एफटीपी	-12429
कासीमा	-12430
क्षिका	-12431
दायकले	-12432
प्रमिश	-12433
भन्सार	-12434
वेदनका	-12435
ालीलको	-12436
्रोमिट	-12437
▁आनिकस	-12438
▁कोनिक	-12439
▁चाहने	-12440
▁जोनले	-12441
▁देखाऊ	-12442
▁धमिलो	-12443
▁बन्दी	-12444
▁लाग्छ	-12445
▁शिकार	-12446
▁साङ्ग	-12447
▁स्मिथ	-12448
टर्कीको	-12449
वाङ्गीण	-12450
▁offici	-12451
▁अखमिरी	-12452
▁उहाँकी	-12453
▁कर्डले	-12454
▁गर्दा्	-12455
▁देलान्	-12456
▁पारिने	-12457
▁प्रशाष	-12458
▁बङ्गला	-12459
▁बोटलाई	-12460
▁भेरेना	-12461
▁विषयको	-12462
▁शिषिका	-12463
▁सुमधुर	-12464
▁सोध्थे	-12465
निकासीमा	-12466
प्रमिशरी	-12467
्यावलोकन	-12468
▁officia	-12469
▁उसिनेको	-12470
▁कर्डलेस	-12471
▁गर्दाका	-12472
▁गालीलको	-12473
▁ग्रोमिट	-12474
▁चाहिएको	-12475
▁तिनीसित	-12476
▁नामसारी	-12477
▁पुस्तौं	-12478
▁प्रशाषक	-12479
▁भुक्तान	-12480
▁मोहीलाई	-12481
नगरपालिका	-12482
र्याकचरिङ	-12483
ष्यावलोकन	-12484
▁official	-12485
▁अन्तर्वा	-12486
▁जीएफटीपी	-12487
▁नाबाललाई	-12488
▁प्रहरीको	-12489
▁बर्खिलाप	-12490
▁शिक्षिका	-12491
▁सम्मिश्र	-12492
▁सांसारिक	-12493
▁साङ्गिति	-12494
बच्चाहरूको	-12495
्रोलोजिष्ट	-12496
▁कारबाहीले	-12497
▁छनिकासीमा	-12498
▁न्यूजलेटर	-12499
बस	-12500
ौट	-12501
गयो	-12502
डीन	-12503
िबस	-12504
ूजी	-12505
ँूजी	-12506
क्वम	-12507
गयोः	-12508
डीमा	-12509
स्थ्	-12510
हरका	-12511
होइन	-12512
ुद्ध	-12513
ेश्व	-12514
▁सहम	-12515
उनाले	-12516
क्काई	-12517
क्वमण	-12518
थानेल	-12519
रोलाई	-12520
स्थ्ा	-12521
िक्री	-12522
ितिजी	-12523
▁आईपु	-12524
▁थोमा	-12525
▁बद्ध	-12526
▁बिडी	-12527
▁सहमत	-12528
▁हुनू	-12529
▁१२५८	-12530
द्धाउन	-12531
स्थ्ाा	-12532
ितिजीय	-12533
ुद्धता	-12534
▁एकपछि	-12535
▁गहरका	-12536
▁डण्डा	-12537
▁देखुन	-12538
▁पँूजी	-12539
▁पुनसु	-12540
▁पुनस्	-12541
▁लेखौट	-12542
▁सम्झे	-12543
ेश्वलाई	-12544
▁आईपुगे	-12545
▁आक्वमण	-12546
▁आफूहरू	-12547
▁एक्काई	-12548
▁कृषिको	-12549
▁जिक्री	-12550
▁थोकहरू	-12551
▁नथानेल	-12552
▁नाटकीय	-12553
▁पूरानो	-12554
ूहन्नाले	-12555
▁उच्चारण	-12556
▁छोरालाई	-12557
▁तयारिबस	-12558
▁तिरोलाई	-12559
▁पर्थ्यो	-12560
▁पुनसुरू	-12561
▁पुनस्र्	-12562
▁सूचनाले	-12563
▁हुनगयोः	-12564
यूहन्नाले	-12565
ारीपूर्वक	-12566
▁डीभीडीमा	-12567
▁प्यानलमा	-12568
▁फर्किनेछ	-12569
▁बनाँउछन्	-12570
▁भन्सक्छौ	-12571
▁राख्दैछौ	-12572
▁रोजगारको	-12573
▁सिद्धाउन	-12574
▁अबीगेललाई	-12575
▁एक्काईसौं	-12576
▁क्षितिजीय	-12577
▁घुमाउनाले	-12578
▁न्यूनीकरण	-12579
▁न्यूयोर्क	-12580
▁पठाउनुभयो	-12581
▁पत्रकारको	-12582
▁परम्परागत	-12583
▁परिणामबाट	-12584
▁परिपाटीको	-12585
▁परियोजनको	-12586
▁परिवर्तित	-12587
▁परिवारहरू	-12588
▁परिषद्बाट	-12589
▁परिषद्लाई	-12590
▁परिषद््का	-12591
▁परिषद््ले	-12592
▁परीक्षकले	-12593
▁पर्खाललाई	-12594
▁पर्वतमाथि	-12595
▁पलिश्तीका	-12596
▁पवित्रस्थ	-12597
▁पशुपतिनाथ	-12598
▁पशुहरूलाई	-12599
कुट	-12600
धैं	-12601
सेत	-12602
िकन	-12603
▁आक	-12604
▁ढी	-12605
ँङ्ग	-12606
ँधैं	-12607
ंकित	-12608
किका	-12609
पालु	-12610
रुवा	-12611
विष्	-12612
सुन्	-12613
सेतो	-12614
▁IID	-12615
▁चेत	-12616
▁जुट	-12617
▁बग्	-12618
▁यता	-12619
▁रूथ	-12620
▁लुट	-12621
किकात	-12622
नातको	-12623
▁IIDs	-12624
▁ढीला	-12625
▁द्रु	-12626
▁पुष्	-12627
▁पोलि	-12628
▁महन्	-12629
▁समाउ	-12630
▁ह्रा	-12631
डिंदैन	-12632
पूर्जा	-12633
पूर्ती	-12634
▁आकर्ष	-12635
▁आविष्	-12636
▁एश्तो	-12637
▁तलबको	-12638
▁द्रुत	-12639
▁पुष्प	-12640
▁बग्दछ	-12641
▁बसुन्	-12642
▁भर्खर	-12643
▁महन्थ	-12644
▁मुकुट	-12645
▁लुट्न	-12646
▁लैजाऊ	-12647
▁सँधैं	-12648
▁समारो	-12649
▁स्पूल	-12650
▁ह्रास	-12651
आफैलाईं	-12652
ङ्गुरका	-12653
▁कृपालु	-12654
▁छोराको	-12655
▁जुटाउन	-12656
▁पूर्वस	-12657
▁पोलिथि	-12658
▁बनाउँन	-12659
▁बनाउदा	-12660
▁विरुवा	-12661
▁समाउदा	-12662
▁समारोह	-12663
▁अमेरिकन	-12664
▁आकर्षित	-12665
▁आपूर्ती	-12666
▁गइरहेछु	-12667
▁चेतनाले	-12668
▁तहकिकात	-12669
▁पोलिथिन	-12670
▁माकीरका	-12671
▁वर्षलाई	-12672
▁स्तरबाट	-12673
▁स्नातको	-12674
▁अङ्गुरका	-12675
▁आविष्कार	-12676
▁एश्तोनका	-12677
▁चुडिंदैन	-12678
▁छापाखाना	-12679
▁तपाईंबाट	-12680
▁त्यसबेला	-12681
▁पुष्पराज	-12682
▁पूर्वसेट	-12683
▁बाञ्छनीय	-12684
▁शलीशियाह	-12685
▁अभिलेखलाई	-12686
▁गह्रुँङ्ग	-12687
▁नानीहरूको	-12688
▁परिश्रमको	-12689
▁पश्चात्को	-12690
▁पापबलिहरू	-12691
▁पारपाचुके	-12692
▁पारिरहेको	-12693
▁पारिवारीक	-12694
▁पिठ्यूँमा	-12695
▁पुगिसकेका	-12696
▁पुत्रमाथि	-12697
▁पुनथपिनेछ	-12698
▁पुनस्र्था	-12699
वेय	-12700
शाऊ	-12701
सुन	-12702
▁झग	-12703
▁झन	-12704
▁३४	-12705
▁३७	-12706
▁९०	-12707
किङ्	-12708
दरमा	-12709
निएल	-12710
न्तै	-12711
शाऊल	-12712
शाको	-12713
ाराक	-12714
▁उसो	-12715
▁२०७	-12716
▁उद्य	-12717
▁जांच	-12718
▁झगडा	-12719
▁ट्रच	-12720
▁पखाल	-12721
▁बिर्	-12722
▁बिहा	-12723
▁२०७५	-12724
रिदिनु	-12725
रून्तै	-12726
वेयरमा	-12727
ित्रिक	-12728
▁उत्सु	-12729
▁उद्यम	-12730
▁गन्ती	-12731
▁टकिङ्	-12732
▁टिप्प	-12733
▁नल्या	-12734
▁पठाउँ	-12735
▁बाराक	-12736
▁मरारी	-12737
▁सूचित	-12738
▁हरिया	-12739
▁हितका	-12740
नुहुदैन	-12741
विधिज्ञ	-12742
▁उत्सुक	-12743
▁कित्ता	-12744
▁गरीबले	-12745
▁ट्रचेट	-12746
▁तामेली	-12747
▁दानिएल	-12748
▁द्धन्द	-12749
▁नल्याऊ	-12750
▁पठाउँन	-12751
▁परदेशी	-12752
▁परिवत्	-12753
▁बाशाको	-12754
▁बिर्सि	-12755
▁बिहानै	-12756
▁मागेको	-12757
▁यिशैका	-12758
▁हुनेको	-12759
▁खानालाई	-12760
▁छरिदिनु	-12761
▁टिप्पणी	-12762
▁पखाल्नु	-12763
▁बाहेकको	-12764
▁वालीलाई	-12765
▁हुनेलाई	-12766
ख्राहरूको	-12767
टेम्प्लेट	-12768
भाइहरूसित	-12769
▁तुरून्तै	-12770
▁दुव्र्यस	-12771
▁पर्नेछन्	-12772
▁पश्चातका	-12773
▁फिरऊनलाई	-12774
▁बादलमाथि	-12775
▁बिर्सियौ	-12776
▁ग्याबिटले	-12777
▁चारित्रिक	-12778
▁दिनुहुन्छ	-12779
▁परिवत्र्य	-12780
▁पुरुषमाथि	-12781
▁पुर्याउदछ	-12782
▁पुर्याउनु	-12783
▁पुस्तकालय	-12784
▁प्रकृतिका	-12785
▁प्रज्वलित	-12786
▁प्रणालीले	-12787
▁प्रतिबद्ध	-12788
▁प्रतिशतको	-12789
▁प्रत्याभू	-12790
▁प्रथमपल्ट	-12791
▁प्रदर्शित	-12792
▁प्रभावबाट	-12793
▁प्रभावहीन	-12794
▁प्रमुखलाई	-12795
▁प्रयोगउपर	-12796
▁प्रविधिमा	-12797
▁प्रशासनको	-12798
▁प्रहरीलाई	-12799
९५	-12800
नोभ	-12801
हति	-12802
ाइन	-12803
९५६	-12804
▁डक	-12805
▁ाख	-12806
Next	-12807
क्खा	-12808
ज्जा	-12809
ण्डै	-12810
दछन्	-12811
▁अंह	-12812
▁गेट	-12813
▁जगा	-12814
▁पाई	-12815
▁यूब	-12816
▁सेभ	-12817
atune	-12818
ंक्षा	-12819
ष्ठान	-12820
साध्य	-12821
▁केषि	-12822
▁जगाऊ	-12823
▁नरोक	-12824
▁मिली	-12825
▁मिस्	-12826
▁यूबव	-12827
▁लिनै	-12828
हतियार	-12829
▁उज्जा	-12830
▁गेटवे	-12831
▁झण्डै	-12832
▁दुर्ग	-12833
▁सार्व	-12834
gnatune	-12835
कांक्षा	-12836
दाहरुको	-12837
यान्त्र	-12838
▁अनुभवह	-12839
▁असाध्य	-12840
▁ग्लोबल	-12841
▁घटनाको	-12842
▁दुर्गम	-12843
▁देखाइन	-12844
▁पुग्छु	-12845
▁बेलाको	-12846
▁मबाहेक	-12847
▁महालेख	-12848
▁मिस्पा	-12849
▁यूबवेल	-12850
▁सुक्खा	-12851
▁सुत्ने	-12852
▁सेभ्रो	-12853
टवर्किंग	-12854
दिनुहोस्	-12855
बहिनीहरू	-12856
र्यहरुको	-12857
▁अंहकारी	-12858
▁खुवाउने	-12859
▁छायाँमा	-12860
▁जाँदछन्	-12861
▁नरोकिने	-12862
▁महालेखा	-12863
▁लगाइदिए	-12864
▁हामीहरु	-12865
▁आकांक्षा	-12866
▁कामहरुको	-12867
▁किल्लाका	-12868
▁छुट्याउन	-12869
▁जान्नेछु	-12870
▁पुनवितरण	-12871
▁बताउनेछु	-12872
▁मिस्पामा	-12873
▁म्यानुअल	-12874
▁रहेनछन्ः	-12875
▁सर्भरबाट	-12876
क्षेत्रलाई	-12877
नोभेम्बरमा	-12878
प्रतिष्ठान	-12879
यान्त्रिकी	-12880
▁magnatune	-12881
▁न्युयोर्क	-12882
▁प्रतिक्षा	-12883
▁प्रारम्भः	-12884
▁प्रास्ताव	-12885
▁प्रेषकलाई	-12886
▁प्लगइनलाई	-12887
▁फर्काइदेऊ	-12888
▁फर्काईदैछ	-12889
▁फुटाइदिनु	-12890
▁फोल्डरहरू	-12891
▁फ्ल्यासका	-12892
▁बताउँदैछु	-12893
▁बन्दोबस्त	-12894
▁बन्दोवस्त	-12895
▁बसिरहन्थे	-12896
▁बहुसंख्यक	-12897
▁बाँचेकोमा	-12898
▁बाख्राहरू	-12899
रिक	-12900
ुरो	-12901
्डी	-12902
▁टो	-12903
▁लघ	-12904
ड्डी	-12905
ड्यो	-12906
नमान	-12907
र्तन	-12908
सिनी	-12909
हिरो	-12910
▁URL	-12911
▁जेल	-12912
▁टक्	-12913
▁टाप	-12914
▁टार	-12915
▁दुल	-12916
▁र्त	-12917
▁लघु	-12918
▁वेल	-12919
ँगुरो	-12920
थार्त	-12921
वर्तन	-12922
ुनमान	-12923
ौड्यो	-12924
▁टाउन	-12925
▁टापु	-12926
▁टोली	-12927
▁ट्रा	-12928
▁बन्न	-12929
▁लगें	-12930
▁वर्त	-12931
▁साझा	-12932
▁सुपथ	-12933
▁होरो	-12934
nickgt	-12935
ारीरिक	-12936
िँगुरो	-12937
▁कसिनी	-12938
▁खान्छ	-12939
▁गहिरो	-12940
▁दयाको	-12941
▁दुलही	-12942
▁बाँडे	-12943
▁मानमा	-12944
▁सुन्न	-12945
▁सोसँग	-12946
▁हड्डी	-12947
तिमीलाई	-12948
सम्मलाई	-12949
▁अथार्त	-12950
▁अुनमान	-12951
▁टक्सले	-12952
▁टोलीको	-12953
▁दौड्यो	-12954
▁परिचित	-12955
▁पुस्ता	-12956
▁बन्नका	-12957
▁मिलाएर	-12958
▁मोशाका	-12959
▁सुतेकी	-12960
▁होरोनै	-12961
▁किसिमका	-12962
▁ट्राफिक	-12963
▁ठिँगुरो	-12964
▁नियोगको	-12965
▁पोखरीको	-12966
▁राजाहरु	-12967
▁वर्तमान	-12968
▁शारीरिक	-12969
▁उद्योगमा	-12970
▁ओछ्यानमा	-12971
▁प्रभावित	-12972
▁फर्कनलाई	-12973
▁शमूएललाई	-12974
▁श्रमजीवी	-12975
▁होरोनैमा	-12976
▁चाहनुभएको	-12977
▁नाउँनिशान	-12978
▁निर्णयबाट	-12979
▁बाच्नँलाई	-12980
▁बाटोहरूका	-12981
▁बाटोहरूको	-12982
▁बास्सालाई	-12983
▁बिद्रोहमा	-12984
▁बिन्दुलाई	-12985
▁बिरुर्‍मा	-12986
▁बिषयवस्तु	-12987
▁बुट्टाहरू	-12988
▁बैङ्‍ककमा	-12989
▁बोनोबोबाट	-12990
▁बोलपत्रको	-12991
▁बोलपत्रमा	-12992
▁बोलिरहेको	-12993
▁भक्तपुरमा	-12994
▁भनिन्थ्यो	-12995
▁भन्नेबारे	-12996
▁भन्‍नुभयो	-12997
▁भाँचिनछैन	-12998
▁भिकार्डको	-12999
PO	-13000
POI	-13001
जीक	-13002
ब्ध	-13003
ुलो	-13004
▁XM	-13005
▁खर	-13006
...?	-13007
POIS	-13008
·...	-13009
ङ्गल	-13010
जसले	-13011
दैनन	-13012
निजी	-13013
ब्लो	-13014
भिद्	-13015
रहन्	-13016
रितो	-13017
रियन	-13018
रिलो	-13019
र्गज	-13020
लायन	-13021
हिरह	-13022
▁XMP	-13023
▁आलो	-13024
▁आवत	-13025
▁आवह	-13026
▁आव्	-13027
▁गम्	-13028
▁जब्	-13029
▁भखर	-13030
▁शब्	-13031
▁शम्	-13032
▁सिध	-13033
...?>	-13034
PPOIS	-13035
छरितो	-13036
जीकको	-13037
▁अर्ग	-13038
▁गद्य	-13039
▁ग्रह	-13040
▁ठुलो	-13041
▁प््र	-13042
▁बढ्न	-13043
▁र्गज	-13044
▁शम्म	-13045
▁सिक्	-13046
▁सिधै	-13047
▁सिमी	-13048
▁२०२७	-13049
▁२३१५	-13050
=...?>	-13051
कोरियन	-13052
गिरहन्	-13053
ङ्गलका	-13054
जीवनमा	-13055
भाइहरू	-13056
हिरहने	-13057
▁आवहवा	-13058
▁गम्भि	-13059
▁चयनमा	-13060
▁जब्दी	-13061
▁दरिलो	-13062
▁पलायन	-13063
▁बस्ती	-13064
▁यबूसी	-13065
▁वर्षह	-13066
▁शब्दा	-13067
▁शम्मू	-13068
▁सुनन्	-13069
नानुसार	-13070
र्याप्त	-13071
ान्थ्यो	-13072
▁आलोचना	-13073
▁आव्हान	-13074
▁गद्यले	-13075
▁गम्भिर	-13076
▁गिर्यो	-13077
▁चढाउने	-13078
▁दुब्लो	-13079
▁नजीकको	-13080
▁पराएको	-13081
▁माउसमा	-13082
▁शकेमले	-13083
▁सिक्का	-13084
कोरियनका	-13085
▁उद्भिद्	-13086
▁गरिएकोे	-13087
▁त्यसदिन	-13088
▁प््रदेश	-13089
▁बगिरहन्	-13090
▁रहिरहने	-13091
▁र्गजियो	-13092
▁सेवाबाट	-13093
▁ईत्तैबाट	-13094
▁गर्दैनथे	-13095
▁जंङ्गलका	-13096
▁जनजीवनमा	-13097
▁ठान्थ्यो	-13098
▁फर्कदैनन	-13099
'"	-13100
?'"	-13101
इदै	-13102
नोअ	-13103
मकल	-13104
▁MA	-13105
चारा	-13106
नोअम	-13107
लीमा	-13108
ाइभर	-13109
िन्न	-13110
▁लिं	-13111
▁हलो	-13112
इदैन्	-13113
पाउने	-13114
▁उसित	-13115
▁जाती	-13116
▁दमकल	-13117
▁बिति	-13118
▁मुन्	-13119
▁सेती	-13120
चाराधी	-13121
फाइलको	-13122
हीनोअम	-13123
▁छाओस्	-13124
▁जसबाट	-13125
▁बाँधि	-13126
▁भन्दै	-13127
▁लिंदा	-13128
▁लिनेछ	-13129
▁सुनें	-13130
▁हलोमा	-13131
चाराधीन	-13132
त्याउने	-13133
▁अन्यथा	-13134
▁घाटाको	-13135
▁घारीमा	-13136
▁धपाउने	-13137
▁बोलीमा	-13138
▁मुस्ता	-13139
▁लाग्दा	-13140
▁सागरको	-13141
▁सिंचाई	-13142
▁अहीनोअम	-13143
▁ड्राइभर	-13144
▁निस्कने	-13145
▁पुत्रको	-13146
▁फर्केको	-13147
▁मञ्जूरी	-13148
▁मुन्तिर	-13149
▁योजनाका	-13150
▁लेखिएकै	-13151
▁गरिरहेकै	-13152
▁जनगुनासो	-13153
▁टाउकोबाट	-13154
▁दिंइदैन्	-13155
▁बनाउनलाई	-13156
▁लापरबाही	-13157
▁वीरभन्दा	-13158
▁संस्थाका	-13159
▁सम्झिन्न	-13160
▁अपर्याप्त	-13161
▁कम्पनीलाई	-13162
▁कुवाभित्र	-13163
▁दोष्याउने	-13164
▁पत्रुसतिर	-13165
▁बितिसकेको	-13166
▁भक्तजनहरु	-13167
▁भुुक्तानी	-13168
▁भूतहरूलाई	-13169
▁भूमिकालाई	-13170
▁भेदभावबाट	-13171
▁भोगिरहेका	-13172
▁मतवालाहरु	-13173
▁मनश्शेबाट	-13174
▁महापवित्र	-13175
▁महोत्सवको	-13176
▁मागअनुसार	-13177
▁मातिसकेका	-13178
▁मानपदवीको	-13179
▁मापदण्डको	-13180
▁मारिनेछन्	-13181
▁माहाजोङ्ग	-13182
▁मिद्यानका	-13183
▁मुखियाहरू	-13184
▁मुलढोकामा	-13185
▁मुस्ताङ्ग	-13186
▁मूर्तिकार	-13187
▁मृत्युपछि	-13188
▁मृत्युलाई	-13189
▁मोड्युलले	-13190
▁यरूशलेमले	-13191
▁यात्रातिर	-13192
▁यान्त्रिक	-13193
▁यारोबामका	-13194
▁यिनीहरूमा	-13195
▁युवाहरूले	-13196
▁यूहन्नाका	-13197
▁योजनाबद्ध	-13198
▁योजनावद्ध	-13199
नँ	-13200
६९	-13201
▁B	-13202
ओभी	-13203
किङ	-13204
ूली	-13205
६९१	-13206
▁fm	-13207
▁ास	-13208
केरा	-13209
फओभी	-13210
शूली	-13211
ासँग	-13212
ैंले	-13213
्रिड	-13214
▁तके	-13215
▁नलु	-13216
▁पके	-13217
▁मिह	-13218
▁र्ष	-13219
▁वाक	-13220
oston	-13221
त्र्ग	-13222
मैंले	-13223
श्यको	-13224
ष्टको	-13225
ाउँला	-13226
ुपहरू	-13227
ेदीमा	-13228
▁अभिष	-13229
▁कोले	-13230
▁चिनी	-13231
▁तकेल	-13232
▁तहमा	-13233
▁तेरो	-13234
▁पकेट	-13235
▁बस्न	-13236
▁बेगर	-13237
▁याकी	-13238
▁योजन	-13239
क्तिनँ	-13240
क्रममा	-13241
ङ्कहरू	-13242
पाताको	-13243
सरकारी	-13244
स्केरा	-13245
ासँगको	-13246
▁एफओभी	-13247
▁कस्ता	-13248
▁ग्रिड	-13249
▁मिहला	-13250
▁मोडमा	-13251
▁याकीम	-13252
▁योजनः	-13253
▁र्ष्न	-13254
▁वाक्य	-13255
▁विचमा	-13256
▁सबैको	-13257
▁सबैमा	-13258
iansari	-13259
क्रोफोन	-13260
विश्यको	-13261
▁Boston	-13262
▁अभिषेक	-13263
▁ग्राह्	-13264
▁धुपहरू	-13265
▁पस्छन्	-13266
▁पीनमणि	-13267
▁बेदीमा	-13268
▁बैंकिङ	-13269
▁मैदानह	-13270
▁विकासः	-13271
▁विक्रम	-13272
▁सकिन्न	-13273
▁सबैलाई	-13274
▁सलहहरू	-13275
भविश्यको	-13276
रहमेलीमा	-13277
र्महरूको	-13278
ितासँगको	-13279
▁अधिकारः	-13280
▁एल्यासी	-13281
▁केटाबाट	-13282
▁ग्राह्म	-13283
▁फर्काएर	-13284
▁मण्डलको	-13285
▁वर्षामा	-13286
▁सक्तिनँ	-13287
▁सवारीले	-13288
न्दोलनबाट	-13289
बिन्दुहरू	-13290
▁Miansari	-13291
▁उपक्रममा	-13292
▁एल्यासीब	-13293
▁ट्रष्टको	-13294
▁त्रिशूली	-13295
▁बुझाउँला	-13296
▁भविष्यका	-13297
▁लिङ्कहरू	-13298
▁सुस्केरा	-13299
%)	-13300
ool	-13301
▁घत	-13302
tool	-13303
ँध्य	-13304
कासन	-13305
खाली	-13306
चकित	-13307
दूरी	-13308
र्यत	-13309
सकको	-13310
हनका	-13311
ाँचो	-13312
ैजना	-13313
्यौं	-13314
्वान	-13315
▁अरि	-13316
▁घतक	-13317
▁घेर	-13318
▁भरि	-13319
क्सको	-13320
जदूरी	-13321
द्र्ध	-13322
पातलो	-13323
पादित	-13324
बायाँ	-13325
रक्षक	-13326
सायमा	-13327
ह्वान	-13328
ाइसँग	-13329
्यूटर	-13330
▁कुरि	-13331
▁कोर्	-13332
▁गिरी	-13333
▁जोडा	-13334
▁दफा३	-13335
ँध्यरो	-13336
नुहुने	-13337
फाइसँग	-13338
मीसकको	-13339
▁आमाले	-13340
▁खाँचो	-13341
▁डाँकू	-13342
▁विशाल	-13343
प्तीकरण	-13344
▁आह्वान	-13345
▁किर्यत	-13346
▁कुरियर	-13347
▁बस्त्र	-13348
▁मजदूरी	-13349
▁सुश्री	-13350
द्र्धनका	-13351
▁अँध्यरो	-13352
▁काँढाको	-13353
▁कोर्नको	-13354
▁खोटाङ्ग	-13355
▁घेरिएको	-13356
▁दमीसकको	-13357
▁देख्यौं	-13358
▁परिपत्र	-13359
▁पालसंगै	-13360
▁बालकहरु	-13361
▁सफाइसँग	-13362
▁स्वतठीक	-13363
▁अरिरिक्त	-13364
▁खाद्यहरू	-13365
▁गप्तीकरण	-13366
▁दक्षिणमा	-13367
▁दिनुहुने	-13368
▁द्वाराका	-13369
▁निस्कासन	-13370
▁पढ्नहोस्	-13371
▁बोलाइएको	-13372
▁रहेेकामा	-13373
डकारोरुपले	-13374
▁अधिकारहरु	-13375
▁इकाईहरुको	-13376
▁कम्प्यूटर	-13377
▁कम्मरदेखि	-13378
▁बस्त्रहरू	-13379
▁बाह्रैजना	-13380
▁मानिसहरूर	-13381
▁यरहमेलीमा	-13382
▁रहबामसितै	-13383
▁राजकुमारी	-13384
▁राम्रोसँग	-13385
▁राष्ट्रमा	-13386
▁रेखाहरूका	-13387
▁रेफकाउन्ट	-13388
▁रोजगारीका	-13389
▁लक्ष्यहरू	-13390
▁लडखडाउँडै	-13391
▁लाइब्रेरी	-13392
▁लागिसार्क	-13393
▁लिनुपर्ने	-13394
▁लेखपत्रको	-13395
▁लेखिएदेखि	-13396
▁लेवीहरूको	-13397
▁वंशहरूलाई	-13398
▁वचनहरूलाई	-13399
//	-13400
घटा	-13401
▁NO	-13402
▁en	-13403
▁७०	-13404
घटाई	-13405
छिन्	-13406
थियो	-13407
न्धक	-13408
भाना	-13409
यमित	-13410
र्थे	-13411
वादी	-13412
वैले	-13413
सर्थ	-13414
्वंस	-13415
▁end	-13416
▁अवन	-13417
▁आभा	-13418
▁खाए	-13419
▁खुइ	-13420
▁बेक	-13421
▁मेक	-13422
▁रंग	-13423
▁र्थ	-13424
▁सएछ	-13425
▁सबू	-13426
तसर्थ	-13427
दानले	-13428
ध्वंस	-13429
हरहरू	-13430
ाइँदै	-13431
ियोस्	-13432
्वाली	-13433
▁आभास	-13434
▁गाऊँ	-13435
▁जोगा	-13436
▁मन्द	-13437
▁मेकर	-13438
▁सबूत	-13439
▁सोभि	-13440
कारहरू	-13441
भानाडि	-13442
शहरहरू	-13443
ाटीहरू	-13444
ाधिकार	-13445
▁अवनति	-13446
▁कोसँग	-13447
▁खोजें	-13448
▁गरिवी	-13449
▁तर्थे	-13450
▁नखोली	-13451
▁नघटाई	-13452
▁बन्धक	-13453
▁बैंकक	-13454
▁सर्दछ	-13455
भानाडिस	-13456
रहतसर्थ	-13457
▁छ्वाली	-13458
▁जिउसको	-13459
▁जोगाएर	-13460
▁दुवैले	-13461
▁सांस्क	-13462
▁सोभियत	-13463
त्कारहरू	-13464
बरहतसर्थ	-13465
▁अनियमित	-13466
▁अवनतिले	-13467
▁गयोथियो	-13468
▁गर्छिन्	-13469
▁गाऊँबाट	-13470
▁पकाइन्छ	-13471
▁पाटीहरू	-13472
▁बढाइँदै	-13473
▁बेकम्मा	-13474
▁बैड्ढका	-13475
▁मोडेलको	-13476
▁र्थकिने	-13477
▁सिर्जित	-13478
▁स्ट्रिट	-13479
▁स्वस्था	-13480
मत्कारहरू	-13481
▁अबीदानले	-13482
▁खुइलिएका	-13483
▁देखियोस्	-13484
▁पूर्तिको	-13485
▁महाध्वंस	-13486
▁विदेशसँग	-13487
▁समितिलाई	-13488
▁खबरहतसर्थ	-13489
▁निजहरुसँग	-13490
▁प्रतिवादी	-13491
▁प्रभावलाई	-13492
▁बस्नुपर्छ	-13493
▁राजाहरूको	-13494
▁लेखिएकोमा	-13495
▁वन्यजन्तु	-13496
▁वरिपारिकै	-13497
▁वर्षपछिको	-13498
▁वातावरणमा	-13499
ूम	-13500
ीपक	-13501
▁वो	-13502
अधिक	-13503
कपुर	-13504
कृषि	-13505
चनका	-13506
फामा	-13507
वनको	-13508
ायाँ	-13509
ैर्य	-13510
▁अवत	-13511
▁इफा	-13512
▁छोई	-13513
▁दात	-13514
▁नेग	-13515
▁पना	-13516
▁सिह	-13517
क्कसि	-13518
क्सौल	-13519
छायाँ	-13520
पतिले	-13521
▁गरेन	-13522
▁छोयो	-13523
▁ताजा	-13524
▁दातृ	-13525
▁दीपक	-13526
▁पत्य	-13527
▁रहित	-13528
▁रहूम	-13529
▁स्टफ	-13530
▁१९८६	-13531
रक्सौल	-13532
ारिदिए	-13533
▁अवतरण	-13534
▁इफानि	-13535
▁उन्नत	-13536
▁कामका	-13537
▁धैर्य	-13538
▁नीतिह	-13539
▁पनाति	-13540
▁पापमय	-13541
▁भवनको	-13542
▁सचेतक	-13543
छायाँका	-13544
तारिदिए	-13545
प्रान्त	-13546
▁एक्कसि	-13547
▁कामबाट	-13548
▁गर्छौं	-13549
▁छरिएका	-13550
▁जनकपुर	-13551
▁नेगवमा	-13552
▁बेचेको	-13553
▁मोचनका	-13554
▁सोफामा	-13555
▁स्किमा	-13556
▁उत्सवका	-13557
▁खातालाई	-13558
▁पत्याउन	-13559
▁पिउनेछौ	-13560
▁फोटोहरू	-13561
▁राजाबाट	-13562
▁ल्याओस्	-13563
▁विवरणमा	-13564
▁उतारिदिए	-13565
▁उप्रान्त	-13566
▁कुलपतिले	-13567
▁पोथ्राको	-13568
▁फर्काउने	-13569
▁सुम्पिनु	-13570
अधिकृतस्तर	-13571
ालगाउँनेछु	-13572
▁उद्योगहरू	-13573
▁त्रुटिविष	-13574
▁पुजारीहरू	-13575
▁प्रतिनिधी	-13576
▁ब्याकइन्ड	-13577
▁युद्धतर्फ	-13578
▁युवाहरूका	-13579
▁वायुयानको	-13580
▁वार्तालाप	-13581
▁विचाराधीन	-13582
▁विरोधाभाष	-13583
▁विशुद्धता	-13584
▁विश्वसनिय	-13585
▁विश्वासघा	-13586
▁विश्वासमा	-13587
▁वृद्धिलाई	-13588
▁वेष्‍टर्न	-13589
▁व्यतिक्रम	-13590
▁व्यवसायका	-13591
▁व्यवसायको	-13592
▁व्यवसायिक	-13593
▁व्याजदरमा	-13594
▁व्यापारमा	-13595
▁व्रतकथाको	-13596
▁शब्दहरूको	-13597
▁शासनकालको	-13598
▁शासनकालमा	-13599
SA	-13600
तल	-13601
यमै	-13602
शूब	-13603
▁नश	-13604
▁बत	-13605
▁७६	-13606
दापि	-13607
धर्म	-13608
न्यो	-13609
पाँच	-13610
बीको	-13611
सागर	-13612
ेदेर	-13613
▁USA	-13614
▁अवस	-13615
▁कजा	-13616
▁दश्	-13617
▁बतश	-13618
क्षरह	-13619
गल्ती	-13620
दाएको	-13621
द्धित	-13622
यस्तो	-13623
शूलाई	-13624
ालयमै	-13625
▁गीको	-13626
▁चोटप	-13627
▁थिएं	-13628
▁थिएः	-13629
▁नशाल	-13630
▁बतशे	-13631
▁माफी	-13632
▁समतल	-13633
▁२०१४	-13634
▁२०३७	-13635
▁२०३९	-13636
क्षरहु	-13637
धर्मपु	-13638
नास्ति	-13639
शूबबाट	-13640
ेदेरका	-13641
▁उठाएर	-13642
▁कदापि	-13643
▁चापका	-13644
▁देखेर	-13645
▁नशालु	-13646
▁पौषको	-13647
▁फैलाऊ	-13648
▁मित्र	-13649
▁हिंड्	-13650
▁हौसला	-13651
इनास्ति	-13652
कारखाना	-13653
शैक्षिक	-13654
सागरबाट	-13655
▁अवसरमा	-13656
▁आवासीय	-13657
▁कुराका	-13658
▁कुराले	-13659
▁चोटपटक	-13660
▁छोड्नु	-13661
▁दश्मिक	-13662
▁दाबीको	-13663
▁बतशेवा	-13664
▁लदाएको	-13665
▁सुन्यो	-13666
▁हुन्छन	-13667
क्षरहुने	-13668
द्धितर्फ	-13669
▁आधारजसो	-13670
▁कुराबाट	-13671
▁गर्नुका	-13672
▁गेदेरका	-13673
▁डोर्याइ	-13674
▁तीव्रतर	-13675
▁बजाउँदै	-13676
▁मोड्युल	-13677
▁लाभदायक	-13678
▁सहितकेा	-13679
▁बतशेवाले	-13680
▁बस्नेहरू	-13681
▁महत्वहीन	-13682
▁मालिकलाई	-13683
▁मित्रहरु	-13684
▁यहोशूलाई	-13685
▁याशूबबाट	-13686
धर्मपुत्री	-13687
▁अण्डरराइट	-13688
▁कलकारखाना	-13689
▁कारोवारको	-13690
▁गराउनुबाट	-13691
▁दिनसम्ममा	-13692
▁देवमूर्ती	-13693
▁नाइनास्ति	-13694
▁शास्त्रमा	-13695
▁शिक्षकबाट	-13696
▁शिक्षणलाई	-13697
▁शिमशोनलाई	-13698
▁शुद्धताको	-13699
);	-13700
ँलि	-13701
उटा	-13702
टान	-13703
रूब	-13704
ीति	-13705
४५३	-13706
▁इि	-13707
एउटा	-13708
▁अब्	-13709
▁इमा	-13710
▁खटा	-13711
▁दाह	-13712
▁नरू	-13713
▁यहत	-13714
▁रौं	-13715
▁शरू	-13716
▁सोअ	-13717
ँलिदा	-13718
दर्ता	-13719
ोकनको	-13720
▁अङ्ग	-13721
▁अब्श	-13722
▁इिङ्	-13723
▁एकना	-13724
▁कराए	-13725
▁करूब	-13726
▁डोटी	-13727
▁नेता	-13728
▁बौला	-13729
▁भ्रम	-13730
▁रीति	-13731
▁लेखि	-13732
▁सोअर	-13733
▁सोधि	-13734
नागरिक	-13735
▁अङ्गि	-13736
▁इिङ्ध	-13737
▁किटान	-13738
▁तस्तै	-13739
▁थालें	-13740
▁नरूनु	-13741
▁प्लान	-13742
▁भ्रमण	-13743
▁रौंको	-13744
▁साध्य	-13745
क्ँलिदा	-13746
▁अरूहरू	-13747
▁इमान्द	-13748
▁इिङ्धत	-13749
▁खटाएको	-13750
▁चोर्नु	-13751
▁दाह्री	-13752
▁देवदार	-13753
▁नामबाट	-13754
▁निगसले	-13755
▁पृष्‍ठ	-13756
▁बौलाहा	-13757
▁सकेनौं	-13758
▁हुन्छः	-13759
▁अब्शालो	-13760
▁एकनासको	-13761
▁खटाइएको	-13762
▁देवदारू	-13763
▁सासूलाई	-13764
▁सोधिनेछ	-13765
दर्तावाला	-13766
प्रेक्ष्य	-13767
संस्थाबाट	-13768
▁अगुवाइमा	-13769
▁अङ्गिकार	-13770
▁अवलोकनको	-13771
▁उक्ँलिदा	-13772
▁त्यसकारण	-13773
▁दायाँबाट	-13774
▁पुस्तिका	-13775
▁बढ्नेछन्	-13776
▁मुद्दाको	-13777
▁लगेतापनि	-13778
▁लुकाइन्छ	-13779
▁लैजाईनेछ	-13780
▁सेन्ट्रल	-13781
▁गराइएकोमा	-13782
▁चानुहुन्छ	-13783
▁देवदारूका	-13784
▁भन्नुहोस्	-13785
▁शेलेम्याह	-13786
▁शोधनान्तर	-13787
▁श्रृङ्खला	-13788
▁संग्रहहरू	-13789
▁संरक्षणमा	-13790
▁संरचनालाई	-13791
▁संवद्र्धन	-13792
▁संविधानको	-13793
▁संशोधनलाई	-13794
▁संस्थानले	-13795
▁संस्थापना	-13796
▁सङ्केतकका	-13797
▁सङ्केतहरू	-13798
▁सचिवालयको	-13799
वत	-13800
आमा	-13801
▁२६	-13802
भरमा	-13803
यादा	-13804
लन्द	-13805
▁कोड	-13806
▁कोल	-13807
▁कोस	-13808
▁खाड	-13809
▁चाड	-13810
▁दुष	-13811
▁पाद	-13812
▁पान	-13813
▁रत्	-13814
▁सरा	-13815
ंकाले	-13816
वेचना	-13817
सलन्द	-13818
हेमले	-13819
ाइटमा	-13820
▁गरिउ	-13821
▁जावत	-13822
▁ज्वर	-13823
▁तीनै	-13824
▁तोडा	-13825
▁दियौ	-13826
▁देखभ	-13827
▁नपाई	-13828
▁पात्	-13829
▁पायो	-13830
▁पाहा	-13831
▁सराप	-13832
▁स्री	-13833
▁गरिदा	-13834
▁चाडका	-13835
▁ज्वरो	-13836
▁दुषित	-13837
▁पाहाड	-13838
▁पुनरु	-13839
कहरूलाई	-13840
ताहरूको	-13841
लाहरूको	-13842
वसहितको	-13843
▁कतिलाई	-13844
▁खाडलमा	-13845
▁गरिउको	-13846
▁देखभाल	-13847
▁पात्लो	-13848
▁पुनःर्	-13849
▁बोल्नु	-13850
▁मसलन्द	-13851
▁योयादा	-13852
▁रत्नमा	-13853
▁हरूलाई	-13854
ालाहरूको	-13855
▁आशंकाले	-13856
▁गराउनेछ	-13857
▁जनाइनेछ	-13858
▁ज्वरोले	-13859
▁पुनरुत्	-13860
▁प्रशासक	-13861
▁बोनसलाई	-13862
▁भएकोलाई	-13863
▁मनहेमले	-13864
▁रक्षाको	-13865
▁विवेचना	-13866
▁९ःभबकगच	-13867
झावसहितको	-13868
▁अड्डाबाट	-13869
▁अवधिभरमा	-13870
▁उपकरणटिप	-13871
▁गर्नेेेे	-13872
▁दृष्टिले	-13873
▁दोषारोपण	-13874
▁दोहोरिने	-13875
▁पाहाडबाट	-13876
▁प्रतियोग	-13877
▁यन्त्रले	-13878
▁रिपोर्ते	-13879
▁शहरद्वार	-13880
▁हिंडिरहे	-13881
देवताहरूको	-13882
वाहकहरूलाई	-13883
▁flashcard	-13884
▁डालाहरूको	-13885
▁तपाईहरूले	-13886
▁प्रतिबन्ध	-13887
▁वाणिज्यमा	-13888
▁वेबसाइटमा	-13889
▁सञ्चालकको	-13890
▁सञ्चालनका	-13891
▁सञ्‍चारले	-13892
▁सत्ताइसौं	-13893
▁सत्ताईसौं	-13894
▁सत्यरूपमा	-13895
▁सन्तोषप्र	-13896
▁सन्दर्भको	-13897
▁सन्दर्भमा	-13898
▁सन्देशलाई	-13899
EP	-13900
चम	-13901
तब	-13902
TEP	-13903
ग्स	-13904
चमभ	-13905
बेश	-13906
साज	-13907
चमभच	-13908
ड्रो	-13909
तवार	-13910
त्नु	-13911
बूएल	-13912
म्पस	-13913
लाकी	-13914
ैसँग	-13915
्रुप	-13916
▁इटा	-13917
▁मसा	-13918
▁यहा	-13919
▁सेइ	-13920
▁६००	-13921
फ्रेर	-13922
बेशका	-13923
ालसाज	-13924
▁DTEP	-13925
▁उठाइ	-13926
▁कनान	-13927
▁छल्न	-13928
▁तरला	-13929
▁नाहा	-13930
▁भनेः	-13931
▁यहां	-13932
▁रूने	-13933
▁संसा	-13934
▁समसा	-13935
▁सीरी	-13936
▁सेइर	-13937
▁सेला	-13938
▁हन्छ	-13939
कमाण्ड	-13940
▁इचमभच	-13941
▁उपाधि	-13942
▁ग्रुप	-13943
▁तराजू	-13944
▁नाहाश	-13945
▁मलाकी	-13946
▁शबूएल	-13947
▁सीरीज	-13948
▁हन्छन	-13949
तवारणमा	-13950
▁उफ्रेर	-13951
▁जालसाज	-13952
▁तान्ने	-13953
▁पुग्दा	-13954
▁बुझिएन	-13955
▁मसान्त	-13956
▁विगतका	-13957
▁सतहबाट	-13958
▁समसामय	-13959
▁हटाउँछ	-13960
▁अम्मोनी	-13961
▁उठाइएका	-13962
▁काटिदेऊ	-13963
▁टाइटनमा	-13964
▁ठहरियौं	-13965
▁ठेकिएको	-13966
▁तोकिदिन	-13967
▁नम्बरमा	-13968
▁प्रतिको	-13969
▁याबेशका	-13970
▁रहन्छन्	-13971
▁राहेलका	-13972
▁विषयहरु	-13973
▁संसाधान	-13974
▁सीरीजको	-13975
▁हाइड्रो	-13976
▁क्याम्पस	-13977
▁च्यात्नु	-13978
▁ढुवानीको	-13979
▁नाहाशलाई	-13980
▁निवारणमा	-13981
▁पहाडतर्फ	-13982
▁मलाकीलाई	-13983
▁लिनुभएको	-13984
▁समसामयिक	-13985
▁सेलादेखि	-13986
कमाण्डिङ्ग	-13987
व्यवस्थाले	-13988
▁ओखलढुङ्गा	-13989
▁नक्शाङ्कन	-13990
▁बोल्दैनन्	-13991
▁मेजरमेण्ट	-13992
▁राम्रैसँग	-13993
▁वातवारणमा	-13994
▁संसाधानमा	-13995
▁समकक्षलाई	-13996
▁समयसम्मको	-13997
▁समयानुकूल	-13998
▁समयावधिका	-13999
उसे	-14000
ङगा	-14001
फगा	-14002
फूल	-14003
आदेश	-14004
क्सि	-14005
जीगत	-14006
दिने	-14007
फगाफ	-14008
वादा	-14009
्तार	-14010
▁आगा	-14011
▁आफं	-14012
▁केस	-14013
▁धरा	-14014
▁नाय	-14015
▁नार	-14016
▁हाय	-14017
फ्तार	-14018
▁केहि	-14019
▁छक्क	-14020
▁धरान	-14021
▁ध्या	-14022
▁नाका	-14023
▁नारङ	-14024
▁सुनो	-14025
▁हान्	-14026
कादेखि	-14027
क्सिको	-14028
रफ्तार	-14029
वादास्	-14030
िकालाई	-14031
्नेछन्	-14032
▁आगामी	-14033
▁इज्जत	-14034
▁काउसे	-14035
▁गफगाफ	-14036
▁थपिएन	-14037
▁दाङगा	-14038
▁फलफूल	-14039
▁भर्यो	-14040
▁भागका	-14041
▁मोनोक	-14042
▁अड्काउ	-14043
▁आफंैले	-14044
▁बस्नेछ	-14045
▁लाग्यौ	-14046
▁सत्रका	-14047
▁सुनोलो	-14048
▁स्थलका	-14049
वादास्पद	-14050
▁अपांगता	-14051
▁खोल्नका	-14052
▁निर्वाह	-14053
▁पर्ख्यो	-14054
▁हामीसँग	-14055
न्द्रीहरू	-14056
्रीकादेखि	-14057
▁अणुतरङ्ग	-14058
▁गिरफ्तार	-14059
▁चिन्हसँग	-14060
▁बैङ्कलाई	-14061
▁मद्यापान	-14062
▁मेक्सिको	-14063
▁मोनोक्रो	-14064
▁सिलिसिया	-14065
ुक्रेनीलाई	-14066
▁जिम्मेवार	-14067
▁देख्नेछन्	-14068
▁नायिकालाई	-14069
▁निजीकरणको	-14070
▁प्रकारहरू	-14071
▁मोनोक्रोम	-14072
▁रूखहरूलाई	-14073
▁समस्याहरू	-14074
▁समानान्तर	-14075
▁समीक्षाको	-14076
▁सम्झौताका	-14077
▁सम्वन्धमा	-14078
▁सम्वन्धित	-14079
▁सम्हाल्नु	-14080
▁सर्वशक्ति	-14081
▁सहकार्यमा	-14082
▁साङ्गितिक	-14083
▁सामरियामा	-14084
▁सामुदायिक	-14085
▁सिकाइरहनु	-14086
▁सिद्धान्त	-14087
▁सिल्भरलाई	-14088
▁सीमितताले	-14089
▁सुतिरहेकै	-14090
▁सुतिरहेको	-14091
▁सुत्नेछन्	-14092
▁सुधारमुखी	-14093
▁सुधार्नेछ	-14094
▁सुनद्वारा	-14095
▁सुनाउनेछु	-14096
▁सुनेकाछौं	-14097
▁सुन्नुभयो	-14098
▁सुम्पिएका	-14099
घ्न	-14100
चीज	-14101
बाथ	-14102
रीब	-14103
ुनु	-14104
▁“”	-14105
नकोड	-14106
न्ना	-14107
ासाइ	-14108
▁कोइ	-14109
▁मरी	-14110
▁योस	-14111
▁लेट	-14112
▁ुनु	-14113
क्र्ष	-14114
दानको	-14115
देशको	-14116
माउने	-14117
वानको	-14118
ासाइट	-14119
▁आयमा	-14120
▁करीब	-14121
▁नाती	-14122
▁नेपा	-14123
▁भारी	-14124
▁सबैं	-14125
▁सिंह	-14126
▁सिली	-14127
▁सुवि	-14128
▁सेता	-14129
चीजहरू	-14130
त्यहाँ	-14131
न्न्ने	-14132
र्धनमा	-14133
▁इनकोड	-14134
▁कोइला	-14135
▁छाडेर	-14136
▁नपार्	-14137
▁पन्ना	-14138
▁मानको	-14139
▁मार्य	-14140
▁विघ्न	-14141
▁शाबाथ	-14142
▁हाकिम	-14143
क्र्षको	-14144
प्रबन्ध	-14145
ारासाइट	-14146
्न्न्ने	-14147
▁आकाशका	-14148
▁उनीहरु	-14149
▁जमाउने	-14150
▁जाग्यो	-14151
▁ठानेका	-14152
▁धेरैका	-14153
▁नलिएको	-14154
▁नवीनतम	-14155
▁मार्यौ	-14156
▁रहनेछौ	-14157
▁लेटेमा	-14158
▁सुरुको	-14159
▁सेवाका	-14160
▁इच्छाले	-14161
▁चिन्हरू	-14162
▁जेपिईजि	-14163
▁दाबीलाई	-14164
▁नपार्दा	-14165
▁पर्दछन्	-14166
▁फैलाएमा	-14167
▁राम्ररी	-14168
▁हुन्थें	-14169
ाउनुहुन्छ	-14170
▁फाइटरलाई	-14171
▁भित्रिने	-14172
▁योगदानको	-14173
▁वक्र्षको	-14174
▁वासिन्दा	-14175
▁वृक्षहरू	-14176
▁संचालनका	-14177
▁गिदूदेलका	-14178
▁छुट्टीहरू	-14179
▁बाबेलदेखि	-14180
▁शहरहरूबाट	-14181
▁सुरक्षाका	-14182
▁सुरूयाहका	-14183
▁सुरूवातको	-14184
▁सुलेमानका	-14185
▁सुलेमानको	-14186
▁सुविधाबाट	-14187
▁सूचनापत्र	-14188
▁सेटद्वारा	-14189
▁सेनापतिको	-14190
▁सेनाहरूको	-14191
▁सेभ्रोलेट	-14192
▁सोमवारबाट	-14193
▁स्किमालाई	-14194
▁स्क्रिनको	-14195
▁स्क्रिप्ट	-14196
▁स्क्रीनशट	-14197
▁स्थलहरूमा	-14198
▁स्थानीयका	-14199
",	-14200
een	-14201
भुत	-14202
यजा	-14203
याब	-14204
सब्	-14205
ाएँ	-14206
▁bu	-14207
जहरू	-14208
▁bud	-14209
▁जाइ	-14210
▁सब्	-14211
यजाका	-14212
सब्जी	-14213
▁budd	-14214
▁काले	-14215
▁जोडी	-14216
▁टयाब	-14217
▁ट्रे	-14218
▁नामक	-14219
▁पदीय	-14220
▁मेरै	-14221
▁रङ्ग	-14222
▁राया	-14223
▁वहाँ	-14224
▁हरित	-14225
गर्भिक	-14226
बीजहरू	-14227
ष्ट्या	-14228
िकिएको	-14229
▁buddy	-14230
▁कालेब	-14231
▁दशजना	-14232
▁नामको	-14233
▁प्रया	-14234
▁लड्यौ	-14235
▁व्यथा	-14236
▁सब्जी	-14237
▁सरेको	-14238
नीहरूको	-14239
ष्ट्याई	-14240
▁अद्भुत	-14241
▁कर्ममा	-14242
▁खर्चको	-14243
▁चाहेका	-14244
▁डेटाको	-14245
▁देखाएँ	-14246
▁पूजाहर	-14247
▁भराउमा	-14248
▁भागहरू	-14249
▁रायाका	-14250
▁कालेबले	-14251
▁झिकिएको	-14252
▁तोकिदिए	-14253
▁नामावली	-14254
▁फिरऊनकी	-14255
▁रङ्गहरू	-14256
▁रातसम्म	-14257
▁वर्षाको	-14258
▁सङ्कुचन	-14259
▁सचिवकोे	-14260
▁हरितमणि	-14261
▁उनीहरूनै	-14262
▁कार्यसँग	-14263
▁चुरोटहरू	-14264
▁जीवजन्तु	-14265
▁ढुस्सीको	-14266
▁पत्नीलाई	-14267
▁फाल्नुको	-14268
▁भौगर्भिक	-14269
▁राजस्वमा	-14270
▁सञ्‍चालन	-14271
▁अरूहरूसँग	-14272
▁खेतहरूबाट	-14273
▁गाइरहेछन्	-14274
▁देशीहरूले	-14275
▁पुष्ट्याई	-14276
▁पूजाहरीले	-14277
▁फ्रेयजाका	-14278
▁भितासँगको	-14279
▁रीतपूर्वक	-14280
▁वंशभित्रै	-14281
▁सकिन्थ्यो	-14282
▁सेवाहरुको	-14283
▁स्थितिबाट	-14284
▁स्रोतफाइल	-14285
▁स्वतपत्ता	-14286
▁स्वर्गबाट	-14287
▁स्वस्थानी	-14288
▁स्वाचालित	-14289
▁हकवालालाई	-14290
▁हत्तारिएर	-14291
▁हप्तासम्म	-14292
▁हसेरोतबाट	-14293
▁हाइपरबोला	-14294
▁हामीमध्ये	-14295
▁हिर्काओस्	-14296
▁हुँदोरहेछ	-14297
▁हुनसक्दैन	-14298
▁हुनुअगावै	-14299
अल्	-14300
खाइ	-14301
ल्फ	-14302
ेलम	-14303
ैनौ	-14304
▁बब	-14305
प्ती	-14306
यहाँ	-14307
रणको	-14308
ल्का	-14309
हिने	-14310
ृश्य	-14311
▁चरण	-14312
▁नाओ	-14313
▁बढा	-14314
▁बल्	-14315
▁शरण	-14316
▁सुल	-14317
▁१२१	-14318
अल्फा	-14319
दृश्य	-14320
ाइन्छ	-14321
▁कुल्	-14322
▁जोभा	-14323
▁पाले	-14324
▁बढाब	-14325
▁बबूल	-14326
▁बल्छ	-14327
▁भनें	-14328
▁सुलभ	-14329
▁सेतो	-14330
▁हेला	-14331
बापतको	-14332
यात्रु	-14333
▁आमाको	-14334
▁कुल्च	-14335
▁नराखी	-14336
▁नाओमी	-14337
▁निष्ठ	-14338
▁नूहको	-14339
▁पालको	-14340
▁बचतको	-14341
▁बढाबढ	-14342
▁लोकेल	-14343
▁सम्भा	-14344
▁सुन्छ	-14345
▁सुस्त	-14346
▁सेल्फ	-14347
▁हल्का	-14348
कर्मेलम	-14349
त्यस्तै	-14350
▁गरेकोप	-14351
▁घाँसको	-14352
▁दाहिने	-14353
▁नर्खाइ	-14354
▁पाउनका	-14355
▁पालेका	-14356
▁राप्ती	-14357
▁सेयरको	-14358
▁कोठाबाट	-14359
▁क्रूसमा	-14360
▁प्रवन्ध	-14361
▁प्राणले	-14362
▁लडाइँको	-14363
▁व्याजको	-14364
▁सीपमूलक	-14365
▁आयोजनाका	-14366
▁उहाँबाटै	-14367
▁गर्नेछैन	-14368
▁गर्नेहरू	-14369
▁विस्तारक	-14370
▁वेस्टर्न	-14371
▁सुम्पुवा	-14372
यात्रुबाहक	-14373
▁उल्लेखनीय	-14374
▁कुल्चन्थे	-14375
▁गर्नेछैनन	-14376
▁दिलाउँछन्	-14377
▁पाउनेछैनौ	-14378
▁बताउँदैनौ	-14379
▁लाग्नेछन्	-14380
▁विवरणहरूः	-14381
▁सम्मानलाई	-14382
▁स्ट्रिटमा	-14383
▁हुनुहुदैन	-14384
▁हुनुहुनेछ	-14385
▁हुलाकतर्फ	-14386
▁हेतलोनबाट	-14387
▁हेरिसकेका	-14388
▁हेर्नेछन्	-14389
▁हेलचेक्र्	-14390
▁हेलचेत्र्	-14391
▁िवद्युतले	-14392
ServAuthDir	-14393
केन्द्रसहित	-14394
क्षतिग्रस्त	-14395
क्षारोपणलाई	-14396
चुन्जेलसम्म	-14397
ञ्जस्यपूर्ण	-14398
थानसम्बन्धी	-14399
छेर	-14400
डफा	-14401
ल्ड	-14402
तप्र	-14403
पहरु	-14404
भाले	-14405
लहरु	-14406
ल्ले	-14407
ाइने	-14408
▁ट्य	-14409
▁फाय	-14410
▁राइ	-14411
▁राई	-14412
▁स्ल	-14413
ठाइने	-14414
तप्रभ	-14415
धारणा	-14416
नाल्ड	-14417
▁इन्च	-14418
▁कन्छ	-14419
▁छैनन	-14420
▁ठहरे	-14421
▁पर्न	-14422
▁माया	-14423
▁राति	-14424
▁रूदै	-14425
▁लागी	-14426
▁सोस्	-14427
▁स्ति	-14428
क्षीको	-14429
ब्दीमा	-14430
ल्लेरी	-14431
▁कन्छी	-14432
▁ट्युन	-14433
▁तारको	-14434
▁दिन्न	-14435
▁पुछेर	-14436
▁फायदा	-14437
▁बर्णा	-14438
▁बुझ्न	-14439
▁भरपाई	-14440
▁मान्छ	-14441
▁मिसेल	-14442
▁राइटर	-14443
▁लेखको	-14444
▁स्तिफ	-14445
▁स्पर्	-14446
डोनाल्ड	-14447
▁आकारको	-14448
▁भेटिन्	-14449
▁मान्छे	-14450
▁मिलहरु	-14451
▁मूशीका	-14452
▁येहूले	-14453
▁सक्दिन	-14454
▁सम्मति	-14455
▁सुम्पी	-14456
▁सोस्ने	-14457
▁स्तिफन	-14458
▁स्पर्श	-14459
▁स्लटमा	-14460
▁हतप्रभ	-14461
ताब्दीमा	-14462
▁decrypt	-14463
▁अवधारणा	-14464
▁एल्बमको	-14465
▁गराईन्छ	-14466
▁जोडिन्छ	-14467
▁तिनीबाट	-14468
▁नपठाइने	-14469
▁बायाँको	-14470
▁बैङ्कमा	-14471
▁विषयमाः	-14472
▁समूहबाट	-14473
▁सल्लेरी	-14474
▁स्तिफनस	-14475
▁इन्टरनेट	-14476
▁खुट्टाले	-14477
▁ठेगानाको	-14478
▁बर्णाबास	-14479
▁भाइहरूले	-14480
▁यहूदीहरू	-14481
▁साक्षीको	-14482
ष्टि्रपहरु	-14483
▁अहीमासलाई	-14484
▁चारैतिरका	-14485
▁निष्काशित	-14486
▁प्रस्फूटन	-14487
▁शताब्दीमा	-14488
▁शिक्षालयह	-14489
▁संस्थानमा	-14490
▁सुर्काउनी	-14491
▁सुविधाजनक	-14492
▁सुसम्बन्ध	-14493
धार्मिकताका	-14494
नगरपालिकाको	-14495
निर्मातालाई	-14496
पुर्खाहरूले	-14497
प्रत्येकलाई	-14498
फ्रोलोजिष्ट	-14499
GI	-14500
३२	-14501
४०	-14502
CGI	-14503
not	-14504
र्घ	-14505
सेर	-14506
ेरु	-14507
ैसा	-14508
▁औज	-14509
▁पन	-14510
उहाँ	-14511
कटले	-14512
त्ला	-14513
पैसा	-14514
बाटो	-14515
र्घष	-14516
४०मा	-14517
▁CGI	-14518
▁not	-14519
▁जात	-14520
▁पनच	-14521
▁फिट	-14522
▁बात	-14523
चकटले	-14524
च्छुक	-14525
दायाँ	-14526
▁गोली	-14527
▁छरिए	-14528
▁दिपा	-14529
▁बेरु	-14530
▁यापन	-14531
उहाँको	-14532
सस्त्र	-14533
▁अपनाइ	-14534
▁कत्ला	-14535
▁खोलें	-14536
▁खोसेर	-14537
▁गोलीग	-14538
▁चक्कर	-14539
▁दिपाय	-14540
▁पनचक्	-14541
▁परोस्	-14542
▁बिटको	-14543
▁याएको	-14544
▁सांसद	-14545
▁सेटको	-14546
वाहरूले	-14547
▁इच्छुक	-14548
▁औजारको	-14549
▁गर्वमा	-14550
▁दुबैका	-14551
▁नगदीमा	-14552
▁माग्यौ	-14553
▁शुरुवा	-14554
▁संर्घष	-14555
धवाहरूले	-14556
वृत्तिको	-14557
▁अपनाइने	-14558
▁आत्माको	-14559
▁एनगदीको	-14560
▁पनचक्की	-14561
▁वाचकटले	-14562
▁शसस्त्र	-14563
▁साधनलाई	-14564
▁स्थानहद	-14565
ल्यान्डको	-14566
▁कामहरूको	-14567
▁दिपायलमा	-14568
▁मूर्खसित	-14569
▁रोगहरुको	-14570
▁स्वामीले	-14571
▁हामीमाथि	-14572
परमप्रभुको	-14573
▁कारवाहीको	-14574
▁गोलीगट्ठा	-14575
▁छिटोछरितो	-14576
▁तुल्याँउछ	-14577
▁भर्याङबाट	-14578
▁व्यवसायमा	-14579
▁साधनहरूको	-14580
▁हामीहरूले	-14581
बाख्राहरूको	-14582
मध्यमस्तरीय	-14583
मलालापहरुको	-14584
यहूदीहरूलाई	-14585
लासमोइड्सका	-14586
वस्तुस्थिति	-14587
समस्याहरुको	-14588
्नेबेलासम्म	-14589
्योजावलाखेल	-14590
्‍वविद्यालय	-14591
▁NetFailure	-14592
▁अंग्रेजीमा	-14593
▁अत्यावश्यक	-14594
▁अधिकारदिनु	-14595
▁अधिकारीहरु	-14596
▁अधिकारीहरू	-14597
▁अधिराज्यको	-14598
▁अध्यक्षलाई	-14599
दम	-14600
८१	-14601
नाश	-14602
ेशी	-14603
▁>.	-14604
▁खड	-14605
▁३६	-14606
▁५७	-14607
oCon	-14608
तुको	-14609
धेशी	-14610
मीमा	-14611
लावा	-14612
स्वा	-14613
ाओस्	-14614
िमको	-14615
▁>."	-14616
▁कदम	-14617
▁खमी	-14618
▁ममा	-14619
▁हरा	-14620
▁०३६	-14621
oConf	-14622
एकवटा	-14623
देशमा	-14624
मुष्ट	-14625
ेल्वे	-14626
▁खडेर	-14627
▁खमीर	-14628
▁खासै	-14629
▁रहेर	-14630
▁रिभर	-14631
▁लगेर	-14632
▁२०२५	-14633
▁२०३६	-14634
▁२०४३	-14635
धातुको	-14636
रेल्वे	-14637
स्वाहि	-14638
▁अलावा	-14639
▁चिमको	-14640
▁जानका	-14641
▁प्रजा	-14642
▁बाजले	-14643
▁मधेशी	-14644
▁यमीमा	-14645
▁सकेनौ	-14646
▁सर्भि	-14647
▁स्थित	-14648
▁हरायो	-14649
eroConf	-14650
प्रणाली	-14651
रेखाहरू	-14652
▁अड््क्	-14653
▁छलफलका	-14654
▁नपाउने	-14655
▁सर्भिस	-14656
▁हुनुको	-14657
स्वाहिली	-14658
▁एकमुष्ट	-14659
▁खडेरीले	-14660
▁खम्बाको	-14661
▁बाँडेको	-14662
▁बुझाओस्	-14663
▁बोल्छन्	-14664
▁भैरहेको	-14665
▁लिबुस्ब	-14666
▁लुकाएको	-14667
▁सर्वनाश	-14668
▁हाइलाइट	-14669
▁अड््क्क्	-14670
▁कदमहरुको	-14671
▁खमीरदेखि	-14672
▁खर्चबारे	-14673
▁परियोजित	-14674
▁पालभित्र	-14675
▁पुर्‍याई	-14676
▁प्रदेशमा	-14677
▁बगैंचामा	-14678
▁मैदानहरु	-14679
▁रोइरहेको	-14680
▁अधिकारहरू	-14681
▁गर्नैपर्छ	-14682
▁तिनीहरुको	-14683
▁मुद्राकोे	-14684
▁सकेनकृपया	-14685
▁सहिष्णुता	-14686
▁हातहतियार	-14687
▁अध्यादेशका	-14688
▁अध्यादेशको	-14689
▁अन्धाहरूका	-14690
▁अपाङ्गताका	-14691
▁अबीमेलेकले	-14692
▁अभिव्यक्ति	-14693
▁अम्फिपोलिस	-14694
▁अलगोरिदमको	-14695
▁अवधिसम्मको	-14696
▁अश्तारोतको	-14697
▁असन्तुलनको	-14698
▁आदेशानुसार	-14699
RI	-14700
URI	-14701
खेत	-14702
लेप	-14703
षिक	-14704
हाइ	-14705
िकि	-14706
▁FS	-14707
▁ढक	-14708
▁फी	-14709
गतमा	-14710
रबाट	-14711
सेला	-14712
स्तस	-14713
▁जीउ	-14714
▁०१०	-14715
▁आँखा	-14716
▁एलेप	-14717
▁तातो	-14718
▁दक्ष	-14719
▁राशन	-14720
▁लाको	-14721
▁लादा	-14722
▁लाने	-14723
▁लिकि	-14724
▁विमा	-14725
▁आसाले	-14726
▁जगतमा	-14727
▁जस्तस	-14728
▁जानेर	-14729
▁तिहाइ	-14730
▁फलहरू	-14731
▁भाषिक	-14732
▁रून्छ	-14733
▁सकून्	-14734
▁सक्यो	-14735
▁समाती	-14736
कटवर्ती	-14737
डयन्त्र	-14738
▁एप्रोन	-14739
▁छाड्नु	-14740
▁धन्दाः	-14741
▁पोलेको	-14742
▁बाटोका	-14743
▁लाकोयो	-14744
▁समाजका	-14745
▁स्थलगत	-14746
षडयन्त्र	-14747
▁जोड्नेछ	-14748
▁नगरिएको	-14749
▁नातेदार	-14750
▁मुनासिब	-14751
▁लट्ठीमा	-14752
▁लादानका	-14753
▁सुर्खेत	-14754
▁स्क्रिम	-14755
▁तरिकाबाट	-14756
▁पशुहरुले	-14757
▁पैठारीका	-14758
▁बालुवाको	-14759
▁मुक्तिको	-14760
▁षडयन्त्र	-14761
लेक्जेन्डर	-14762
▁जानकारीको	-14763
▁निकटवर्ती	-14764
▁पारिदिन्छ	-14765
▁पुर्खाहरू	-14766
▁रोकिदैनन्	-14767
▁हिर्काउने	-14768
▁आधारसहितको	-14769
▁आन्दोलनबाट	-14770
▁आपसमाआवद्ध	-14771
▁आरक्षभित्र	-14772
▁आविष्कारका	-14773
▁आशीर्वादको	-14774
▁इन्टरनेटमा	-14775
▁इन्टेजरहरू	-14776
▁इस्राएललाई	-14777
▁इस्राएलीका	-14778
▁ईत्तैबाटका	-14779
▁ईश्बोशेतका	-14780
▁उठ््न्न्ने	-14781
▁उत्तरोत्तर	-14782
▁उत्पादकत्व	-14783
▁उत्पादनलाई	-14784
▁उदाहरणार्थ	-14785
▁उद्देश्यका	-14786
▁उद्यमशीलता	-14787
▁उपकरणटिपमा	-14788
▁उपकरणहरुको	-14789
▁उपभोक्ताको	-14790
▁उपसमूहहरुः	-14791
▁उम्लिरहेको	-14792
▁एम्बुलेन्स	-14793
▁एरैयापागस्	-14794
▁एल्यासापले	-14795
▁कन्याहरूले	-14796
▁कर्तव्यउपर	-14797
▁कसुरदारलाई	-14798
▁काँढाहरूले	-14799
यू	-14800
ुफ	-14801
डरा	-14802
म्त	-14803
शमा	-14804
स्म	-14805
▁चै	-14806
▁न्	-14807
▁शत	-14808
▁।”	-14809
डराऊ	-14810
मीदा	-14811
्याउ	-14812
्वार	-14813
▁खेद	-14814
▁खेर	-14815
▁चरा	-14816
▁बिल	-14817
▁ब्व	-14818
▁यद्	-14819
▁हमी	-14820
▁कुने	-14821
▁कुले	-14822
▁खेदो	-14823
▁गूएल	-14824
▁नियं	-14825
▁पीडा	-14826
▁बाग्	-14827
▁बास्	-14828
▁बिटा	-14829
▁भस्म	-14830
▁वशमा	-14831
▁वायू	-14832
▁वाला	-14833
▁िम्त	-14834
एदोमका	-14835
डराऊनु	-14836
▁उत्ते	-14837
▁चैत्र	-14838
▁च्याउ	-14839
▁टाइटन	-14840
▁द्वार	-14841
▁प्रुफ	-14842
▁बाकेर	-14843
▁बास्न	-14844
▁ब्वाँ	-14845
▁विमुख	-14846
▁शमीदा	-14847
समूहलाई	-14848
▁कुलेसो	-14849
▁थिएनौं	-14850
▁देखिने	-14851
▁नलिएमा	-14852
▁पिताको	-14853
▁बाग्लु	-14854
▁भुँईको	-14855
▁मुखबाट	-14856
▁लाइनमा	-14857
▁लोकलाई	-14858
▁हमीलाई	-14859
▁हुँनेछ	-14860
▁अवसरहरु	-14861
▁गराउनको	-14862
▁दिएकोले	-14863
▁दियोहरू	-14864
▁नडराऊनु	-14865
▁पारिन्छ	-14866
▁बैङ्कले	-14867
▁ब्वाँसो	-14868
▁मिलाइने	-14869
▁हाँगामा	-14870
▁उत्तेजना	-14871
▁कागजातका	-14872
▁ज्वालामा	-14873
▁थाल्नेछन	-14874
▁मार्गलाई	-14875
▁मोशामाथि	-14876
▁विच्छेदन	-14877
▁आधारहरूको	-14878
▁टिष्टुङ्ग	-14879
▁डाटाबेसको	-14880
▁डुङ्गालाई	-14881
▁तिमीहरुको	-14882
▁नियंत्रित	-14883
▁निवेदनउपर	-14884
▁पार्नेछैन	-14885
▁बाग्लुङ्ग	-14886
▁बालुवाहरू	-14887
▁सुविधालाई	-14888
▁सेवाहरुमा	-14889
▁हार्डवेयर	-14890
न्हान्गुएरा	-14891
यन्ताहरुलाई	-14892
▁काउन्सिलको	-14893
▁काठमाडौंमा	-14894
▁कामहरूमाथि	-14895
▁कार्यगर्ने	-14896
▁कार्ययोजना	-14897
▁कार्यरुपमा	-14898
▁कार्यालयमै	-14899
28	-14900
आऊ	-14901
५०	-14902
८४	-14903
९क	-14904
ताए	-14905
यका	-14906
८४४	-14907
▁28	-14908
▁do	-14909
▁तँ	-14910
▁वह	-14911
▁६३	-14912
ँनेछ	-14913
आवास	-14914
पर्य	-14915
मगाई	-14916
विमा	-14917
शलको	-14918
८४४६	-14919
▁कडा	-14920
▁कता	-14921
▁कले	-14922
▁कसै	-14923
▁काड	-14924
▁डाउ	-14925
▁नहर	-14926
▁फला	-14927
▁लाज	-14928
▁समझ	-14929
▁साह	-14930
क्तिक	-14931
शिल्प	-14932
िकसित	-14933
ौशलको	-14934
८४४६८	-14935
▁उँहा	-14936
▁कलेज	-14937
▁जमिन	-14938
▁नाति	-14939
▁वहने	-14940
▁वापत	-14941
▁विजन	-14942
▁साहस	-14943
▁३३००	-14944
पर्यटक	-14945
यक्तिक	-14946
[...]
